/**
  ******************************************************************************
  * @file    network_isd170_data_params.c
  * @author  AST Embedded Analytics Research Platform
  * @date    Fri Jan 19 12:54:30 2024
  * @brief   AI Tool Automatic Code Generator for Embedded NN computing
  ******************************************************************************
  * Copyright (c) 2024 STMicroelectronics.
  * All rights reserved.
  *
  * This software is licensed under terms that can be found in the LICENSE file
  * in the root directory of this software component.
  * If no LICENSE file comes with this software, it is provided AS-IS.
  ******************************************************************************
  */

#include "network_isd170_data_params.h"


/**  Activations Section  ****************************************************/
ai_handle g_network_isd170_activations_table[1 + 2] = {
  AI_HANDLE_PTR(AI_MAGIC_MARKER),
  AI_HANDLE_PTR(NULL),
  AI_HANDLE_PTR(AI_MAGIC_MARKER),
};




/**  Weights Section  ********************************************************/
AI_ALIGNED(32)
const ai_u64 s_network_isd170_weights_array_u64[84449] = {
  0xbdba45c2c02a523eU, 0xbdecdef140c7558aU, 0xbf2caa8cbf5d63f8U, 0x3d88d5e74047e897U,
  0xc0ffc935c114e239U, 0xbe0566d8c1117942U, 0xbdb09ac9bcb663abU, 0x3d2ea7c5be793489U,
  0xbdb83825bda5a84fU, 0xbc158875bdef86e8U, 0x3dd2caccbe32a37dU, 0xbd147a8cbe27005fU,
  0xbdf566983d78b743U, 0x3de655b3bde895f0U, 0x3d4197593d8035d2U, 0xbde3ec9abe8380acU,
  0xbdcac5bebe3a81bdU, 0x3ba0b840bced5855U, 0xbe314a17bd257711U, 0xbd7a2f493b2698a7U,
  0xbe2901f4bac65f2aU, 0x3dee64a03c32b6e2U, 0x3cfa3d5dbe3c6f49U, 0xbd4c0adebcc83e3bU,
  0x3c5a11ccba46f624U, 0x3d62fb1dbebd06adU, 0x3daf35f1bdfdc26cU, 0xbd412c38bf0e1464U,
  0x3d8b5f27be40d842U, 0x3c088501bec5db5eU, 0xbe085e873d9221a2U, 0xbdd20fc0bc1625c2U,
  0xbd7ec31e3dbd0d3dU, 0xbd6a6ad6bb58819dU, 0xbdb15af73c50dca6U, 0x3e282105be203270U,
  0xbae44d96bc248ab7U, 0xbd2a8143bda4056cU, 0xbe6172b53d9ba851U, 0x3c748f0dbdadd515U,
  0xbdcd8ca53d9b06a4U, 0x3ccdb82ebd981470U, 0xbedcac8e3f6e8de0U, 0x3e3344433fcb77faU,
  0xbe2fd0473e95c7eaU, 0xbdb0d92d3f9b05a1U, 0x3d7d9bbcbf5b63beU, 0x3cfb67823fb07c78U,
  0xbd26fa53be609badU, 0xbcf6e540be5bafd1U, 0xbe8483cd3d406fa8U, 0x3e1c48d9bd56bfeeU,
  0x3d828ce6ba893ae7U, 0xbde79f85beb0d94dU, 0x3aa96c383d4285ffU, 0x3d2e2edfbe09e0afU,
  0xbe51a513be391900U, 0x3de128d2be6f5036U, 0xbe0f8be63d4c04b2U, 0xbe1359cbbe9777bbU,
  0x3d266546bcd84b3bU, 0x3d411351bdd893a9U, 0xbe4568edbe32e4dfU, 0xbccc27fb3d996621U,
  0x3d146b17be0e98ddU, 0xbcc41e45bd3d0593U, 0xbc8228a9bdbfd971U, 0xbcb624c43df75031U,
  0xbe14aa723daa39d6U, 0xbd2dbe18bdee4750U, 0x3d8783f4bdf425c9U, 0x3d825fdb3dcc3344U,
  0xbf255737bdfdf7d5U, 0xbd281db9bf8633aeU, 0xbe27a6dfbe538517U, 0xbe82656dbf26a25bU,
  0xbed44244bf03c0ebU, 0xbd7c2bddbf8ec0d6U, 0xc0a2553fc0a25eb5U, 0x3eb60358c0ca83aaU,
  0xc0858831c05e2b08U, 0x3ea0cf16c036fb01U, 0xc07ba258c09766c5U, 0x3e839c0cc08ccc8cU,
  0xbe274975be1d2d85U, 0x3dea9ec1bdaddad9U, 0xbdddd162bd8d28f1U, 0xbd94e34dbe743090U,
  0x3de6a7b6bc7a2391U, 0xbd205f4fbe81ac02U, 0xbdf2a90bbe4c742dU, 0x3d36db613d5d348eU,
  0x3d950826be0ac54aU, 0x3cf4bc0dbe0337fbU, 0xbd80906cbe409f5aU, 0xbd989714bc20b945U,
  0xbe00b8d0be86406aU, 0xbc6c193fbe1eb2d7U, 0xbcf34a5abe7fc472U, 0x3b55bcf7bd632bc5U,
  0xbdf686a2bdd01140U, 0x3c04fde8bd4b2564U, 0xbdcf9b48bd484ee2U, 0xbd8af3ef3d75a20bU,
  0xbe136e37bca58b02U, 0xbd128555bda14cb2U, 0x3c0b3a30be090da9U, 0x3dd6540b3dd83fbfU,
  0x3c9a4ffabe30c6baU, 0xbc13a9ad3c8eb33aU, 0x3d163250bc4eeffeU, 0x3ce16f1e3df5f178U,
  0x3db7836bbe1489ffU, 0xbc8979c2bdd54c22U, 0xbd4df098be569b74U, 0x3d3a9602bb69d123U,
  0xbe801e60be5e8309U, 0x3d09ea84be404a57U, 0x3ca15a79be3b6564U, 0xbd9ae50bbe0fcc65U,
  0xbe114379bf052a22U, 0x3e67b3eabf6f1f22U, 0x3e9d5da4be131990U, 0x3e464428bf71e50bU,
  0x3e9552163f03ee24U, 0xbd49d989bf6bfcdfU, 0x3f118e243ef7df05U, 0xbd4c9050bf2ffa61U,
  0xbf0d4c193e53c834U, 0xbd9ff74cbee26f37U, 0xbf91ae393f430c8dU, 0x3e4c5b703f34d9cfU,
  0xbdaff76d3dcce12cU, 0x3d10aacfbe23fd8fU, 0xbe509224bcfcfc81U, 0xbdadcc52bd23190aU,
  0xbe42a2403dbcf36cU, 0x3d6be1b9be642465U, 0xbe3ff7803dafc9edU, 0xbd69c712be313839U,
  0xbd82e676bcefb6caU, 0x3db52f5d3c40be6aU, 0xbd83603abd75f559U, 0xbcfc6e363d322fbbU,
  0xbe263bd6be5e5992U, 0xbd9e2108bd8a8066U, 0x3de4865abd4ebc54U, 0x3d3e5b57bdd84f20U,
  0xbe17f4093d2526aaU, 0x3d29152bbddacb6cU, 0xbc927ed3bca838a9U, 0xbd422931be2b1032U,
  0xbb87bf27bda2bc0aU, 0x3dd4bc8c3d0cc5bdU, 0xbcb6000ebd443330U, 0xbd59eb9f3e012367U,
  0xbddba7b6be247347U, 0x3e2a2ab43d9140c5U, 0xbdee6075bd2d9145U, 0xbe217d3dbe262a6cU,
  0x3db9685cbdff5932U, 0xbc0709f8be314d96U, 0xbe4d5a553d8db6c5U, 0x3bbaf5e2be1a501eU,
  0x3dd69531be302998U, 0xbce078f13da9e63aU, 0x3da8a948be56912cU, 0x3cc43cfbbde14992U,
  0xbe79411dbd8490e3U, 0x3c5fba683d8de2f0U, 0xbda3609c3d5d4d8aU, 0x3d588bbe3d21177fU,
  0xbe3cec2ebd9a80b8U, 0xbd7fa760be17f715U, 0xbe7a6dabbe3e44adU, 0xbdbbe9483d1f9043U,
  0xbe0a2076be590a9bU, 0x3e053d81be27a02eU, 0xbceba013be8fd286U, 0xbd0bd32c3cdbc789U,
  0xbd91b868be0d3907U, 0xbd756b0f3dad0d19U, 0xbd811979be4372fcU, 0x3dd0b7bebe292cc4U,
  0x3dbdff1fbe6dfbceU, 0xbd204e90bc153d20U, 0x3c6aa898be47fa3dU, 0x399374373d935cfdU,
  0xbdca83fb3dcf1597U, 0x3d8bf573be4e9242U, 0xbe0eea8ebdf449caU, 0xbd88fcc63ca4217bU,
  0xbfbef7c9bf6acf84U, 0x3e4a4d5b3f8725efU, 0xbfac1de1bfb6a70eU, 0x3de46784bec7b89bU,
  0xbfe4dc01bfe23786U, 0x3d9568aabf370236U, 0x3e47df283ea1a88bU, 0xbdffbe0e3f5bb28bU,
  0xbf81b6353e2434f3U, 0x3dbe9a783f2c1e83U, 0xbf8866153f31f11eU, 0x3d9f5cad3f88fed1U,
  0x3daecb0ebe187512U, 0x3db5bb7ebee877dcU, 0xbd3afb573d7ccfa9U, 0xbe1fe3c4beb0768cU,
  0xbe6ab02dbd514377U, 0x3d9afe00bea985a7U, 0xbd6c0fa2bde21cc1U, 0x3dd58a9cbcf6a23dU,
  0xbe130ec6bdb43a5bU, 0xbe169b643d552efaU, 0xbdea68053de0dcf0U, 0x3d31d532be042adaU,
  0xbe2806f33d847df9U, 0x3dce3551bd562f19U, 0xbd60f527be1edd72U, 0xbd09c80ebcb43e0eU,
  0x3ca044bdbc2c1c52U, 0xbd862d2fbdefca18U, 0xbe392e4cbd47a812U, 0xbdba0fe23cf8f375U,
  0x3c62fae2bbf88fa3U, 0xbb94d84e3d9d1015U, 0x3d36e50abda5b0c9U, 0x3dc4498a3cd3b615U,
  0xbdb86b6dbe9ad0beU, 0xbd8417a6bcb0e9d8U, 0xbe336063be21d200U, 0xbdc30dffba9677b5U,
  0xbe64c059bd5fbb97U, 0x3e2aef36be3d7d5aU, 0x3cbc2e843d011155U, 0xbd99bc22be37a76aU,
  0x3d272161bdc469c5U, 0x3e0c2475be91cec5U, 0xbd92b703bd42c0f1U, 0xbd6b9bfcbe29e749U,
  0xbfd3a31abfd02800U, 0x3d9e039b3e43d4a7U, 0xbf91c63dbfdbe3d8U, 0x3e845ea5bfa1e8ecU,
  0xbfdce4e3bfc1c00aU, 0x3e0df97bbf9e9d52U, 0x3d5a4d77be12bb13U, 0xbc7e9b1bbcf42b36U,
  0x3dd4c479bde8a174U, 0xbd94502bbe1c385eU, 0xbd2ebae13d28e0e7U, 0x3db5dad1bbbfd8dcU,
  0xbe61bb5cbdc92854U, 0xbd7812fb3dca0d98U, 0xbda56cf3be672aa4U, 0x3db3c212be531b92U,
  0x3d886b92be481c5bU, 0xbcd4cd27bdc94339U, 0x3d0eefc7bdf44b84U, 0xbe3b9de7bde32556U,
  0x3d689ff83d8298a1U, 0x3ddac8d1bd924525U, 0xbd0bff2ebe0fdb9fU, 0x3d9e7403be8ae07eU,
  0xbe52ecd93d380676U, 0x3d7f86323d07ea4fU, 0xbd8e02d13d35fcb6U, 0x3d91b39dbd6de326U,
  0xbe00fd20be22b49aU, 0xbe08bd57be628becU, 0x3dc24b91be00612fU, 0x3c959e5fbe6fc5acU,
  0xbd91e6a83d53a053U, 0xbce5e8bfbe3e2229U, 0x3dafaa51be345663U, 0x3c4c99e2be0e6262U,
  0x3d390a0ebe05709bU, 0xbda24e0bbe0891aeU, 0x3c4bba363d8a7258U, 0x3e1fb21e3d163b5dU,
  0x3d1b6885be6c55dfU, 0xbd945fbbbe6a7db3U, 0xbda2f688bd801bf6U, 0xbdac16cd3da9845aU,
  0x3daf07d9bd4a45c5U, 0x3b3d04cebdcbcabbU, 0x3ce98b3cbe3f395aU, 0x3da4f8f5be4d7236U,
  0xbc21455cbe3f779cU, 0xbd28e3fcbe55ce87U, 0xbe2d1802bdc9b25aU, 0x3e142a6dbe985466U,
  0x3cfaf8f13caccd35U, 0xbdc9ff6abdde032fU, 0xbe2030033dc2f325U, 0x3d5b7a06be5501c0U,
  0x3d4b8b7dbd9ea8d7U, 0xbcedefb9be90b090U, 0x3cf7256dbd1f4f12U, 0xbc9c8564be064171U,
  0xbe9d44dfbe4b5c67U, 0x3e0f05f3be612c98U, 0xbd820a84be29cfacU, 0xbe4a4fa5be7e33d2U,
  0xbd0765a3bd11f128U, 0x3d870d57bd9d00afU, 0xbf4e7678bdd767f3U, 0x3e5018803f3479d2U,
  0xbe2667c33e36f1deU, 0x3e52fde63f8ed8b1U, 0xbf4a7d50bf169e86U, 0x3e7576383f382252U,
  0x3da4a5dbbde2ae1fU, 0xbbb02981be495aa3U, 0xbe42cb41bda70cd5U, 0x3bab5903bdf1af14U,
  0xbe580047be315d76U, 0x3adcab0ebe20c91aU, 0xbe1cfac4bd9a9900U, 0xbd26476c3dff3b57U,
  0xbd262c2cbcb607ecU, 0xbd80a7fdbdde0582U, 0xbd61c9613cc21579U, 0x3dd292eabd3dac29U,
  0xbe3be716bd6b5dd3U, 0x3ca62adcbbe7cddbU, 0x3da522adbe4f2eddU, 0x3d75b1ebbdba9688U,
  0xbe378e8a3db0e461U, 0xbda5fc9abe1e4e27U, 0xbd797ab73d76ffd1U, 0x3c6ca614be736417U,
  0xbcddc0c9be540a6dU, 0x3d3884e5bd8f974fU, 0xbe7e21ce3bbe6b6eU, 0xbd595cf63c9e2ec0U,
  0xbb962c5abb1f8695U, 0xbdcfcd90bce128f9U, 0x3d9090dabe5e33d1U, 0x3e1d31a9be741624U,
  0xbd79860dbe6a78c9U, 0xbd5e849dbe45cdc9U, 0xbe69af3ebe22f4a7U, 0xbc747e4cbe47b61fU,
  0x3c5d8768be05d7e2U, 0xbd502007bc0296edU, 0xbcd455ddbe2c30e0U, 0x3d8c9a87be3cede9U,
  0xbde509cdbe723212U, 0xbba26b25bde1cf88U, 0xbe828e063c17cc16U, 0x3d533ea2be8f7905U,
  0xbe8fae78bea8cb33U, 0xbd3671d6be42781fU, 0xbdb559dd3c10b268U, 0xbe28b3adbd4f1bc4U,
  0xbdfcc588be4047f4U, 0x3d5a9796be3581a3U, 0x3d86434bbdabfa86U, 0x3ded77c5bbf53a54U,
  0xbecbb0913e01e568U, 0xbe57cb213f0f6e7dU, 0x3defa4dfbd39d839U, 0xbe30d5d33f03232bU,
  0x3e36e0d23e25fe95U, 0xbe39d2773f4060f5U, 0xbe44e206be748886U, 0xbd8e26a1be80712cU,
  0xbe9ac0d8be8fa465U, 0xbc00e733be775f6bU, 0xbe8a4dd6bdece65eU, 0x3da3414bbd33737cU,
  0xbd6e46d63cd12e68U, 0xbdc59a3d3b0fec50U, 0xbcabf0aebb92d937U, 0x3d49603d3cf791ffU,
  0xbd2034393d457bbcU, 0x3d483b84bdff4602U, 0x3d86f08b3b418eafU, 0x3ab074f5be20b1a6U,
  0xbe4c32f2be2d0d56U, 0xbd8c8065bd9807a4U, 0x3c377d453cc3d745U, 0x3d94c32bbe90b21bU,
  0xbe129cf340087f7bU, 0xbdbdfd4bbe00bad2U, 0xbe063858bee7fdd7U, 0x3fb7fdd9bdc01c43U,
  0xbe2fde77be44cd78U, 0xbddd9c8abdc45604U, 0xc02166c0bfa1988fU, 0xbace6c97be0706ceU,
  0xbc16d5c5be43f8fbU, 0xbd861e0abd54f9d4U, 0xbf0bda1bbfb0ed53U, 0xbd24dd9bbe4881f7U,
  0xbd8aba09be5855bdU, 0xbdd3260ebcc5c4daU, 0xbddb97e5bde9dfebU, 0xbd00876bbd34b9a7U,
  0x402b8863400ba279U, 0xbacd633dbe9a9e81U, 0xbce5fd31bd1d5a38U, 0xbe386f2ebe0a06bbU,
  0xbd502aa13fcfe335U, 0xbe5e6548bd4c278aU, 0xbd5eea2ebddd2d29U, 0xbd01d75fbdc989f6U,
  0xbe004dc7be028197U, 0x3ef9bdb2be1ab01cU, 0xbcca70a4bd203df9U, 0xbe1590c6bd04c09dU,
  0xbda0a8abbe443327U, 0xbda3dec9bd2e3e36U, 0xbdf05d973f1e4ff9U, 0xbe052dd8bd1bc75fU,
  0x3d26d9e13b9656d0U, 0x3d32d6c93d06cf16U, 0xbd4fe2f03d228902U, 0xbc37500ebd07bd4eU,
  0xbcfbd69bbcdb1060U, 0x3d386e293d20d255U, 0x3b9b7e8dbcc6f6ebU, 0xbaa125c03c6348f0U,
  0x3d25ec57bd067891U, 0x3d20b2e13c80c1d5U, 0xbd35d9413cee5ba7U, 0xbd43747a3c8ae105U,
  0xbca291d23c88e0c2U, 0xbd06a7393d2be787U, 0x3c409b2c3afc3017U, 0x3c223754bc54658cU,
  0xbd6159f7392e3072U, 0x3d0d8cbb3cc96607U, 0xbcf3ec863bd06ebaU, 0x3d050440bcf2b2ddU,
  0xbb4be664bbcf994aU, 0x3b8a7705bd3a9062U, 0x3ce60a1f3c9026ceU, 0x3cee8256bc857c66U,
  0x3d1477acbce58098U, 0xbd0f7800bce423bfU, 0xbd3e7ce5bb910e58U, 0xbcbf83363c2667d0U,
  0xbc8057a8bcdfc5caU, 0xbcc26ba23b0ec6b0U, 0xbd03cfa1bd89720fU, 0xbd5401553c0ab61fU,
  0x3c2738883d30da3fU, 0xbba51100bd1106d0U, 0x3c2db88a3a68b2beU, 0xbc9a8bf03b0488a9U,
  0x3cf737e6bd4da08eU, 0x3cc062a23c8d4056U, 0xbcee4406bca6e679U, 0xbc340bc83c674f8cU,
  0xbca9137a3d072387U, 0xbaa35c403d1eccf3U, 0x3c17fff7bcf5c023U, 0x3bcef6e0bbbe4adeU,
  0x3c1a7be7bd1ccaf9U, 0x3cc4cb323cf7c202U, 0xbc808954bd25ce3bU, 0x3c7a3f3cbd100b68U,
  0x3c62fb263cab1f68U, 0xbca2c487bc89d649U, 0x3cc63b16bca9a12aU, 0x3cf602283a2eda40U,
  0xbceeee3d3cf89232U, 0x3b25acb03bfb9908U, 0x3b5b9098bd132882U, 0xbcf5c8fbba9531ccU,
  0xbd0739483c9f92baU, 0x3ceac3a53d29cf1cU, 0x3d19abf53cb50c3eU, 0xbce935febd23d0c7U,
  0xbd0a789abccfd0c2U, 0xbd2c0202bcabc87fU, 0xbb958400bcf183c5U, 0xbce640d13c5f8462U,
  0x3c8719423ce4e32aU, 0xbb9aa628bd008e87U, 0x3cbefac43bab366cU, 0xbcfe04e13cdc4176U,
  0xbbbb2b483ca848aeU, 0x3d0130973ccdeeeeU, 0xbd0f1af63c387de0U, 0xbba7a5983bd4eb00U,
  0xbce71387bcc50137U, 0xbcd998c8bd00c637U, 0x3d1da3cdbcd64b36U, 0xbbd210e73a739cb7U,
  0x3c912ccd3cd76e7eU, 0xbbb424e03c2739dcU, 0x3c989cae3cce603eU, 0xbcb682db3d0c2a2dU,
  0xbd759a053cb3074dU, 0x3d18ed473c36d571U, 0xbc2917243cb8637eU, 0xbd1f7731bc95874cU,
  0x3bed701c3cec81cdU, 0x3a98eed93d07d0c3U, 0x3caa6f0e3c8a7178U, 0xbcb2e9a7bcd9abdaU,
  0xbd4ac24cbd1f3b2cU, 0x3c0dd66c3d1fdb2fU, 0xbc04bb943cde574eU, 0x3c804bed3cb068c2U,
  0xbb8cfdebbd1b1e63U, 0xbc9a81f43c0b0554U, 0xba3eb800bd403d6dU, 0xbd0f373dbc4b9458U,
  0x3cb85d26bce7349fU, 0x3c09f8d4bc18faeeU, 0xbd15d320bca1e8b3U, 0xbd8001b0bd1e0623U,
  0x3ca71aaebb771493U, 0xbd2726d2bb990bc8U, 0x3d23f8ebbc820258U, 0x3d046357bd3ac98fU,
  0xbcc0667dbc372c8cU, 0xbd08249abd4c047bU, 0xbd9a4fb83c0acfeaU, 0x3b7329503d2575dcU,
  0x3c1d177fbd1053a5U, 0xbafe0f003d0427d9U, 0x3c2b2e94bd4083c0U, 0x3c212e483a0fef7fU,
  0xbd994f8fbd06ca64U, 0x3c1dbdb8bcd0240cU, 0xbd3b3f2bbcf26315U, 0x3d0c7615bd0c8e59U,
  0xbcd63b48bd30a0f8U, 0xbd37c9643b0e2fb0U, 0x3cd497713d31f5c3U, 0xbd248a20bcbac5bfU,
  0xbc8be2dabd39e88bU, 0xbd472e04bd1275a9U, 0x3bbf2228bcbd5b8cU, 0x3c9c83cd3bcee928U,
  0xbc8f726fbd2f2307U, 0xbbcfa5dbbd0c8dbfU, 0x3c849362bb7a452fU, 0x3c8076c53c59d224U,
  0x3afe3e403cadcebaU, 0xbd2d84b9bb28e300U, 0x3ce77fbe3d290b22U, 0xbc95cfa5bd2bdd3dU,
  0xbbe33810bbb3440cU, 0x3cc5d952bb956a48U, 0xbcc9abd9bc79b4fcU, 0xbcd6602ebc77eb6cU,
  0xbd1d60e63c414754U, 0x3c82b07d3bfa1a71U, 0xbd31092cbc219055U, 0xbd3438d63ca48aafU,
  0x3c868725b91d7b00U, 0x3a76e340bac426e0U, 0x3ccf680abc1db82eU, 0xbd2a142fbd388183U,
  0xbd92f6ea3c864469U, 0xbd3fc5953bc0faddU, 0x3d349f993b19b205U, 0x3ce5f04b3d327fbdU,
  0xbcce0ea8bc9e1324U, 0x3ca3d6103b56db70U, 0x3caeba49bcca3a5cU, 0x3cab82533d0a3641U,
  0xbcde13fb3c184128U, 0xbcdb230dbd2513b8U, 0xbd0fa2493d220b93U, 0xbb0558403d3f80cdU,
  0x3c7acd963ac51a8bU, 0x3cb757c2bb3da0a0U, 0xbd1ecda83b63cd10U, 0xbd14e814bcd5d860U,
  0x3cf3dceebd1ae030U, 0xbcd4174ebcbf275eU, 0x3c243fb83be36a3aU, 0xbcabe8fabcf0aac2U,
  0xbcc3f3fd38e3ef1fU, 0xbd069ee23ca87ee2U, 0x3d112551bc664870U, 0xbce279513cf7322aU,
  0x3caa0bce3c91950aU, 0xbc853c81ba5518bbU, 0xbd4ea86a3c0e0928U, 0x3cb170283b3c4990U,
  0xbd2d16fb3c57011cU, 0x3d418137bd248ef4U, 0xbcdaf4823cf1020aU, 0x3c80c20aba98760aU,
  0xbbab117ebc457dc1U, 0xbd1f67ae3d27eb9cU, 0x3c7484103d22a380U, 0xbd2a95e6bc36ef98U,
  0x3cd7d4bebd12304aU, 0xbd558da8bd405743U, 0xbb2cc48cbd3b49e7U, 0xbcf49b75bae5d86fU,
  0x3bdb6294bc1d2390U, 0xbc1f144bbd4d6022U, 0xbc63f5e8bc213578U, 0xbd3d8f7fbbe51378U,
  0xbc9419a63d1ff1deU, 0xbd0aeb853bf1c9d0U, 0x3c7350683b849778U, 0xbd0547993c855b0eU,
  0xbd33707a3d30cc53U, 0x3d223905bcd27167U, 0x3be519cbbcf9846dU, 0xbd2b5c38bcd49cd9U,
  0x3c0cec283d235876U, 0x3d0e9b173d08e317U, 0x3ca1df223c7b8b44U, 0xba1a8a40bcd1e215U,
  0x3cc6afca3d2ef2adU, 0xbd00aabebd2ed227U, 0xbd10e590bb22bb1eU, 0xbd1184d23bb46033U,
  0xbcfc186dbcdc1e3aU, 0x3d2093593c54fff0U, 0x3c24a8f4bc93ba02U, 0x3c11b24c3bfba7f6U,
  0xbd30dc8abc6a7870U, 0x3c7c09143d09e743U, 0xbc88250c3c8da48eU, 0xbd1be7adbba70a88U,
  0xbd1978363cd33ca8U, 0x3b5cd3ad3c8c73b6U, 0xbd3875063d39066dU, 0xbc09ca053b00bf19U,
  0xbc867ff7bd364635U, 0x3d0670193c85740bU, 0xbc9edb41bcadd327U, 0xbd1caeda3d39fbedU,
  0xbd208b59bc869a9eU, 0x3cedd70e3d08ea25U, 0x3d154043bd4e344aU, 0x3cf1d820bcc61ca4U,
  0x3b1e28e03ace89e0U, 0x3d1afee7bce92bc9U, 0x3cd996c4bcaed239U, 0xbcb68049bd0a4ee8U,
  0xbc4980bf3bc4a673U, 0x3d09ed4fbd3520d6U, 0xbd3a53cebc90d1e0U, 0x3ceaed86bce56caeU,
  0x3bc4ad983d1a7ab7U, 0xbcf2bc06bcade6eaU, 0xbd39132c3d22045cU, 0x3ce5fb803ccddfcaU,
  0xbcc963fbbc9b8cadU, 0x3c4c1888bb910d38U, 0xbc4266ac3c2ab914U, 0x3b74a0603c32aba8U,
  0xbd951199bbdd35bcU, 0xbadc90e03d1c7617U, 0x3ccb2ff6bc9996b3U, 0xbce8d05038cd9000U,
  0xbb1dc7c03ccf9976U, 0x3b069d2ebb53cf90U, 0xbd33917a3caa6412U, 0xbb956c9c3cab043aU,
  0xbbcfe7ac3c6a4584U, 0xbbe7b5ac3c88aff7U, 0x3ce7b556bc7386ecU, 0xbc27672fbc7ca964U,
  0xbd1198643caca866U, 0xbd387a50bc6d4e3cU, 0xbc9de1b3bd5cbcb3U, 0xbd3ca0d93c7c29c4U,
  0x3ce964a63cbcd392U, 0x3cc1aa6e3c89bb11U, 0xbd4dc199bcd44eeaU, 0x3c4904c23cef77feU,
  0xbd13f90dbcfbdff5U, 0xbc917405bb321670U, 0xbcc151473cb091faU, 0xbb3906e0bd378d8fU,
  0x3cba09563d03e23fU, 0x3cdd892c3d211519U, 0x3c2191f33c8a9b38U, 0x3c87c664bd2824a0U,
  0xbcb80c1b3d1fde8bU, 0xbc1238b4bc534248U, 0x3cfb453abc9a5266U, 0xbaebd5c0bd250090U,
  0x3c73c1a4bd3ee30dU, 0x3d1b477dbd37023aU, 0xbc885cf13be68d93U, 0xbb4c5a16bd1d87d7U,
  0x3b35971ebbf57d19U, 0xbd011720bbb10560U, 0xba8f68af3be7a670U, 0xbd130b863cf94b15U,
  0x3bc958debc605298U, 0x3cadfdbd3ce89b41U, 0xba7c3280bd1f175cU, 0x3d36240fbd11d644U,
  0x3a41bb9ebca0373dU, 0xbc3fcafc3c880f5eU, 0xbcfa710dbd70a18eU, 0x3d22e14a3cd1ec2aU,
  0x3cc192babcc859f8U, 0xbd02c09bbd540717U, 0x3c6b02113d12b101U, 0xbd9d55113cbd6463U,
  0x3cac4407bcd7d4d4U, 0xbcd76304bcc127b9U, 0x3c8c56e6bd07f279U, 0xbb009210bd197a0eU,
  0x3c66421cbc4ab820U, 0xbd3bb5ce3c49ab7cU, 0xbce684febd197d92U, 0x3caacb72bd180628U,
  0x3d006796bd0fd825U, 0x3d2b07c53d397907U, 0xbca8cfde3cbd4c0fU, 0x3bfb5698bcd6713dU,
  0x3c03cf74bd14f167U, 0x3c51aa74bba290daU, 0xbc860cabbcdc9a7cU, 0xbd00ec453c54e06cU,
  0xbcf3fb413c370567U, 0x3bed42c4bbeaec78U, 0x3d169b69bd0294cfU, 0xbd1814a2bb1769c4U,
  0xbc861ecf3cca7596U, 0xbc06c49abcfbdcf2U, 0x3cc396363c83083aU, 0x3d11b0093d401aa3U,
  0x3cc1decabd525928U, 0xbcf649543bcd9548U, 0x3d29e89dbd1cfdedU, 0x3d09e5f9bcddfb44U,
  0xbd2b8657bd04dca2U, 0x3cb88b4a3cbc2555U, 0x3ce4e7e1bb312effU, 0xbcf32d40bd45cab8U,
  0xbccfd18e3aab83bbU, 0x3cd5768ebb7051d0U, 0xbd06a742bd2c3a04U, 0xbd1e51d43cdf0fdeU,
  0x3b7b12f0bcc986daU, 0xbd2d645fbd412957U, 0xbce1c09c3c9f0e2dU, 0xbc4891c4bc3c22ebU,
  0xbc625bc1bd40f3b2U, 0xbc2d0b303d380e01U, 0xbd0ec4eebc6f957dU, 0x3c10936c3d186e35U,
  0x3c3f7694bcaf8238U, 0xbc2c2a34bd30d066U, 0x3d3a0491bd403900U, 0xbc1c6da43ccb58beU,
  0x3bb9e2fdbd389055U, 0x3d045576bc83e99dU, 0xbb0813f2bce8c972U, 0xbcbec0853c9957f0U,
  0x3d16f981bd31701aU, 0x3c684f47bc907d66U, 0x3ccd3ec6bc92d387U, 0x3c2628acbc300c28U,
  0x3bf0408b3d23192cU, 0xbd38ca733cd09a32U, 0xbcf1f189bc3cc848U, 0x3cfe6aef3cf993e6U,
  0xbca20c0fbba74030U, 0xbc01f1383b6245a4U, 0xbce048b33cd33100U, 0xbd2a84cebb0d700cU,
  0xbc0ca6f83d2a13f7U, 0x3d3bd9873c91377aU, 0x3c73ae84bd171c0cU, 0xbd1f6260bab53400U,
  0xbd407e95bc079358U, 0xbcdb2c363c0bc825U, 0xbba401a0bcce5525U, 0xbd2718acbc92ebe3U,
  0xbd43de173cc92187U, 0xbcdcc43fbd19cd9fU, 0xbc682968bc804464U, 0xbcaf6ef13c22d578U,
  0x3c83f596bd3de011U, 0x3c9e11e6baa55cf9U, 0x3c14a3ac3cc9c325U, 0xbb58cee4bca5b15fU,
  0xbd14a07bb99ade5fU, 0x3ced6f863d179ea9U, 0xbc88b20f3d15377dU, 0xbcd90274bc80a7f2U,
  0xbd37630c3d239389U, 0x3c30f5593c4d19ceU, 0x3bdf5378bd025883U, 0xbccc44783d38733fU,
  0xbc57fe833cc09e62U, 0xbc93ef1d3cd16b96U, 0xbc4defacbca505cdU, 0xbb994e8b3cfad99dU,
  0x3d2e5c293c9e889eU, 0x3d0a695bbcb631aaU, 0xbd4cf1a9bd16ecdcU, 0xbcd9f2efbc086addU,
  0x3cbf8f06bce73e31U, 0xbd3a9b15bd2724beU, 0xbd12cc34ba981560U, 0xbd3b012ebc6ecc58U,
  0x3b71f680bd343b87U, 0xbd37bf3dbc231278U, 0xbbe87838bd9f7104U, 0xbd39ad583cf855a3U,
  0xbc878586bd5507d8U, 0x3bd4f4a83d26b17dU, 0x3c0f48143c48c89cU, 0xbd32a0b43d1b3d65U,
  0x3d081337bcd4999bU, 0xbb57df503cdcfee9U, 0x3c23ac883bbbd700U, 0xbc8202ddbd21c96eU,
  0x3c01763f3c9a3aa1U, 0x3d12fec5bd25377dU, 0xbd40864abcd54f87U, 0x3d291bf8bd38e38cU,
  0xbca4303a3c8e999aU, 0xbcb11a2d3cfdeae1U, 0x3c3064a4bc1df1e0U, 0x3c4579c83d3304dbU,
  0x3cde8f1f3d158693U, 0x3d243d70bc50475cU, 0xbd1102d8bd8c5e45U, 0x3b239a03bd28224bU,
  0x3d116eebbb3c5550U, 0x3cda7f0a3d1be6d5U, 0xbce50b6dba24610bU, 0xbda646f93cea6367U,
  0xbc1a4168bcd465eeU, 0x3d39abc9bd217359U, 0xbc97294dbcc34460U, 0xbc49fc00bc0295c8U,
  0x3d07533bbc350958U, 0xbcc0d96fbafcb00eU, 0xbcd52f3cbd256c2aU, 0xbaaee300bd1ce372U,
  0xbc937461bd26f9d4U, 0x3d1f41d93bd17998U, 0x3bdd3cf0bbb2d525U, 0x3cb2f99a3c717cdcU,
  0xbbdc95f8bd4f6943U, 0x3d1b6b33bccf7454U, 0xbd2ccb18bc5f767cU, 0x3c209dd23c9cd7deU,
  0xbc2c107cbc23d765U, 0xbd4cdd753cc55336U, 0x3d1a183b3cad2de4U, 0x3b5a80efbbfdc945U,
  0xbba4e4f03c3e1a00U, 0xbca3aa89bcbaf684U, 0xbd295005bd21379eU, 0x3c9f4effbb8204f8U,
  0xbd02e3f6398cf50cU, 0xba4b8673bc884129U, 0xbcfb2a0abc1eafa0U, 0x3c93e2513d132dbbU,
  0xbc35fc6c3cf732aeU, 0x3b4eaeb0bd01ba88U, 0xbc46b8e93cfca250U, 0xbd44a8c6bc075293U,
  0x3c0fda82bc705c3dU, 0xbc127b683d02a2d3U, 0xbc82e8863cdeff36U, 0x3cae3f823c639328U,
  0xbc2c74e43c1f9a94U, 0xbd55479e3cad3365U, 0x3c6fc0d23caa37fdU, 0xbd2df22d3c8d8e42U,
  0xbc5c11383c89db2eU, 0x3c0487503c7d5a0cU, 0x3c154c0cbc2b236fU, 0xbd3c5140bcdd510aU,
  0xbd33c941bd226b58U, 0xbcc5d486bcf06d44U, 0x3b74aa90bd331a0eU, 0xbc8570623cc3bc9eU,
  0x3cf8861e3b022764U, 0x3c94bd0c3caa674eU, 0xbd0ef2303c86bc9eU, 0xbd09444dbd2795dfU,
  0xbcf7f2cd3c9d99d2U, 0xbd53ae1f3ce25f5dU, 0x3ccb2c2abc753eecU, 0x3d102af5bc0eba4cU,
  0x3c36baf2bc8b0d82U, 0x3c6a60cdbc05a0f4U, 0x3bb700c8bd0594bcU, 0xbcca46173ca25542U,
  0xbb35e9303d10c097U, 0xbc72e1183cc8d74eU, 0xbce9f355bcdbfc3fU, 0xbccd3a8c3c42616bU,
  0xbd0fe64ebb41354bU, 0x3cc26f16bd413e36U, 0x3d18dc80bc8a7d90U, 0x3c4a24883ce9995eU,
  0xbd1e7f9ebd366704U, 0x3cb83464bcf7f43bU, 0xbcfdcc8d3d0ef8b5U, 0x3b2d8bc53d120ba1U,
  0x3cc40696bb8aec34U, 0xbd24cd81bc98327eU, 0xbce9750abd1dede4U, 0x3bfad9f83b1264e0U,
  0xbd6ac2fbbd29c16cU, 0xbcf62d40bc10d3eeU, 0x3d204d693d15d3d8U, 0xbc6478813d05796dU,
  0x3cd75112bd1c9259U, 0x3c332570bca74754U, 0x3c835bbb3d2c8052U, 0x3d1f4706bd485cf5U,
  0xbc952f1a3d0af7afU, 0x3b313b53bc870801U, 0x3ba053583d21e307U, 0xbc6d0108bcd74075U,
  0xbb0935bcbd37ce5bU, 0x3c8a5acdbca6610dU, 0xbca7f09cbcc330adU, 0xbcaf7a523d39b411U,
  0x3d36311dbd31762cU, 0xbc7834383bae5c2fU, 0x3bb81e223c5fe9acU, 0xbd5fb5a1bcdb93e7U,
  0x3c070bd8bc6ac0a2U, 0xbd220596bd18121aU, 0x3cfe68eebd15b6e8U, 0x3d21719dbc911bacU,
  0x3d37c7e5bccd1e46U, 0x3d0673a73cc67242U, 0xbd0a2ee03c8b5b59U, 0xbd1146f63cf056feU,
  0xbd150814bbb5bbaeU, 0x3c8b4bf63cf321a2U, 0x3b4b07a03c8903c2U, 0x3d0fef953c2d5fa8U,
  0xbc47642fba4738c3U, 0xbd2f0731bc142655U, 0xbd11a43f3cd6deeaU, 0xbcbaeb93bd3f155eU,
  0xbd35bef63ce89a8dU, 0x3d038ec03d3cff07U, 0xbbb3b4073d2d30fdU, 0xbc0c3333bcffb148U,
  0xbcd3da1d3cf7c7d2U, 0x3bf3205e3c30acf6U, 0xbd22194c3c4c7a90U, 0xbcf504c3bc495598U,
  0x3caefbe5bcf0cc12U, 0x3c3efe1b3d0b3fbbU, 0xbc940810bce82183U, 0xbaa47a973c08743cU,
  0xbd32efc53cbba30aU, 0xbbbd12b03d1556deU, 0xbbf12a62bcff5450U, 0xbd877d033d1c9850U,
  0x3d0d1b87bd5549d9U, 0xbc7e6218bca19518U, 0xbd217d5abc3f46d0U, 0xbcc253063d358557U,
  0x3d29f36bbcd95f55U, 0x3cd098fabd4bec38U, 0xbd641fdcbcd4de22U, 0xbd16d6f7bc952d91U,
  0x3d002cfc3ce1a83aU, 0x3ca9be4abd1ca3fcU, 0x3d3a0507bd34894bU, 0x3d0459b5bce0178bU,
  0xbbdb0d8ebd20f3dbU, 0xbd15d0fdbc292acfU, 0xbd173568bca115b8U, 0xbcb105403ccddf3eU,
  0xbca27481bcf326eeU, 0xbce5d35f3cc07b52U, 0x3cc08b463d0f05b9U, 0xbc190e0c3cadc348U,
  0x3b8303753bd61ee0U, 0x3cf308cbbca10939U, 0x3c3e81fc3ad149a0U, 0x3d0de9b9bc216750U,
  0xbd49cc54bd299260U, 0x3d0f04e9bc9e63d7U, 0x3d37690dbc7b9ed4U, 0x3bcb9fd23bdd9718U,
  0xbd20685dbc430828U, 0xbd32a0d2ba920bbfU, 0xbcaca4143c28f537U, 0x3b4231ee3d2d485fU,
  0xbd1f09cabba5a59dU, 0x3c3c3070bd13942cU, 0x3cc6ebe53ceed1caU, 0x3d3c6f5b3c8b84a2U,
  0xbc6b0a58baebd6e0U, 0xbc01d79c3cd920f9U, 0xbd6f69ffbc619380U, 0xbc828c5cbc698949U,
  0xbc24ad19bd1fc05eU, 0xbcda0ac9bbc9a5d0U, 0x3d0eaac3bd347110U, 0xbcc632c13b8d9180U,
  0xbbdc87b33c2c0c8bU, 0xbb8f8cd0bc9f9170U, 0xbcfd0536bd496c15U, 0x3be22dffbd138d06U,
  0x3d15a16fbd4a1f63U, 0xbd4264603d323d93U, 0xbcaab9c43c81fc82U, 0x3cb1d8c43d0664f4U,
  0x3cef09fe3cfcf292U, 0xbd43896ebce689bcU, 0x3c33d8e43ccfb9e9U, 0xbb49c3acbd20ea47U,
  0x3ccc4202bc14416fU, 0x3cd9e99a3d308a15U, 0x3cefd38abca0742aU, 0xbc3c1d8b3d141683U,
  0xbbce0df03b967dd0U, 0xbc69fbf43d0179c3U, 0x3ced8429bcde58cdU, 0xbd2f5c643d02f56dU,
  0xbd094f9ebd002109U, 0x3d0663d13b7bf9e0U, 0x3d22b110bccc0cd7U, 0xbbc5f6b8bd110112U,
  0x3cef64b23cf27c9eU, 0xbd0c78bdbcc2d51bU, 0xbd4544733ce05470U, 0xb8b77c593c9cde9dU,
  0x3c93e4203ca0cf42U, 0x3d20b863bd1793bcU, 0xbccc74663c4df833U, 0x3cd6700ebd3cb3f5U,
  0xbbc27a4a3d0cd373U, 0x3b1add70bd169936U, 0xbc3f9654bd2ef0b2U, 0xbd122ab2bccb1490U,
  0xbd2a4d51bcece1e1U, 0x3b850aebbc05cfabU, 0xbc08256c3c67ebccU, 0xbcfb59603c33673cU,
  0xbd150b3bbcaf14fdU, 0xbc0d81e5bb2eb5e1U, 0xbc06730c3d088e60U, 0xbcc4b341bb270b40U,
  0x3a4a5d103d1c73cfU, 0xbcd45821bd05788bU, 0xbc789948bcb39377U, 0xbd43b5513d12f13bU,
  0x3c701858bcf1a90fU, 0x3ceb79f63c39b3d8U, 0xbd2f03dcbc1a1602U, 0xbd56c2b93c1ae2c8U,
  0x3c5063dc3d27a6b4U, 0xbcda329d3c8ca83aU, 0xbcb772c0bd3b8140U, 0x3d250eedbca08220U,
  0xbc15ffb83c6ceae0U, 0x3cdfb5583cd9489fU, 0xbd373e06bc49147aU, 0xbc6393ea3c8a62b7U,
  0xbca1c745bbdf0298U, 0x3cb727ba3d3db671U, 0x3c323afe3d15c8c1U, 0xbd24c3223cee0229U,
  0xbb43c3dabc540470U, 0xbd14d7fe3d0a30f8U, 0x3d28f9173cd44a33U, 0x3cb7e4bdbd04f87fU,
  0xbd0cdda0bc05025dU, 0xbb8512d5bc41d9d3U, 0x3d23674fbd2c8f24U, 0xbc366ff53b23005dU,
  0x3d233d7d3c0a32fcU, 0xbc814df7baf1177bU, 0xbb212ef0bd3dbb6cU, 0xbd32041c3cf4540aU,
  0x3c0c033c3d03a845U, 0x3cb6af6c3c9d76caU, 0xbc911e63bd0c5bf6U, 0xbd1f855a3d263669U,
  0x3a8b5ec0bd2a6a9fU, 0xbc807ad83c942baaU, 0xbc92fa94bc5311b7U, 0x3acf6b33bd311490U,
  0xbcfb18d8bcc8f287U, 0xbcbf248e3c28977cU, 0x3ac83b4e3b2a1c80U, 0xbd0e78bebc862353U,
  0xbc19c22cbc346c94U, 0x3cc9fc663b97b78dU, 0x3ada2aa0bccf19cdU, 0xbd2dd8cfbc2f2094U,
  0x3cac0fe7bc928256U, 0xbd2fa375bcbd1001U, 0xbd3d0225bd11ebc6U, 0x3c9379f2bc964941U,
  0xbb849204bd48cda9U, 0x3d0c22953ca896efU, 0xbd1ca1ecb9cea6e5U, 0xbc1f734b3cadab5aU,
  0xbbc90e40bd2cd30bU, 0xbcb1fd04bb98c534U, 0xbcd97af4bb983688U, 0x3d08788bbd4d46c2U,
  0xbae96d60bb50c0c0U, 0xbbc8025bbd3d178aU, 0x3d3072433d114dbaU, 0x3c0350343c704228U,
  0xbd03bf18bcceb1c6U, 0x3c289d43bd2d28ffU, 0xbcf795133cfb182aU, 0xbca5f5d73a99ec40U,
  0xbd1e40bf3cebc19aU, 0xbc6c56003c2422ecU, 0xb9fa937d3bffbe6aU, 0xbd7a29ef3d34b327U,
  0xbbb4fe483c91b0a5U, 0x3cb2a596bbbc6490U, 0x3c9f15de3d210e37U, 0x3af38760bd19a2bfU,
  0xbcb164f93c5b2508U, 0x3c9cee0abd4918ffU, 0x3a74e9803aba2b6dU, 0x3cf04c933cee52dcU,
  0xbcd0ce7e3c898cc2U, 0xbd37be753c3e52bcU, 0x3c08e03abc48c2ecU, 0x3d31a4a9bce1e006U,
  0xbd82bae9bcd7db29U, 0x3d30759bbcbe3c87U, 0xbc1429583cd79af1U, 0xb97580dc3d17f50dU,
  0xbd1cfc3bbcf833d9U, 0x3cd6d2fc3cebd3aeU, 0x3cf8c2e53c7e8f5cU, 0x3c0ef90dbcccba48U,
  0xbc991b403d256fafU, 0xba037093bbd34d77U, 0xbc32ee143c2b73b2U, 0xbd0a52c8bd262c8aU,
  0xbd10d6dbbc44c128U, 0xbcad6e31bb37f870U, 0x3d093f45bba4a2e8U, 0x3cdf50d0bcc6ecd4U,
  0xbd0381583c48e950U, 0x3d3079573d3893f5U, 0xbcfcaf78baa56009U, 0xbd3e1235bc0d5be0U,
  0x39a4e3003d1eaeb6U, 0xbd2aa27d3c9a00beU, 0xbcc98993bc07a2a8U, 0x3bf8ebf83bed3970U,
  0xbca92cc03cc5c7a6U, 0xbc9437babc9660fdU, 0xbd3433c2bd2e0526U, 0x3c588cb43a130cebU,
  0x3cfe7d4fbd1375f1U, 0x3b99ffe0bb887c58U, 0x3a3da400bd50b8f4U, 0x3d3aa4b9bba930d0U,
  0xbd5a1f803d0e5f39U, 0x3d2edc413c9844e7U, 0xbcfb6775bd299c3cU, 0xbb61fdfebd3b6e18U,
  0x3d0b82efbbe41442U, 0x3d1610d9bd03f8c2U, 0x36a0daf8bd2c1034U, 0x3aeeecdebc9acc20U,
  0xbbd1ad11bb25b470U, 0x3d021f883b888492U, 0xbc8530693d358bbbU, 0x3b826aa83d0e838dU,
  0xbd202d63bc9fadc2U, 0x3d283eb6bcfaac8eU, 0x3c6d0fd0bc616fbeU, 0x3c101e143d386811U,
  0xbd00723c3d0a4a2bU, 0xbbcb3160bca9b448U, 0xbd326142bd559502U, 0xbd4393d23bcc269bU,
  0xbd40d821bd4af3b5U, 0xbc8a634b3c0f5d40U, 0xbc3a71d03d21f0bfU, 0x3cd759323b1b4020U,
  0xbd1f93b33cd6a26aU, 0xbd09a0e4bd484d67U, 0xbc3a89bcbd3f0946U, 0x3a3e2a913b9744fbU,
  0xbb739f44bd41f511U, 0xbc6b4cb83c8463baU, 0x3cb524ee3d1bd9d9U, 0xbce213bd3b6da250U,
  0xbd37716e3c9ffdb5U, 0xbd096db6bd2a297aU, 0x3c615a3cbc2e788cU, 0x3c10c398bd2fcb4cU,
  0x3c6756b03c96bfaeU, 0x3c64ccccbcc89420U, 0x3d09b1d03c8ab7a2U, 0x3cd158ac3ca83a34U,
  0xbcf4ce77bc846101U, 0xbac09f6f3b9a03d8U, 0xbc40fd643d2c1107U, 0xbcc6f62f3bb10710U,
  0xbbae0cee3cf47bc4U, 0x3aecf09c3d160523U, 0x3bb7b270bd68bd80U, 0xbbf73364bc98e11cU,
  0xbcd1ff8a3ce36d0aU, 0x3ba36f28bd37ba24U, 0xb9b31afe3c7bca53U, 0xbbaba6bdbd244377U,
  0x3d1e3bdebc0201c6U, 0xbd1e97e73d30ccf9U, 0xbd362d5b3d07fa7dU, 0xbb071520bbadd148U,
  0xbd0a03b83b4fda90U, 0xbd311eb13cd734d8U, 0x3ca8ac3ebc79ee36U, 0x3d1451213ce17487U,
  0x3c933aad3cc73c0aU, 0xbcd24c5c3b342c20U, 0xbc823c70bd26c024U, 0xbd305942bce68429U,
  0xbd22bc6fbd032084U, 0x3a710780bd3e5786U, 0xbd09daac3c287774U, 0x3d0a255a3c443794U,
  0xbd1277443cdabb2cU, 0xbd54e21d3d37192bU, 0xbcc426b93c4d751cU, 0xbc7094b53cfeb646U,
  0xbd3a0fa13ce03d4aU, 0x3a212ac9baa6594fU, 0x3bac51483d0362b1U, 0xbb5e9f93ba910e40U,
  0xbc4ae647bc92103aU, 0xbc8c15acbd355a2bU, 0x3b5fd090bd8a527dU, 0x3c9dd6bbbca180d3U,
  0xbcf728b13d2efeefU, 0xbd2359c1baf97420U, 0xbb91eeaabc86908dU, 0xbd2dcf64bcb4fe2bU,
  0x3ccea6ae3cce9d06U, 0xbcafe7c0bce2849cU, 0x3b38e7653ac74940U, 0x3d0774e13cd32536U,
  0xbc88c81e3d256759U, 0x3c9247a03c8c37b1U, 0x3932ae5bbbf7c27aU, 0xbd1589fd3d283857U,
  0x3c8b0734bd3bd541U, 0xba35e0c03c63764cU, 0xbc5510363d270140U, 0x3c0ceb58bc8200a6U,
  0xbc127395bc3191d7U, 0x3d3e9cdbbd35397dU, 0xbcb95fc13d1b1f48U, 0xbd40057cbd36466bU,
  0xbb0d5c903c88eb0eU, 0x3cff99693cc390c6U, 0x3ce1e134bd24bc2dU, 0xbd2d94b73d187506U,
  0xbb5a991b3c8e23beU, 0x3c6aa8e63cd7abd3U, 0x3c8075bebc53eefaU, 0xbad43660bc99b875U,
  0xbcd193fa3cce3adaU, 0x3c9d2d1fbca51d8aU, 0x3cf97f1abd6be527U, 0xbce32c783d18cfa1U,
  0x3c8df1863c1a2274U, 0xbd16d2b3bbd7ec90U, 0x3d086c633d083788U, 0xbda3d9aabc92cf40U,
  0x3d088a77bc82bdb0U, 0x3cfe0ccabd209ac3U, 0xbb8573debc91fff0U, 0xbbfc67003cb05126U,
  0xbcedcee1bd04d8b0U, 0x3c18aabc3cdcf593U, 0xbd0b2818bd1ec0c6U, 0xbc4c0facbbb8ed2eU,
  0xbd0d8a7bbc7a033cU, 0x3d3fda77bcc4ec3dU, 0x3d2cd72bbd0322e2U, 0x3c1804803c3f9fdeU,
  0xbd89c3da3cebe4c8U, 0x3c61de0c3bfbafe8U, 0x3cdb0732bd33fc39U, 0xbc8949c2bd18f894U,
  0x3d009b23bb5e0e28U, 0x3c956935bd15b2abU, 0xbd28f9183cfda4d6U, 0xbc574b583cfc883dU,
  0xbc906abbbcdcd358U, 0xbd121ea83d102ba6U, 0x3cffd8fe3d21c9f5U, 0xbbcf51c8bd0d9536U,
  0x3cca27b83c7d2964U, 0xbc10d3f1bcd813f9U, 0xbd0f34cebcd84d98U, 0xbc048c503c0bdbc4U,
  0x3c6043883d34e5f7U, 0xbd05552b3cef871eU, 0xbd074c04bae482a0U, 0xbd755c073d3809d1U,
  0x3c3be960bd560ed9U, 0xbcf378fdbd26e786U, 0xbd3854a5bce51314U, 0xbd07e4193d414e4dU,
  0xbc31d8c0bc38d774U, 0x3c30d55e3d2bd06cU, 0xbbbd39e8bcaefbbeU, 0x3c0697b9bd5654ddU,
  0xbca7470ebd375f96U, 0xbc85be9f3c586a20U, 0xbd40dd6abcc7cc01U, 0x3d1c58cf3ced4d96U,
  0x3d2bc0f5bd2c1a79U, 0xbc9c876abab71b3bU, 0xbcc5c3a8bcfc29a6U, 0xbd3fc195bd1a7386U,
  0xbd435e1d3d035c59U, 0xbd2a79cabc7f57c4U, 0xbcb1e9dbbcf4a30fU, 0xbd4268c6bd545a84U,
  0xbd433ea8babfdec0U, 0xbd135c6bbd49dc54U, 0x3c08ff783cff70deU, 0x3d242179bc20ced8U,
  0x3ccce94fbd32f1e1U, 0xbd44464fbc938188U, 0xbd215176bc357259U, 0x3d0962dbbab81e00U,
  0x3d04afcbbb33bf20U, 0x3c94c2fe3c2949edU, 0xbd50836b3b9defebU, 0xbd8876c2bb753e95U,
  0xbd163addbcd7f03fU, 0xbcb2fe25bd3c48e6U, 0x3d2d6cc5bd2c6dc3U, 0xbc0064d43d1a5ec5U,
  0x3d2330813cdf9d7aU, 0xbd116f5abd30e56dU, 0xbd943b11bcf3985fU, 0xbcfb93393d1cdd32U,
  0xbd4dbc283a8a8160U, 0xbd08ac6e3be99f50U, 0xbce42f003d04d66fU, 0x3cf3320ebc9dd9eeU,
  0x3a119e003ce925fbU, 0x3ca2a9763bbd869bU, 0x3cc53c323c4ed806U, 0xbbf67fa0bd2360c5U,
  0xbb9d944a3ce2eab3U, 0xbccd049e3d039257U, 0xbc330ff4bd1e5a12U, 0xbc26bf35bd29d07eU,
  0xbc0c09733d0cd36fU, 0xbcfdfa8b3cc0242fU, 0xbd0b15bbbd3fc898U, 0xbc36d56abbfdced8U,
  0xbd1203103ce32ea4U, 0xbc88ddef3d37d593U, 0x3af96fa0bda1212bU, 0xbc922bcfbc845baaU,
  0x3c984bde3c3c759cU, 0xbd06946b3ca99d20U, 0xbd2f6f2ebca0a1d8U, 0xbca913e0bd03e8cdU,
  0xbc2c1853bd27dc2bU, 0xbd3858a83d25e239U, 0x3cd06f01bd38c203U, 0x3c444cd43ca67a06U,
  0x3ca8b6babcebd866U, 0x3cc0c03abd44179fU, 0x3b64ada6bc037c88U, 0xba8dcce0bc672d38U,
  0xbd4130683b4525a0U, 0xbd38fd6d3c25087cU, 0xbd009a503cb4e370U, 0x3ccd0b9ebb0489b0U,
  0xbced0a99bccee61aU, 0x3bb2be483d126d1bU, 0xbcf8355bbd4da319U, 0xbd367522bcfa6b73U,
  0xbd1e24acbcb8f827U, 0xbccdb9d2bd2b6ce0U, 0x3d14fdff3d30e75fU, 0x3d2640713d0a911bU,
  0x3cff1e48bbe471f8U, 0xbae1e7d2bd1bcb9bU, 0xbd1735d8bd21c60bU, 0xbc9f0e733ca223feU,
  0xbb5536833cf6394bU, 0x3cd9057f3ce4a302U, 0x3c636cf0bd2c9397U, 0xbc737b80ba237180U,
  0xbcd351ea3cc2ff06U, 0x3c6a4a54bd30218eU, 0xbd2bd189bcbc85f4U, 0xbd7c978e3bf7e240U,
  0xbcde6ba3bd455ff1U, 0x3cb7782ebbbf5d30U, 0xbd4c2f8f3c5c64c8U, 0xbc38ffc03b9eed38U,
  0xbce43c3abc3b65d8U, 0x3ccf46d7bbb38c16U, 0xbc7c94063d044ee1U, 0xbcaa2ee1bce318e1U,
  0x3d29bb09bcdd5e3eU, 0x3c9b7afebce76be6U, 0x3ca6379ebd028b92U, 0x3c1d52e83d0684b0U,
  0xbd4dc79a3c9255c2U, 0xbcce5cafbad2b26cU, 0x3c92e25e3d17a891U, 0x3d17d2e8bcd701a4U,
  0xbcdfee583d1f1531U, 0x3c42fc433c59bca4U, 0xbd3c891d3d31963dU, 0x3d09b542bc136cb3U,
  0xbcad6d99bd1139a6U, 0xbd4b5d953bffddb5U, 0x3d31c7c93d2ab2ffU, 0x3c857f123d3da289U,
  0x3c54f4f13cb9f253U, 0x3c7e0decbcd22bbdU, 0xbcc2f91dbcce313eU, 0xbd4ea2f9bd1deb08U,
  0xbc83858c3cc18116U, 0x3cb4f3ba3d01442fU, 0xbca34dfbbd2bf065U, 0xbcc3658a3c479364U,
  0xbc4bff213d182797U, 0x3d075e713d14cafdU, 0xbd4facd1bd18e53cU, 0x3c77daf83c993ed2U,
  0xbc1257c0bb968910U, 0xbd342619bd4b9dd7U, 0xbc81762cbd1321d5U, 0xbb5599ab3ba28b6cU,
  0xbc1d703ebc7a162cU, 0xbaac01a0bd0017deU, 0x3d2de7ecbd0541daU, 0xbd0ed7e8bcb752dcU,
  0xbd3f5f66bc672ec8U, 0xbc573228bd2d5231U, 0xbd4059f43b98e7b6U, 0xbd2673dc3cfd70b2U,
  0x3cc0540abcfc0a74U, 0xbd311256bce4bfedU, 0x3bd8f4e53d131d43U, 0x3d06bc193bbbd4f4U,
  0xbd36fc90bcc44822U, 0x3b582a06bcaeac3cU, 0xbc960087bd28f612U, 0x3c0477eabbb19c18U,
  0xbc54790bbc9ca7f8U, 0x3d0d0991bd262e0dU, 0xbb5f95babcea6c16U, 0xbba1c0ffbcab75cbU,
  0xbcf606223cde3522U, 0xbd353367bc128b24U, 0xbd48c1e43cbc8b6cU, 0xbd395f10bd3a4ad6U,
  0xbca057b83c8e6a89U, 0x3c1bf2803d07b56fU, 0x3c928f2fbb2c3050U, 0x3d0b6d19bc892861U,
  0xbca67f50bcc8e3edU, 0x3cb846bd3d02521cU, 0x3bd1543bbd18ec3aU, 0x3c73a31d3c91ef87U,
  0xbcf07959bcc7f7b6U, 0xbce068a33ce3d622U, 0x39bff9323ccecbfdU, 0x3ce4f26e3cbde2a8U,
  0x3c45262a3bc363e7U, 0x3cf6d4ce3c138406U, 0xbd40f3ba3c8cf731U, 0x3c9a40433cfa1a56U,
  0x3d22ec91bcce3bc6U, 0xbc6740a43c097bcbU, 0x3c293aebbd27fd7bU, 0x3c3978ff3cd2e256U,
  0xbcb45f6fbd26161fU, 0xbcb48e763d1cc5c7U, 0x3cc7b4a2bcad0829U, 0xbce076513cbca5eeU,
  0xbc87f8d3bce0b52dU, 0x3ce6e01cbcc3d15bU, 0x3d13b6b93cf47b3aU, 0x3d1258723bbf3840U,
  0xbb0e0a703d3f6337U, 0xbcb9465c3be4c203U, 0x3cc3608f3c0baf92U, 0xbc3f85a9bd399106U,
  0x3c48c9783cc18a69U, 0x3cd8da8a3d0204f1U, 0xbd33dc22bb65e050U, 0x3c17359c3c929f16U,
  0xbd11f3f6bd270f36U, 0x3c76edd53cc0e715U, 0x3a0771eebd3f2cd3U, 0xbd146b7dbc018f3eU,
  0xbca068f83c39b0b5U, 0x3b2471203b939208U, 0x3bd7cd30bc1cd49aU, 0x3c21eacc3d158b31U,
  0x3c2947723d06ab7bU, 0x3d0e455d3c1e8c2cU, 0xbc27b62c3ce101ddU, 0xbcf6ede3bd02e92dU,
  0x3a53369c3cd19f9dU, 0x3c1e952bbca4ce91U, 0x3bec182b3cdf8e46U, 0xbccd0d81bd438b13U,
  0xbc3efc3abd26c3ccU, 0xbb67f2c33cf6680eU, 0xbc9e84283d1652d1U, 0x3c6685403cdffe3eU,
  0x3cd437533d09b847U, 0xbd0e69e63cce6896U, 0xbd097561bc5f324dU, 0xbccf6480bc36bce4U,
  0x3c44f5983c9e25c2U, 0xbcdb1cc33c349c0eU, 0x3c3000dd3cc7e9c4U, 0xbd8edcb1bcdf8de3U,
  0xbc8b32393cf8918dU, 0x3b61ccc0bd1f2032U, 0xbd3755f03bda2060U, 0x3d27f297bc39b858U,
  0x3c93a64abce5d4d5U, 0xbbd776e8bd00133bU, 0xbbdb1de8bcf6eda4U, 0x3ce387963a026316U,
  0x39a04df9bcbcb8ceU, 0x3cc90d2a3b9a0878U, 0x3d03dba93cde5cd6U, 0x3c140ab03cdfcd32U,
  0x3c40ffd6bcb98b73U, 0xbce770d6bd4b9432U, 0x3c44399cbd1fdcf7U, 0xbd0864febd0aba7aU,
  0xbd1496b5bd528b16U, 0xbcb59b373d26a0fdU, 0x3c9f2a0a3c01151cU, 0x3caaa85b3d0e96f1U,
  0xbbf886973d32287fU, 0x3c245b48bcd72bb6U, 0xbc41343cbceefbd5U, 0xbc3ec728bcbb6420U,
  0x3d0eb8f4bd145b51U, 0xbc63a28a3c8c0db6U, 0x3d267999bd683a39U, 0xbce9ab78bc01f59cU,
  0x3cfdc55abd266486U, 0xbd1ee140bd182989U, 0x3cf1eea7bcc72f61U, 0xbcc766993d16ff64U,
  0x3cae9dfbbd04bf18U, 0xbd34768dbc412f84U, 0xbca7033fbd14436aU, 0xbd10f4a83d0de5e1U,
  0x3d2e27c13c747bb4U, 0xbcb1d2a83d16a13fU, 0xbcf94ada3ceeb04fU, 0xbcbf7b843d2ab7fbU,
  0x3c267ff6bbe0da63U, 0xbbff58903b254370U, 0x3cce01b2bd52be97U, 0x3d13ad8d3b327b90U,
  0xbd6fe9ae3cf90c96U, 0xbc197fd4bd48fd95U, 0x3d03104f3d2bb93eU, 0xbcb9e51fbac09540U,
  0xbcdff496bd1f6072U, 0x3cd7de37bc59637cU, 0x3c3039f5bcd9e7c1U, 0x3d21ad6bbc83033eU,
  0xba2600733c5bf06cU, 0xbb468f50bd4a6c44U, 0x3c4f8a78bd2be138U, 0xbc8cce833c92f806U,
  0xbd0f5fe13cf0f83aU, 0xbd39f54f3d09bed9U, 0x3ca0d42abcfd7c3fU, 0x3c9b20c3bc3f2b38U,
  0x3d2fd2553ca6dc86U, 0xbd1e210c3d19799cU, 0xbd37a06a3d103c25U, 0xbbf25a3f3c35ebf4U,
  0xb9cb84003cf5fca8U, 0xbc151c90bd0adac1U, 0x3c837a2b3cccf34eU, 0xbbe214d83cbda052U,
  0xbd0dd7183cda47ceU, 0xbcb4d30fbd2ae0a3U, 0xbca2e716bbade658U, 0xbc9684453cb916f0U,
  0xbd24e7bb3c8c1310U, 0xbcd15ca9bce7cbbcU, 0x3d2bc0833c8d1291U, 0x3cc9ccf2bcd66f1cU,
  0xbd2f90a83ca3d3c9U, 0xbbd4dd68bd3973cfU, 0xbd3b3296bd106571U, 0xbd5508a53c2a819cU,
  0xbb83cfe9bd22827bU, 0xbc7c7b4b3c9f3466U, 0x3ce351b43c8884e2U, 0xbd3ca105bcc17ae4U,
  0xbcfd13123c07ec80U, 0xbd4905b53c90753aU, 0xbcd4fe4a3c846c1aU, 0x3d2d355dbcfca4d5U,
  0x3cf91c993be6505aU, 0x3c593e13bc2f6a3cU, 0x3cb682b6bcdbdf6aU, 0xbbbf72cbbc468887U,
  0x3b082b50bab8dfa0U, 0x3c929c26bd26ff00U, 0x3ca1e106bc270da1U, 0xbd2703583cef2d2bU,
  0x3cc3eb6ebd02d99dU, 0xbd12f81ebc16d67aU, 0xbd238737bd16efb0U, 0x3c8a04a23d255e61U,
  0x3b4d34203d30deb1U, 0x3b6e2a903c56475aU, 0x3d3e52c93d0f34c6U, 0x3c7d6e94bd3abea9U,
  0x3d2818003ae02145U, 0x3ce5da3e3d25ee1dU, 0x3ca7938e3bce367cU, 0xbc986a7a3d22e0efU,
  0xbd61587cbbae088eU, 0xbd125f32bc285a5eU, 0x3caf0b7e3cf27fd2U, 0xbcf99dfbbc43b5bcU,
  0xbced6ee63bb43d68U, 0xbd0fd692bc98df75U, 0x3c2da9183c779958U, 0xbcce37a63cbb11c6U,
  0xbd2bef7e3b4ba6b0U, 0xbca4729739a6c5edU, 0x3d193c393cce53aeU, 0xbcafa7e03c6f2f54U,
  0xbca34e703c5cb1c9U, 0xbd46fe1d3d02646bU, 0x3d07b9e33a8ff440U, 0xbc686ab13b015bbfU,
  0xbd3bd2f93cdf4786U, 0xbcb867edbb0de44fU, 0xbd1d2b7d3cdc97acU, 0xbda52aa0bd485abcU,
  0x3cc13e163c8e7e3dU, 0x3ca26b3a3d19f583U, 0x3d23b53bbd318048U, 0xbcb893f6bd0b81d1U,
  0xbbbd5948bcc5ff72U, 0x3d1d30c53d0b5e25U, 0xbd3067683cae7199U, 0x3cc42db2bc8283ccU,
  0xbcce4d1cbd554029U, 0xbd1ce468bd15f9a8U, 0xbd1861f3bcb61b45U, 0xbd3d557abc6d8b38U,
  0x3c4dc4e9bd1875f7U, 0x3d1f88d5bcf429c4U, 0x3ab00420bc68f248U, 0xbc86c89c3c788624U,
  0x3882c581bcad87a4U, 0x3beabd713d37abe3U, 0x3d22e238bc8a9abdU, 0xbcd0f8e53bf54017U,
  0x3cb9cfd53d1f3265U, 0xbd1f7bf33c85ceefU, 0xbca3e9793c815486U, 0xbad025c03c7d6944U,
  0xbc9fed43bd2079daU, 0x3d07b30cbcacf0a8U, 0xbcc390fc3c86525aU, 0x3c985eabbd4dd697U,
  0x3d17fafb3cb1912eU, 0x3d2faaadbd1d8acfU, 0x3d1794bb3d24a8eeU, 0xbd0c9ef9bd00ef3cU,
  0x3cd9fd0a3b25adc0U, 0xbce616b1bd5385c8U, 0x3b36e8b0bc425494U, 0x3d184ea33d20b223U,
  0x3c8bac3ebd3cbc31U, 0x3cbf73aa3d206416U, 0x3cce95da3d248f0bU, 0x3c34310cbca48ae9U,
  0x3d0e4c32bd098a04U, 0xbc6ce1e43d183e01U, 0xbd3d6c013c6b8324U, 0xbd015eaabc0d8954U,
  0x3c11d9bdbd3c8bc0U, 0x3ce107b6bcf86b24U, 0xbd354068bc3192b0U, 0x3d158605bc9d2bceU,
  0xbd09b47e3c46c10eU, 0xba5f16153c1fef6cU, 0xbc5beeddbbf8cfd0U, 0x3d1b9a1fbc9d4268U,
  0xbd2a8c903d35207dU, 0x3b87b15cbcb53661U, 0x3d2d6863bc984c01U, 0x3b225e70bd3130cbU,
  0xbd36c4dfbb90c8beU, 0x3c9fc71d3d26450dU, 0xbd03f221bd9220cfU, 0x38a31dfe3cb12a2aU,
  0xbc7ed4ddbd93eb04U, 0xbcf42038bcb707aeU, 0xbc4755ebbc673da3U, 0xbdddec93bcc03d74U,
  0x3d7e13ffbb9bf43dU, 0x3c369422bcb01160U, 0xbc475bbdbd8e8bf0U, 0x3bf31cb83c0f9c5eU,
  0xbdc8062bbcb7d82aU, 0x3c505c7a3bf1a08cU, 0xbde7ac6e3bd9f7e9U, 0xbc29fb3a3c25cbd4U,
  0x3cd44578bd3f7b33U, 0x3cc4acfebcf22702U, 0xbccef59b3d183644U, 0x3c4c72953d429bddU,
  0xbb666a91bbc9ae6fU, 0x3cba104e3d99f324U, 0xbc1d44f8bc968930U, 0xbb0d7b14bc034c22U,
  0xbc0cd2ac3aebec93U, 0x3d11ed45bcdddc75U, 0x39b2b10abd18e8a7U, 0x3c813c1abcf7aef7U,
  0xbd0fa4e23c24bc00U, 0x3cf60699bc89ef45U, 0x3cf04e853c46c336U, 0x3cca3931bcb4eafeU,
  0xbbf224473c4f4816U, 0xbcead53f3d3948d1U, 0xbbbeeb9dbcea8bf7U, 0x3d4ccf8abbbdb26bU,
  0xbd1df995bd5abbbeU, 0x3d16795c3d21b62dU, 0xbd1f8c063d31b0d6U, 0xbdb1462fbd21cfa3U,
  0xbc6fde4b3c72b3dbU, 0xbc9e1bc3bc9e662dU, 0xbd416c97bd3870f3U, 0xbc4536693c3d853eU,
  0xbdb5fb85bc963fbaU, 0xbaa4ae3abb90ce68U, 0xbd45b56fbc7d31d3U, 0xbabf29c3bcf6ab57U,
  0x3b3b9b78bd5f1ddeU, 0xbcaff27dbc656dd8U, 0x3cab7c53bb67234bU, 0x3d267a413c9068a8U,
  0x3d105f5dbdda3d86U, 0xbc6f931c3d72b5c6U, 0x3c1d9503bcaaf9eaU, 0xbaa2e9853d0ea63eU,
  0xbd3b8ae03d1baea2U, 0xbd06262bba66f924U, 0xbc27ea89bb286aa2U, 0xba7797d1bd12feadU,
  0x3d28a8c0bc5f3b99U, 0x3b333fa3bd145462U, 0x3d3319a2bd66334aU, 0xbd30d528bda61e4cU,
  0xbd61a3083d23907eU, 0xbd42b843bc36e256U, 0xbd415ca83c45ee4bU, 0x3d14e0923c45721aU,
  0x3b77d0b7bccc92fbU, 0xbcd2e0b93ccb589fU, 0x3d3bb116bcc6783dU, 0xbd3e0d8a3c26cb71U,
  0x3b8c18cdbc8e3b55U, 0xbce5ed8ebd5eea4fU, 0xbcb64d78bd004fa9U, 0x3cd35af23d190b62U,
  0xbd70e3043c88d9abU, 0x3c8ebb30bd3c397bU, 0xbdf13774bda8b1d4U, 0xbd9de9adbaf80627U,
  0xbd742de9bca63779U, 0x3d1b15febd077eccU, 0x3ca887873cfff021U, 0xbc950d2ebd78d270U,
  0xbc5f7f29bc8929a9U, 0xbd3f95273dc5951fU, 0xbd17c06c3c4871f1U, 0xbce15771bcda9bc5U,
  0xbbab20833da3d9e9U, 0x3cfb2d083d688bc3U, 0xbcb7a8a8bd0a4680U, 0xbc24b64f3c3b1d85U,
  0x3c434945bd1142b7U, 0x3cb7489cbcedd116U, 0x3d2e4ae9bcd06814U, 0xbc5f386cbda99100U,
  0xbc3c729dbd472dedU, 0x3c350efabccff7a8U, 0xbd27044abc1255dbU, 0x385ff3be3d0213c9U,
  0x3bd36e75bd5496c1U, 0x3c9ced603bfa485fU, 0x3c8750183c993cfeU, 0xbd651174bcf3119dU,
  0x3d636eb73d8aa346U, 0x3ce105dcbd37a31eU, 0xbd1573bcbda41be4U, 0xbd7c580f3d17d1b5U,
  0x3c537ef73cd791c6U, 0x3d45d512bd468d60U, 0xbdfada28bc87a7d0U, 0x3d7ab81b3b9d8dc9U,
  0xbc5f96c73d20374bU, 0xbb92d030bd0a9a43U, 0x3cb52572bd0f3b30U, 0x3cfed3963d1f23bcU,
  0xbcbd16253c0e9b20U, 0xbd471dfd3d43149cU, 0xbcbc6e583d7269f8U, 0x3c98c4543ce323d5U,
  0xbc99cb413c8bafd5U, 0xbcfde90a3d6b7333U, 0x3c5d482e3cf4ac84U, 0xbcbad5e0bbed9595U,
  0x3cef7cf2bc92e184U, 0x3cf5f3143c4e65c7U, 0xbcd9c44dbd1e79b1U, 0xbc947a28bb4416deU,
  0xbd1605cb3bb20d49U, 0x3c35e9593d1441daU, 0x3da96b7abd05abdeU, 0xbd57c980bbd38c38U,
  0xbaeadb54bd8b46ccU, 0xbcfa85debc22a0e8U, 0xbbb7c8debd02cb3dU, 0xbd24673a3ce02bd8U,
  0x3c86b8263ba7920cU, 0xbcb7dd333c933b1cU, 0xbdb2fa8fbcb665b2U, 0xbc78ae3bbcd70e40U,
  0x3cb21c21bcba313dU, 0xbdbb1f073ba0d910U, 0xbe164b16bd0745a9U, 0xbcb4d6063d07046fU,
  0xbd79e81a3cae613bU, 0xbd2ae9ef3d02fe30U, 0x3d909f46bbc99120U, 0x3c8eed55bc9d0216U,
  0x3d20bdfebdcd227bU, 0xbd1eecdc3d94004aU, 0x3ce516fcbc0973c3U, 0x3d5d88643d3e4dadU,
  0xbcf4f260bce87b11U, 0xbd1645a83d518f0cU, 0x3d12b787bc57e0b1U, 0xbc50b445bd1fa42dU,
  0x3c3c70fe3ab86f39U, 0x3b372437bd0e52b1U, 0x3cb64d4abd605decU, 0x3ca25bcf3c263f48U,
  0xbd0a15dc3bbe0f23U, 0xbd3bdfbebc0eee16U, 0x3ce31301bc547471U, 0xbcd21741bc313aecU,
  0xbb34b29abc0fabe9U, 0xbcb0a48f3b0a046cU, 0xbc2a5c993c34034fU, 0xbc7685d33cadabc4U,
  0x3be255563d4fe269U, 0x3bd53bfa3b1ca810U, 0xbd81dcf7bd824d8dU, 0x3c676c7f3b6a7072U,
  0xbc53adf73d24c1c2U, 0xbd8030a73a5dee97U, 0xbdc008483b1d694aU, 0x3d64c8623cb448faU,
  0x3cab67bebc49d706U, 0xbc8bd1dcbcac7c2cU, 0x3d3b7f3d3cf7712eU, 0xbd2ec63c3c2700f3U,
  0x3c0696dfbd8a690bU, 0x3c6d1c863c04e195U, 0x3c5d6061bd866fe2U, 0xbc8ba09e3cbcba5fU,
  0x3beb1950bdb00d2bU, 0x3ce82b14bd4c2082U, 0x3d0f094fbcbf2295U, 0xbd32b107bca0a0c1U,
  0xbc2fc902bce35ac0U, 0x3c6390b8b9d9784eU, 0x3d4792bcbc20d3deU, 0xbb14ec29bc68e6dcU,
  0xbd25e2d3bd3c1f32U, 0xbd8297693cba0c5bU, 0xbd34c122bc1ad368U, 0xbc98e6623b959c00U,
  0xbc014a653c367ac0U, 0xbcb877a8bc9b411dU, 0x3cb72f5ebb9e2296U, 0xbda72e4fbcf52e09U,
  0x3d2cd2063d86dd84U, 0x39c606d3bd1ee407U, 0xbdc979ebbdb778beU, 0x3bee50dfbae15f69U,
  0x3c46e16f3cacfa23U, 0xbe09321dbd1c943bU, 0xbdb92b5dbb9011f0U, 0x3c195e8f3d49af2dU,
  0x3a4341dc3bc786f8U, 0xbb4eaa0e3c293d46U, 0xbc7c66bc3d948cf5U, 0xba01d26b3c0cfd2cU,
  0x3c989da1bd76b6e6U, 0xbc80e63f3d97e78cU, 0xbb5891723d657556U, 0xbcc5e1fabb82ba72U,
  0xbc661c92bc43d60cU, 0x3d0bcb40bbbe9dc2U, 0x3d04cbe23cf87715U, 0xbce8d1b53d36ea46U,
  0x3d1488eabcffa54cU, 0x3d3a8227bbc038acU, 0x3cc0280fbdc8565cU, 0xbc57b17dbc543954U,
  0x3c9afe34bb818240U, 0xbd9bc3c2bbb89666U, 0x3db06eddbba5af83U, 0x3d25344abd14e015U,
  0xbc9119b9bc6e4623U, 0x3ca98d283ccdc41dU, 0x3c55a0b23d190ce7U, 0xbdbd9e98bcb45fadU,
  0x3d84a5d33d80808aU, 0xbc228098bbd23a53U, 0xbdc8e450bc4b6a9aU, 0x3c98edb03cd8322fU,
  0xbb4dee763d07afe6U, 0xbdb8ce853b54eb4aU, 0xbd3ae2f4bd434715U, 0xbd458e6cbd0701c4U,
  0xbd108ac93d1ae866U, 0xbd4494aebd121ad4U, 0xbda54f913baeb235U, 0xbc826cfabcddb569U,
  0x3da6d0c3bda2d7c9U, 0x3d25210e3d855bf3U, 0xbc020ff63d42dbe1U, 0xbd0db4ae3d7c2edcU,
  0xbcb98c3e3ad2ce95U, 0x3d349783bd1884fdU, 0x3cfcad5d3d520526U, 0x3c9e01bbbd2bd74fU,
  0x3cd33d25bb6e7655U, 0x3d6760a0b81e0b98U, 0x3cbcfcc7bd429811U, 0x3a1fa07abbdc6142U,
  0x3c8128d1bce2c699U, 0xba151dbcbd012b0dU, 0x3cd8d9d53b703349U, 0x3b883519bd2f4ae0U,
  0x381c24de3c8c9636U, 0xbaa667ccbce0450dU, 0x3bec1dc53c03d621U, 0xbcac181a3c8d7ffeU,
  0x3d0d1409bce44910U, 0xbcf6c2713c81e0b0U, 0xbcd9e8b2bd0cce42U, 0x3ad52258bbd026acU,
  0x3bd83d953c219954U, 0xbc8b6f753ceee298U, 0xbdd3b260bd8e19a2U, 0x3c99a016bd0bf935U,
  0x3b4db5da3cc863dbU, 0xbd2ab5babd50cab3U, 0xbce1dab5bd17dd41U, 0xbcbb008d3c886289U,
  0x3d2b01f4bd97ac7dU, 0x3cc692b73dad3992U, 0x3cf86194bcde708aU, 0xbd0a2030ba99494aU,
  0xbc93a03bbd463af8U, 0x3d463af7bd2e2842U, 0x3c973eccbd104129U, 0xbc921944bcccfff2U,
  0xbc3bb3abbd6a1198U, 0x3d1fb992bd771317U, 0xbcd0e5293d48202cU, 0xbcf01264ba541006U,
  0x3c62a3f7bd3613d6U, 0x3c73177a3d2d3c06U, 0xbc5eccd1bd3d3353U, 0x3b62517c3c626e07U,
  0x3cae3968bd1a6beeU, 0xbd133a8ebca4ca7cU, 0x3c2dbba9bc997be6U, 0xbd985beebc42bdc2U,
  0x3ce03c31bc256c55U, 0x3d273b16bd542da4U, 0xbc3e0f29bc8f7a8bU, 0xbbe3ad35bd230844U,
  0x3d3ffb7dbcc5af1eU, 0xbcecddfdbd26732aU, 0xbe2128ee3b76ecc4U, 0x3a54c1fd3d4cc156U,
  0x3aee72f53c6fb5aeU, 0xbab2ffb43b2e158aU, 0x3ab4e18d3dacde8bU, 0xbcb9972bbbdba703U,
  0xbd23772abc2abd77U, 0x3d4feaf8ba31d8a5U, 0xbc38d0e63d092d7fU, 0x3c5af141bc2f7f5cU,
  0x3d0f9f26bb0a71b7U, 0xbd0c7115bd80986bU, 0xbd1efce53b5f02e2U, 0xbc7f44a6bd0005a5U,
  0xbd0b434ebd2dd8a0U, 0x3cf039cabb8d8deeU, 0xbc4efb56bd8fb296U, 0xbd2675f9bc4cce3cU,
  0xbd38a3823cb8888aU, 0xbc60c2163c256e9bU, 0xbe1281f5bd1c94ffU, 0x3ce8be59bcc6fdbeU,
  0x3c0578d93c3427f6U, 0xbd2144ac3d0113b7U, 0x3ca36c363c928481U, 0xbc84c2723cc0124dU,
  0x3a1be4ac3d0a7f7cU, 0x3d05bd8bbd149cf5U, 0xbd9d62ae3b97d88aU, 0xbca20f003d267615U,
  0x3d39652f3c474894U, 0xbb39a1ec3cfc54d0U, 0xbe1f09d4bd427c5eU, 0x3d6a48603d056304U,
  0xbd23b76fbcdd8d26U, 0x3caee401bc3af5b5U, 0x3cacfe1f3d1887fdU, 0xbc106d3dbd571ad0U,
  0x3cab345ebd6e08ebU, 0xbce3acd0bb29ae9aU, 0xbcbb125dbc89a562U, 0xbc5e0c67bd0b3302U,
  0x3cebc3aeba64b004U, 0xbaac3a21bc8637e8U, 0x3cadbfadbc614a60U, 0x3cf414583be22c91U,
  0x3ce4d3c8bd4c84f9U, 0xbaeba5d0bdcd1817U, 0xbd07b2643cfb8caeU, 0x3d70d8b6bd332cabU,
  0xbd3570683cbe993aU, 0xbd6b4d473c560d8eU, 0xbdcc30003d02d82bU, 0x3cf8d05d3bf1c681U,
  0x3d17a5943c713d3aU, 0x3cc114403aba94d7U, 0x3af7e73bbd023337U, 0xbd7e9dcbbbfa047fU,
  0x3cb8b2a1bcbd3c33U, 0xbc2beed6bcb13cd0U, 0xbd4ad2a4bd38f01dU, 0xbd3cf97e3d457256U,
  0x3c58bd6b3c9ebfadU, 0x3bbb4f6a3a3a5bdaU, 0xbda6211cbc053beaU, 0x3d83adf7bc59143aU,
  0x3ce789bc3b949b34U, 0xbcfbd4a7bbed1792U, 0x3cba37b7bc995cb0U, 0x3cafcb46bb5d67d1U,
  0xbc1158cebd8ac642U, 0xbcf5fd2b3d4aa795U, 0xbd0f4e0dbcc6f7d1U, 0xbcb070d43caa2df4U,
  0x3c9994323cdc0362U, 0x3c07a880bd841affU, 0x3d181f6e3b727955U, 0x3c3deeb8bc315327U,
  0x3cfd15cd3ca74a5eU, 0xba89ac26bca83679U, 0x3c27a7babd90b512U, 0xbcfa65883ccf5f1dU,
  0x3ccccfb8bd24dad5U, 0xbc95b29dbd0796d4U, 0x3d9fba0b3c8ca15fU, 0x3cbbd12f3cc55fd4U,
  0xbcb188fd3b440c68U, 0xbcf64e8c3c1bf2fdU, 0xbc059006bd118539U, 0xbdc19f65bd10ae22U,
  0xbc8f7003bb2a167eU, 0xbcf282943cac0934U, 0xbded0aafbd05c45cU, 0x3bc5ecf23d32a5cbU,
  0xbd7046b93c6ad79dU, 0xbd955df6bcaa7e06U, 0xbda58996bd81c22bU, 0xbb18d1adbbe5892dU,
  0x3ca89a4f3ce8b304U, 0xbaadf2dbbd4f1813U, 0xbce65a7b3d83e533U, 0x3c94127f3c31a552U,
  0x3d2134b3bd0bec40U, 0xbd1537a23da22a67U, 0x3cf4faf0bd41330cU, 0x3c73166d3d057287U,
  0x3c1afe5ebd1c6519U, 0xbcde6dadbcc6df7cU, 0x3bb1b13d3d4cf3a5U, 0xba1441cd3c679ffeU,
  0xbcd522973cad41a3U, 0x3d4da2e33c1d7d3cU, 0x3cbfaeb7bd2e4f58U, 0xbd207ac4bc715455U,
  0xbb068c913d0415f1U, 0x3bf2da763c85757fU, 0x3de8e6873b99ce8fU, 0xbbad821b3c822a70U,
  0x3d240a3e3c37fc7aU, 0xbcf338d33ca971a5U, 0xbc0a654fbc4452bdU, 0xbcc60db8bce98d21U,
  0x3cad45e43cbb4aacU, 0xbd3778753cbc238bU, 0xbd3f50403c2da59bU, 0x3b7b719e3b2513c9U,
  0xbd98473d3d26367eU, 0xbdc13543bd128752U, 0xbc7aa00bbc16c5f6U, 0xbc81123a3d27f131U,
  0xbd3421c3bc289529U, 0xbd0235e83cd00dedU, 0xbc3d80f93d77847bU, 0x3c2d924abcc3c29bU,
  0xbce5b54dbcca2688U, 0x3d455ad2bcadc952U, 0xbd23d37abc5e707eU, 0x3cf46e12bd0cb06eU,
  0xbcdd2ad73cb9c02cU, 0xbd0132a73cd232d4U, 0x3bfc1ea83cc566b2U, 0xbcf4651c3d179246U,
  0xbbc5594fbd2cf25cU, 0xbc5759c2bd7c196eU, 0xbbdd8802bc93d235U, 0xbd187df7bd41095fU,
  0xbd571e0f3c6eb9dcU, 0xbd4f7a62bce7f7a1U, 0x3d52f2acbbdd960fU, 0x3d147845bc7431e4U,
  0x3c83a8f6bc813ac4U, 0xbd49dbdabd6046e8U, 0x3d297da3bd4c7bcbU, 0xbda84281bb8067b2U,
  0x3d89c86cbcb953d7U, 0xbc47cd88bca3de8eU, 0xbd128558bcdef47eU, 0xbd51e205bd40aa60U,
  0x3c280e85bce53b50U, 0xbc79460cbcefb7c8U, 0xbd8bbcb93c080c97U, 0x39fb0eccbbb9a4fdU,
  0x3cdf14c03ca792feU, 0xbd2c8c21bccde527U, 0x3d3be94bbc18f84cU, 0xbc9a637dbd0a127bU,
  0xbc3cf229bdcd89bdU, 0xbac4cd993afaa7d1U, 0x3d0801b6bbdd4adfU, 0xbd067ff83d3d37b2U,
  0x3d1fb3e43cc88aaeU, 0x3d017312bb5c6b3aU, 0x3d0338fcbcf99d98U, 0xbcad46adbd1590aaU,
  0x3d18cecbbb68ee24U, 0xbd7024b83c7dec03U, 0xbcdb05d2bcc52c04U, 0xbd25c2fcbbc829d6U,
  0xbcff11083d27025aU, 0x3d04cdf43d0c0935U, 0x3d6a49fb3cdc8d41U, 0x3b5e9e3b3d26523dU,
  0xbce2dae0bd427de6U, 0xbcb832b83cfe2141U, 0xbd16e270bbbe7e88U, 0xbc8629953cba5482U,
  0xbc39b6f03d1776e7U, 0x3c5c674f3c82c088U, 0xbc91b010bcc3806bU, 0xbd567f95bc1c43e2U,
  0x3c510182bd206fd8U, 0xbd80a9403c671354U, 0xbdb97ae93cbaa4dcU, 0x3c0b5b093c8f0be1U,
  0x3c0946f53cddd4b2U, 0xbd1158213d417e34U, 0x3d05786bbc94c4d4U, 0x3af2c668bcae5d21U,
  0xbd31d26abe0076ffU, 0x3d262dda3d6c70a4U, 0x3cd10b9ebd219ca5U, 0xbcb511bf3d249af8U,
  0x3c59bd093d6360eaU, 0x3be5a2c73d78f384U, 0xbccb21b2bd1f0e9aU, 0x3bad27c8bd072214U,
  0x3d28477dbd0eadebU, 0xbb42b75dbb112ecdU, 0xbc27fc2abca008a6U, 0xbd7fe5a6bc8093ccU,
  0xbc773f3a3cff93ffU, 0xbbdd63d4bd61de14U, 0x3b1e39ef3acf3f7bU, 0xbd25e1973c0e1835U,
  0xbca81c7dbd986954U, 0x3c532d50bd0fce4fU, 0x3c9629413b2bc5cbU, 0xbd36795bbc875d2cU,
  0x3d353526bcd3eae9U, 0xbcf7ae29bc9de68bU, 0xbd61ff2ebd944107U, 0xbd39c34dbceddf7aU,
  0x3c9fe85c3c916bd4U, 0xbded22243bde9f93U, 0xbdef93eabd331ad0U, 0xbcb74b0c3c672b0aU,
  0xbc8b308ebca62e29U, 0xbc895affbb5ce43eU, 0x3c7b582f3d85308fU, 0x3cef0f8f3cd4f360U,
  0xbd497fd4bcd18482U, 0xbc090c6d3bd8e93aU, 0x3d269e9c3cb793bbU, 0x3ce796d3bcc21442U,
  0x3cbbb6683c663b20U, 0xb9894a803d4ccd04U, 0x3c450d0f3c9d8bc2U, 0x3cfbf620bd046cebU,
  0xbc700d6fbd451649U, 0xbd25939ebd0edc39U, 0xbd18ee86bd8432d9U, 0xbd42d0293d03c1ceU,
  0x3aa738d1bc9d5613U, 0xbca9f2fdbd261f7dU, 0xbcdece47bc9d5a10U, 0x3d3fa33bbce62004U,
  0x3cdf8161bd692a0aU, 0x3d3a463e3caf4a97U, 0xbd0e150fbc7a24f6U, 0xbd261f863d354fbcU,
  0xbc5aa7253ca0ec2cU, 0xbc09e0b2bd139a39U, 0xbd35ee29bd788a44U, 0x3b8aa219bd25becfU,
  0x3badbee6bc27eab4U, 0xbce384aabd476e9fU, 0xbd925ee5bd7fb243U, 0x3d1de2803d233dfaU,
  0xb80069863cce6d74U, 0x3b84b5773d257d42U, 0xbd5825e93d6e6f51U, 0x3cfd09553d0c3e38U,
  0xbd0557a4bc8aad66U, 0xbd139a103bbefe08U, 0x3bcd483c3abb68e3U, 0xbcb1f8aabbc5ae40U,
  0x3cb34f913d4e0248U, 0x3d2f66693cabe085U, 0x3b17fe633d583c1fU, 0x3a8ed8cdbc84bb50U,
  0xbc738a4c3c14b9c9U, 0xbb8a6905bccd2cc8U, 0x3ce8096cbd26bcfdU, 0x3c9a48413cab3682U,
  0xbd4eac9dbc3277ddU, 0x3cce51dc3a783402U, 0x3d332d79bb46e36fU, 0x3c122c4a3c083864U,
  0x3c79ece03a1b5f9cU, 0x3d3d7cf6bd3b896dU, 0xbd1c2dad3d0b881eU, 0xbd8746edbb1af956U,
  0xbb6dc0babc9bc7caU, 0x3d3caa2bbc07abc2U, 0xbd645848bc36646fU, 0x3c54d7f6bccce037U,
  0x3975c2c7bd0181b2U, 0xbbfbed2bbbd683bbU, 0xbd9d3091bd37d557U, 0xbd99064a3d573d8dU,
  0xbc50f705bc1f5655U, 0xbd5ad1733cd80fb0U, 0xbb0549683d2f9366U, 0xbc0de5173ab17d71U,
  0x3c1ba49b3adc7f77U, 0x3cc207b63d12f086U, 0x3d2dd4e13caa553cU, 0x3d19867abc27acd1U,
  0xbc8cce7a3d53d52bU, 0xbd197b53bd543752U, 0x3c2cd524bc892ca6U, 0x3d25616e3b94b83eU,
  0x3cb6672ebca87541U, 0x3b49b29a3cd676b9U, 0xbbe43e15bd67fbd2U, 0xbd7dcdeebd40d2ccU,
  0x3b65745d3c91b017U, 0x3cb6fafc3bf52850U, 0xbd7832ed3cedf760U, 0xbd02473bbbd184ccU,
  0x3d30f3263d10022fU, 0xbc7c63153c5c3dc5U, 0x3d387134bd03d3a6U, 0xbda81ccdbc36982cU,
  0x3cfc538ebd19e8bfU, 0x3c3af5e9bbcb156dU, 0xbcfd3953bd80b8f9U, 0x3d0210e93b0cc1c1U,
  0xbdb51feebd11c7b5U, 0xbc8abc5dbb9c184cU, 0xbd9d5598bce6b6a7U, 0xbd19afeb3cd61c43U,
  0x3d3e7f253c2b68c9U, 0xbc1269dc3cdb77c1U, 0xbc9391f13d367b65U, 0xbccbb0fabd93054bU,
  0xbd2aa9edbc70b0b9U, 0x3cbe4b3b3d91150dU, 0xbcbaf0b6bd36f9f0U, 0x3d551d1c3c2718f4U,
  0x3d3b08003d88369fU, 0x3ba2ef99bd15bc50U, 0xbd330308bd36161bU, 0xbc2ce183bcd1670fU,
  0x3c3d3be93cafe6c3U, 0xbd084e9139cb7884U, 0x3bebf3c03d3f48d7U, 0xbcaf6f99bc678b2cU,
  0xbd08c0b03cba23d6U, 0x3d8a2ee13cff4963U, 0xbc9c23af3cac56cdU, 0x3b6fc59bbccca9f2U,
  0xbc81035f3d1ce53fU, 0xbc2635993c5fae64U, 0xbd0fecf1bb0c52d4U, 0xbddfb8203b0e1d27U,
  0x3d3eca7d3ce13f62U, 0x3b3223bdbd8bc2e7U, 0x3c029115bdcac792U, 0xbd7a0bf9bce799a1U,
  0xbaa1dda9bc5643b2U, 0xbc8ffac4bcd0e25dU, 0xbdfa25e3bd3444f0U, 0xbc419e213c07b39aU,
  0x3d14317c3c39b312U, 0xbd11e49eb8b13689U, 0xbc518e793d207a91U, 0xbc1a11cdbd64b1e1U,
  0xbd328ae3bd2831b0U, 0xbb2e41a93d2a11c5U, 0xbc7c9ce8bd3138bdU, 0x3d210d0d3d5aa67dU,
  0xbd1ed6603d9c6fcaU, 0x3bcf9c8ebd1cfd61U, 0x3b532d7abc10bd34U, 0x3d30b8f73ce8ecfcU,
  0x3d06e9c13c978e76U, 0x3d58f91fbce3ffd1U, 0x3b990b783d814167U, 0xbcb2ca3ebd3d3c7fU,
  0xbd1e04923cfe7c8bU, 0xbcbea0c23d27408bU, 0x3cc4b6b7bb2470d8U, 0x3a1567cfbcca7beaU,
  0xbb9027f13d11c381U, 0xbb10eb843d0dd185U, 0x3d07c0a5bccdbe0fU, 0x3af52458bb11f9c4U,
  0x3d1fb152bd03bcb1U, 0xbccb197a3cc5f632U, 0xbcc0ad7dbd05ea03U, 0xbd624f3abd475a4cU,
  0xbd0d4223bd42ec65U, 0xbaa290cd3cd1f23dU, 0xbde51feebb288df4U, 0x3c2935283d53ac90U,
  0xbc9a2956bd4ab8edU, 0xbca1f778bb04bc8aU, 0xbcdd39793dcbb14aU, 0xbc3847553cae9e57U,
  0xbca40ee7bdb29db1U, 0xbc79dcb73d961fe3U, 0xbc4c20f4bd1ba6aeU, 0x3ccdfc593c7eea6eU,
  0xbd20b5433de2c162U, 0xbb148792bd5c4f25U, 0x3d0a9349bd0ebc24U, 0xbb50cef7bc402637U,
  0x3cebb11a3ad4ff07U, 0x3bc5967e3cbc4a3aU, 0xbcf32205bd258684U, 0x3b090f9a3d0d05a1U,
  0xbca684473ce55d7fU, 0xbb8c81033cfd704dU, 0x3d40f0f8bd137e67U, 0xbc8f5712bcad5ac7U,
  0x3ae94a9cbcf550fcU, 0x3d371cf7bb5ee48bU, 0x3cd3954f3c30c318U, 0xbda7ca2a3d0be7bbU,
  0x3bfd3169bcf7f869U, 0xbd54619fbc43744cU, 0xbca4eab1bd1af259U, 0xbba7642fbc888b7aU,
  0xbca9ee0a3c631587U, 0x3d26b89f3c644967U, 0xbe0c5db1bd5b004cU, 0xbc7710153cd9463fU,
  0x3d109d04bc8d9e72U, 0xbd7d32d53d1444fdU, 0x3d3cb6463d455147U, 0xbd10fa5dbcd5e5deU,
  0xbd43d7e0bce08aa6U, 0xbcd353fc3d6ea5f5U, 0x3c3cea253c10c6d5U, 0xbcb97fbb3ce6c8a7U,
  0x3d11db5e3d4127d5U, 0x3d0e57b73d52cb05U, 0x3b137e203cdb96caU, 0x3cefe19f3d2b047eU,
  0xbd3021a23d14bc0aU, 0xbd042008bdbc1ecbU, 0xbca65cc83c9b08a4U, 0xbd4a25d73cc0af6aU,
  0x3c88cc003d392d04U, 0x3d4653ecbd4cde78U, 0x3c53bb88baa8c728U, 0xbcce138fbc71f063U,
  0xbcb094c5bdb61b9eU, 0x3d0d77bfbc53fad7U, 0x3b5df8813b573efaU, 0xbd89ce6a3cec3613U,
  0x3b1c785cbc4a02ddU, 0x3ccaa74abd51a16fU, 0x3d364befbd966a70U, 0xbd5838b73c234010U,
  0xbd4793b73cb9f271U, 0x3d1ec0143c977d85U, 0xbd29bcc83c516502U, 0xbca2174e3d45920eU,
  0xbcc055f9bd2948dcU, 0xbd42faa6bd08a9f2U, 0xbcb3f1d1bc8b2798U, 0xbd14ba8f3d8bd9d2U,
  0x3b6ee926bdf49a05U, 0x3d07e2a13cd8cbd3U, 0x3d2520b7bc41834bU, 0xbca17a483d7fe0ceU,
  0x3d23ad71bc6814f6U, 0xbbed6c7e3dd05c7cU, 0xbbf4ad57bcd25fe2U, 0xbcfe7fff3c4e4484U,
  0x3ce01f6fbc8f47f3U, 0x3d23d4d9bd03b2b6U, 0x3c079f1fbc67acf5U, 0xbd81f783bd258684U,
  0x3ce9ef2bbcb5d90dU, 0x3cb87274bd2a4468U, 0x3d9c6c16bd19dbdbU, 0xbca87f94bc1afd1cU,
  0xbb9499f9bba17b37U, 0x3d385250bd21a4e1U, 0xba5c35ef3cc0eb02U, 0xbd7922c53be49082U,
  0x3d902ffd3bb30fc9U, 0x3c2f22babc516c2bU, 0x3d3166a3bdd24964U, 0xbcb0c54abcb61de8U,
  0xbd33cac53c77d471U, 0x3ca0562ebd0c8d46U, 0xbda5fd26bc6294d5U, 0x3d1d95703cae6263U,
  0xbbab6d03bc9a737eU, 0xbcabc179bcaf7d80U, 0xbd8949083c97c5e2U, 0xbce238343cbdaa33U,
  0xbc8fd7aabd6bfd8cU, 0x3bfca8803d985711U, 0x3cbe20973d3dc63aU, 0xbd0f2e763d46c568U,
  0xbd33dc023ccb81b4U, 0x3cd0dc593d9ced3aU, 0xbb164e9d3d3f1bc7U, 0xbc9e3b21bb12e2e9U,
  0x3d1c2fbcbbf28df6U, 0x3c975e963c8d4639U, 0xbc4eab5cbd16e2c6U, 0xbd70e2853ccd5e06U,
  0xbd4a288ebad9d28aU, 0x3d95f285bcde8718U, 0x3d4d35883a46aacbU, 0x3cd4e4133d38383fU,
  0x3967c9b13d320360U, 0xbd038530bca76c41U, 0x3c6494cb3bb5f910U, 0xbde197963a7fb106U,
  0x3d4bf3cdbd0e0660U, 0xbbbae11abcd8a7ecU, 0xbd883186bdcca3ffU, 0x3ccf3503bcd935c5U,
  0xbd7c9d0fbca26785U, 0xbd820a103cffc26eU, 0xbe07f8dbbd254b81U, 0x3c7c9113bc3e433cU,
  0xbcf2b98a3c47e916U, 0xbc8faae4bd14c93eU, 0xbe0a0f7abbcd7c96U, 0x3cc2e090bd79d62eU,
  0xbcd55f80bd0c5bf7U, 0x3d3847d73d985ceaU, 0xbd35d9af3b9aa6e9U, 0xbc5aa3213d2a9616U,
  0xbc18110a3d01f02bU, 0x3c9fefbcbdf8add7U, 0x3d1a30a43a208475U, 0x3c8461583ce65adaU,
  0xbc0f07043cbdefc0U, 0x3c841cd9bd0df9caU, 0x3c2da929be0000d9U, 0xbc82cb633d2601f3U,
  0x39e51d40bca1ff6cU, 0xbbed82ec3d127f4fU, 0xbdc9166fbd275c96U, 0x3ba6be293d38e25dU,
  0xbb62d8173c98af45U, 0x3d3bad01bccc87d6U, 0xbb234134bd2a2a87U, 0xbdde7b2dbd237845U,
  0xbc6cf04c3d2286b8U, 0xbd3620b5bd341ef4U, 0xbdc57524bdaca24eU, 0x3d0cbdb4bcd16e24U,
  0xbcb8a3be3d1bc194U, 0xbdbfb19fbc9133fcU, 0xbdd4d2343cac5af0U, 0xbc685fb63d288fc5U,
  0x3c637184bd3927acU, 0x3ccf4142bc4ae58dU, 0xbde19ebabd8454feU, 0xbc852d8bbd8b15fdU,
  0x3c0c0c793caf283aU, 0xbd227b933d83c3f7U, 0x3bef9076bd14c4e7U, 0xbc5b76ecbd314befU,
  0xbc7b48073be22ec3U, 0x3c9719c8bdb2d086U, 0x3ccb533ebd09e03fU, 0xbb03b8a33c8818a1U,
  0xbcdb1a66bd0eadfdU, 0x3bce2ad3bc76cccaU, 0xbd00d2f63ca707ceU, 0x3c25205fbc913f8eU,
  0xbb48d32ebcb79d29U, 0xbd01f28e3c7241cfU, 0xbdd222bd3b1e9606U, 0x3d2f102f3d08b835U,
  0xbd11e04c3bf7a0d4U, 0xbcd5b2bd3acabd8aU, 0xbc88d755bcce6dcbU, 0xbe07ae493d25a9dbU,
  0x3c33fbcb3c99ba0fU, 0xbc506dc93c32646aU, 0xbd9ce548bdde0c7eU, 0x3d2cde77bb5d544dU,
  0xbd5a258b3c9b17a1U, 0xbd2460713c38fa76U, 0xbdb173febd850439U, 0xbd51cef3bd1a159cU,
  0x3cdfa514bc84f281U, 0x3c91b0093c5f7449U, 0xbd009d1dbc5d2e39U, 0x3b51a2e4bd90e2eaU,
  0xbbafc5adbd4aaed8U, 0x3bd3a2833cc9c735U, 0xbcf277b23c8e35e0U, 0xbd063425bc3d8a0bU,
  0xbd08d5fa3d3bb8abU, 0xbcf6ff81bd35bf0aU, 0x3c42f9f4bcfab08bU, 0xbd393069bc9c843cU,
  0x3c4186dcbbf78a6eU, 0x3cd8fc14bd00f525U, 0x3cfd18b7bd062d2aU, 0x3ceb14e93c498888U,
  0x3cf053e8bb89d743U, 0x3bab421abbea151eU, 0x3c5630833d24592bU, 0x3c9b98343ca4fa32U,
  0xbd4b55e63d3b4febU, 0x3d31591f3c573170U, 0x3d038ceb3c57959eU, 0xbd972ca5bcf9483eU,
  0x3d4febe43cafba73U, 0xbcafd65f3c26e220U, 0x3c5bf27cbd8353eeU, 0x3d2534c43d1e443fU,
  0x3c875b98bcdade6cU, 0xbd1bc6c13d184d8cU, 0xbd845199ba627ac2U, 0xbd153b62bd1365fcU,
  0xbc166534bc332d33U, 0xbc7acf1ebc46ba28U, 0xbcb10b243cb24b53U, 0xbb8e2c9fbc7ac18bU,
  0xbc0bd95fbc819d24U, 0xbca437be3cdc7c9dU, 0xbc900199bc83e5fcU, 0xbc836ee73d05dda9U,
  0x3d0a70fc3da7e92eU, 0xbab0f146bc7be0f7U, 0xbcf1894a3d004201U, 0xbd5ac845b9d0c64dU,
  0x3d3b9c70bbab16d5U, 0x3d42720b3c4679abU, 0xbad7fd71bc8af561U, 0xbb3a35da3cb1d60aU,
  0xbd417e003d19b3dfU, 0x3c6abc82bca1c936U, 0x3ddd02ba3cc964a1U, 0x3c9dfa91bada4e5cU,
  0x3c6259d7bc1abd4bU, 0x3d0f27f8bcb5578cU, 0x3cc216a43d578e48U, 0xbd423de13c85bd44U,
  0xbcd1fd0ebd080cb1U, 0xbd25e3afbc124a4dU, 0xbcce9450bda17f0cU, 0xbd033dc1bc3a6d2eU,
  0x3ce96e023cbac953U, 0xbbfa739a3d11aa5bU, 0xbc7b8c3abc005efdU, 0x3d2f777c3ce74893U,
  0x3cd816bebc757bdbU, 0xbd2e4c15bc9a50c5U, 0x3ce09a983c30f80eU, 0xbc6a651cbd56abf2U,
  0x3d10615bbdf6d3beU, 0xb76b69cc3cf8c66dU, 0x3c9a973dbbc43f14U, 0xbc06dbd53c0af5d5U,
  0xba80c0b33c06b301U, 0xbc058cee3a4ad945U, 0x3d001a38bd23177cU, 0xbb79d678bc965820U,
  0x3d175e853cf8a46dU, 0xbcf4098f3d04220dU, 0xbd36b44cbc324b80U, 0xbd2f53c73d2d4331U,
  0xbd3f79ddbd3b4373U, 0x3d262db2bcc816a0U, 0x3d600772bd0c8e80U, 0xbd16091cbcb82c4cU,
  0xbccfbbcd3c979935U, 0x3c8b37edbd21cffbU, 0x3c86ed94bd0c43a0U, 0xbdae56883c8e342eU,
  0xbcfa9dc6bcdc93c5U, 0xbd238788bd45f507U, 0xbc2c64f9bd2be2b1U, 0xbd0468fdbc690989U,
  0x3cdf01c03d0e2138U, 0xbd90ba3b3d1ae2a8U, 0xbd574871bd18054aU, 0xbbf03ee13cb672dfU,
  0xbc599eaabc3dc1b2U, 0xbd8be2cdbcb9f08aU, 0x3d40f8163d2c776cU, 0xbc3e8a9b3c0843deU,
  0x3c5a4251be0ea020U, 0x3cc59a4e3d1ae474U, 0xbc95a75c3c04e16aU, 0x3ca9c8ab3ccc484cU,
  0x3d388af13d036b6fU, 0x3ce593ab3bfe87ffU, 0xbd00f0683bb780c0U, 0xbcd155a83c593de1U,
  0x3c8483e3bd192e1fU, 0x3d5cb679bce9f1b3U, 0xbd0bea48bdbd71bbU, 0xbd6abeb5bcac86acU,
  0x3cc77092bcc04938U, 0x3d5987b5bd511fbeU, 0xbd5feff1bcb77a4eU, 0xbc4060f03b51b303U,
  0xb9d347cabc40ccb1U, 0x3cf8612d3cb59c92U, 0xbd338c24bd47f02aU, 0xbd394b083d0d36e9U,
  0xbc398f263d414d23U, 0x3c2f3bdd3c14edf6U, 0xbdc81432bd09b38dU, 0x3ccdb3d8bc328668U,
  0xbdbd4f4eba6d014eU, 0xbd280b263c62eed4U, 0xbde1014bbbeee2f8U, 0xbbf39e3239822f84U,
  0xbb59f33f3a7fda56U, 0xbc42ef2cbcd6df81U, 0xbb45bf243cb7f311U, 0x3d3d8da1bd110e18U,
  0xbd2287a4bd964ae2U, 0xbc9064113d5090a6U, 0x3d019230bd0d9740U, 0xbcf1af5ebd13d4d5U,
  0xbc1e55f7bdc3fa07U, 0xbd09afcbbdd193faU, 0x3ca4af83bd378036U, 0x3aebafd5bc0391b4U,
  0x3d4247c8bcac4e12U, 0xbbf8fe2d3c213589U, 0x3cf1011cbc9d171eU, 0xbd870cca3b0e2e00U,
  0xbd4c1d603d03aedbU, 0xbda94c70bc185e8cU, 0xbd3679ae3d4b4b69U, 0xbcbb427a3bbbd82eU,
  0x3a9519153c294a65U, 0xbd29ebf23c4118a2U, 0x3c57de8ebc2dfcc2U, 0xbdc03214bd45f0dbU,
  0x3d115e1c3ac74793U, 0xbccf8aebbca7ce1fU, 0xbda6546dbdca20d3U, 0x3d924a673ad6bef5U,
  0xbd64e389bd351a26U, 0xbbd78ddf3d0add72U, 0xbd6d8eeebc887312U, 0x3b58b9433ce9f438U,
  0x3cfe8dea3cf8f4feU, 0x3c2bb91c39d968b4U, 0x3d7be875bd79b8dfU, 0xbd06e77ebc270726U,
  0xbd6972adbe2bb921U, 0x3b2d94d13cbea13cU, 0xbc6a26a93c5ca85aU, 0x3cc00c933c9c3794U,
  0xbc8316e8bdd99a0eU, 0xbc493db8bcac0f98U, 0xbd4543713c4ba08aU, 0xbc2a17003cabddcaU,
  0x3caa4b22bce0d254U, 0xbd3e2931bcee5b78U, 0xbd347e18bc8f73f5U, 0x3c4c22893d235badU,
  0xbd7260283d49ef3fU, 0xbd3bd654bd10ea50U, 0xbdbee4c8bc7e8ebeU, 0x3c3b5362b8214484U,
  0xbd3615c73ce99f0bU, 0x3d26da5f3d2e7be3U, 0x3c8e6ce0bd356b85U, 0xbdaafe77bc351349U,
  0xbc5164cdbd4a055cU, 0x3c846ec9bd5321b2U, 0xbdb64002bdc0feddU, 0x3d6c7d24bbebb0b2U,
  0x3cafff103d225195U, 0xbd5dcb5ebc961cf8U, 0xbd6731e6bc8de0efU, 0x3c1591523cb04959U,
  0x3d2f3ca53cad5a0cU, 0xbcd7fc59b9d5774fU, 0x3c8ae33dbc03531aU, 0xba7e74b93d76fddbU,
  0xbcc52db6bdf95bf2U, 0xbd091a1f3d38d44eU, 0xbcfc002f3d38cb87U, 0x3d2e07ea3d105752U,
  0x3d2bdb71bc48202dU, 0x3b6ef461bd88282aU, 0x3bec18f6bd26e974U, 0xbd11e7f7bceb7f0cU,
  0xbd35c2cb3d18ce55U, 0x3ca6ad40bdc10939U, 0x3ced3284bd0189d1U, 0x3cdf496fbd175f23U,
  0x3ccaeab4bcb50a89U, 0xbde06bbfbcc77eb3U, 0x3c2f0f7b3c6a555eU, 0x3b78e9e2bbde6479U,
  0x3c7f2de13d5ac9d2U, 0xbce669ed3cda5ff0U, 0xbaaea262bd3706f9U, 0xbd0b52473c82779fU,
  0x3d83599fbd0fb907U, 0x3cafd9b0bd0a8a8eU, 0xbe2907f4bd693073U, 0x3cb1d26fbcb418f1U,
  0xbcc5ac3bbd4309b4U, 0xbdf811cb3c0e742fU, 0xbdb6bb7f3b79d5cfU, 0x3cd66c863cb81992U,
  0xbd26cf55bd121469U, 0x3b97f7e7bcb8ddb2U, 0xbc31633dbd013eeeU, 0x3d6b86ccbc21070eU,
  0xbc7f94eebe0516bfU, 0xbc88115c3d4934e2U, 0xbc080dd13c79680bU, 0xbb861bcb3cb772c7U,
  0xbc7198a0bda94275U, 0x3cfeb7353b7648c0U, 0xbd5bae393c5a851cU, 0xbc9463553cafced6U,
  0xbd218fc93b91d414U, 0x3c1e00e7bde8912aU, 0xbc6f77a8bd3c9765U, 0x3d16b5983cc52468U,
  0xbb5b072abbb9cfb1U, 0x3b8eebd3bc5fed3dU, 0xbc8f5198bd2901a3U, 0xbd463997bb1c8172U,
  0x3c83f9c2bd1ff8f5U, 0xb8c70472bcf28c55U, 0xbd1e0a313cb8e05bU, 0xbd73679d3d39dd43U,
  0x3ccf9ea8bc105fdaU, 0x3b740910bcf687dfU, 0xbe2197eabdf3700fU, 0x3d98c488bd11467aU,
  0xbcf78a98badde256U, 0xbe49a7f4bd2202e9U, 0xbdc32456bd186f1dU, 0xbb9f7b46bd2c6a9fU,
  0x3aadfd4ebb4d7f44U, 0xbd73e8ce3d42f0e4U, 0xbd9c0dcc3b5b646aU, 0x3d9db5a7bd820aecU,
  0x3c080ce1be04be88U, 0xbd2097c93d59964eU, 0xbcb63dd23d44c563U, 0x3c1076b6bcb86259U,
  0x3c73aa72bd0d732cU, 0xbd2db9a5bd3af092U, 0x3afc942dbc85875fU, 0xbc4d9d4d3cf82194U,
  0xbd0dd5963d0701c8U, 0x3ca50e073ce46d7aU, 0x3d0953fdbdcebd83U, 0xbcd8de8a3d763c70U,
  0x3cc5ea203c788d6fU, 0xbd8bd1023d1747feU, 0xbd90e7b53d286fb9U, 0xbd3a5a32bcd264caU,
  0xbcbe6ac7bcbb8453U, 0x3c6f13d13d1c2c42U, 0xbbc21a4fbd17c955U, 0xbdbfe4483d1d8cf7U,
  0x3d0c1bc43cb38d43U, 0xbccf82f2bc090ef2U, 0xbe2e79d7bdd4aad5U, 0x3b958727bb1d779aU,
  0xbd60baeabd23253bU, 0xbe2f2bb53caed5a2U, 0xbd8246cbbd58f69aU, 0x3d4490e5bc9a8a0fU,
  0x3cca0fb3bb9ffa0bU, 0xbc402790bd49ffaeU, 0xbd7812763bd57838U, 0x3d205753bbd7d89fU,
  0xbd230241bd15a38bU, 0x39a6e56d3bfb9193U, 0x3ce2a1a7bca016beU, 0xbd02501dbca859aeU,
  0x3d131cb6bdec2dd7U, 0x3c66ceb1bd969b81U, 0xbd01b9a6bc297ba7U, 0xbd38e15e3ce068c6U,
  0x3c9a115abd2617f9U, 0xbd0ffd42bcd4107eU, 0xbd07ded8bd6f384eU, 0x3d049d4fbd34e38cU,
  0x3cc9c322bd23c29fU, 0x3ca28469bce5318bU, 0xbdf86b9f3d4d2327U, 0x3cb110d03d10b01dU,
  0xbd6a2b3dbd87de37U, 0xbc90c0c33ce25327U, 0x3c76d6243d1a8ddbU, 0xbdfa0f64bcc43256U,
  0x3db46c34bccdc828U, 0x3ccc5e19bd363fe7U, 0xbd176f83bd2ac0eeU, 0x3d103c62bc94768fU,
  0x3bab5d213d23eaa1U, 0xbd4b40f83d1d5ddeU, 0xbc8b896bbc95d6e0U, 0x3d2cb4b5bb1029deU,
  0xbcf62c11bd6c8566U, 0x3c14957a3cb2fad8U, 0xbdb3755a3d3463d8U, 0x3c61f26bbcb2cb95U,
  0xbd45aea7bd4b1e76U, 0xbd55b19b3c96dd39U, 0xbb5eb4283cd0cda8U, 0x3cf4b3813d0566a0U,
  0xbd028bebbcdaaaa7U, 0x3ca374753d2a2304U, 0xbd0b13b13c12f081U, 0xbd19bd3c3d216135U,
  0x3d0444d63d346ec3U, 0xbd2f5e07bd71872cU, 0xbcf5209ebdb82d71U, 0x3c9f2bdcbc24ebf4U,
  0xbd5c1de53bed7b0bU, 0x3c337ca43cc843ddU, 0x3b0370af3cee0e53U, 0xbd2a5c483c583babU,
  0x3c672fb8bd77d66aU, 0x3d67e80dbc130042U, 0xbced3ad33c46133bU, 0xbdc41748bcf9f533U,
  0x3d825b29bc3d7d77U, 0x3c6c00e83c307876U, 0xbd991258bd29cbdeU, 0x3cbef14e3cf972c9U,
  0xbd1ccbb0bbb196d9U, 0x3c33f7dd3d09540cU, 0xbdb9a477bd43610aU, 0x3cc3190a3cbf1adaU,
  0x3d173f013d18f0b9U, 0xbd0996d1bc9ae2a1U, 0xbc80f9fd3c6f2648U, 0xbcc91a5bbd8c8424U,
  0xbc1b6262bdbe2c85U, 0x3adb3c0a3d8d07c3U, 0xbc3dbf4bbc83fb1bU, 0xbc93d876bd7e8376U,
  0x3d3886443c8b7340U, 0xbc0a8fca3cfe6cb4U, 0x3c1cef853d3f6f70U, 0x3d156e1e3d40aeadU,
  0x3c775296bd051aa3U, 0x3c08234abcd8db08U, 0xbd3670d1bcba3f2cU, 0x3d68b2ae3c9f6397U,
  0xbaa27048bd2c9869U, 0xbc07bac03cbb7149U, 0x3cb6f869bcafda35U, 0xbca3ea063d32e32cU,
  0x3cdee89b3d00b3d4U, 0xbc75da733b101029U, 0xbd0264203cf4f1eeU, 0xbd5baf723be9641aU,
  0x3c59e9c9bcca160aU, 0xbd443aaf3c86479aU, 0xbd94042dbcbcb1a2U, 0xbcee3fd73d384bbeU,
  0xbce1d7c1bc8743b1U, 0xbd8892d23d05993eU, 0xbdde4256bd181f19U, 0xbceee6683d1b0a4fU,
  0x3cd3cfa7bcadec03U, 0xbd8da6093b60439eU, 0xbd272455bc6c8907U, 0x3d1251fc3bc15f67U,
  0x3cb4cc0fbd5d3798U, 0x3d115a043cb923c7U, 0xbc8cd519bd4c406dU, 0xbcf4245f3d06e17aU,
  0xbd2e9f453d0150faU, 0xbd0a5bd63b6a8052U, 0xbd9f850abcd50061U, 0xbcf2a07fbd2e8b91U,
  0xbd00572d3ca1b48dU, 0xbc5138553b8799f3U, 0xbcc65b1bbd97bf04U, 0x3c6797a53d362a61U,
  0xbd0efeacbd1f1cbdU, 0xbc8210c3bd0d58a7U, 0xbcd93fb03c46fc62U, 0xbc0e49803c1432c6U,
  0xb95c71ddbdead68dU, 0x3d1675d8bb1e50adU, 0xbd203a5dbaad2f3eU, 0xbe4a366abd309400U,
  0x3cd6ad663cfdc5eaU, 0xbd632d60bae42fdaU, 0xbdf28dfabdf257b5U, 0xbd11e73bbcc226a5U,
  0xbd8af1adbceb0b20U, 0xbe07e6d73c96d799U, 0xbe021697bc9ee446U, 0x3d012a35bd130cb1U,
  0x3d39297b3d7e247dU, 0x3c01ec0e3cd22735U, 0xbd6963473a92851fU, 0xbd77c08dbb86a7e5U,
  0xbe02d8d9be13bd16U, 0xbd04584c3c240678U, 0x3c9b1036bd227b02U, 0xbc07f1fa3c48c98dU,
  0x3bca1a2dbd0a53c7U, 0x3d00a5e7bd2163a1U, 0x3c62c571ba90be1fU, 0x3c40f0823ce5e0c2U,
  0x3c55ff7bbcc6d615U, 0xbd0b361a3d4fc0f2U, 0xbc2f97ebbda5321fU, 0xbc9fa52f3b905858U,
  0x3c2db8713b00fa05U, 0x3d741b26bc8df499U, 0xbdad4a4a3ccd5d68U, 0x3c98e589bcc6dae6U,
  0x3c2cadb93d217d82U, 0xbc4cffe5bca40f73U, 0x39f2db5dbdbca7fcU, 0xbc50f782bd2a9e68U,
  0xbd174df23d20076cU, 0x3c9418f5bba79507U, 0x3ad5a4263d13f604U, 0xbc19315a3cefbdc4U,
  0x3a9c3b503d0ad3dcU, 0xbc908ce93c5f0524U, 0x3cb70ac5bcc7f3dbU, 0x3cc0b447bd4afc08U,
  0x3ceba213bccc4a9bU, 0xbd3bb1dabc3cc25dU, 0xbc93bf053cf85627U, 0xbd55d2dd3caea361U,
  0x3c023d49bc1046d3U, 0xbc8e26b3bb572dfaU, 0xbd2307d93ad08555U, 0xbd0475663ca884aaU,
  0xbd30db20bd547f0bU, 0xbd91d893bcefa726U, 0xbd7f17743ce22c3cU, 0xbd314d94bd23a3abU,
  0x3c68d145bd51ed8eU, 0xbd204da1bca0ae5bU, 0x3cdb218bbd457623U, 0xbd14f490bb0c2a96U,
  0xbcac3b4e3acb9504U, 0xbcab7fd53c9d5785U, 0x3caf244abd560616U, 0xbcb2ca41bd138bdcU,
  0xbc2663093cb59e8aU, 0xbd54f2ce3d133cf1U, 0x3d12d040bc9ecbc0U, 0xbae6f13ebbf29cb9U,
  0xbd4b3f603b650371U, 0x3d116dd53d0956d3U, 0x3d1c27693ce8e44eU, 0xbd1e38f9baf6f317U,
  0xbccf23b3bbbf6037U, 0x3d3b36de3d14b673U, 0xbd0f35983c87af9cU, 0x3d4ddee9bc78a1d4U,
  0xbd71ca99bc45a818U, 0xbcbcf0d4bae4e24dU, 0x3d0eb1443cd9687dU, 0x3c9d4e6cbc90d13fU,
  0xbd545f683d0c05a1U, 0xbcbe2da0bd9e5942U, 0xbd55527bbd26d863U, 0xbc07b078bcb35000U,
  0x3ce9f0533d050e83U, 0xbd8661b0bc2c797bU, 0x3cf0f1ae3c096c52U, 0xbca0fc303c00ff32U,
  0xbc39e6343af28ec5U, 0xbd1ffb2cbcb12395U, 0x3d032785bd3b2aa4U, 0xbd281a8ebd23b2fdU,
  0xbd97aa47bc514f6eU, 0xbd2b1d6dbd50d8cbU, 0x3c854afb3cd71f33U, 0xbd52761cbd0212d1U,
  0xbbc3139d3cbae83dU, 0x3cb24a3f3ae42c8eU, 0x3c0b2097bba5c634U, 0xbd8d65ebbbb4fab8U,
  0x3ccbb59b3ca71eacU, 0xbc8b6662bc7fcfe5U, 0x3d1145533c594502U, 0x3b52d5b1bc64ed61U,
  0x3d239faa3c51f3a8U, 0xbc0146243b0bb59dU, 0xbd0f630c3c969627U, 0xbd3e8440bc9a753bU,
  0x3c912fb23c673605U, 0x3c039215bd17cebaU, 0xbbecec2e3b9efbdeU, 0xbcda62043c11bdd4U,
  0xbd02ad8dbd8ca161U, 0xbc96a097bd90ac08U, 0xbca1f400bd097c4eU, 0xbca706873d11c393U,
  0x3d1614c7bd0a319fU, 0xbd8102b2bd2430e9U, 0xbcc34ede3d275cb1U, 0xbd3df3843cd4f2c1U,
  0xbcc13ce1bd4d6e3cU, 0xbd44f23f3c9f2f1dU, 0x3d0bca99bc72d053U, 0xbcda937bbd0d995bU,
  0xbcb8c6313cba005cU, 0x3c42368bbcc9ea42U, 0xbd316779bbbd9607U, 0xbc0e65b83d014dd1U,
  0x3c45a4c1bd291db5U, 0x3d1b9ddd3ccaffa5U, 0xbd2f693ebd10583bU, 0x39c879383c995f14U,
  0xbc795812bd0f3e0aU, 0xbd4040c43d2423b8U, 0x3c2e2047bc73d07aU, 0x3d029c803c6afad6U,
  0xbc77c4873a176741U, 0x3b3268a83c1048abU, 0x3caccf713d264d5cU, 0xbccf1a48bd09fef4U,
  0xbcccd4233cf7c6bdU, 0xbb8782913b48b3f0U, 0xbb60913fbc6a3d21U, 0xbc7fbaee3d0c837aU,
  0x3c900fb23c21c95bU, 0x3a4f956fbd15ced0U, 0xbc91f6b6bd56c7d0U, 0x3cd1c38b3cf2987eU,
  0xbd4de3813c5f7a5bU, 0xbcf60f53bd17bf44U, 0x3c8dc0b73d0541b5U, 0xbd393a15bd4f77d1U,
  0x3cc12936bd3a446bU, 0x3ca48d103ca424d8U, 0xbd0d383c3c6b37bbU, 0x3b7317833c6be843U,
  0xbb85f6bd3d067eabU, 0xbce7699e3bda4ad2U, 0xbd250261bcb183b4U, 0x3c36e062bc16c45dU,
  0x3cac314d3c690311U, 0xbcac0b8abc651eb4U, 0x3bd82733bcf6c929U, 0xbd505627bd3259eaU,
  0xbc1b10eab9dac591U, 0xbced0314bd2e37e2U, 0xbc16eacfbc62847aU, 0x3ca4339a3c67ba97U,
  0xbc9da9993c5e20dcU, 0x3cb154dd3d0aa4ddU, 0x3c8500f3bd11d75bU, 0xbc9addaabd529f79U,
  0x3c8d2ed0bb2d7f3bU, 0x3af3b0e8bcda2e03U, 0x3cd685edbcde02d6U, 0xbd1c0fdf3d1bbdd3U,
  0xbaa46af0bd9600f3U, 0xbcdee5bebd050710U, 0x3c2d999f3b953235U, 0xbcbe7854bcc008f2U,
  0xbd09c5793c266f0cU, 0xbb4f8ff4bc0b1da9U, 0xbd4275eb3a761afbU, 0x3bcea59c3d14d65bU,
  0x3ce7a34ebd1e1d5bU, 0xbcca24bbbbcdabdeU, 0x3cc29a4a3bf21790U, 0xbd2ad99a3c99f6a4U,
  0x3d4f0cddbc69712eU, 0x3cb223733d1cc624U, 0xbb8d007fbbf15978U, 0xbb64912dbd3e47c9U,
  0x3c775d9a3d1c831fU, 0xbd5196dc3b009a42U, 0xbd49f9d4bca878eaU, 0x3d0c2127bd1928d5U,
  0xbd085650bc2255d5U, 0x38d63b3fbcd28477U, 0xbcf093b23c2f7bb2U, 0x3cf81a47bc1fc5e2U,
  0x3cbe41843cca5f73U, 0xbb6595903b4e6e94U, 0xbb842c49bc4461a8U, 0xbd410465bca4ac83U,
  0x3b8649a2bccecee3U, 0xbc1619bdbc47a14dU, 0xbb3c3707bcb2a6a5U, 0x3c2b47c23d327b74U,
  0xbb796466bb151b46U, 0x3b534a073d3a5d7aU, 0x3b84dbb5bd178dfaU, 0x3c5e6886bd352e7aU,
  0x3ba48083bd1a1951U, 0xbc50a1373cfbc594U, 0xbd8199553c9c6c34U, 0x3cc0fca9bd2fe101U,
  0xbd206a88bcdc513dU, 0xbca40b45bca8fd24U, 0xbc01b9143cd46615U, 0x3b7be4a93b85af90U,
  0x3d3c9059bc972f83U, 0xbd8faa3b3cb99c7dU, 0xba57161c3cc8334fU, 0x3be98cabbcc3bee1U,
  0xbd1e69b63c08659cU, 0xbc24b4dfbb24e5e5U, 0xbc3a3bcb3ce442d3U, 0xbd2d2471bd08e121U,
  0x3bff5bdbbccc4440U, 0xbcff21de3cfff433U, 0xbd1a6325bc914f52U, 0xbc97eedcbd175c0cU,
  0xbcc3a04fbd038263U, 0xbcfe76a1bc6103d7U, 0x3bbf5d37bd38e3daU, 0x3bb14fdebd77ad22U,
  0xbc9251073d1a0ee5U, 0xbb82b6f63c8acd2cU, 0x3b3c0f113c8e1d13U, 0xbd54db293c8712e3U,
  0x3cca1bd8bb06dd8cU, 0x3b168a9ebb988d7aU, 0x3cd49eb5bc6221edU, 0xbab3ee073af5a27eU,
  0x3aa96e813d07ff0bU, 0x3d1b20e8bd103130U, 0x3c31aafabbfd8181U, 0xbd5028723d209717U,
  0xbc804ada3c37737fU, 0xbd7bd46f3c21a257U, 0x3d11f757bd2c7d63U, 0xbcf1e3d83d02a6ccU,
  0xbd09a10abd1ed027U, 0xbcc7b7133c8047d5U, 0xbc8f9208bc2c63f8U, 0xbd0153793c511b8cU,
  0x3d093a5cbce516beU, 0xbbe2ea23bcc990ffU, 0xbc1fefae3c76b92eU, 0xbd8bbd7ebb2fc610U,
  0xbd1d7a613d18b3a9U, 0x3cabfc33bbb9b264U, 0xbc831422bc8f6989U, 0x3d23a23e3d034caeU,
  0x3d1ef9cbbcb3acd5U, 0x3c974d443d1357acU, 0xbc9aba303d1f0df5U, 0xbcd83c673c9f5068U,
  0x3bcad148bcf86486U, 0x3d1ca7343cbb3917U, 0xbd2567023bc7d35eU, 0xbbfe2144bc94c2a1U,
  0xbd0f68003ccee6a6U, 0x3cebefc4bce60d93U, 0xbbf8e9a1bc118b58U, 0x3ca16e66bd470115U,
  0x3d120164bc4a4c1cU, 0x3bb29fb8bb3a2715U, 0xbd173f55bce481e0U, 0xbc2596c5bd2b43edU,
  0xbbedc9e9bcf1f023U, 0xbd5c9e7f3cdc8786U, 0xbd54b87fbd34cd12U, 0x3cecc247bd38b2d4U,
  0x3d23cb263d06913dU, 0x3cf5f35a3c0986eeU, 0x3d43c64bbcee0bbbU, 0xbcc4d716bbd010bfU,
  0x3d0397d5bd26e3deU, 0xbcb468053cac5668U, 0x3c3216233d0c6391U, 0xbd65bd6abb94c0fbU,
  0xbd23403b3d0c1d2cU, 0x3cddc6babbde8187U, 0xbd15b42b3c41bbdaU, 0x3ca7ac01bcfa1950U,
  0xbbb37631bc05bb78U, 0x3bda95b03ceda419U, 0x3d18356d3c4e20eaU, 0x3a2b4b50bc2b0109U,
  0xbadae8dabcfaca9bU, 0xbd53a5213cbf3443U, 0xbc1f68ffbaaebdf2U, 0xbca813ccbaf35cc7U,
  0x3c80b6c53da695ebU, 0xbd2c82e2bcf63521U, 0xbc867caabd0181f8U, 0x3d2156d73cf49166U,
  0x3d0d519ebc737883U, 0xbcd092993ca71851U, 0xbd10cb653b1c2d9dU, 0x3ca9cf64bc935db6U,
  0xbd2268993baf3f2cU, 0xbcddb20c3d4cf0d9U, 0x3d0c1f82bce75c67U, 0xbd61354dbd0229beU,
  0xbd27c27b3c0d64b9U, 0xbb420321bce63ae3U, 0x3d1cf98bbb9e1160U, 0xbb9d0917bd5284a4U,
  0xbcb9f231bd59b134U, 0xbc8cdfd0bd28cceaU, 0xbd31e17fbc2f06d6U, 0xbd2049d5bd33454eU,
  0xbbc4f71f3aad6a24U, 0x3c0d95393b537160U, 0xb9e48950bd3f4420U, 0xbd3a672bbc19735bU,
  0xbd29e094bd379fc6U, 0xbb2170793d3640beU, 0xbd0786303c29f259U, 0xbc94205ebc17fe5bU,
  0xbd14e015bd05cd76U, 0xbd1bad68bc1201f4U, 0xbcf37295bc8051acU, 0x3d21534ebcb0932cU,
  0xbcd8fcd33d5daffcU, 0x3d011987bc5f26ebU, 0x3d1a472f3cc5eca6U, 0xbd255c993c31094fU,
  0xbc10545c3cd231d4U, 0x3c0dc36ebcf85cbcU, 0xbd856a3c3c61d84cU, 0xbd67acce3cb085fcU,
  0x3b2360c63cf754d0U, 0x3cfb39d23b1fb60fU, 0x3ca229babd505a5cU, 0xbc9a3e01baaa2105U,
  0xbcf7373f3d132648U, 0xbcbe08343cf1cab9U, 0x3d61070cbd4dae08U, 0xbcf9a6943c8171dcU,
  0x3c90a611bd0f44f2U, 0xbd5795283d1c9a7aU, 0x3bcfd6543cb4cebaU, 0xbd08e747bc6974d2U,
  0xbcd0b84dbaea5bfbU, 0x3c3ccf9a3d05b45dU, 0xbcda763b3c765353U, 0xbccd7e7fba99f226U,
  0x3c198e533cd8d084U, 0xbd7167ca3d04fe68U, 0xbd419b43bd17b8c1U, 0xbc82f7e6bccee164U,
  0xbd2a3224bcde3752U, 0xbd5afb8dbcdb0c11U, 0xbd3155babb05f071U, 0x3bc5a9c6bc806d18U,
  0x3bd62fec3cc52bdcU, 0xbb1bce673d2f125fU, 0xbcf9ef93bd3cc546U, 0x3c93d7d53d09dd05U,
  0x3d2e1654bca82425U, 0xbb8dbfdfbd31acf9U, 0x3d1b56f13cbcf9c0U, 0x3c5cb9a43d29275aU,
  0xbd26f04f3c5464cdU, 0x3d03747e3d13935cU, 0xbd37ae53bce72257U, 0xbc31e89dbc6657ceU,
  0x390898afbc9e27b4U, 0x3cc01ba53c1792eaU, 0x3c742767bd1ea6f8U, 0xbb18d2d1bc807384U,
  0x3cc2786e3c5ca1ceU, 0xbc3f2420b9d1e758U, 0x3c9df8c8bbbf23a4U, 0xbd5e4be3bcdd2cacU,
  0xbc81e2f8ba957416U, 0xbc6b622cbd501562U, 0x3ade7ab53c7876f3U, 0x3cb4b3f1bce26021U,
  0xbd3ab05a3bfbae39U, 0x3ccb7dbb3d1f66fdU, 0xbd9e6f74bc311ef2U, 0xbd271c133b97ddd3U,
  0x3d0ac49cbd34dfc6U, 0x39b7c5beb7e58e05U, 0xbcdd72febca91223U, 0x3cccfb223b07e459U,
  0xbd44d1c93d218a19U, 0x3cd66459baf08a36U, 0xbcc7a72cbc9f292dU, 0x3d2dfc2eba843409U,
  0xbd46a9933cddb626U, 0x3c8b43edbd39f6d4U, 0xbca7b9b1bd303fa0U, 0x3c888c0f3d2374b4U,
  0xbd1c01bd3c9b49c2U, 0xbd5d57a53b66d425U, 0xbc852f90bcfb80b7U, 0x3d0838d43bea7695U,
  0x3d2873acb6ab633bU, 0x3d0571163ca0e365U, 0xbcd9a7853c3d6ad1U, 0x3d3ac6bcbd276b39U,
  0xbd3a28e33d1bc716U, 0xbc0ec5993cf8b040U, 0xb7895d9fbc858aeeU, 0x3c1d2c2f3befe270U,
  0x3cd7c3b1bce4b96fU, 0x3984476b3c8f38ebU, 0x3d07394ebcb07021U, 0xbd093311bca2df55U,
  0xbd5f66abbaea04f4U, 0xbcc6a84ebd4af4c8U, 0xbc10aa463d13f497U, 0xbc9e8de93d2e5a01U,
  0x3ce4b8873cbc12c4U, 0xbc8deb0b3cbd5363U, 0xbcb4cab43d08cbcaU, 0xbd11cbeabd3a2112U,
  0x3bc0cb86bd4be85dU, 0x3c50a590bcdc8ed0U, 0x3d0c5cdebd326324U, 0x3d2aa838bd1c130dU,
  0xbc762f563c5f44d4U, 0xbc245e8a3cecb69aU, 0xbcd372ae3c36a3b8U, 0xbd64542a3d1518e9U,
  0xbc52684abce1b2a2U, 0xbd5c719a3c0ec43fU, 0x3c29983b3c9795cdU, 0x3cd7f9f7bc068455U,
  0xbd336ebfbc966d05U, 0xbcb19785bcc1d4c3U, 0xbd06788d3c9b5efcU, 0x3cbc52a53d1f6d6cU,
  0xbd32a40e3d0e3f70U, 0x3b8726dcbd138894U, 0x3c46a1d3bd3d48f6U, 0xbc2383a33cfbcb9dU,
  0x3d378049bd23de28U, 0xbc0eeaa23b14dc8cU, 0xbb0eed88bc0ca8ebU, 0xbbc92cf9bbf9c377U,
  0xbc3f34d9bcf3bbe3U, 0xbcc85fc2bcd9ddbaU, 0xbd2ca0fdbc41c2d9U, 0x380703ba3bf05ff6U,
  0x3ced5092bd5124dcU, 0xbd4dcdfe3ccdd264U, 0x3b94ec733cbbb6d1U, 0xbc65d32cbcb6df94U,
  0x3d05b3aabd75e1a0U, 0x3d1283d93c5b18ddU, 0x3d0fefc3bcc39e8aU, 0xbcbbe52cbd05a8f5U,
  0xbc6c1cb53be75725U, 0x3d2a43d53c530d1dU, 0x3c784c173cbd5455U, 0x390429debccb0a23U,
  0xbd359f49bd04a4e9U, 0x3adb60553cc0c7ceU, 0x3cc35b86bc732d53U, 0x3d2ff7aa3cde67b5U,
  0xbd1a649f3d1be2f3U, 0xbd0170bfba99c1d4U, 0xbc34519fbc921807U, 0x3b0c38053d169f90U,
  0x3d1fbfa1bd365caaU, 0x3becadb83d0a8400U, 0x3c6b7b833b21ca21U, 0xbcb953df3d05ecf3U,
  0xbbc5e561bd42aa9bU, 0x3c0306663851c361U, 0x3d1d6ab13cc96a70U, 0xbc596ee53d1918f1U,
  0x3cfe0154bc9536f1U, 0x3beb6537bc40bb46U, 0xbbf7421bbd01d023U, 0xbc1ca04ebd01406dU,
  0x3c57f9903c84ad48U, 0xbc9143fc3c5913caU, 0xbca294fd3ba24a91U, 0x3c9c4ac8bcd69726U,
  0xbc9973a1bd217c04U, 0xbd00ef3c3b92b6f8U, 0xbbc46b873c904fc9U, 0xbbd1d2ac3cf05ee3U,
  0xbd18c96cbd5f5d39U, 0x3c04d9cabc18faa7U, 0xbd6cf9e7bc93fe9dU, 0x3c02b399bd2c2b57U,
  0x3d315b463c3ff949U, 0xbd137406bb03c1f7U, 0xbd03d1ddbcf5ab51U, 0x3b480715bbeb66b0U,
  0xbc4fe932bcccb95eU, 0x3d1a35b2bd0dfa5cU, 0x3c8ffbeebd547876U, 0xbc97963bbc366a42U,
  0xbc84ab1bbc75d29eU, 0x3bf2301cbd017315U, 0xbd0d71a73a714e7eU, 0xbcf50ef03b9d9690U,
  0xbbbb3a81bcf57fabU, 0x3b6d069f3cd63680U, 0x3c274ef73cc3e434U, 0x38a43f58bb8aff10U,
  0xbd1019e7bd2f9c1eU, 0xbb7b9df13b53a97dU, 0xbbb4cdde3cfdbe0bU, 0xbc0b94543cd5af5eU,
  0xbb82dbe63d1d26a5U, 0xbd2474653cb92829U, 0x3d13664c3d30c59fU, 0xbc475ff8bd2370dcU,
  0x3c8e03d43c032f18U, 0x3d04e773bcb7948aU, 0xbcd57cd8bcc51f8eU, 0x3cc99fe1bca3973cU,
  0xbcd6ccffbb312021U, 0xbc9d6dab3c223cfdU, 0xbcc0189ebbdbc17fU, 0x3d02486fbcd969b3U,
  0x3c90f6593cd801eaU, 0x3c1205cebc772084U, 0x3ceb6559bc7efa76U, 0x3cb9aa883d1715e5U,
  0xbc1b93efbd4e3897U, 0xbc6565273cf8f6d6U, 0xbcbfc4c63befd798U, 0x3ce657993d2c2db0U,
  0xbca4e4233c62dae1U, 0xbc5bb0e9bc6da1a8U, 0xbce05da2b899441fU, 0xbcf89270bd4b76d7U,
  0xbd2e94eebd09e000U, 0xbd4269d63c8705b0U, 0x3d14ac92bceed759U, 0xbbe0c7023ce700e5U,
  0x3c12ac39bd045e66U, 0x3cdb8fb83bbee9e5U, 0x3c62cd983c87193dU, 0x3d0a07bebd4509b1U,
  0x3cc8893bbd3f1962U, 0x3c9f6d133bd7ec09U, 0xbca0cb8b3c06a88fU, 0xbcde6c803ab8563eU,
  0x3c424a57bd02804fU, 0x3cec52acbd2a17a6U, 0xbcef94fd3ba83877U, 0xbb2a6d393c81c494U,
  0xbc9fe7783c291237U, 0x3cff871ebb16dd5dU, 0x3c7fd351bd1c2078U, 0xbd0bb9f03c681132U,
  0xbc3ccd2fbd57ef0dU, 0x3c407408bb85a1ebU, 0xbcef61be3d14fdedU, 0xbc1c2562bc8fe239U,
  0x3bd4cbcdbc278a58U, 0x3c7721f7bbf81c1aU, 0x3bdb217fbd4de25cU, 0xbd1c05683d1c54c2U,
  0x3d1543b93cc88c78U, 0xbd2e6108bd36acd7U, 0x3d2199b93cc76b81U, 0xbbc65554bcf23da5U,
  0x3b90e44a3c047b48U, 0xbd17883c3b97fb63U, 0xbca7b4913d214e9dU, 0x3b474ff83ce3a631U,
  0xbad2161f3b0a961fU, 0xbd2710ebbcd02e4bU, 0xbd2dfe2bbd68e560U, 0xbc894739bd0c4b16U,
  0x3be68516bc9c2df4U, 0x3bb53ca4bca1e253U, 0xbd223e9c3d355d79U, 0xbc065894bac0a161U,
  0xbd788c01bdadd6e8U, 0x3c7dd3c9bd57db27U, 0xbd06d6573d01d9daU, 0x3d2426ec3c03fe7bU,
  0xbb89fab3bcc944ecU, 0x38c28a6e3c389155U, 0xbd5e19383d0ff0afU, 0x3c1ae4aabd56b58eU,
  0xbd293037bd01fa39U, 0x3c393ba2bd4776f8U, 0x3ca7d06a3bb807e2U, 0xbcf9f869bd37211eU,
  0xbda95e50bc70ab7fU, 0xbbc0e924bbb35e0fU, 0xba37523fbca77327U, 0xbd817ad0bd1fe00fU,
  0x3d282923bd3cf04dU, 0xbc8c142bbcf62f32U, 0xbc15ab1d3cb66a9cU, 0xbc285528bbaa6ce5U,
  0x3d60bf9abbea58d8U, 0xbd4eaf7abd3b594fU, 0xbca9c38a3d1f526dU, 0xbba090df3c98e3c9U,
  0xbca6e5d0bce12702U, 0xbcbff131bd39896cU, 0x3c1bf077bc8fda08U, 0xbca00a6e3c8bd5f7U,
  0x3d21042e3ce06d14U, 0x3ca1b79b3d39d903U, 0xbca31fa9bc162db3U, 0xbd1f0b8d3b9fde5fU,
  0xbd7b6715bd3ff020U, 0x3d06a7c9bbbdd276U, 0x3ccee07f3d1cd6d5U, 0x3c9f14833c8a3bc5U,
  0x3d0ea222bd65b38fU, 0x3d2694dcbbac7841U, 0xbc89009bbc8e521dU, 0x3cefcaa0bd481f54U,
  0x3d055a493bca43cdU, 0xbd8694433ca3a0f3U, 0xbcf28afdbd18a35bU, 0xbd3ac5fabd50ba11U,
  0xbd3005733c7d9951U, 0xbcb9601abcba7acfU, 0x3c984df43c956aeaU, 0x3c2898a7bd16fcebU,
  0x3bd658d03c4af872U, 0xbd2c6afa3d2610a9U, 0x3b6545c1bc71c552U, 0xbca4ca44badf907cU,
  0x3a553c0a3ca8dc56U, 0xbd28cd623c9e61c6U, 0xbcfca1503bb7f694U, 0xbd05f0e7bc406bfeU,
  0x3c8cccc93c8c139fU, 0xbd37aa99bd3e6bb5U, 0x3d0ebdfabd6e49deU, 0xbc160ef6bd465503U,
  0xbd21020f3d04f951U, 0xbd1f7f38bcd683feU, 0x3d038c3fbd569a21U, 0xbd1c14d43b60daeeU,
  0x3d74aa8b3d085144U, 0xbcb7a91ebce3a937U, 0xbcf9a1023cdb3515U, 0xbd3de65636987c2eU,
  0xbc9f6b9bbd40366fU, 0x3d1f9199399a3232U, 0xbb4df73b3bea816fU, 0xbccfc2713cca6f40U,
  0x3a6e5ae6bd238525U, 0xbd83e34b3caf5dbeU, 0x3cd3dfabbd3f2dbeU, 0xbd33fc323cb5af91U,
  0x3d3099f7bb01419fU, 0xbc1298f73d02b8bfU, 0x3d1e1b003cd9bd13U, 0xbd44cec7bc26d8fbU,
  0xbcbfc4ad3caf5981U, 0xbd4ac20bbd3cd00cU, 0xbcfa6c603d25e50eU, 0xbc8468253c2c7483U,
  0xbcaf78323d3a9f9fU, 0x3cfee0c1bd4d5765U, 0x3ae71de53c54914aU, 0xbc5c275b3cadec6cU,
  0x3cfb14e13cd58cbfU, 0x3d033bf23d1be7e2U, 0x3ccb4b4abd7fac05U, 0xb9dd90ae3c5c83a6U,
  0x3c4a82b4bd4dcda3U, 0x3be5f143bc49f548U, 0x3d07ee22bbee0366U, 0xbd51f6fdbd327328U,
  0x3d876ad03c6098afU, 0x3c041cf33be9c2a0U, 0xbb854e53bd53a035U, 0x3c741722bce14a2dU,
  0x3c101cddbb0b39c7U, 0xbd1288c93b8d004eU, 0x3b5384cd3d020c37U, 0x3c37c339bc618c2aU,
  0xbce38e2ebd4b700bU, 0xbd86cb07bbf5bd9bU, 0xbc581517bc5fac8dU, 0xbd1c975bbd4339f9U,
  0x3d072bf33cc76734U, 0xbca7822fbc99180dU, 0x3c5c0a7e3b08a714U, 0xbd1b8fb2bd565063U,
  0xbbf5cc963bb92fb9U, 0x3c08a1b4bcd86374U, 0x3ca3660c3d7c8497U, 0xbc502ef3bcc8e227U,
  0xbc8eb35ebb32beb1U, 0xbd22402cbd4329d1U, 0x3cf9e739b9becb2aU, 0xbcea5ce53d0cff30U,
  0x3d01fa25bd4ef5adU, 0x3d04a93a3d198390U, 0xbafe9e163c7ffb12U, 0xbd248c78bd097e34U,
  0x3c0967473d0bb874U, 0xbc7fd4c9b97b6500U, 0xbd13a47cbcfb10b6U, 0x3c86f7d7bc85423fU,
  0x3d0c504ebd300b77U, 0xbcc1de3a3d12a775U, 0xbc030bffbd5c2303U, 0xbbef83a8bd0c44d5U,
  0x3c3bec5c3d0eb9f7U, 0x3d5cc811bcf6cf9fU, 0xbd29e5ce3bd2999aU, 0xbd0cb7a9bd258bdeU,
  0xbc8700d5bcc854e2U, 0xbc3746dbbd3fc723U, 0x3cfb4e15bc118e68U, 0x3c8f390abcb22192U,
  0x3d5daa0a3cf3e505U, 0xbcb57863bc540cb1U, 0xbd52944dbd1629ecU, 0x3d00309e3d0c3fcdU,
  0xbcae6bdfbc94d752U, 0xbc597520bc5463c8U, 0xbd49b7a4bcd9fca3U, 0x3c52ff193be348edU,
  0x3baab97f3c1cf52cU, 0xbbbce2983d105c88U, 0xbbc2cf9a3c8ef4dcU, 0xbc4228ac3c852db1U,
  0xbb45875a3b267b25U, 0x3cf0cfc4bbb0d5bfU, 0xbbd78c8e3c95bbbbU, 0x3bb6d84ebb0399b7U,
  0x3cfb4721bd287cbbU, 0xbd36bf813ce78ac6U, 0x3cf218b9bc013689U, 0xbc4317f9bd2c990aU,
  0xbd0dfb803d0b2a86U, 0xbce29f5b3baeb23fU, 0x3d0b077f3cf37001U, 0xbc9a7a6c3d24797cU,
  0xbd54e6593cbd2606U, 0x3d302a1d3bb548d3U, 0xbd62ffe0bce9e02fU, 0xbd345031bd392162U,
  0xbbfa22e53d0a9658U, 0xbd37b193bd074ee0U, 0x3cb29a0ebd431592U, 0x3d11866a3d1e838dU,
  0xbd4fb6a63d0cffc7U, 0x3c9792bdbd35e625U, 0xbd4082db3d0a259fU, 0xbd111ca5bc84b509U,
  0xbcfee5733d01362aU, 0xbbc855f9bd2fd7afU, 0x3bf78625bd042337U, 0x3caa5527bd04c6afU,
  0x3cd2a28cbcf052feU, 0xbc8294253d01cb86U, 0xbd440ba4bc71c9c6U, 0xbcd2a5ccbc34ae86U,
  0x3d292d043b82915dU, 0x3ca5a05ebb8f3e27U, 0xbd7dcd8cbc6bdb5fU, 0x3cdbef593d067d09U,
  0x3ca8768bbc4fa4c8U, 0xbd25209cbb03f490U, 0xbce88a993d3dfde2U, 0xbd516d53bd429eaaU,
  0xbdcf1829bd41bc83U, 0xbd56ee4b3c82b867U, 0xbd455c99bc2a3265U, 0x3c51df59bcc43820U,
  0xbd379e5ebd49d0ddU, 0xbb97e4edbc828b51U, 0xbcfe23053ba0542bU, 0xbd06b438bd22efdaU,
  0xbcc22474bb53b004U, 0x3c658a7bbcd16eb6U, 0xbbfb16afbb901ae7U, 0xbc7fb870bcc05d05U,
  0xbd8ac8833d2ad13eU, 0xbc280b39bd0bc7c2U, 0xbb8882e2bccd76a9U, 0xbd3029e4bcabe2edU,
  0xbd536cb2bc6ff113U, 0xbca2d4febd508920U, 0xbc811307bd5d6c0eU, 0x3cbf8badbc88a327U,
  0x3c4d20bbbd1539c7U, 0x3b3516c63c6c11f4U, 0x3cda8600bd40e23bU, 0xbc8f9847bc8ef667U,
  0xbce448a83c00dca7U, 0xbcfe3c99bd31dcb0U, 0xbad2b5e33ad43458U, 0x3d10ad523d2b2cf4U,
  0xbd1b3d7abd5d65e1U, 0x3bf90c95bd18ec12U, 0x3c8c09443cf8deb8U, 0xbd13dfcd3c9e6012U,
  0xbd4b413b3b1c8736U, 0xbd4677053cc23780U, 0x3d0b90663c61ef08U, 0xbd494420bd3c5b18U,
  0xbcf458713d1f0c2cU, 0xbd57ba393d202854U, 0xbc1fcc743cd4d4fdU, 0xbc207b94bd4226b2U,
  0x3c5255373c1d27c5U, 0xbd690b0a3c4f63dcU, 0xbd56d6ab3bb04249U, 0x3c23f8d43c7ad734U,
  0xbdb18c663d28c545U, 0xbd5aa0343c28df2bU, 0x3c28f5333cc11604U, 0xbd97a54d3d03c49cU,
  0x3a80415ebd559f50U, 0x3c4182173ccc01e8U, 0x3d164835bd369126U, 0xbd46106f3c80ef35U,
  0x3d32b786bcad9060U, 0x3cffd672bc13f4b1U, 0x3d087b7c3d2259c2U, 0x3d1f6d1ebc90f5f9U,
  0xbbfc645cbd203013U, 0x3d1ecf50bd08e453U, 0x3a7665dcbd519f73U, 0x3cb0c44a3d375e25U,
  0x3c63d8c3bd5d4798U, 0xbccd90e0bcae1f1bU, 0x3ce54d9ebd0db692U, 0xbc29ed87bbb98a05U,
  0x3d0fe854bc2afbf1U, 0x3d159118bd511fc8U, 0x3bbd87773d10a1c4U, 0x3cc1fa69bd1c3310U,
  0x39934431bcc58453U, 0xbd5c45243d26e5f3U, 0xbd52f2bfbc6ca3a7U, 0xbc5e15943cc99c88U,
  0xbbc82f8f3cb1d186U, 0x3c9601f5bcd00aadU, 0xbd3b4b9ebc6f44faU, 0xbbe9a14aba107eddU,
  0xbbb9c9c13c057a05U, 0x3b052799bd4aa11fU, 0xbc8d997f3c1f0f82U, 0xbcfba3f83cc8e037U,
  0x3cbdd4663b842a34U, 0xbc46d5e6bd00e159U, 0xbd047b20bbe7f2d8U, 0xbc3b39c53c7490b3U,
  0xbb8e2f053cf08912U, 0x3d069750bd1cf16dU, 0xbbd7c3abbc6592f5U, 0xbcfa1224bd035cbaU,
  0xbbbc258ebd4fdaadU, 0xbd433c06bc3373aeU, 0xbc1713f6bd41cf8aU, 0x3ce7c4c53b7cb32eU,
  0x3abca574bcb01925U, 0x3c8b5425bd15a922U, 0xbd26a2eb3d1e2279U, 0xbbb46d85bcaaee75U,
  0x3c3bb0e93d5f405bU, 0xbcefdeecbdaf8f90U, 0xbb3620e2bd2bae94U, 0x3d192e1fbbe22feeU,
  0x3bcafd3e3c30c984U, 0xbc21513ebd39c60cU, 0x3b7aa7f7bc4edf8cU, 0x3c37ab743ca97c9cU,
  0xbd056e40bb37d4deU, 0xbd72c0373c3b1508U, 0x3cea19eb3cefc13dU, 0x3bde5f713bfae767U,
  0x3cbc0e683cd70b7fU, 0xbc45b0a2bb9121a1U, 0x3d2e138cbc773bc6U, 0xbd313299bc863d0bU,
  0xbd4839be3c9976e8U, 0x3cf34c4f3ce91de2U, 0xbd460ad4bd025bf2U, 0xbcc1717abcf0f6a9U,
  0x3c42fa673a8e10c7U, 0xbb27f034bcca362cU, 0xbb64486a3d25f392U, 0xbd068456b9669cfbU,
  0xb9223228bd4da506U, 0x3bf70612bd022c34U, 0xbc170d51bd0e4aafU, 0xbce72f9ebcf6530fU,
  0x3ce1a7533c2f73feU, 0x3d112a8ebd3ebcabU, 0xbcb965653d582df3U, 0x3d0a33d03d2f967bU,
  0x3d0d6cfdbcc09818U, 0xbd2e5591bd7f45feU, 0xbcbc8cad3cb89268U, 0xbd0583163d209aebU,
  0x3c9b09babd38c726U, 0xbcbfcbccbd4635b1U, 0xbcd24c60bb874c43U, 0x3d0c65eabc50dd00U,
  0x3d0bce593accd376U, 0x3c11c7b3bb6bbebbU, 0xbd2c6be7bd33172fU, 0x3d106d58bc8fbf16U,
  0xbcb4f646bd42d653U, 0x3c7ae5383ada83b2U, 0xbb3342cfbd3ec8d1U, 0x3d288143bcb64cf8U,
  0xbc648974bb05c882U, 0xbd0da9b7bc4a6625U, 0xbd0a2c96bd226e23U, 0xbd1d7840bcfefcc5U,
  0x3ca92e353ceceefdU, 0xbcb0086ebd3e33d1U, 0xbc063eb63caccdc7U, 0xbcfb3580bc1096d2U,
  0x3d05b760ba4005d4U, 0x3c220165bd0d36abU, 0xbd1c6b54bcf3c82cU, 0x3d0b67ee3ad30071U,
  0xbb91e5a8bcbb277cU, 0x3c873ca2bd08395dU, 0xbc91ab5e3d2c6011U, 0x3ca4ee59bc040401U,
  0xbd9242f0bd366518U, 0xbcb29445bd14b3cfU, 0xbd514a5d3cb584baU, 0xbccf2a1cbcbe46aeU,
  0xbc1bd3f2bb73d54fU, 0xbc44ece1bbe35b2eU, 0xbbc375dcbd1de341U, 0x3cae59e23d11750cU,
  0xbd3170fa3bd1e870U, 0x3b0c8b6fbd3d29b0U, 0xbd530967bc4e1723U, 0xbc300f593c87b8f2U,
  0xbd301304bd3fd009U, 0xbd71f68abd1e3735U, 0xbc9d89cc3ba69dc6U, 0x3d04f9883cd96ea3U,
  0x3ca165293d252b95U, 0x3bb84ad7bbf610b8U, 0x3d0ce919bd7a0111U, 0xbb96e63ebca750c2U,
  0xbd0f1eedbd337e93U, 0xbc9c7adcbce95855U, 0xbc279cd7ba82b864U, 0xbb8ae3863aed25f9U,
  0x3c171afd3bd9c354U, 0x3d3aec76bd066cffU, 0x3a8125c73ba6ecf9U, 0xbce8fa1dbcc9e9abU,
  0xbaede4af3d24a4bcU, 0xbd285ca5bc2fe128U, 0xbc9f7cbb3b2f4a3eU, 0xbd5949df3ba02bf3U,
  0x3c1e03fc3cadc3bfU, 0x3c856a3b3cffe7aaU, 0xbc94a7c03d36df0bU, 0xbcb4af79bc9d131bU,
  0xbd5381b43d0fd674U, 0xbc43c131bd017462U, 0x3c5b153a3d2adfddU, 0x3ccf68c03d25ea49U,
  0x3d063a873c0530b6U, 0x3cebf5cdbcc09b06U, 0x3b80da88bd03351dU, 0x3c479aaf3d1b1396U,
  0xbd58a197bd5f22c1U, 0xbb87265b3a6cad53U, 0xbc950958bcadb45bU, 0x3c5724abbd358dbaU,
  0x3b85f750bd488a16U, 0xbd2047893cc51c01U, 0xbd3940f33c4f43c6U, 0xbcf3d25fbd51fd1cU,
  0x3c65a6633cdb1810U, 0xbd1261b3bc8aaa68U, 0x3d032b263ccacb0eU, 0xbcf709043d10bc5eU,
  0xbd1d6cc43c91fb61U, 0xbd19491b3d2ec72fU, 0x3ca5593dbd8e91c5U, 0xbbc480f93d042a69U,
  0xbd69d6f8bcf814eaU, 0xbc5574393d04ff26U, 0x3d36c6583d243378U, 0x3be5c315bcb98f75U,
  0xbcc433f8bc7e9ec7U, 0xbcdae978bd6bb519U, 0x3cb9c7e2bcff9da7U, 0x3cebcbce3bec4e04U,
  0xbccc4b753cc2c4cbU, 0xbd54ff27bc829218U, 0x3cef21833ba4a362U, 0xbc8744973cd182a6U,
  0xbd035f02bcce2714U, 0xbc9163163ba3b3b0U, 0xba3ac2f7bd073c0dU, 0xbd32e8403c1fc7ccU,
  0x3c62c4b83cd1b491U, 0xbcfae395bcaa7df7U, 0x3d3389c0bd22d8b9U, 0xbcd505eebd217e07U,
  0xbd1a742eba16364cU, 0xbcc0cc9b3ce3429fU, 0xbd4c4d053d4234b0U, 0xbdb7348d3cd934d1U,
  0x3cc7a9b6bc277b84U, 0x3cf5515f3d152ebaU, 0x3c99e69d3bab73c5U, 0x3bee14f1bc1a10f7U,
  0x3d5463bb3d06f6c4U, 0xbcd333bc3c5083acU, 0xbb824c20bca1e41dU, 0xbd1c4fa3bd188c46U,
  0xbd21c479bba349d3U, 0xbd506b433d9a4448U, 0x3cb77ab6bcf376beU, 0xbd461ec1bcb25837U,
  0xbc9406f5bc96eadcU, 0xbd258025bd93211cU, 0x3c7a3c7cbcf61424U, 0xbcc57e66bc8baf9bU,
  0xbd22b356bb91aea1U, 0xbb30d81d3c1ca5acU, 0xbd478ad43cd72322U, 0x3d09343639c09871U,
  0x3c2496cebc8c8c69U, 0xbcca38b5ba8bde70U, 0xbd38a2c3bc54fa0dU, 0xbc7c13f73bac0307U,
  0x3d5db3bd3c5ba037U, 0x3cedab563ba4b65fU, 0x3d3a36eabd1375fbU, 0xbb87d571bd0f9f04U,
  0xbb4ad011bd372397U, 0x3c8d8ee73d27ce0cU, 0x3cf034343cc78a33U, 0xbb63456abd304100U,
  0xbd8899903d0b44b5U, 0xbd3ce1d0bbd882a3U, 0x3cfbb3c5bd0b2df9U, 0xbca8e17e3d05faa1U,
  0xbd1932f13cb02ac2U, 0x399fd62a3d356bf9U, 0x3d08776a3b0d1269U, 0x3c40488e3caa3520U,
  0x3cacedf3bd0a7bd9U, 0xb95c619b3d684b82U, 0x3c86b76dbc790677U, 0x3b1560313c815a8fU,
  0xbd7b99f1bd5e711cU, 0xbc85ac32bcbffbeaU, 0xbd4761c9bd15d72eU, 0xbd433ebfbcd34191U,
  0xbc828bc8bd052291U, 0x3d2eb5f8bccc35c1U, 0x3ca1b2913b6fe63dU, 0x3cd87c4cbd25094fU,
  0x3be574bdbc9808e6U, 0xbd4348d83d3aa67eU, 0xbcfa5888bbedbb0fU, 0xbc24723d3989e46cU,
  0x3d2ca3083c6b518bU, 0xbceccfb53d1cb06bU, 0xbceb8c4d3baea513U, 0xbc5d5b423b0adf6eU,
  0x3d252cea3bab17dbU, 0xbd02fe843c3d03a7U, 0xbc95a7413c743d01U, 0xbc8921c03c9b90fcU,
  0xbd15dc7839cabf27U, 0x3c4491873b283f8cU, 0xbd334d6c3cb9b8efU, 0xbc900253bbcdbd6dU,
  0xbd0f88edbc8fee31U, 0x3c5d0fd43c1ab930U, 0xbc47de9dbd2537dcU, 0x3cb2a423bc886e43U,
  0x3c0827933c755e34U, 0x3d2208303ce4df14U, 0xbd3a6faf3bee7131U, 0xbc372dd9bc4d5306U,
  0x3c396a0cbd904c62U, 0xbc9ba57f3d14d587U, 0xbc811aedbc906634U, 0xbb55238abc09785bU,
  0x3d194da0bc185d43U, 0x3adcc25c3ce5df73U, 0xbd4320f53ca16b17U, 0x3c868525bd3d4a54U,
  0x3c40e18a3ce8f0edU, 0xbc9a3d86bcb239f6U, 0x3bed8e04bd15105cU, 0xbcdedb29bc84d021U,
  0xbc6d74d53d026ddaU, 0x3d242ebd3c55d8bdU, 0xba02848a3cd4942cU, 0x399b0dbabd45a86fU,
  0x3b8abc59bcd939c9U, 0x3af3e1fabaccb76fU, 0x3cbe943f3cc5ca86U, 0xbc5646be3cc7bc39U,
  0x3cdd43203d0c8469U, 0x3c04e318bd1f9a8bU, 0xbd08a69bbce91a98U, 0xbcb83970bd21378fU,
  0xbd49a6803caa5cf9U, 0xbcc1aad1ba36f584U, 0x3ca9d30b3b4dcae3U, 0xbd1faebcbd4074a2U,
  0xbd26a759bc820dbeU, 0xbcb6e2ccbd4efc62U, 0xbc8f4c9a3ccf069dU, 0xbcbb86453a75d6a7U,
  0xbc71c084bd531c89U, 0xbc0aa786bcc517b8U, 0xbce5463cbd606831U, 0xbd1da7233b7904f4U,
  0x3cc98f1cbd4e0089U, 0xbc79c372bd301cbcU, 0x3ce81264bd24cd8dU, 0xbd41969a3c89be1aU,
  0xbd20bedebd020797U, 0xbd486c86bd7311e0U, 0xbd3293333cb5cbf5U, 0xbd37be0b3c1d202dU,
  0x3d260c723c2bebaeU, 0xbd0150fa3d0cfa12U, 0xbd441fdbbcf61feeU, 0x3d18474dbbacfcfbU,
  0xbbcf5dd73c9aa484U, 0x3c31f428bc0f7fddU, 0xbd30d4923d4b804eU, 0x3cfa3d46bc551f98U,
  0xbc433f62bcff8d88U, 0xbc904198bced931fU, 0x3cf4896b3d134fb2U, 0xbd1f0433bd0d5913U,
  0xbc6e562cbd2123c8U, 0x34f0ad353d09e117U, 0x3c86f47bbc95159eU, 0xbd41acb0bd2b8054U,
  0x3a4a8ee93b586007U, 0xba3d9bb13d18e465U, 0xbcd75839bc3a5135U, 0x3c053f7bbd3634acU,
  0xbd2aee8fbdcb4745U, 0xbca39d483b1359d1U, 0x3d0c6ffb3c08fe26U, 0x3d0ba908bceaab04U,
  0xbc7b0509bc2ff4a8U, 0xbc73164c3c6cc125U, 0xbd7cf004bd415bb0U, 0xbc9d3ef63b8b121dU,
  0xbd313a0f3c620acbU, 0xbd8c9986ba95d703U, 0x3caf1d663cbc1bf7U, 0xbd0890993cbddd57U,
  0xbcb61407bc8d758aU, 0xbd34ad2b3c76ae5fU, 0x3d2ec4853cadd13cU, 0xbc87f65f3c04ff55U,
  0x3a7e6895bcaf6d68U, 0xbd414116bca1921eU, 0xbd2cfbf93d0f04c0U, 0xbcc426523d202a68U,
  0xbd5877b7bc21203bU, 0x3becf1cdbc918532U, 0xbcb4a323bd401be1U, 0xbc553d1dbc907015U,
  0x3c88ca71bd280b7eU, 0x3803d9bfbd2de8bfU, 0xbc2122aebd0a6e03U, 0x3ab7f1e6bd5a7e6fU,
  0xbbb5c4f4bca91e96U, 0xbd2f63843cb6a7b3U, 0xbd3a6962bd03e195U, 0x3c4eea15bd0a5d6cU,
  0xbc5ba21fbc95a0e2U, 0x3c24432abc2aeb70U, 0xbced64553c7d431bU, 0xbd3596be3c8ec4d1U,
  0xbcfb2f04bd237608U, 0x3cc3416c3c06c701U, 0xbd1a76483d0b1190U, 0x3c84a1213c8646efU,
  0xbd256cdc3cc52cd7U, 0xbc6080c3bc97f573U, 0x3cf3aeadbd0f1723U, 0x3c887b4a3d07ff07U,
  0xbd4d2eb3bcdf570bU, 0xbd404d1bbcb10d3fU, 0x3b45082e3b83264bU, 0xbd33ffafbbc6db3dU,
  0x3cac4159bbc58a58U, 0xbd4471f63d2ab466U, 0xbd2f8ccbbd025512U, 0x3caf3aa1bd27aff9U,
  0x3b895d303bd5de2aU, 0xbc12be90bcf78241U, 0xbc08d75abd58a63eU, 0x3ba960a83bf2cd72U,
  0x3b4dc3aabc6483d8U, 0x3d2ec45dbbea8fd4U, 0xbc0013cd3c1d78eeU, 0x3d0d6fccbd45b9aeU,
  0x3c63738aba7ec77eU, 0xbd2a4dae3cb915fdU, 0xbd1bed4c3caad9d9U, 0xbd1c7e943c63af7fU,
  0xbc85166ebd3e891dU, 0x3cd4b81ebd5623e7U, 0xbc987b3bbabe5907U, 0x3ced1970bd38f7bbU,
  0xbd32071a3c4ff833U, 0xbc8993e3bd4b39a8U, 0x3cf33a1abd1c5fe9U, 0xbccb64ad3c954f1cU,
  0xbcdf43673d12ecc2U, 0xbd40d99fbc20b8dfU, 0x3d25980dbcdaa306U, 0xbd2425d83c892df2U,
  0xbc26e74fbd06d2bdU, 0x3c005650bc3747bfU, 0xbca557ba3af4916cU, 0xbc0ba713bd00e2fdU,
  0xbbc630b9bb7050e2U, 0xbcc2cef3bca59d05U, 0xbcbaf851bcc292f0U, 0xbda8e0913d05ce98U,
  0xbd34fdfa3c78a723U, 0xbd08fb2cbd15c088U, 0xbcf4a0aa3ceeffd9U, 0xbcc03b4fbd388893U,
  0x3d139ca8bceacd51U, 0x3c38b2ffbcd21bbcU, 0xbd1ff338bcfe47eeU, 0xbd1e97e83c32a3ddU,
  0xbbbf54dc3d19aa3fU, 0x3c6b1bd6bcc59f2fU, 0x3d09c013bc4e563bU, 0xbb9e68f73d1e6d7eU,
  0xbc952769bc377d92U, 0xbc18e4383b3754b5U, 0x3c92baae3ce6ad35U, 0xbbb680c3bd436c5fU,
  0xbc25102dbd179de5U, 0x3d00b2293cd79275U, 0xbc939170bcf149ebU, 0x3ba1b118bce199cdU,
  0xbd01e0803ca5d6bbU, 0x3c905a633be623feU, 0xbc50f8d83d107b55U, 0xbc1b5ba93c361403U,
  0x3d3ea0bf3d18a41eU, 0xbcf4a5d13b9bd898U, 0xbcb38901bc041dfcU, 0xbc9255533cdea98eU,
  0xbd1dce213c7ce94bU, 0x3cbcac783c47d911U, 0xbc973e193ca99c2fU, 0xbd5e81f3bb69d928U,
  0xbcd06ee2bc278cf7U, 0xbcf0cf2ebd108f9bU, 0x3d3c3e363d08b024U, 0xbc0a1d193b4dc723U,
  0xbd4c2f023c07ded6U, 0x3d29960a3d18d5ffU, 0xbbd547e2bcd6562cU, 0x3d43dee93c4e74ceU,
  0x3ce7869ebcb55e93U, 0xbc1c8493bd0b73a5U, 0xbc554973bc6b0190U, 0xbbb945963d3d1621U,
  0x3ce3f8a3bc3634e6U, 0xbccdc4b73d068417U, 0x3c87a5b0bca8010aU, 0x3c7db5c5bd52b4f4U,
  0x3b6e13c33bd0cce5U, 0x3ca53f29bce36ef4U, 0xbc8396703cb471b5U, 0xbca317e73d31f630U,
  0x3cc6b23bba7a009cU, 0xbb53d121bcb832d8U, 0xbc983c1b3d0348c6U, 0x3c9e958cbcecabdbU,
  0x3c416ed7bd0f1b10U, 0xbd6104b4bc36cde7U, 0x3c3b25433bf20496U, 0x3d0923043c3e0bb1U,
  0x3d1f8b4dbd053c9dU, 0xbd0a07453c881ceaU, 0x3c49d60d3d369c49U, 0xbd0e01e73ce40dd7U,
  0x3c8d42c2baf33756U, 0x3ccbcc98bc04be47U, 0xbd1d1dc73cb58b8dU, 0x3cf18f06bc5c5c52U,
  0xbd4c2307bceadd40U, 0x3cf970643d2fd699U, 0xbc13ba83bcb0c9fcU, 0x3cf24ca63b041221U,
  0x3c9ed26dbd14412fU, 0x3cdcdcde3ca44ffbU, 0x3d0217a03cb5aa5dU, 0xbd05d65a3d468124U,
  0xbc9b5baf3b91eff8U, 0xbd24de4cbcfca6bbU, 0xbcb4fb0b3c4345b9U, 0xbba316ab3cd69343U,
  0xbc90ad55bd2fd6aeU, 0x3bfda316ba5e2f16U, 0xbd14ca3f3c5b620bU, 0xbd4a10993d2589ddU,
  0x3d16fd0ebd059181U, 0xbd700e09bd02002dU, 0xbbf259703c35c3b0U, 0x3d51bcec3ca1a652U,
  0xbcfc67bebbd1563dU, 0x3cfa4b10bd06687aU, 0xbd48642cbd29cde8U, 0xb89868abbd18bba4U,
  0xbd246208bcedd428U, 0x3d0d11353b0409dfU, 0x3c1d7473bd540121U, 0x3cb4d8a0bc5a28abU,
  0xbadbe94abd16be5aU, 0xbc228b3dbc67fb44U, 0xbc921cf03ac8c2d1U, 0xbb5f49923c6a9268U,
  0x3d2ef2e53ccbbe8aU, 0x3d02e5be3d4758ebU, 0x3d09b3a3bd6dd650U, 0xbcde9ee6bd2b2f48U,
  0xbcc8614e3cabb5c2U, 0x3d4387103d80be21U, 0x3ca1e0b5bcc64fc3U, 0xbb48aa88bce079e8U,
  0xbd626583bda05c24U, 0xbcd4279bbd130510U, 0x3c4cd2d9bcf1904eU, 0x3d3148063de03b8cU,
  0x3d1067a63db45224U, 0x3c9177fcbcc570a4U, 0xbd4ce8af3d58302dU, 0x3d58a47bbcbd8aa4U,
  0x3ab761d73cba6ccdU, 0xbd1534a13dcc3240U, 0x3b958faebc4363c1U, 0x3da8597e3ca80e1aU,
  0xbd035d6cbcab60d4U, 0xbb49ffb63d74528dU, 0x3c45ef75bda22a88U, 0x3cfe58663c697991U,
  0xbc756b93bc1afa41U, 0x3d084a98bbed9675U, 0xbd4b4dedbd4fc36cU, 0xbd2b3c2f3c9d00a7U,
  0xbba3d823bbf07271U, 0xbd3733a8bae6c486U, 0x3c8cfb5abb920c83U, 0x3d6ce2d5bca4991dU,
  0xbcaf41d9bcf0d33aU, 0xbc88e71abcb7a80dU, 0x3da1f62ebd799409U, 0x3c734ce0bc188256U,
  0xbd61352b3cc7e288U, 0xbc2432e5bc77d113U, 0xbde0a01b3cdcc26bU, 0xbd1756233d28db94U,
  0x3c963407bd4d0612U, 0xbd03ba23bd1f8e78U, 0xbc079d6c3d38b780U, 0x3cbcea533d23546bU,
  0xbd05ec683da48e51U, 0xbc3772c1bcd7af30U, 0xbd314b84bc9fdee6U, 0x3d1e4e713cb76536U,
  0x3d39e5533bdd6ffbU, 0xbd9cab583d81b586U, 0x3d10511ebd0bf345U, 0x3d2e4b7fbce5e3caU,
  0xbd2565c73d718ca9U, 0xbbb330263dfa2dbaU, 0xbc53285cbd8d06c2U, 0x3a1bbc1fbcb527dcU,
  0x3c7877a93d29e525U, 0x3caaa7d63c800891U, 0x3d04648fbbc10c3eU, 0xbd516562bd21ee58U,
  0xbd165ac3bcad66efU, 0x3c8580433ca2322bU, 0xbd058d473d1bb364U, 0xbc85985d3d290499U,
  0xbd346a51bc9f5fdeU, 0xbca140f43d0a9c0fU, 0x3d877a37bd455a8fU, 0xbd1a1dc03cace6e1U,
  0xbb1d8d363db2bdb0U, 0xbbb4c6f13cad2a7fU, 0xbdb760043cb0edb7U, 0xbcb27e6abd341bd0U,
  0x3b5f461dbd5bbf17U, 0xbdba2dec3d34ba6bU, 0xbc9a20703cab3fe4U, 0x3c740bc63bd77f18U,
  0xbc9b17b03d4d6955U, 0xbcd64787bd86a974U, 0x3c8db338bcf0207cU, 0x3a80444cbcbf2c35U,
  0x3d5173fabcb7323cU, 0x3d00e90e3ddb8d08U, 0x3c9a70bebd883f54U, 0xbc4786df3ca600abU,
  0xbc84b5863c9e7908U, 0x3d63bf693d276b45U, 0x3ce17f57bd26ea79U, 0xbd7ad807bc36941aU,
  0xbd2869c2bc4d38afU, 0x3d2b7c8e3d015c2aU, 0xbd074b71bc9a9de6U, 0xbb470efabbb1467dU,
  0xbd1494243d05477aU, 0x3a22e74d3c83e4b5U, 0x3d65cc303d4dfcbbU, 0x3cbc559fbccb14d2U,
  0x3c628902bc831556U, 0x3c8a3e193ce6fa12U, 0x3e2a2acbbc6f270bU, 0xbd29a4913d21bf6cU,
  0xbd17f1c1bc3dde92U, 0xbc87cf88bca036ffU, 0xbdd46046bc992bfeU, 0x3c0baf32bd4abe1dU,
  0xbd800a48bda8fce4U, 0xbc8c98f83b7d37bbU, 0x3d53af5e3d623996U, 0x3c7b809fbcb05c2cU,
  0x3cf778733c509092U, 0x3d0282a639621544U, 0xbcbee0dd3d5702ecU, 0x3d0e776f3c0b522eU,
  0xbcc8e2e83c090d26U, 0xbd3950563d3d410cU, 0xbcf97234bc98a3ebU, 0xbd3c29d53c536446U,
  0xbd3f7129b9de46beU, 0xbbe046d43d84a3e0U, 0x3bb70b3bbd8ed566U, 0xbd59c7813c1a97fcU,
  0xbc9a23c5bdcb082bU, 0x3c6408813d22e338U, 0x3c8c0d94bd8139a3U, 0x3bfcec663d08c180U,
  0xb6ef13b83d211f59U, 0xbcbc2f85bd1e3026U, 0x3d0819f03d367736U, 0x3d1850b3bc16c2ecU,
  0x3c0b6619bd3f2dc0U, 0xbcb1d4debbd8f612U, 0x3db82f86bbdcdf34U, 0x3d2d297b3d9ab775U,
  0x3c82716238c70d64U, 0x3c887eb53d42dd76U, 0xbd6a8109bcbf7401U, 0x3c1ad53d3ce1c64eU,
  0xbdcdd196bdae346fU, 0xbc89464b3c34e50cU, 0x3c36b411bc6c77beU, 0x3d326b973d2894b7U,
  0x3d05f9d8bd0150ebU, 0x3c2cee2ebc611c0dU, 0xbbe130f2bc10f422U, 0x3b33b0b6bd257149U,
  0x3d547ad7bc546aa3U, 0xbca14f4f3c76d6c0U, 0x3c4f5c633d2e3931U, 0x3b09fbcdbce7ae4eU,
  0xbd30b8603c7b622bU, 0xbdb7cc7b3d21db6eU, 0xbbc39eb6bdd232abU, 0xbc7211b2bbe91cdcU,
  0x3d491e7abdbfd0dcU, 0x3c3eb4f3bcdb6511U, 0x3cf0f5bfbd8d7a16U, 0xba3ed5bdbd2169b8U,
  0xbc71a12b3d4102a0U, 0x3c80352abca30316U, 0xbdcafe6b3c12e86aU, 0x3d6d21533d0e236eU,
  0x3d6c23143c7ddd3eU, 0x3d16b2363c842b64U, 0x3bcffd39bd091d6aU, 0x3c71fcac3d43d891U,
  0xbd416236baa9ea28U, 0x3d1cafb33d092774U, 0xbc5130773c6b631cU, 0x3d0745ba3c80f86aU,
  0x3d45f5d6bb97403fU, 0xbcaf26533c40c157U, 0xbd1994ad3d626468U, 0xbc73a22e3d9b83eaU,
  0x3c23488dbd9dfac1U, 0x3d0428d63d46ee47U, 0x3c2b67dd3d409974U, 0x3cfa2b123d36e654U,
  0xbcccb4cdba8f790bU, 0xbd0e66b6bdda3e2bU, 0xbb79d1293b9825cfU, 0xbdc451203c19796dU,
