/**
  ******************************************************************************
  * @file    network_isd30_data_params.c
  * @author  AST Embedded Analytics Research Platform
  * @date    Fri Jan 19 12:20:50 2024
  * @brief   AI Tool Automatic Code Generator for Embedded NN computing
  ******************************************************************************
  * Copyright (c) 2024 STMicroelectronics.
  * All rights reserved.
  *
  * This software is licensed under terms that can be found in the LICENSE file
  * in the root directory of this software component.
  * If no LICENSE file comes with this software, it is provided AS-IS.
  ******************************************************************************
  */

#include "network_isd30_data_params.h"


/**  Activations Section  ****************************************************/
ai_handle g_network_isd30_activations_table[1 + 2] = {
  AI_HANDLE_PTR(AI_MAGIC_MARKER),
  AI_HANDLE_PTR(NULL),
  AI_HANDLE_PTR(AI_MAGIC_MARKER),
};




/**  Weights Section  ********************************************************/
AI_ALIGNED(32)
const ai_u64 s_network_isd30_weights_array_u64[12769] = {
  0xbf14ec69bcd63d28U, 0x3cc8114d3ed9b01fU, 0xbf5ec0b3bf603960U, 0xbc38eabbbf197bc2U,
  0xbfa6d08fbfa1f8f1U, 0x3e4c98cabfe08cb5U, 0x3dc5b93ebdec0a2cU, 0x3e647c08bf904cbfU,
  0xbe34ca79be1b505dU, 0x3e76d4d0bfa8391aU, 0xbeade626bf126baeU, 0x3e7693c6bf9965cdU,
  0xbe7a3bb03defa1ccU, 0xbe94ecac3eabe1d7U, 0xbe48ea513e0b30a4U, 0xbeafa75c3eaf3f18U,
  0xbd72c79e3e353d49U, 0xbe95c4aa3efe4399U, 0xbfe5c576bfc8ad1bU, 0xbd05feb7bf73e704U,
  0xc001f22cbfe81d3aU, 0x3e8a5395bf603efdU, 0xc02e92a6c01e6eebU, 0xbcec53d3bfa7686dU,
  0xbe1d8c543a6e20b5U, 0xbd98f72ebd9c7289U, 0x3d0581e2be503729U, 0xbd1c840b3dbb8ff3U,
  0xbea4de51be41d1fcU, 0x3de7801dbe15af45U, 0xbe83c104be27688aU, 0xbdc495d7be14275bU,
  0xbdc78679bd2abdbbU, 0xbd90a2ffbd4cb05bU, 0xbe6a89783d649409U, 0x3e360acebd94aef3U,
  0x3d9d80f53d8d1cccU, 0x3df10ff2be58b9b0U, 0xbca8750bbe018a5aU, 0xbd8a4d40be9a4087U,
  0xbd8866cfbe42fe0eU, 0xbd3f5815beb144eeU, 0x3fade351bf8c233dU, 0x3da0839b3e8a5d77U,
  0x3e4d55aabeeb5f14U, 0x3d0d99e13e2c2b40U, 0x3ea50198bf80cd86U, 0xbdf19cdfbebc89dfU,
  0xbd3bf09d3d753290U, 0x3e3faacebd53f462U, 0xbd71a81e3d33993aU, 0xbd8e80b2bcae68d7U,
  0x3dad5581be1bc1f4U, 0xbded718cbe461a56U, 0xbe0e43cabe3b99b6U, 0x3da20c4ebe909491U,
  0xbe3010f7beb893ddU, 0xbd4912d7bec9b0dfU, 0xbe45e5e7beccb04bU, 0xbcad0a28bed5b6a4U,
  0x3ca7eb24be098d80U, 0x3d984fe3bbf82760U, 0xbde36aa0be05c882U, 0xbd3737e9be8e2092U,
  0xbe3d5816bd9e720aU, 0xbce44a0bbe78357bU, 0xbdc421553d09fcd1U, 0xbe81898a3f2aca2fU,
  0x3e839aeabe1679d1U, 0xbe69e1253f335993U, 0x3e78be653d951b5aU, 0xbeb52e7a3f1323abU,
  0xbdb799a23d504d7cU, 0xbd2503373ad670ddU, 0xbdee8dc3bd0fc54dU, 0x3e1a9536bd42722fU,
  0x3ce3505a3c9259b3U, 0xbdd8d393be0ec6edU, 0xbe14202a3ca15f5cU, 0xbdd61d47be1b5773U,
  0x3d388d7e3de1053bU, 0x3d085e5abd129f6aU, 0xbc958592bdc61cdcU, 0x3d94d9e5bdfd7153U,
  0xbde1661dbe1ad192U, 0xbe02e0f03d46c89aU, 0xbe75a9e2be6fdbd2U, 0x3ccb114bbc6eaf2aU,
  0xbd0bdef5bdce33a9U, 0x3dce05153d026098U, 0x3db10983bd9c6f4eU, 0x3d7f2cfabcad2c50U,
  0xbe366a58bd824167U, 0xbd0a9b5dbe18de91U, 0x3dc86036be322bb3U, 0xbcddd180be822006U,
  0xbde4fd59be9c73baU, 0xbda386b7be5669faU, 0xbdd93cf2be938deeU, 0x3d4ad962be8607fcU,
  0xbc5614a93dde1ee0U, 0x3cf1cbc6be9ecad5U, 0xbdc1a96a3dadb2b3U, 0x3d2878d03b8c56f4U,
  0xbe19e5be3da51906U, 0xbd349d81be45d8fbU, 0xbd951d51be3e51d3U, 0x3b81a7d83b5b476bU,
  0xbd9906cfbd6b9205U, 0xbd525975be67e269U, 0xbe13e836beb3898eU, 0x3e0407a8be6aaf44U,
  0xbeced10cbeeee01dU, 0xbd98eccfbe25f994U, 0xbd7c286cbe413982U, 0x3d82346fbd904bccU,
  0xbe907255be2ef195U, 0x3d36b765be00ffb8U, 0x3d1431fbbe92eca0U, 0xbdcf162d3c94310aU,
  0xbe1a7c40be264e0dU, 0x3e10f0babe47a69fU, 0xbe271feabdff7722U, 0xbd123d97be81380dU,
  0xbdd88e103cad51f2U, 0xbdc063a8bd9ac187U, 0xbdee4c663c8282adU, 0xbd8cf483be4b85d8U,
  0xbe15e7663cb27d14U, 0x3da7bd02bea7f212U, 0x3d9c514bbde0590eU, 0xbb3a8eb2be10ff65U,
  0x3d3ad6863c9654c4U, 0xbbae129dbe1a8022U, 0xbe6cd97fbe6245dfU, 0x3d8d706bbea93d19U,
  0xbdd12a96be92c8ceU, 0xbd84ad7abe2dde35U, 0xbcd5fdfbbdbfbf99U, 0x3dd843463ca689a0U,
  0xbd7c74fc3d8fc4a2U, 0xbd865c34be40d6b8U, 0x3d566d1bbdce2399U, 0xbd2d96fcbe4a16c4U,
  0x3d958039bc1ed3f5U, 0x3c9645e8bde08cc4U, 0x3d94892fbe5d3202U, 0x3bd81cf73d36abd7U,
  0xbe1e73a5be6be8dfU, 0xbcbc3d36be082e45U, 0xbeef19f7be79a09cU, 0x3e84d33d3f87ee4eU,
  0xbe75b81abe1bcd87U, 0x3e9734e23f93b09cU, 0xbec5b6d2be9de8aaU, 0x3e87f2a73f9a5864U,
  0xbd614bbfbd8b3a58U, 0x3c98150dbdd64b56U, 0x3d8f3336bd46d218U, 0x3da32f04bdf08d89U,
  0xbd8ab5413d51c1d4U, 0xbdc95d50be29ae51U, 0xbbafb283bdc5dfefU, 0x3dd328fabe2b16ebU,
  0xbe65ee56be49df8aU, 0xbdcb4ac6be1bfa2dU, 0xbe1ea17fbe8adb58U, 0xbbbc1a783d08f190U,
  0xbe47c0363cd941bbU, 0x3b16b8303e1b4511U, 0x3d43fe5fbe8ff366U, 0xbc2fbd8dbd5e6f52U,
  0xbe0c6d563bc06f76U, 0x3c5c774aba39145dU, 0x3e0db96c3dc531abU, 0x3daeb61bbeb68fe3U,
  0xbd04ef9dbbc38a91U, 0x3e897eecbdf7a4abU, 0xbe71a2003d675217U, 0x3e8153e2be6af5f1U,
  0x3ca8d573bf7187e2U, 0x3e396c97bdfe18aaU, 0x3da632a6bf5a3e68U, 0x3e6e0c8d3e8bc7aaU,
  0xbd8e7022bf63ed82U, 0x3e52fbb33d2e31d8U, 0xbe4ac5773d1de198U, 0xbd714d54bd9dac2aU,
  0xbe3f55a8bdffe872U, 0xbd6b57ba3da38e53U, 0x3dd7001fbd9bcba9U, 0x3ded348fbde84db6U,
  0xbe1f5848bf895958U, 0x3e97cad8be6ccbebU, 0x3da5fd71bf51a4ebU, 0x3dd0fb6e3e8d384aU,
  0xbddcb079bf656ba9U, 0x3e821e183edcb598U, 0x3c396725be636206U, 0x3da1558dbd75284eU,
  0xbe777451bd36b793U, 0xbc9e2a3bbded16c1U, 0xbe7ae7a13cf23ee6U, 0xbd5096e0bd2ba687U,
  0xbd5ac09d3b6f7acdU, 0x3d9b6bf2beacfc41U, 0x3dbb9c6dbd362b4cU, 0xbcb3f48fbe99b9f6U,
  0xbae3107ebe31b3d2U, 0xbd59992cbe29c4ddU, 0x3db58b393c0e3573U, 0xbdc72284beae1f8bU,
  0xbd6abd38bc4c30ddU, 0x3dbe1f5dbdaeb2deU, 0xbde1cdd1be2c9947U, 0x3c41985fbe5ab115U,
  0xbdf7ab623dbc26c9U, 0xbdd38ddbbb8957aaU, 0xba8a7eb13d8cc503U, 0xbdd0aa87bd958611U,
  0xbe0726e3bd1d1c20U, 0x3e58de953b085c39U, 0x3a9043b53d4b1728U, 0x3e329a6bbd68feb2U,
  0xbca7e387be91d74fU, 0xbdd60fc5be802b12U, 0xbe19ac55be96eed2U, 0xbd8e9cf6bd7b854aU,
  0xbe55b55abddd3776U, 0x3e1734b9bce13a83U, 0xbe4a2775bdf4d918U, 0xbda38681bd2014daU,
  0x3c1357f33d91c8c3U, 0xbd62715fbe8e39c0U, 0x3e6059a53f4411fcU, 0xbdbee5863fab26b3U,
  0xbe2f735bbd9810d2U, 0x3d0787e83f18c0a2U, 0xbed4fff1bf12568cU, 0x3c2228223e984a81U,
  0xbef80ec0be8e218eU, 0xbdfeaafc3f8e4859U, 0xbcbcb23fbe23eb28U, 0x3cecdad13f8c74ddU,
  0xbe9f9122bf3b218fU, 0xbd3fe08b3f2dd7b6U, 0xbe0a90aabbd2260cU, 0xbd8bf2b63dc854fdU,
  0x3d49f213bdc1adaaU, 0x3c305b1bbdeaeef1U, 0x3d112bb0bd78fca8U, 0x3d6b98823dc6587dU,
  0xbeba9eb5be75fb7bU, 0x3ba60705be1e5de7U, 0xbef673dabed45ab2U, 0xbdd8f57cbe6304b2U,
  0xbec22ed0bf115aa0U, 0x3dcff7c2be261c1dU, 0xbc1c95b7be73617fU, 0xbe26dee03db04729U,
  0x3ce067bbbe67fffbU, 0x3e12440bbc5cb926U, 0xbe084a39bcc20342U, 0x3c9ab72abded367aU,
  0x3cbdd725be4d9df8U, 0x3d10c95b3d24cbc4U, 0xbd63e522bceeb821U, 0x3c8abd403cbfa55cU,
  0xbd94a4afbcd33a8bU, 0xbd3bff79bd11d002U, 0xbd8711b43da30ae9U, 0x39d964e63d9022edU,
  0x3cad6094be3a3d7fU, 0xbda0d20e3d6b997eU, 0x3cacd662bda90442U, 0x3da2aae4bdb8e299U,
  0xbec1d2513b0ef87aU, 0x3ca9c1bfbf9926b6U, 0x3e80e45ebe0c2b8fU, 0xbd4e178dbfa4ac80U,
  0x3ec69f9d3f064504U, 0x3dcca704bf57df89U, 0x3d09e602bdae3c7cU, 0x3e18f4f5be604d8dU,
  0xbdaf585e3d46ad00U, 0xbd82b26dbab6920cU, 0xbddf5660be791cc8U, 0xbda8e3013b2910d6U,
  0xbd2d734bbddfed90U, 0x3c4a7c98bd3559e5U, 0xbe65c8773c292abaU, 0x3cc28c25be5219e1U,
  0xbdcd1b43bd3818b4U, 0xbcf617c4bdc2fe63U, 0xbb9f91b53c628701U, 0xbc08e491beb3233aU,
  0xbd982f83be514fd6U, 0x3d2dee18beb6cc80U, 0xbe1a0dc7bd62bbd6U, 0xbcd4bdeabe55bfbbU,
  0xbe12137a3cb57a6cU, 0xbdbd73bfbe3e4c7fU, 0xba8dc3fdbc93d437U, 0x3e4ed07cbc7359baU,
  0xbd1624a83c83bf90U, 0xbddafd773c60dc93U, 0x3e1f88dbbdfa1076U, 0xbbb3db203cd09d2bU,
  0x3d4f2f20bda88262U, 0xbd9e08d3be57bed0U, 0xbd79c949be43f18eU, 0x3da8e77fbe28de6cU,
  0x3db80a1abdbf9735U, 0x3cf3be4a3db2fa00U, 0x3dbaa33fbe03d113U, 0xbdb70fe5be0d5f73U,
  0xbc8e9cdbbd9ba595U, 0x3d7438793bf00720U, 0x3de6bd98beaf345cU, 0x3de32fbf3fc2e88eU,
  0xbc6853aabd9a7d89U, 0x3e0372ff3f6ef13fU, 0xbdee46e73edb3086U, 0xbd240d6e3fb2436dU,
  0xbf6036ecbf19f110U, 0x3da834053f4ec964U, 0xc028b6f8c00d4762U, 0xbe266af3c046a17aU,
  0x3dd6abfabedcfc24U, 0x3d2dbd56c0493a4eU, 0x3da437dfbbd44438U, 0xbe332d85be294341U,
  0xbe70ea3dbdead295U, 0x3de93b95bdacc373U, 0xbdf18a81be8b85adU, 0x3d811f4e3cf3d909U,
  0x3aef727fbe78d81fU, 0xbd3f2e57beb8470aU, 0xbc4f028c3cd369faU, 0x3cb5077fbe43ccccU,
  0x3cdc1d54be3df6f8U, 0x3d0b7acdbe997b44U, 0xbddd78b2bdd34e12U, 0xbcb63ff0bcedc3e0U,
  0xbd172358be75fb51U, 0x3dbe4321bd072f22U, 0xbafdb4433b01b5d2U, 0xbd8a2cfebe0d2b7cU,
  0xbe1a39543dbbb5fcU, 0x3d26d161bdeb8367U, 0xbe58f211be5cfc5eU, 0xbda12a17be4f06e9U,
  0xbe39d031bd9c27e1U, 0x3d1da893be5c3680U, 0xbe05a887be427f1dU, 0xbb906a49be339468U,
  0x3c9037143d5a30f0U, 0x3e259cfbbcbe19e0U, 0x3bbc2101bd84f056U, 0xbe1ea5a7bdaa4a0dU,
  0xbe6d8b07be32f52aU, 0x3db99695bd93edfeU, 0xbddd0770bdbff540U, 0x3d8fbedd3d31bdc7U,
  0xbb4f1e53be030933U, 0xbe2332f4be5c0b9eU, 0xbe9dfeeb3f6c0576U, 0xbde57ecc3d990caeU,
  0xbf55b8353e9610c9U, 0x3e1be9853e5899c5U, 0xbf621d023f80a739U, 0xbcebcd1e3ee619b4U,
  0xbe5bed7d3ccbaf5bU, 0x3d4a5529be2a4ee2U, 0x3bb13466bdb44480U, 0xbdfd8ecfbe40967cU,
  0x3d7b13dabd6126bcU, 0x3d98dcf3be18af6bU, 0xbe096a50be76f2a0U, 0xbdd5e96abd4fba69U,
  0xbd9e046b3c3fd18fU, 0xbbd366893e114e86U, 0xbe2379a43d014775U, 0x3de2c70e3cfa29d1U,
  0xbfc84dc43f937d9bU, 0x3f93709f3ec0670cU, 0xbea1fd27bbb6c67eU, 0x3ec28a06bea220d5U,
  0xbe28a23ebd93a4adU, 0x3ed4e3e1be0f3ab3U, 0xbce4f7c6bdc14eb7U, 0xbd18e8dcbe15f581U,
  0xbcdc28f1be1b834bU, 0xbe1000b2bd73d770U, 0xbe54e4e3be823e28U, 0xbdf387b1be779451U,
  0x3ef54ff5be0c6235U, 0xbdcb1c8fbd94692aU, 0xbee2f1d8bde4a48bU, 0xbdd999553f5acd81U,
  0xbe189f9e3f463302U, 0xbe2dbcf0be21ac04U, 0xbe001f16be0a796eU, 0x3e5866edbe70ae2bU,
  0xbd3fe8ea402b39b1U, 0xbd7235cfbe0fb2d8U, 0xbd89f33fbe22b2b8U, 0xbddda98dbfb71a24U,
  0xbe52127cbe1abf63U, 0xbe355df5bdaa4b2aU, 0x40632338be0a7d7aU, 0xbe48092a4011d1d8U,
  0xbe3d9407be7c913eU, 0xbd2448f0bd872392U, 0xbce051aebcb1d499U, 0xbbf2440cbdcf475fU,
  0xbc20b6f93d786508U, 0x3d403e893d126652U, 0x3ba37deb3dbefca5U, 0xbc566f9dbce3957cU,
  0x3d053fb73d63695dU, 0xbdca5447bd9b5f14U, 0xbc688994bdc524f6U, 0xbd21b30b3e1d9ca1U,
  0xbdd0e3abbd40c379U, 0x3ce61fd2bde21bb8U, 0x3cacdf86bdb48bb3U, 0x3c6b31d8bdd83a69U,
  0x3d4b2fdfbd888cceU, 0xbc1bdd75bd82d23bU, 0xbda5c91a3d1f7733U, 0x3bc3359dbd8dcc8eU,
  0x3d2f80aa3d1d5da0U, 0x3d6bbab83d417d6bU, 0x3ce952fb3da98280U, 0xbbc9b5573d90bc42U,
  0xbe03457e3d3cf169U, 0x3d376ca5bd9cddc3U, 0xbd2b158c3d476cceU, 0xbd1625fa3c94b940U,
  0x3db57faf3c42cb71U, 0xbdead7ebbbc0b5ccU, 0xbdb2f73dbd2372a3U, 0xbe03c783bde71473U,
  0xbd857d393db159e4U, 0xbd7cc75f3de18c5bU, 0x3d8526753d8218e7U, 0xbbbaf13fbd878044U,
  0x3d69a2f7bdb6f9e5U, 0xbcf2b5a9be13ede1U, 0xbd586125bc2a8d5bU, 0xbdf9fb09bde5b363U,
  0x3d3e68313d723f93U, 0xbac48201bd7371aeU, 0xbd3530d6bd89ccf6U, 0xbd5b5af23dba7294U,
  0xbdecdbe53d957978U, 0xbd86581ebe14669aU, 0x3d4462fdbd8254eaU, 0xbd671860bb4667ceU,
  0xbda2a162bdcca85cU, 0x3d23c8fe3dcd1c26U, 0xbdfd2527bcab426bU, 0xbdb375553d98baf1U,
  0x3db953a53cc30950U, 0xbda39d4b3ca08114U, 0xbdf53a35bb629492U, 0xbdd8bcd6bd91210dU,
  0xbd717923bd66337dU, 0xbdccfdd7bde2f873U, 0xbd20b3963b62a235U, 0x3d7d8abfbe1ed854U,
  0x3d64f8afbd235832U, 0xbd3911e73d8e7121U, 0xbcbe0e94bd0589b6U, 0x3d8bd383bd3cd2d2U,
  0x3ce4ad6cbd85b234U, 0x3ca146903ddbe96dU, 0xbd260bb13d759b87U, 0xbdf93e763d893abfU,
  0xbc40c86a3da9939dU, 0x3cc5671b3d2bc5f1U, 0xbd1a4d283ca1e916U, 0xbd9639d7bd5ce5deU,
  0xbdbce930bd4934f5U, 0x3d5e1cfc3d78e2a1U, 0x3cf5c3953dd7b40bU, 0x3c762b76bc92c036U,
  0xbc93cdaf3d7cdfe4U, 0xbdab58b73d47b7a4U, 0xbdbe4fb03da15d2cU, 0x3dc9dbd2bc84bb25U,
  0xbdc6e7263bcef979U, 0xbc1effe33d8ee001U, 0xbd8c5283bce39f1aU, 0xbd5cd63cbe0e5a15U,
  0xbcb4f5503d8977e2U, 0xbd858a55bdda0404U, 0xbdf6753cbde8e04bU, 0xbc71f52a3d6382d0U,
  0xbdc34b55bdbc5511U, 0xbdcde9463ca1db47U, 0xbdf841f33da1cffaU, 0x3db5eefcbd49a1afU,
  0xbd957cd33d347657U, 0xbddbffcabddb964dU, 0xbdb76fe6bd4e0ca6U, 0xbddc42213d129662U,
  0x3c8ede97bc807dcfU, 0x3c5f78c73deeb109U, 0x3d8ed6ebbd75496aU, 0x3d0e7c72bd980eb2U,
  0xbe06a4c0bd3db822U, 0x3d1c3528be0e71eaU, 0x3d977ce23d9d2f3bU, 0x3d3ac7dabcb73e09U,
  0xbdceb1383d6e5911U, 0xbc90a1c13ca318eeU, 0xbda83d5e3d04c5e9U, 0x3d5b1f4c3d3e25d9U,
  0x3d166ca73db568b7U, 0xbd458d9bbc2462e3U, 0xbcb333683dbd445eU, 0xbdf370aebcc03abdU,
  0x3d7b3ae6bdc9e9a7U, 0x3d935417bcd3ee7aU, 0x3c815d96bde0da45U, 0xbda5d13bbe4b498dU,
  0x3c20c506be1a8c43U, 0x3d8ec3793d167251U, 0x3dbfe13c3cf00023U, 0xbd9ad746bdb4c2f0U,
  0xbdd41ffabddde787U, 0xbda2901fbde3aa62U, 0xbda8160dbdc17a76U, 0xbdb12490be5c73beU,
  0xbd8fab7bbddc6e2eU, 0x3c024c02bca801baU, 0xbc9ec55dbc96e2bdU, 0x3dcfe04dbdc895e9U,
  0xbd6f72b83d2e6cfaU, 0xbd3a8efeba18976aU, 0xbe23f1dd3c9d5bfdU, 0xbba9fd16bc2497daU,
  0xbe54a3b7bd49f805U, 0xbd36ff6a3d13a1c8U, 0x3d8695e3bd1d4e4cU, 0x3c801a99bdf07478U,
  0xbe0d9fb5bac78736U, 0x3d4b181fbd160614U, 0x3d79dfaf3d9e444dU, 0x3d7fbbefbd39805eU,
  0x3c9fac01be0473f4U, 0x3dd0c0abbd15cdc1U, 0xbd823b783ca04f0aU, 0xbdf6cc08bdd64c64U,
  0xbca070a1bd839c7cU, 0x3caf21b4bd9629f7U, 0xbde6ffd2baf01e36U, 0x3d9a645f3c8c5054U,
  0x3d59933b3d29e858U, 0x3b8b03fabda67c64U, 0xbe036eedbcd60d67U, 0xbba84ee13daffdeeU,
  0xbd04d26abdf4431fU, 0xbd87a6fcbdcfd9e4U, 0xbbc8485ebdc2bdceU, 0xbdbb6509bc84c1b0U,
  0x3d154341bd522d27U, 0x3d4316793d0818ddU, 0xbdc6f975bd89f621U, 0xbdcc1d3d3d0c3a3bU,
  0x3d07b4b8bdc8e64cU, 0x3c3f93513d4b14c3U, 0x3d40dce33d7010b8U, 0xbc1b61ef3d27128eU,
  0xbc34ae57bc862c09U, 0xbb8b0eb4bd99ac00U, 0xbd3d4dbabbc37fbeU, 0x3d98b2cd3c51cdc0U,
  0x3d94c8c8bca45036U, 0xbca30b4e3c7bc598U, 0xbdf25c32bd8697d2U, 0xbd5e8ee63c968a98U,
  0xbd3850e63d2893dcU, 0xbca91033bd50f444U, 0xbceb0874bdb0cbdbU, 0x3d9cb0c63cc81b07U,
  0xbd4ea4b13d854cecU, 0x3d89c947bcecbcf5U, 0x3c301d89badc4aebU, 0xbcbf65933d43ec30U,
  0x3db329053d7a0df1U, 0x3d3683bcbd99a1deU, 0x3dce3a8cbbb02d76U, 0x3d2c5e94bdea9b82U,
  0x3d23e405bd85cbbcU, 0xbc16caf53d56c6f0U, 0xbcabbce93d68a3b9U, 0xbd70319ebdf77ec1U,
  0x3dcaca763d1041caU, 0xbd77ce19bd89ad64U, 0xbd4b41cd3ba1a4e0U, 0xbcddb9683d7da0f2U,
  0x3d2af9af3dc469ceU, 0xbce5da463ce6b834U, 0x3d51ff4d3c100a6eU, 0x3d5687e0baa05a8bU,
  0xbe014a35bd043344U, 0xbdbb134cbc9e6fdaU, 0xbda029d7bdab09a4U, 0xbcb77e5d3d17dcafU,
  0x3c36f831bd31432fU, 0xbccb0657bddbf4b3U, 0x3db13a47bd2ec239U, 0x3d80ef493ce0db48U,
  0x3daed7f7bd082628U, 0xbb288b60bcd846b3U, 0x3dad9aecbd8556aeU, 0xbbacbf47bcfb8194U,
  0xbc918ff83c241742U, 0xbc17d1db3dc246b2U, 0x3dbbb5d0bc5a6348U, 0x3d8b5dcb3d895520U,
  0xbcaf32d1bd9d67f6U, 0x3a432900bcd58656U, 0x3d0888ba3d1b7f7aU, 0xbdc9209abdd91db5U,
  0xbcc616403bf2219cU, 0x3d3ce654bda5f668U, 0x3daae743bd49f57aU, 0xbce21a9a3bcfae62U,
  0xbd3fb881bcce6671U, 0xbdae74cf3dbb71d6U, 0xbd8838983c8d763fU, 0xbd7f56843c0dee45U,
  0x3dbe9cfcbdbb23fcU, 0x3d95524fbd0a2c86U, 0xbdfdf3d9bc085cf8U, 0x3d2250c1bd85f3a4U,
  0xbda8da3abcae6064U, 0xbbe61529be08686aU, 0xbcb8a05c3d82d638U, 0x3d991d64bdd9a3a8U,
  0xbdf50e123d50bb43U, 0xbc67a01bbdd77f4aU, 0xbc4e175abde1d25cU, 0xbc86a5ed3d70ddfcU,
  0x3d46e2923c35b189U, 0x3c03d4583d417a47U, 0x3bd61cb03cd51d08U, 0xbd61baf43c9bcb38U,
  0xbd1211443c30a4beU, 0xbd3c21d03b595b49U, 0xbd947f343d8fa963U, 0x3da5cdcabd97084aU,
  0xbde6b55d3dae33faU, 0xbbc2beb03d1e6a78U, 0x3d6723e7bd51c534U, 0xbd0995043ca0b0f2U,
  0xbddf29c9bdc4a80dU, 0xbd529240bc67cfc3U, 0xbc7bb5373db4fb53U, 0xbd894243bbcd0d6cU,
  0x3dcebe5fbccdbee1U, 0x3cacd99abdf50445U, 0xbdcd155b3d38412bU, 0x3dc1adbcbde42b31U,
  0xbdc27c33bdd73004U, 0xbce8fcae3c4d0a30U, 0x3c5cc474bc85076cU, 0xbded90ebbd708b22U,
  0xbdcc2d3e3d076f18U, 0xbd9eca863d93d5a8U, 0xbd49ba183d2e24f7U, 0xbd84849d3db13f78U,
  0xbcefde05bd986c80U, 0x3d17c726bdd33263U, 0x3dac69093ca71ba5U, 0xbd30c2343c7515d0U,
  0xbc9f4e82bbbabf9bU, 0xbd1b98fabd700601U, 0x3d97836f3d6282acU, 0x3d21471ebdb93fb6U,
  0x3daa91d03d77ae5aU, 0xbd55836a3c962cf0U, 0xbce0e39cbd176332U, 0xbd185fc4bcf01a98U,
  0x3d068e18bdc7ba14U, 0xbd547ec9bdf04d1cU, 0xbaff9d243db43777U, 0x3d494d8ebd014e05U,
  0x3db102a93d251cc1U, 0xbc86b6bcbae359d3U, 0xbb1daf7b3b2a5eb5U, 0xbcc7d202bcf2d3beU,
  0x3dd60bd13dd0045dU, 0xbdf4de90bd9f7a1dU, 0xbda058b3bdcd0d2cU, 0xbc1a593d3d88c291U,
  0x3d2adab0bdebaf1cU, 0xbdc44185bdc26c61U, 0xbcacdababd5cf6e3U, 0x3863205f3dab7106U,
  0xbdcc161c3db650e4U, 0x3cbf5d2e3cd8f29fU, 0xbdc8a09abe006c6fU, 0xbb64647dbd844d39U,
  0x3d9935f53d327efbU, 0xbd4c3688bd1dfc56U, 0x3cbe312fbd269e0cU, 0x3d4f19893dd0ec2aU,
  0x3dc34a97bd99a6b5U, 0xbd35dba63dad278bU, 0xbdec2997bc94a19eU, 0x3cf6f5b73da58723U,
  0xbd6ad9b7bdb8d99fU, 0xbd6f40a73d264528U, 0xbb73e300be024faaU, 0xbde641e8bd244ec2U,
  0xbd0ecea4bdac7578U, 0x3d7d52e4bcbf004bU, 0x3d9b58033c345aa6U, 0x3d01b121bd916b69U,
  0xbdf425953d4fb4deU, 0xbda898e2bafbafd1U, 0x3d33cc4fbcd2916bU, 0x3d2e27213cc43cdfU,
  0x3c8e7531bdcbd807U, 0xbdaddb5ebdf1cf1eU, 0x3c567756bdc7c184U, 0xbd3a5cfc3c61216eU,
  0x3d0b3938bd53e6b8U, 0xbdf471b0bce88b0cU, 0x3cb973273dcdd026U, 0xbd57287f3d2cd558U,
  0xbd9915debdaf184aU, 0x3dcb14313d1bd51aU, 0xbd7195783d6ec412U, 0xbd6311053d3559d3U,
  0xbce9b3dc3d1f7631U, 0xbdc500653dc662d9U, 0x3c2cecc1bdebec65U, 0xbde47bc1bd85c975U,
  0x3d1f57ccbd29ae22U, 0x3c2908003db623b4U, 0xbda4afdbbdabf6d1U, 0x3dc04b59bbdad2a0U,
  0xbd97fbfbbddd0d5bU, 0xbde52c52bd61afbdU, 0xbddbb84dbd53eb95U, 0x3db027163d5cabb8U,
  0xbda982303dba6508U, 0x3c5739f53cfb458dU, 0x3cc3d59e3db42a51U, 0x3d810798bdd6459eU,
  0x3d9370953bb81fe9U, 0x3d4bfd70bd88d8f5U, 0xbd24c602bcf51187U, 0x3d1cd8b63d1e37a2U,
  0xbde9ae083d02652aU, 0xbd9b20fd3cb85fdaU, 0xbdefc40cbccd270fU, 0x3da096cc3dd399d2U,
  0xbdb9af133d69aebeU, 0x3d85c92cbd089978U, 0x3a9ed4c3bdcdb8b3U, 0x3d8823c83d5dc558U,
  0xbb4b5178bcb3a8e4U, 0xbc4811c5bdbd2ef5U, 0x3d628b78bd15348cU, 0x3d6fc619bd9efc53U,
  0xbd0037dfbcb484a4U, 0x3d6a37c93d4839e7U, 0xbd1d3305bcab2a10U, 0x3dd4388dbd8ea782U,
  0x3c264675bdccb0e0U, 0x3d84b6e83dbc43beU, 0x3dbe21ebbcd3453bU, 0x3db9bf223da3c701U,
  0xbdd50872bde06b17U, 0xbcc1194e3d451dfbU, 0xbd71fa303cc4ab86U, 0x3da0c8aabd95dbfdU,
  0xbccdc4e9bc8d7e5cU, 0xbdd047bc3d142118U, 0x3dbbc3623d88e89dU, 0xbc7fed0fbde53810U,
  0xbd79bd26bd86909bU, 0xbdb75b2abd558ac6U, 0x3d710ca33d868485U, 0xbd9a7373bdbf9eedU,
  0x3b4bd5b0bc9eda61U, 0xbd5644b93cf220c3U, 0xbd75f8eb3daed5a7U, 0xbd88becebd615cd9U,
  0x3d450a973dd5bd95U, 0x3d9ef56fbbb32320U, 0x3d9e036d3cdfe3a0U, 0xbd1083533d6898f0U,
  0xbcd3fc803d2e344fU, 0xbdc39d3fbd40984eU, 0x3ba38411bde32215U, 0xbd1fcda8bd376cccU,
  0xbe0b443f3ca95ecbU, 0x3cb5816abd178b1fU, 0xbdd60711bd7573c6U, 0x3d87a8633e1211bbU,
  0x3e03addd3d163d98U, 0x3a852d14bde0eaf4U, 0x3d0806023d8bfc3eU, 0xbd133b763d219964U,
  0xbd8895fbbd96a1c5U, 0x3d54fc5cbba298a9U, 0xbdd97fccbe274fffU, 0xbdab54b3bd8a2241U,
  0x3d2f806c3be2c2afU, 0xbc949a1f3d81d7c5U, 0xbdf4a6eebcf13054U, 0xbdf19a72bbf918c9U,
  0xbd745a843d3bdce9U, 0x3d30830f3d047991U, 0xbd64c694bd2a7b0fU, 0x3d90cae4be16b18aU,
  0xbd94a989bd93248aU, 0x3da4c0883d53745fU, 0xbd70f0983d8f0077U, 0xbb8f60aa3de39a5aU,
  0x3de8995d3dcecbcfU, 0x3d8f7a3f3ce85892U, 0xbda493f13d5fca88U, 0x3d82a6f13e04c26bU,
  0xbd3a14893c908ad3U, 0xbcdb6930bd71a69aU, 0x3d519cd13da2d24aU, 0x3c878149bd123327U,
  0x3ce6fe933d8e3c97U, 0x3d6d176bbe0836faU, 0xbdacd6c73df5dc9cU, 0xbc79256e3d90301bU,
  0x3ded54eebda7bedfU, 0x3d2aadab3da0c094U, 0x3cb63a743bb0e8e5U, 0x3d96571fbd304942U,
  0x3dbc97783c35cb21U, 0xbcc32dd13d73b811U, 0xbbc1207dbd2e2f66U, 0xbcd65327be1c5734U,
  0xbdc33b9b3d9d96b1U, 0xbc5866bc3c7fc569U, 0x3d53314f3b557b97U, 0x3cea152c3c77a40aU,
  0x3dd6db20bcb9d9a2U, 0xbdfaa59bbc416ba6U, 0xbd5ddcb5bdbe7338U, 0x3d73b8dabd57f02dU,
  0xbd717c68bc45f6acU, 0x3d30a040bcacd046U, 0xbe0ef1a3bdb20b61U, 0xbd1ca613bda05160U,
  0xbca404f8bd600d18U, 0xbc68fb9e3ddfee86U, 0x3b441ccc3d5aebbeU, 0x3d536bba3cd91329U,
  0x3c8c85c6bd1176d9U, 0xbde7ef893cd31789U, 0x3d9d85b7bddbeb4aU, 0x3b5e2c30bd7ec5ccU,
  0x3d43b39fbceb6be4U, 0xbdaaa54fbd65e698U, 0x3d26cf6a3d388f14U, 0xbd7d2d25be059d8aU,
  0x3dcd3c73bc9f48c7U, 0xbdd6e10abd393184U, 0x3d756b09bde4bad3U, 0xbb6d26ebbdf5da2fU,
  0x3da63318bddd864fU, 0xbd7365d5bd2e23caU, 0xbdb599a8be22a7c3U, 0x3dfc0681bde49587U,
  0xbd4775da3d1aa18cU, 0xbbca70603dd649f1U, 0x3d933b27bd0ca462U, 0xbd67f737bd63707aU,
  0x3db5f7663c1c1b87U, 0x3dc38c38bd41dc97U, 0xbd2657a1bd07dc5eU, 0xbd28dc893c480599U,
  0xbdb5b07ebddca1d0U, 0xbd066d793ca3dfdcU, 0xbe09b18dbced8e55U, 0xbe019928bcfec6a8U,
  0xbdc2a2c43dcb988fU, 0x3ddde08a3d2989ffU, 0xbd38e8413e0bd2e8U, 0x3bf7b58ebd3583b2U,
  0xbc07b9b83d113a72U, 0xbdd5532e3d8a9a00U, 0xbde9c7ca3c87ac99U, 0xbd3c214ebd705b75U,
  0x3d198911bd902389U, 0x3cb6d695bdd46ab6U, 0x3d39552e3db005f6U, 0xbd9e614fbdb09c14U,
  0x3de1c72dbd524200U, 0xbd6f3bbfbd2b439dU, 0xbd6958fcbcc50e45U, 0x3d6b718cbdb8d5fbU,
  0x3de7d7a53c706134U, 0xbd06f8e3bda8e3f7U, 0xbdbef028bd23acabU, 0x3e27a9f9bdeff05dU,
  0x3da4f82bbdbf45b9U, 0xbcf3ed9e3de8178eU, 0x3da9d7ffbd88b876U, 0xbb88f7febcda1a05U,
  0x3d732f803e08bda1U, 0x3cb5e160bded71e4U, 0xbcd1544d3db4991dU, 0x3dd00d27bd3f7996U,
  0xbd0a01933d82e5e8U, 0x3d8a569dbdf36ca0U, 0xbe160839bdae0599U, 0x3dc4b5863dcbc6dbU,
  0xbdb9a6cfbdc46a5bU, 0xbdb27163bdba99dcU, 0xbda4f1cd3ae85245U, 0x3c96d66b3bbae68cU,
  0x3d570cf6bd94d0e0U, 0x3d1f9a89be1b68e6U, 0xbd9119f3bdc8ac90U, 0xbdb7f731bd0f4d78U,
  0x3de7c63a3cfee2ceU, 0xbc904656bd1bf1eaU, 0x3e013554bc28d333U, 0x3d11b0cabd39fca7U,
  0xbce43bc0bcd78c07U, 0x3dafb134bdcd98e1U, 0xbc8b0d103d0d0f86U, 0xbdf597d23bfd8865U,
  0x3d1a48fc3d4fe46aU, 0x3ccd92473ccb04faU, 0xbafd1b043d8edc1bU, 0xbd736047bdde0790U,
  0xbdec0aabbde2880eU, 0x3d76d70fbcfc337eU, 0x3dc18dff3ded095bU, 0xbd91ef01bddc5691U,
  0xbd74b9cd3db3c174U, 0x3de1b960bd0d1dc0U, 0x3d9c5d893da710a6U, 0x3dbeb17dbd24bbf5U,
  0x3d87e2263d018569U, 0x3dd092fabd319117U, 0xbc35b381bcd1aaa5U, 0xbc9cf2983df2406dU,
  0xbdaee5333c4e1f94U, 0xbd63d5c9bd63b753U, 0x3d9e40a2bd431b05U, 0xbc43cb15bd23117cU,
  0xb942ce2ebda758ecU, 0x3d41d8e8bd0b3aa8U, 0xbd46777bbd76be3aU, 0xbd60c568bde19551U,
  0xbde7866ebdaa78acU, 0xbe151dd2bd4fafd6U, 0x3db94a223d60d233U, 0x3df3c2e6bd18ea52U,
  0x3db71b513d70c324U, 0xbdcab3123dfd223eU, 0x3cbf0c78bda6d6efU, 0xbdbd1eb13ca10775U,
  0xbb40f302bc2ec795U, 0x3d4d0068bdaf7af0U, 0xbdfbd5f53cbb88a4U, 0x3db6e358bd7f39d2U,
  0x3debb7b33d8617eeU, 0x3d1b5d15be07919cU, 0xbbf043a63d5dcc47U, 0xbdfca87abd8e32fbU,
  0xbd82e31f3e699f05U, 0x3d7ac441bdf289a7U, 0xbd41ffc9bd0c7600U, 0x3d974dc8bc228265U,
  0x3d99c430bce1ea8bU, 0x3ced899bbdda0fcdU, 0x3cdbc1633da82e08U, 0x3dae293c3d98a2d6U,
  0x3bb931ccbdaa8f3aU, 0xbd83e4f23de50708U, 0x3d3977463d5f538aU, 0xbd4db18ebdc04b71U,
  0xbe1001823f594fe0U, 0x3e6cbe67be75506cU, 0xbd12e0e7bdf9f196U, 0xc046ac393c4d070fU,
  0x3df4999f3dc62f0bU, 0x3ed290c3bd1d9872U, 0x3b7b587abd804df3U, 0x3d73b8de3c8bbdefU,
  0xbc3b9407bd41cf95U, 0xbe02bb4e3d4f7b36U, 0xbc9ad5d83d4d8d36U, 0x3d979a0ebd1ee9d6U,
  0x3eb944ecbdff9c0eU, 0xbda8297fbdb90f05U, 0x3d8bdb53bc67a822U, 0xbe1ec9db3eadf5b3U,
  0xbc9c32233ec03b9eU, 0x3d4c161e3d5ac5b3U, 0xbdbbd53c3d748d99U, 0x3f3c5464be04e865U,
  0x3d2ba856bfb8b829U, 0x3d4982f4bd6a0335U, 0x3d3a14663d238734U, 0xbdbf100bbfb23dedU,
  0x3d0ecb2abd1cc279U, 0xbcc25d55bcc5d4baU, 0x3ec634e13d25faf1U, 0x3c4c26f93ec99474U,
  0x3dc6389dbbf20e76U, 0xbd9afe61bc7773fbU, 0xc01501463d9ac2ccU, 0xbdaf31333e0973c9U,
  0xbd8e4e773f6c3287U, 0x3daf486e3c70f398U, 0x3cbe0f2cbbc93ac5U, 0xc02fe63e3ceae6d1U,
  0xbda8a52e3da24e73U, 0x3e811b9a3c522bbaU, 0x3c4adbe03d24757fU, 0xbe049a53bd3476ffU,
  0xbda102c2bd3d67f0U, 0x3d31c377bd97c129U, 0xbcfafcfc3bc77ad4U, 0x3c129f5b3c0bceb9U,
  0x3e6c1895be0ec3c8U, 0x3a64ebabbdb8b374U, 0x3e1cb18dbc551423U, 0xbe22bce23dbc54c3U,
  0xbdabb7793e300c7dU, 0xbb75bb9c3cf36d2eU, 0x3e1577073cd10342U, 0x3e585a18bce11e94U,
  0xbd96c42dbbcd2c54U, 0x3cf205c6be1d43c8U, 0x3d3faec13d578750U, 0xbcef0402bed844c3U,
  0xbda521713e19cc7cU, 0xbd827e7fbd673d5dU, 0x3e02cb18bdc1f86cU, 0xbe0156ae3eabb606U,
  0xbc71e8b53d9a6321U, 0x3d782c8a3d3a4bf8U, 0xbfc772f2baba706aU, 0xbd20d7693ca23383U,
  0x3c563ecf3f4e1691U, 0xbed46b14bcc09b6dU, 0x3e4ba2983bf49d17U, 0xc0408db23dcb9e5bU,
  0xbd83bf77bcff712aU, 0x3e4dc5eb3d17da6eU, 0x3d9fe7b2bd2c9b08U, 0x3c863f8ebdcefeffU,
  0x3dd281ea3d8698e3U, 0x3de1936c3ddf0f03U, 0xbd6f35ce3d632e65U, 0x3de264fb3b871ac3U,
  0x3ec0b449bd39d238U, 0xbda58d2cbd45c12bU, 0x3e1254783c9abcd0U, 0xbd1dda543d2acdb6U,
  0x3c8f07903e16d2d2U, 0x3dad51a83da5965eU, 0x3c873c243be6fb2cU, 0xbe2d3ea43e44eb37U,
  0xbceb6ec2bec41ac9U, 0xbd8ba157bd8f8de4U, 0x3d9ee348bd54064cU, 0xbd9a50a5beed5fe9U,
  0x3dad8927bc8a813bU, 0xbd856738bd88da3cU, 0x3e4bf4babbc86c8fU, 0xbd8e86713f8942faU,
  0x3c55fc87bd16f6d9U, 0xbd8f55c0bc392ed1U, 0xbffd4a893e065e2cU, 0xbdba73bd3cb9bc6fU,
  0xbe03251e3f2df344U, 0x3e21283fbe0052d5U, 0xbd99bdb7be2287e6U, 0xc01e6a8dbddc4519U,
  0xbcc2bb303dd89841U, 0x3dde4e4bbd5443a6U, 0xbc133a2b3d223d73U, 0xbd41d1e83d33775eU,
  0xbde80b363d39eca6U, 0xbe289931bd939eb0U, 0xbde94cb23d956d2dU, 0xbd4b135f3df59f3bU,
  0x3f0599e2be551e7eU, 0xbdd97d663d4db55eU, 0x3e24c4cb3d33d41bU, 0x3d3f40803d8e2e5cU,
  0xbdf7303b3d9cc7f5U, 0xbca94e023bd3eb92U, 0x3e00ebed3c2ed076U, 0x3ea3f0bf3db6c2d1U,
  0x3d8399babedacd98U, 0xbd13df793daabe91U, 0xbc2e202f3dbf8f68U, 0x3ce9d142bf62ddc2U,
  0xbd52f84ebdf15b11U, 0xbd5d5a26bda835f5U, 0x3deb204b3d6eed93U, 0x3da7b0283e2f694cU,
  0x3dca9bcd39585810U, 0x3d22ae01bdae35caU, 0xc00a3a773a4c6afeU, 0xbdb6b8883d315332U,
  0xbea941853efe0da8U, 0x3ceeade6bd97ca65U, 0x3d64b6febe17c0eeU, 0xbfdf6228bdc852bdU,
  0xbc6c8fdabd8c15eaU, 0x3b7462603dd0f737U, 0x3cfe4d19bdd6942cU, 0xbe03db3e3bcb891fU,
  0xbdc398ad3d1afb94U, 0xbda6354fbd9d0f62U, 0x3cffbd7abdca57c8U, 0x3cfaec50bd8dff34U,
  0x3ef5bf77be00c9f0U, 0xbe06360a3dce5331U, 0x3e4c5c4bbcc86a8fU, 0x3da8fddabd0c71b9U,
  0x3d2bf38f3ba237c5U, 0x3d8d7f723d273057U, 0x3d89ecc23ce06a75U, 0x3b6db1c83d720368U,
  0x3d42facbbe9033aaU, 0xba82d0d23d582db7U, 0x3d82fcb5bd913b95U, 0xbd0c6f19bf329020U,
  0x3d74654cbd9431baU, 0x3bf6cda0bc984e59U, 0x3e88c207bdc68a36U, 0x3c5de1743d371424U,
  0x3c9f2d17bd451fa3U, 0xbe3160abbdd1903bU, 0xbffb5cf2bd036c2bU, 0x3da9eca4bd78f353U,
  0xbdb5d7df3eff5c19U, 0xbdb3db7ebe0da41aU, 0x3d0223523d90a58eU, 0xc060a96e3e02e19dU,
  0x3df58b543dd605e2U, 0xbe5303623c8bf34fU, 0x3cf857a53d4866d0U, 0x3da8a1c33dd3b986U,
  0xbe0d8e663dcac1e4U, 0xbd9e75ccbcc54659U, 0xbda07e12bd7d7180U, 0xbbdcdd3ebb1cc7a0U,
  0x3f835e893bc52374U, 0x3ce53f0d3da133d0U, 0x3e2e2d61be1df3afU, 0xbd7f21f73ee6af1eU,
  0x3d1b58fb3ee848acU, 0xbced9ab73c7069baU, 0x3e1582f13e0bb282U, 0xbea2e8163dc290e8U,
  0xbd0c51d2bf7a822eU, 0x3db7930ebdb772c2U, 0xbd38aee0bd9e173fU, 0x3e0c3e36bfc0ccf2U,
  0x3d1cbd753d4a0d97U, 0x3df558d93d8d802aU, 0x3e2a8b4b3d893e89U, 0x3d2758773f01c0beU,
  0xbdbc2b5ebcb40e6fU, 0xbd4d917fbc94396bU, 0xc02006243c7c3837U, 0x3c8c445bbdc7021eU,
  0xbf661eecbe65f588U, 0xbe452d1ebf38a480U, 0xbd88a5c9be41f5e5U, 0x3eed3e623cd80890U,
  0x3d1ec0213ce4a64fU, 0x3e1d571abd4cc064U, 0xbcb06daf3dd58435U, 0xbcd80bc3bd12d51eU,
  0xbdd985e73dc584abU, 0xbd5463db3da71422U, 0x3d815404bdae26d2U, 0x3d8f299ebdce6c01U,
  0xbf744a9abc0eafd6U, 0x3c6dfe77bd7e9549U, 0x3e40d47bbd9cd28cU, 0xbc6f55ffbf12b1c0U,
  0xbd2fed16bf221362U, 0xbdcd204fbb201052U, 0xbd285728bc8c7a88U, 0x3e7a1532bdc2a767U,
  0x3ca414ac3e5f88d8U, 0x3d3e8bd63d962a4cU, 0xbd84a844bd98cbf4U, 0x3d4e8ea23f22a18cU,
  0xbda2aa7abca8d7c5U, 0xb995802dbdda59d6U, 0xbd15d4283d9efb75U, 0xbdcb921bbebe635aU,
  0xbd8f87c7be05ea57U, 0xbcd23c81bcbe68ccU, 0xbdf1c7ccbda4dd22U, 0x3afd84ccbd569db8U,
  0xbf193e18be04c766U, 0xbe167bd4bf3572caU, 0xbdd180fabe15967fU, 0x3f0a323bbc9e9861U,
  0xbda356073d985199U, 0xbec2813ebd58c3f7U, 0xbcd45e303d6d65afU, 0x3d949525bd94bc77U,
  0x3daf95ed3c3dd2f5U, 0xbdbca2bebdeb0b2fU, 0xbc7518a3bcb9efa7U, 0xbdbbbddbbd97fa04U,
  0xbf0d727ebdc40208U, 0x3c4f05763d3853eaU, 0x3e7c0380bd9cc4d9U, 0xbd758ccc3dafe92dU,
  0xbdea648dba666584U, 0x3d67a5e53da1eb84U, 0x3db687f5bc2e9f79U, 0x3e9fbb593d713961U,
  0xbd4f90b2be1b63e2U, 0x3bccbb3b3e15f95dU, 0x3d93165dbdde130aU, 0x3cdaaa873e03f417U,
  0xbbc4a166bdc37cebU, 0x3da836ad3d61ea59U, 0xbcedc335bd6e7ae1U, 0x3bb91b7fbe4d7578U,
  0xbdbb8ff83cee8bd3U, 0xbdc2f792bcbd291aU, 0x3f0047aa3cda0879U, 0xbda75c0abdcf65edU,
  0xbe6d535cbc9438daU, 0xbd99dd65bf6ed6cdU, 0x3d12b570bd97c201U, 0xbc684cb63ce67e51U,
  0xbe1fed273dac0cf9U, 0xbf99cacc3db0d1e2U, 0xbc55e1adbdee8040U, 0xbdb4f21c3d71220eU,
  0xba50aff5be26212aU, 0x3c5ead3b3d886444U, 0x3c9ec6f53de5e9efU, 0xbcbdee02bddb13e3U,
  0xbea9e197bc34aef9U, 0x3cfa1beabdee10c9U, 0x3e4fc4e6be0925b6U, 0xbd8493893ea3e842U,
  0x3d8a16383ed8b73eU, 0x3da2f31dbd5a6f08U, 0xbd190745bcc4ac61U, 0xbd56afabbd5c5337U,
  0x3d461ad1bed48ec9U, 0x3cce09b1bd549b12U, 0x3d68fa3e3d88d379U, 0x3d8aa9cd3d27d704U,
  0xbdfa84c53cce311cU, 0x3d7c2c3dbd2fe690U, 0x3d54e7f2bc373eefU, 0xbd9f7eecbeb4b690U,
  0x3dc7b88fbd562a3dU, 0x3c94cd573ccd8f66U, 0x3f20644a3d77e80aU, 0xbe192611bda6a8e1U,
  0x3e1cf448be4cafa4U, 0xbe8177d6bfa13bf5U, 0xbda97a43bdfeeaf6U, 0x3eb139fdbdf08ccdU,
  0xbe7687fe3dc327eaU, 0xbf820928bbb4a1b8U, 0x3d17b7773c0a3d68U, 0x3d9d46e83c96cb37U,
  0x3db59ad4be1e6c5bU, 0xbd9f2e96bd927915U, 0xbd1c76b0bd737dd1U, 0xbdeb2705bd92bdcdU,
  0xbeb4ccab3cd1f503U, 0x3cfb2658bde8cb79U, 0x3e359a3abe76227aU, 0xbde9b09f3ed0a9dfU,
  0x3bb31f263e8874d3U, 0xbd4cf8c43c84ebafU, 0xbd70c366bd01e001U, 0xbe19d72bbceb8158U,
  0xbd1d3fdcbf89ab0eU, 0xbd9395babe16150dU, 0xbd1783b63d37b344U, 0xbdccc0583ee99818U,
  0xbdc53de7bdb9889cU, 0x3c56dc06bdd1aa05U, 0xbdd4e043bd6798bcU, 0x3d1b0ce7bf41994aU,
  0x3dbef708bd524568U, 0x3cbc23cebca32068U, 0x3ee133a53c78cf29U, 0x3d6e3b773dbe1045U,
  0xbd9de8873e9c2cd3U, 0xbd2d2372bf92fbd4U, 0x3e23919abe4cff60U, 0x3efcd6473cb80321U,
  0x3cbeecf1bd88a2a3U, 0xbf25f16b3b70ebc0U, 0x3da18b733d09bb31U, 0x3d369cde3dd3e9a0U,
  0xbdec24d4bd956357U, 0x3d1554453db58322U, 0x3c09259abdaf225fU, 0xbdc7bdfc3d48a29dU,
  0xbdd80a3c3e3cf823U, 0xbd362fb9bd4411a6U, 0x3e3e15fdbda0d0e4U, 0x3d6a841a3e9ab19dU,
  0xbd3758283eab4092U, 0xbd505ac9bdcaeb70U, 0xbb982749ba5a4357U, 0xbf128b6abd1c91bcU,
  0xbdbc72bfbed82db1U, 0x3ca008f3bd492772U, 0xbddb2d813dbe63f0U, 0xbde0e9d23dd69198U,
  0x3d0c40db3d3fc279U, 0xbd3d8bfabc1e70f7U, 0xbe5c22063db9c451U, 0x3dbd68a0be2ef0cdU,
  0xbdd3dbbbbd8b54a1U, 0xbd7695a13ad02c84U, 0x3e311f90bdadedc5U, 0xbdb11dffbda04ad5U,
  0xbdb4eef13e8879fbU, 0xbea30807bf485bbfU, 0x3d5e0ca7bd556f3aU, 0x3ea746373d3f8c11U,
  0x3d0d326c3d5a0b57U, 0xbec3fbc83ccca430U, 0xbdb239f5bd8d9dbcU, 0xbd4bd58a3d3ba432U,
  0x3d198671bd78e9e1U, 0x3db8a461bdac2b3bU, 0xbdee716ebe000c29U, 0x3d4a0abebdc0fcefU,
  0xbebfc42d3cdc4241U, 0xbdabf8e53d2040bdU, 0x3d4b0cc9bdc1e522U, 0x3d4e9a753def3bdeU,
  0x3cbc146c3e8cb568U, 0x3da504073b0b5f9eU, 0xbd8b0cedbaf42b7aU, 0xbfd66decbd987256U,
  0xbde8a41ebf15b90fU, 0xbddfd7003de94d7eU, 0xbd4035de3d1f468dU, 0xbd120e293f13aeb1U,
  0x3d24ff9cbd4aa52cU, 0x3d08718a3d9b16dcU, 0xbe0b20c3bb9802daU, 0xbd3b3657bf16a192U,
  0xbd3f15ef3c34856dU, 0xbd47fcbb3bd340d3U, 0xbf366d66bb861f60U, 0xbe09471abc2deb46U,
  0xbe9d39803e3f2b5fU, 0x3d83b88e3dc8735fU, 0xbde71db63db47608U, 0x3c4d6a09bdb72c0eU,
  0x3d7637dcbbee058aU, 0xbd1455e73d497cf3U, 0xbd645807bdddcc08U, 0x3d96609a3d80793bU,
  0x3cda0e2ebc2ef660U, 0xbab1e0e63c9fc4fcU, 0xbe043ac7bd5c6930U, 0xbdd8a6a3bbff16a9U,
  0xbe5eb6423e0dc873U, 0xbdc141eabdf2cc47U, 0xbc80d343bdd99573U, 0x3d8cb9dabd9f76fcU,
  0xbcfd67183ce83255U, 0xbd8cdab6bdfc8891U, 0xbdd587393c9d9943U, 0x3e02f3a63daf593dU,
  0xbc132469bcdceee2U, 0xbd2fea3a3ce6e72dU, 0xbd034b52bda0da38U, 0x3d8bf7c6bf20ef3dU,
  0xbe07be963da880f7U, 0x3d041f7abbb7258bU, 0xbec090073d1cbf38U, 0x3d92c6d43c1f2391U,
  0x3d28a6c4bdcab161U, 0x3cd144683dd6206bU, 0xbf3a3d5f3e09b5f6U, 0x3d1bb795bcdc938dU,
  0xbdb103033d0d2dfeU, 0x3c0a0a113dc7492aU, 0x3d4a9af2bc788b23U, 0xbe29af2abca4d2cbU,
  0x3d6005c6bc278650U, 0x3c0c8fa93d0d0a9bU, 0xbd21e449bd60925cU, 0x3d6f30703d5de6c7U,
  0xbd8b04c63dbf6131U, 0xbc8552403dc18d95U, 0xbcb1b3b3bd6c9c16U, 0x3dd9bc00be29a4ebU,
  0xbe24ab2a3d7f0477U, 0xbdc7d7fd3d30c7ecU, 0x3d9d27873db9a140U, 0xbcb3e876bdeb4fc4U,
  0x3d94384d3d5372b0U, 0xbd80a071bd992cafU, 0xbdcfed193d424972U, 0x3dd2298a3c9c5972U,
  0xbc130388bd6653edU, 0xbe05f8ae3c507417U, 0x3d97e3bcbc285aedU, 0xbde59424be9c99fbU,
  0x3d1a0a50bbcf8a0bU, 0xbda3dc6c3c0ef38dU, 0xbe791332bda6182dU, 0x3d0729ad3d70d012U,
  0x3d8be62a3d17741dU, 0xbd47f4c0bd2539aeU, 0xbee496fc3db24390U, 0x3dd953e03d302508U,
  0xbccce730bdbc247cU, 0xbd2a70bfbde60839U, 0xbd874fdf3df86632U, 0xbd2ffe6b3d5f00e8U,
  0x3d5c5634bd15fad4U, 0xbd873f183d9e8a97U, 0x3c1eacbbbb168276U, 0xbdad4e9fbd8b746cU,
  0x3b25424d3d1a2898U, 0x3dace25e3c860c40U, 0xbb02769abc2894e2U, 0xbb5510603ca2a489U,
  0xbddf1e3dbc2d36c3U, 0xbddcfd18bde1abd7U, 0xbe0808023c88876cU, 0x3cf2825bbd5be58bU,
  0xbdd9a154bd54bfcaU, 0xbb6ad488bcda8b2bU, 0x3dcfff7fbd31e5cfU, 0xbdef7ba7bcea72d6U,
  0x3dd04fb03a3ffd2aU, 0xbde39848bd98fcc5U, 0x3d94dab3bd72a791U, 0x3dbb1825be86aba2U,
  0xbca24ab03bd96063U, 0xbd3e69083d9189b0U, 0xbe83699ebd199d53U, 0xba9422423d3112ecU,
  0x3ddcee36bc8ff831U, 0x3d364bdd3d59ecddU, 0xbeae05dbbd84800eU, 0x3bc20808bdb4df21U,
  0xbe75732b3dba2102U, 0xbd920bb93d3a1ed3U, 0xbd44c0883dbb76c6U, 0x3daee4943d88a295U,
  0xbde6773ebaad99c6U, 0xbddebfa83dadba76U, 0x3cadba133cf884cbU, 0xbd40803b3d520247U,
  0xbd8a9d363c0f6769U, 0x3da41b84bdfcd1bbU, 0x3c41bbc6bd1cbb21U, 0x3db60d7abe074933U,
  0xbd85c75bbd616dd7U, 0x3c4363a8bd05090fU, 0xbdbb51bd3dacf1b5U, 0xbc0a1f893cd915e0U,
  0xbd189d84bc0023efU, 0xbddcdfadbe019e10U, 0x3d1567d43d7789a6U, 0x3c97d4a6bd35bcd8U,
  0xbd47c3ea3adb055fU, 0x3d49a009bde03474U, 0x3d9941393d3c7e05U, 0xbc82c9babe9143adU,
  0xbdf83c6bbdcc5f0bU, 0xbdecb3b03dc2acecU, 0xbe4e7e9e3d82eaecU, 0x3d8928643d13e9adU,
  0xbc4686fd3da130b5U, 0xbd673f6e3d62ccdcU, 0xbe8467373d60be6aU, 0xbe03b32d3c08c599U,
  0xbe29e398bd17e945U, 0xbd1281793def663eU, 0x3caf8a1e3d9f0f87U, 0x3dc3571ebda550beU,
  0x3d16220fbde459f7U, 0xbdbe107e3cae82a2U, 0xbdc6c5053d110f4dU, 0x3d7af59ebd53a49aU,
  0xbccc5747bd2b4473U, 0xbd05ed83bd64c12bU, 0x3d83d51cbd6f750bU, 0xbdd9e39f3d8438ddU,
  0xbe23db973cb846faU, 0xbdeecc7abd50ea21U, 0xbdcc73b8bd50e0fdU, 0x3dccb5e73d327e6eU,
  0x3dd500fc3c16fb86U, 0x3c2ef909bdf0dc63U, 0x3dbfcc30bd478155U, 0x3d9f126dbdac6fd2U,
  0xbc842b16bd343fd2U, 0x3de5e826bdff3f75U, 0x3d9dd1203d2505f6U, 0xbc29c340beadf815U,
  0xbdc500073dcce0b8U, 0xbdc306cbbd99b593U, 0xbe90e6633dc1a0c7U, 0x3d14772e3d3136bbU,
  0xbd0c06bd3db4baf9U, 0x3de90d593cb6fef0U, 0xbf180103bce0552dU, 0xbdeb2d0abe1a3512U,
  0xbeb57c90bd3e3ef0U, 0xbd32b1ce3c1d2963U, 0x3ce064bbbd14bd44U, 0x3d0aa0ee3cdff105U,
  0x3def4c95bdc50615U, 0xbd90d0043d95b3ceU, 0x3d84d0ad3d4e178dU, 0xbd449e5cbd4e0a0cU,
  0xbde9efadbd97f9ddU, 0x3d520578bdad80acU, 0x3de84095bd7a99abU, 0x3d8405a43db16756U,
  0xbe57e5f1bdeaf63cU, 0xbdf4398c3da6d7d6U, 0xbdab81fdbceaecf7U, 0x3da9fdb63d2f4429U,
  0xbd5ac519bd8416a5U, 0xbac22ec8bd3c2f71U, 0x3caa531b3dde986bU, 0xbdee6f873e205cd5U,
  0xbce3440fbe1ea134U, 0x3d1e43abbd0563bfU, 0x3c8a76f53c6f848dU, 0xbdaea29abf1bcc06U,
  0x3d7887563bdb319bU, 0xbd0ad0393d743d09U, 0xbe647b673c934bfdU, 0xbd3b3596bd4e5fe8U,
  0xbdbf6a5bbdf7c42dU, 0x3ca84b3b3e101b8bU, 0xbeeb73133d477774U, 0xbd68e1093d272415U,
  0xbddfcea13d7beec2U, 0xbd6d29f9bd99b57aU, 0x3d9f3b913d679568U, 0xbe092fb4bd3175b8U,
  0xbc6f68533d77ce3fU, 0x3d5f2ffebc617444U, 0x3c5ee6883d2cc8f4U, 0xbcce00c53dac0426U,
  0xbd3b5bb03a8991cbU, 0x3bdee40fbdd04bbaU, 0x3d35c255bd655e02U, 0x3d14b5313b5997e6U,
  0xbdcc2a223d884a30U, 0x3d57daee3dd3feecU, 0xbd6e5c2e3d438eceU, 0xbd985f873d4932e4U,
  0xbda8db243dc77e89U, 0x3d11182abdc20851U, 0xbd8a8e4d3dbcf7e3U, 0xbda6c88abd4e8198U,
  0xbd575a443cf7d8fcU, 0xbd2a9fc1be07a738U, 0xbdf0ab27bbc24843U, 0xbda8a9d1be1391b7U,
  0x3d71e660bce8733eU, 0x3cb1f58f3dd03c78U, 0xbce1d21f3d2a03caU, 0x3b588456bcd0bf29U,
  0x3daa5b813d001cb7U, 0xbdd8f9973d8dd4c6U, 0xbd5ae9763c58aad7U, 0xbc3105a2bdc52937U,
  0xbd05c59abd3184cbU, 0xbe0820303d126825U, 0xbd07021cbc54c19cU, 0x3d7bc992bd76172cU,
  0xbde1d32f3cbb2713U, 0xbcc907b7bc5f805bU, 0x3b6281cc3dc4d627U, 0x3d04cf61bca1a593U,
  0x3c510e033d02894eU, 0xbdacaf90bd3e2a0bU, 0xbe0c07f8bd1509d4U, 0xbdfd6265bd1d7aeeU,
  0xbe1e7f5d3cf5ff48U, 0xbb7b18bd3cbba531U, 0xbd56d5cb3cdcb325U, 0xbda692a83d837651U,
  0xbdab887d3de2d9f1U, 0x3dd96236bd26530cU, 0x3daca40fbdf8c2c0U, 0xbe10455ebc334577U,
  0x3cad68623d90e487U, 0x3c6b6f3ebd37d516U, 0xbdb8b574bdd26de8U, 0xbd581cd0be4f09c6U,
  0x3d96d789bdffc46cU, 0xbcaa1143bc28df9dU, 0xbe16d9693cf9c51fU, 0x3beb91aebcb92606U,
  0x3db37eddbbd31b11U, 0x3d404da03dfb1b56U, 0xbe0e099cbdcd7b1cU, 0xbdcebfdcbce50cf3U,
  0x3c6bdc25bde40cecU, 0xbe0a9ca9bda6f293U, 0x3d34ba9f3d4db045U, 0x3d95a54ebd3cb2f0U,
  0x3ce3d50c3d9c19b9U, 0xbe2d0d3fbe0816d3U, 0xbde607223d4eb3dcU, 0xbdffcef9bd641dbcU,
  0x3bf15fdebbc511fcU, 0x3d406600bd9b4851U, 0x3cc9a12abcb9c642U, 0x3dd84ed2bd1fd17dU,
  0x3b98fd1cbd942527U, 0x3d9692293c50d5c1U, 0xbce00d69bd279afcU, 0x3d360ce43dbbd4d6U,
  0x3d3b3cf03c77b631U, 0x3d2a955fbdd74529U, 0xbd122ace3db97e8cU, 0xbd9b33e9bdeccacbU,
  0xbc6b984d3d950afdU, 0xbcca5e01bdc2ec5fU, 0x3ce357eabd888248U, 0xbd55ba51be4257dcU,
  0xbde8eb49bd69d795U, 0xbe123735bdf0d7a3U, 0xbe0ed11cbd1c1244U, 0x3c86e67bbd53f6d5U,
  0xbd2ec4de3d81e093U, 0x3d420aecbd9b8998U, 0xbc429e483dc2ca3eU, 0x3dd911a23d8f022fU,
  0xbd8fe87bbda9bfb9U, 0xbce5e3eebe080c19U, 0xbd84bc84bd3dd108U, 0xbc5c3ec63db3c361U,
  0x3d8d7c013dbf5ccdU, 0xbc2bf78cbd657888U, 0x3da96d0cbdeb70d3U, 0xbcff41573d2547daU,
  0xbd0c8a6bbd4c57d7U, 0x3d0932503dcc4be5U, 0x3c49e3d1bddb99b9U, 0xbc6691e8bd8c450bU,
  0x3c491b61bdf02e62U, 0xbda7e1dabdae622fU, 0x3bb06a36bdcd68efU, 0x3d304bf53c0c6f29U,
  0xbd8e33f93da19a41U, 0xbd80de31bde780e4U, 0x3c4d4d573da77f2eU, 0x3d3cbbc23d7366f9U,
  0xbdde6ee6be02464bU, 0xbd939f4bbdd4b39bU, 0xbc6f4265bd064944U, 0xbdda277abbc08533U,
  0xb9b9e4afbddde4d5U, 0xbdd8da923bd5cb90U, 0xbe078b113d145443U, 0xbdc7e61cbd1d4947U,
  0x3d563aecbce6834cU, 0x3da6ab45bd85abd3U, 0xbd9ee4653dad811fU, 0x3d465c4e3dd9703dU,
  0xbca51063bd0a4980U, 0xbe208651bcaea590U, 0xbc42437dbd049325U, 0x3cad3590be02d06dU,
  0xbdd15379bd47ba5aU, 0x3bb826c2bdca5789U, 0xbdd3e8c2bb91549dU, 0x3dd97c6cbd02b541U,
  0x3d01c2cebd33e388U, 0x3df9a544bd9299a9U, 0xbe12dd8abc9f09cdU, 0x3d09a44c3de7b940U,
  0xbd60bbb9bdbd167bU, 0x3d4e13febcf4e465U, 0xbe1eaa36be0b846eU, 0xbdbf891dbdc99b01U,
  0x3c9bce2dbe0a197eU, 0xbc8fbde63d0e41bdU, 0x3d5111f93d8c94a3U, 0xbde4607a3c1a8d5dU,
  0xbd6df1083cfd296bU, 0x3caef00c3c9ab294U, 0x3db8c8623c87a2dbU, 0xbcc53989bdce6574U,
  0xbc751d43bda45e68U, 0xbcc2aca4bd9f8b71U, 0xbdc5dc4dbd84598dU, 0x3daf5da8bd8fd2daU,
  0x3cbabedcbdf8799bU, 0xbc893901bdfd2d95U, 0x3d83c82cbde9c102U, 0xbc0628843c9c6725U,
  0xbd9293bd3e01e6e7U, 0x3dc3fa2d3cba3e2fU, 0x3c109031bdcb8d32U, 0xbdc39df23d2596c3U,
  0xbb5e96373dbe0b46U, 0xbbc5a804bdd11850U, 0xbda9b3373dcaf6acU, 0x3dd2d2e8bd80cc45U,
  0xbd90c8cebcb7cb6dU, 0x3b3522e13bd5756fU, 0x3d11e6663d76f4adU, 0xbc526a9bbc2dd7f2U,
  0xbdeeb858bdcb8a03U, 0xbc1edfc13d1864deU, 0xbdba97f53c6f8e10U, 0x3ddc02db3cb7ef3fU,
  0xbd3b9ab33d3c4214U, 0x3dc201383c5b17a4U, 0xbd945fddbcc00a7cU, 0xbd9adcb33d86f968U,
  0xbda4d92b3d5100c9U, 0x3d7e9549bce41c60U, 0x3d2692cebd3c31caU, 0x3c1f5e3fbe448582U,
  0x3d46b61c3d356700U, 0x3c343c0f3d5cb5e8U, 0xbd9cacd5bd9b1530U, 0xbd8cf71bbd71aa0eU,
  0x3d3af2a4bd8c4cedU, 0x3d451faabde3dc7fU, 0x3d3a8c68bd3df4ceU, 0xbd2322f0bdb0114fU,
  0x3d7f528d3de8323cU, 0x3d88052abdf395a9U, 0xbd1d1f46bda1e497U, 0xbd9467033d4cb8e2U,
  0xbceeb64f3da07775U, 0x3d5780bc3cabc0a2U, 0xbdddfc8cbd92f4d5U, 0x3d8ee3bbbd80628dU,
  0xbd2075b23de9edc2U, 0x3d7924f13d9a5dd8U, 0x3be31da93dd622fbU, 0x3ba859323ce28b0bU,
  0xbe20594ebda9953cU, 0xbbf7d7efbd954bfeU, 0xbdab02e83d32e184U, 0x3debc883bd913662U,
  0xbd0752b83d8923b2U, 0xbdf8994e3dc91cceU, 0xbcf3dbddbdd27805U, 0x3d411686bd9d47a9U,
  0x3ccaec0f3dbba9faU, 0xbca3cef8bd5521f8U, 0xbd1727853dca7898U, 0xbd94cc14bd4245c1U,
  0xbd72d4d93d393aa4U, 0x3dbb5f8a3cf47fc1U, 0xbda149743d0815e9U, 0xbdf4484b3db6670eU,
  0x3d38ce52bdd00710U, 0x3d9d8d54bc9357b4U, 0xbcd14fe23d98535aU, 0xbd9c40703cac3255U,
  0x3d0382ebbc8cdd64U, 0xbdba729dbdd69283U, 0xbbf6297fbda2e96aU, 0x3d7b55a13cc22612U,
  0x3bcca7eabc63f53eU, 0x3cad38b9bddfbd87U, 0x3c812f6b3db7121dU, 0xbddaad6dbd9b3565U,
  0x3ddcd930bda8a22cU, 0x3dce15a0bb15fb2bU, 0xbdec6af1bdd64c78U, 0x3c843e40bdaa4573U,
  0xbdf89eb3bddd3a4dU, 0xbcffe032bdd8aa11U, 0xbdf92e46bde6ff07U, 0x3ca88d583dba2835U,
  0x3d1936dc3da3b896U, 0x3dabb46e3d7d1548U, 0xbdc7201dbced1167U, 0xbcb231be3d6c18b8U,
  0x3dc0cb703d6e0500U, 0xbd2f38433d2f2b6fU, 0x3d820c2fbd3cdd7cU, 0xbc4f3b98bdb374e5U,
  0x3d2cae0fbd9702ecU, 0xbddcb7453c2fe4a6U, 0x3cec29c7bdf2f43cU, 0xbcfe088d3e0ad3d4U,
  0x3ca431523d66f792U, 0xbdbaf2cd3d97c65cU, 0xbd8992f53c9556b0U, 0xbc2336afbe0f8b65U,
  0xbda3c7d93dbad90cU, 0x3db15beebd441641U, 0x3d28ee72bc90d2beU, 0xbd85765b3d933e25U,
  0xbdd6698ebd725b10U, 0xbc5634a13ce57251U, 0xbd15fb56bcbe83feU, 0x3db7bfcd3d9c3b62U,
  0x3dde16133c0401dbU, 0xbdde7dd2bdc1e8e1U, 0x3d3556723c0e048dU, 0xbd9a10723bf38f17U,
  0xbde05f823c926c2dU, 0x3d34cebebd693014U, 0x3d765f51bd89ff61U, 0x3df71f13bdf8962aU,
  0xbc7b909fbde80c4fU, 0xbdf2f9f9bab2dde3U, 0x3db01d27bdc58862U, 0xbdf5557e3d13704aU,
  0xbd973b1d3d80a69cU, 0xbd7242323cb88a07U, 0x3d6d19a63dd4050dU, 0x3d32f6c7be05a58fU,
  0x3b845077bdccf218U, 0x3d840cb73ccff4adU, 0xbd72cc99bdfa0fc4U, 0xbdea04303d460a47U,
  0xbc8be98bbdd17c1dU, 0x3e034b843cbc5f94U, 0xbcd0054f3da7c95aU, 0xbda764f9bd77e600U,
  0xbd89f270bce43033U, 0xbca66543bdfb3d28U, 0x3daac2ffbce3df28U, 0x3bf4d6603dbd10caU,
  0xbd22aa6c3cc6f197U, 0xbc30c1f03d5641e4U, 0x3d14c1193d33e8c9U, 0xbcf9ad59bdb20c79U,
  0x3d834f113d1437f6U, 0xbd3560833d2d5c61U, 0x3dbeaf9d3d2434e0U, 0xbbfc4592bd8a6de5U,
  0x3c7669353da8ce74U, 0x3d7f5fc33ca26a54U, 0xbd91454ebe0ce9f5U, 0x3da06ebdbdf27019U,
  0xbdeede6c3c646523U, 0x3d82e26e3b19a445U, 0x3d641d4f3c6c7f20U, 0x3c977358bcf5caf2U,
  0x3d4564bd3d6a0f5bU, 0xbd31eaf0bcc7ce62U, 0xbd8493ecbdf134f4U, 0x3de6f6cbbdc611b5U,
  0x3dc815003d578372U, 0x3d8a3f66bde1ea5bU, 0x3d352ee53cd66cd8U, 0xbe3af49dbc47179aU,
  0xbd59f74cbd259a2cU, 0xbd3bd9c0bd78950fU, 0xbd5c96993d1c7f90U, 0xbb4fa7f13b86a0afU,
  0xbcac3c31be0b802fU, 0xbddf5473bde66336U, 0xbd87d0383ca32552U, 0x3c4803673dbc54a6U,
  0xbcd9133dbdb95146U, 0x3d8bcd46bda8598eU, 0x3d08136bbcb9bcdeU, 0xbd3e5d3c3c437218U,
  0x3d6804b83c005728U, 0x3c6898b4bd149061U, 0xbd59e3c2bd930d69U, 0x3d776d273d967ebcU,
  0xbde5d7ffbd318cdeU, 0xbdab2698bd375cdaU, 0x3aa3f8f1bdcd334aU, 0xbc8d055fbd82ce1fU,
  0xbd1bd47dbcd2677fU, 0xbd745b1a3d4bf4edU, 0xbc8531023d31c738U, 0xbdf592f6bbe2e586U,
  0xbd2cf117bbd6009fU, 0xbdbf2ea3bdeffdd7U, 0xbdc90db4bcdfd9eeU, 0x3da3392fbdd24244U,
  0xbd8861d8bdf5e8c0U, 0x3dc47ae43dc512f9U, 0xbd8aedb03a556300U, 0xbdb38fb33c248de2U,
  0x3daf52373da18f93U, 0xbb0bc64ebdc7bd9fU, 0xbde647d1bc019c34U, 0x3d9ebccbbe0c1359U,
  0xbd5ef7be3da6346fU, 0xbd9e93c83d449041U, 0x3dbb73493c550c44U, 0x3bf9ac0a3cf0eef0U,
  0xbd277b53bdaf0516U, 0xbd0798083dfa7193U, 0xbdadfd903c1629b6U, 0xbce1c9323d096412U,
  0xbcdc88fc3b9b5b45U, 0xbccddfb33d95e727U, 0xbddd8d6e3d4e7123U, 0x3c7b80b13cde579fU,
  0xbe224ccd3d01ff1bU, 0x3ce80280bd836041U, 0xbd2e5036be2532c7U, 0xbd63c4c83c9f1266U,
  0x3d8cf80a3d0c1ab6U, 0x3cb162993da976b0U, 0xbc1810203dc096b5U, 0x3d1882263d91745dU,
  0xbb98b9a4bcae2979U, 0x3c035e1b3d0da035U, 0x3c22c009bd869126U, 0x3dc4d0d8be0885d8U,
  0x3dcf1561bd840429U, 0xbc26a121bcb5d728U, 0xbe03f9d83da42ce3U, 0xbe18a6023e03292aU,
  0x3da853aabc848319U, 0x3dd7ce01bd06d612U, 0xbdf1cfa0bd2b326bU, 0xbdcd4dadbdebe692U,
  0xbe7ca2eb3f26b697U, 0x3de374843e32f7ecU, 0x3d19d545be72fc8aU, 0x3e2babf4bda25ceaU,
  0x3d579f1d3d237889U, 0xbe9ab756bd991e1fU, 0xbd98a7733c495646U, 0x3d1bf325bd0f96c4U,
  0x3c9949c0bdd9b968U, 0xb8e54a04be4066baU, 0xbd201d4e3c88cd21U, 0xbdf32014bcbf412bU,
  0xbeaaa41abe80e311U, 0xbe2bfcc13d7b456fU, 0xbe9f9c58bd1a9eeeU, 0xbe21f5dbbede950aU,
  0x3dcabb29befb21edU, 0x3da997ecbe267f77U, 0xbe4751203dff62b1U, 0x3e17b5f6bda16351U,
  0xbc8de9b53f2da31bU, 0xbdd683b6bd784fd5U, 0x3d51544abdafb398U, 0xbe361e06bcc00bd4U,
  0xbe4a2fefbdedb2f7U, 0x3d822dc3bd3ab011U, 0xc05772ec3d429d1cU, 0xbd6c09c43facceecU,
  0xbc6ebde73d113451U, 0x3dd301d3bda089ffU, 0xbee767a83cc6a41cU, 0xbdded6643c9a72b6U,
  0xbe41582b3f11f847U, 0x3f3e7f913e195a6aU, 0xbcb8b40abd085b07U, 0xbf432f24be06252aU,
  0x3d2c5a4b3dc1bf06U, 0xbdcf4f78be115872U, 0x3dbf7845bd048316U, 0xbe088d893cc12778U,
  0xbc96b9c0bde28a86U, 0x3b3a1443bc8f1585U, 0xbe1957c43d28a16aU, 0xbd8f6b0dbdc86208U,
  0xbeafc6ccbe1b9d7fU, 0xbd9f08663db16a31U, 0xbe9d05bebe40dc5eU, 0xbd6883b1bf0510daU,
  0xbd34c39dbe9f1487U, 0xbd802bf33cdb8da0U, 0xbe072da5bd92031dU, 0xbe92e5a6bdf6b555U,
  0xbc690cd93f099e85U, 0xbd0751e7bce07e42U, 0xbdb1c2533cad8e12U, 0xbdb40671be826be4U,
  0xbd427fd1bdd4c25bU, 0x3da67d243c77721eU, 0xc03422403c152a5fU, 0xbe2b657d3faf2417U,
  0x3dd7692f3da5fc30U, 0x3e683fc63dea7f2cU, 0xbf5b64723db1690dU, 0xbd395df83cadeca8U,
  0xbe5c99b63f4ea216U, 0x3f2858d63dc0f0e6U, 0xbcfaff55bbfa2a3cU, 0xbe645f3abdbf3c6cU,
  0xbdadd8b6bd61d3fcU, 0xbdaf33a83d64dbedU, 0x3d63c18f3c29601cU, 0x3d3e96133da5d834U,
  0x3dbae8fa3d85d403U, 0xbd9471463e5552c6U, 0xbe08b50c3c284268U, 0x3b8ffae0bcfd42bcU,
  0xbef00aafbe5c30ffU, 0xbe4ed72e3e00afefU, 0xbe4100febe9859cbU, 0x3db51057be58ada8U,
  0x3db72925bea06c6cU, 0xbd9b35d5bd748ae6U, 0xbc05de0dbcb1b273U, 0xbedc20063ba6ce88U,
  0x3d7c8ec93f121df9U, 0xbd8fcaf6bd85cff5U, 0xbd8b75f3bcd00684U, 0xbdc465d1be87623bU,
  0xbd85515c3cdbc977U, 0x3c3fddc9bd51d26eU, 0xc01b1280bd35122dU, 0xbceb35a73fb13474U,
  0xbe0db8fabd102763U, 0x3df8bdc2bd65e340U, 0xbf4fce753df65f84U, 0x3d5b7c2e3c1a6fc4U,
  0xbe0ba2893f46174dU, 0x3ee1c78b3cca9baeU, 0xbdf1eeb03befb9cdU, 0xbd1372e63c9ea89bU,
  0xbcc6e4973cb3bf5bU, 0xbd7818633d0a76c1U, 0xbdd3a87cbcf2fba9U, 0xbdc765e6bd6dfb08U,
  0xbdeb0d973d818c68U, 0x3d1fc2453e80e6c8U, 0xbc4a56f33d176459U, 0xbe0abf33bdef76f5U,
  0xbed13101be25ae94U, 0x3c6eaa7d3d51101dU, 0xbd5d20a3be529fe5U, 0x3e12e9e6bd851b24U,
  0xbce7ad65bceb2f70U, 0xbdcd643c3d2fb027U, 0x3b47ee773bdadcc5U, 0xbf0f7f27bda06905U,
  0x3d339fe23f083359U, 0x3e104fbbbe7b2ab4U, 0x3bdd1d4a3d4c92c8U, 0x3d5670ff3d947e21U,
  0x3d7aac97be033804U, 0x3db0bb86bd1a166bU, 0xc00911d63d83bca2U, 0x3cd969c03f623faaU,
  0x3e0468663d9aa554U, 0x3da86a77bdf02287U, 0xbedae663bda2e394U, 0xbca5b8733d02bc5dU,
  0xbe054f7e3ebb92daU, 0x3eb9fba43d05bedcU, 0xbdbc3f8fbda33798U, 0xbc7cc856bd82f7a7U,
  0xbdce436c3d03d608U, 0xbcdcff1d3d2151f6U, 0xbd7825b8bdac3d0dU, 0x3c303cec3d5b1c34U,
  0x3c64fed03e49567eU, 0xbdd7417e3da49282U, 0xbe50ebfcbcaa5d6dU, 0xbd09da5f3d405d64U,
  0xbee2b4abbdceb7c3U, 0xbdf6a26bbdb2938dU, 0xbda54dccbebebd76U, 0x3d9457093ba8aa6bU,
  0xbd9e393abccd316aU, 0xbcc2aad9bd7dc109U, 0x3b4cf8333de1ec09U, 0xbe8fdc6fbd6846b9U,
  0xbc34851f3f5ca8e5U, 0x3da46894be43a801U, 0x3dd9daaebd8d680fU, 0xbcde20d73e3c5f51U,
  0x3d1dcbb13c8d0c17U, 0x3c2baac23d29e150U, 0xc00542f4be017047U, 0xbdaaf3b63f5db887U,
  0xbd58faf1bd256375U, 0x3e0849a03dbadbbeU, 0xbecfe3b0bc221e2bU, 0x3d5bea4bbda43ab5U,
  0xbe040e763e4d7b9dU, 0x3ebd11b0bc47d655U, 0xbe17ac683df45a0aU, 0xbebf11cdbde268f7U,
  0x3cc96a98bd8148daU, 0xbe7bcb703d05fc66U, 0xbd0845b7bd8d9869U, 0x3c70cdc53e066e8cU,
  0x3d882a72bcd1ac43U, 0xbe0f8fd73e1c5effU, 0xbc2e51e1bd400839U, 0xbd843fc3bd068f3cU,
  0xbe99cca0be03f004U, 0x3e0df0953cfc39faU, 0x3e43f2f1beee093aU, 0xbd97202cbe39a02fU,
  0xbdd00fc2be4056a9U, 0xbc028b26bd3925dcU, 0xbd16b9d2bcb6fe78U, 0xbe3b8e28bd7c2214U,
  0x3e03d3323f891487U, 0xbdd97cc3be389933U, 0x3dea8f153ddcf6f4U, 0x3ca854573e9d1984U,
  0xbe093662be3996f3U, 0x3da6cd10bd3a8b66U, 0xc0041572be16c6b3U, 0x3ccccf5d3f7484bfU,
  0x3df644153d4ec88bU, 0x3e35047e3b82e993U, 0x3f3dac553d4e1ff9U, 0x3da77e073da72761U,
  0xbd2900023b6957a9U, 0x3d21c10f3d597d61U, 0x3c494374bc22583eU, 0x3de34d25bde224d8U,
  0xbdb7f90f3dd8c2e0U, 0x3b9786c9bc32c866U, 0xbcf396bfbdcc9c5dU, 0x3d8eb82ebe3e325aU,
  0xbd7b1012bcc519e2U, 0xbd6b7a7a3d29f48aU, 0xbd8adbb9bdd3a9fdU, 0x3b008c19bddfad43U,
  0x3c1a149f3d6d0f4fU, 0x3df655823daa9b20U, 0xbdb0e0f23c03831cU, 0x3ce712ecbd992831U,
  0xbd9ee3a1bd87bae4U, 0xbda7625b3d3f7398U, 0x3da65e0cbdc1a706U, 0xbc97a088be12a768U,
  0x3d03b925bde8f82bU, 0x3d7381a13dc6e9f6U, 0x3d02999abd9447f7U, 0xbdbacefcbd4edcefU,
  0x3bec0f753d186aa8U, 0x3dc5b885bddb8c20U, 0xbd1d9f78bd9d6e92U, 0xbd5a9a89bd857471U,
  0x3d451253bde68a37U, 0xbdf54f1f3d4a6f27U, 0x3e18a6ca3cebd1c8U, 0xbdd017c43d45bb97U,
  0x3d2dd2dbbe63f35bU, 0x3df1dd00bd8c0ca7U, 0x3ce4a58a3d19048cU, 0x3d04163abdd6a6a2U,
  0x3dbef01e3c002dfdU, 0x3d6f83cb3c64468fU, 0x3cfb35c3bdb35fa6U, 0xbd888739bc437de3U,
  0xbc6c205c3cb00938U, 0xbdae44a7bd92b174U, 0x3d89b7a6bd86d97dU, 0x3d52555f3da951bbU,
  0xbbd020b3bdcf94c5U, 0x3de184a43c71dd94U, 0x3d9e43d5bd844f8eU, 0xbd0c859abdf540b5U,
  0x3d79daafbe0cb800U, 0x3bc2772abcb6fe06U, 0x3d7e5f35bcfa5410U, 0x3b1a27e73cb075a2U,
  0x3d0622f2bd7192ebU, 0xbe10bb48bdcd7f67U, 0x3dbe9ebfbd491fdaU, 0xbde00131be0500b1U,
  0x3cf7a6d6bcf355a2U, 0xbd5bfcb73d657a67U, 0xbe15266ebdc23d91U, 0xbcc2789b3dbe51e3U,
  0xbdda3596bd75027dU, 0xbc3d7af9bd42f50eU, 0x3d6a5af7bbf4199aU, 0x3dc69e45bd31d867U,
  0x3c4340d0bdf47040U, 0xbde9d4c5bd94f906U, 0x3d4b520fbc77efa5U, 0xbdb6e3b9bd976c2cU,
  0x3dd8c14d3cc74766U, 0xbdf5e0353d88b346U, 0x3d3818463df1f10bU, 0xbe162768bd88dfbeU,
  0xbcaf29c5bd58446dU, 0xbd3839d53d84e878U, 0x3dba0f1e3c9c0612U, 0xbd021105bd6311daU,
  0xbce7b129bde44159U, 0x3b15338dbd25fa6eU, 0x3d1ffcde3d6588e5U, 0x3d714085bd672236U,
  0xbb0d8487bea0c332U, 0xbd96bdd53d30899fU, 0xbd89ae51bd6ffa31U, 0xbdd93d1ebc18765bU,
  0x3d61f603bb92097eU, 0xbdc365d13d63b22aU, 0xbd99a5f4bdcca446U, 0xbd6449da3ccbf9f7U,
  0xbcad1907bd51d400U, 0xbdd281c33dcc3c8bU, 0xbd939e393dc9bdb0U, 0xbd05b302bd275c77U,
  0xbdb2cbfe3c56fac1U, 0xbd48a749be3bdf81U, 0x3d6208cfbd849407U, 0x3bec6cb3bd0bc54aU,
  0xbd5cff9ebdcccda9U, 0xbdb073cbbc9968caU, 0x3b730d4b3db7b852U, 0xbdd879023c8b403eU,
  0xbe00456fbdc14f5eU, 0x3d58e2b73db4197cU, 0xbdaabc2d3dc291bbU, 0xbd937539bd2b4ae3U,
  0x3dbbb098bcad42a7U, 0x3d56e6ccbce2c73cU, 0xbd8dd0aa3d9c1274U, 0xbd237d07bd681abfU,
  0x3db51464bdb9a826U, 0x3d2b6121bd3491b4U, 0xbd6d1d73be0e52b5U, 0xbbf40871bdc857e0U,
  0xbd526b5fbd9f7da4U, 0xbbe900ff3d0eaf30U, 0xbd87a8fbbdb842eaU, 0xbe2e5f2ebd6c873dU,
  0x3a91a71abe09870bU, 0xbd431c723d1b7bb0U, 0x3d2ed528bd36dd5bU, 0x3be1a3f73d14cea7U,
  0x3d91cf283d97d1a8U, 0xbd746801bdde0eeaU, 0xbdcbeb68bda9c5b7U, 0x3cecf794bd7a055bU,
  0x3dcd4070bdee6a81U, 0xbae64308bdd536dcU, 0x3d8a8cacbdbe1128U, 0x3dce014f3c995fb6U,
  0x3c75a9a2be2795ccU, 0xbdc186a5bd70a99fU, 0x3d2ccc46bdf38b2eU, 0x3de5eed1be085d48U,
  0x3d9d90e3bda8a686U, 0xbde0b3ba3d015bddU, 0x3ccecf87bd901750U, 0xbb5244d6bd8be80aU,
  0x3ce88faf3c42a338U, 0xbc09cab23dae38fcU, 0xb62982013db0d48bU, 0x3da9dcedbdf03e43U,
  0x3e08d7babd6c4860U, 0x3c2dc7863d88c100U, 0xbd1e8fc2bd7eb200U, 0xbbb1f666bda8a8f4U,
  0xbdd9acb13ba35178U, 0xbbe93e38bdee1d99U, 0xbdcf03d3bd4e8960U, 0x3d216d8fba588a5cU,
  0xbdc725da3bdeb313U, 0xbd5c0c873d74f5ebU, 0x3d4e84a6bc894cd3U, 0x3d885dfbbe358c8eU,
  0xbe0d1d20bdd544b4U, 0xbde07617bddba99cU, 0xbc8a409c3dc59f13U, 0xbd16eddb3db67fb0U,
  0x3c18b7753d8fd285U, 0x3da5bb2abe0c1cf2U, 0x3c80e858bd8241c2U, 0xbd8fa0263de6f44dU,
  0x3dca8ee4be350023U, 0x3cbad5d03cb68a39U, 0x3c5ecb06bda72bf1U, 0xbd80e8e8bde06855U,
  0x3ca2f2163de6420bU, 0xbdfa4269bd743becU, 0x3daeca483dae6acdU, 0x3d5b3f8d3d8833f0U,
  0x3ca4ab213dd0e276U, 0xbd9cee3dbdcf8029U, 0xbd858deebcff9033U, 0xbc4cbf013c96f322U,
  0x3d27d6513d6c3958U, 0xbda89b3c3de029b6U, 0xbdcdfd35bbf932efU, 0x3dbfb7e5be3f3a5eU,
  0xbde90e3ebe291a2fU, 0xbd87d1543d79be75U, 0x3cfe731dbd2e413aU, 0xbd7faa2abd76a08dU,
  0x3c8347f9bddd56a8U, 0x3da6b762bbe72e4aU, 0x3dadb103bd13ceadU, 0x3c81b976bdfcf9caU,
  0x3d173b503d311890U, 0x3d971ec13db532dcU, 0xbd28cf1cbc4a8c78U, 0x3d1996abbe0b81f8U,
  0xbd6e89ebbc3ac14bU, 0x3d01bd5c3b5a13b5U, 0xbc105bedbded8d19U, 0x3e0b29d53db1f9aeU,
  0x3db9ee50be7aac47U, 0xbcd57f7ebe2b9da8U, 0xbe1081cebd0ca5acU, 0x3e491d1c3d3ba981U,
  0x3def2154bd0a94dbU, 0x3d0956503d2c38e2U, 0xbdabf160bce96c50U, 0x3d144f93bdefddc1U,
  0xbcfb9ee9ba95203dU, 0x3ce72be03cbb86faU, 0xbd5a036cbc59cb17U, 0xbdd9400cbd94023fU,
  0xbea2ce1dbd117929U, 0xbdd335b63d97c24fU, 0xbeb93d0dbccb85c3U, 0x3df364b8be30f5e2U,
  0xbd84109bbe124e0bU, 0xbdadbe623dcb0cc5U, 0xbda5b3083db0ae4eU, 0xbd6fd01dbe02e6b6U,
  0x3d3361c2bd000ce6U, 0x3c983dd53da3d9c4U, 0xbc62e5c93de5696dU, 0xbd16daf8bde7dbf6U,
  0xbd919a1fbcd4c50aU, 0x3cc27d813d62821cU, 0xbe8a128abd7139acU, 0x3dd35654be54500bU,
  0x3cc7d4f83dd3979fU, 0xbd905481bdfbc7d9U, 0x3e39ef3a3d81507cU, 0xbd851b6e3d625ca8U,
  0x3df0dde6be89ba9aU, 0x3cbda513be22ff71U, 0xbdf8071ebe04230dU, 0x3f08c5b13d330a4fU,
  0xbd273fadbde12775U, 0xbe5652a2bdd148d0U, 0xbd928951be10d85eU, 0xbd5425b6bdbdc6cfU,
  0xbd894275bdd9ec45U, 0xbc86eadbbdcc5d9fU, 0xbe08c2283da3f0f2U, 0xbd7dcd903d4d2f37U,
  0x3c9dd4583dc79826U, 0x3d56981fbd15f5d9U, 0xbecab6fbbe183384U, 0x3dc796acbdded94eU,
  0x3d3e164bbe93839eU, 0xbd8f7a0ebd828b26U, 0x3de328763d6d6284U, 0xba48e8df3d477f9aU,
  0xbdb0503dbe53e3dcU, 0x3d84bd69bdf52a5eU, 0xbd8525cbbc900785U, 0xbd90418dbce1f228U,
  0xbd0dd9efbdb5f345U, 0xbd9c5cc4bcfd5de1U, 0xbdacdd1b3d514bb1U, 0x3dc038ebbe288272U,
  0x3d65ef65bd3ef470U, 0x3d8b4973bdc43e8fU, 0x3e308997bbc6f502U, 0x3da38e43bdc5ba5fU,
  0xbd353f7ebe12b0bcU, 0x3e122485bec1b60aU, 0x3d2fdab9bd73878bU, 0x3d63c4ad3d7ebbaaU,
  0xbd188f4ebdd10490U, 0xbe5ab0cdbd404f30U, 0xbdfa1f4bbb00d44dU, 0xbe098a48bd369561U,
  0xbc47b5333e09bac4U, 0x3ddcbe0f3b04ec67U, 0xbe7fdb1c3c230da2U, 0xbd2a932a3da26d9bU,
  0x3cc378a0bc97e8e8U, 0x3d89c477bc935089U, 0xbf0954eebe68f45eU, 0xbd15af72be5daae0U,
  0xbd832347be4c0c38U, 0xbd9256d1bc5f8434U, 0xbd4165863d4d9b20U, 0xbdd60ed0bc1509f0U,
  0xbc68eddfbc9eb549U, 0x3cb201963d4e481eU, 0x3d91c0133bffd8ebU, 0x3a4ddf52bd8d8162U,
  0x3cd98420bdec42c1U, 0x3d92f64abcedb975U, 0xbdf6281e3ddb6720U, 0x3e412efdbca7efe3U,
  0x3cde77e0bd0928c1U, 0xbc613dc0be21e328U, 0xbccb7da8bd9d3f5bU, 0x3d2dfb4a3db72bd1U,
  0x3dfad29abe61b78eU, 0x3e43b26abea183b1U, 0xbd77ee1bbd5d05e5U, 0x3e89420bbdffa192U,
  0xbc3a9d5cbdf1fefaU, 0xbe522a8dbb8f7886U, 0xbd9f82de3cb4cea1U, 0xbe06cff5bd879a5aU,
  0x3d0a7e58bd3796a7U, 0xbd39037dbe06c4fbU, 0xbc0291543d1841efU, 0xbccdb6953d34336dU,
  0x3ddaa3a1be2cb64eU, 0x3de21640bdc2c9ffU, 0xbec9d37ebe62db13U, 0xbdab4badbe6f5965U,
  0x3da20282be9e0feeU, 0x3cc3dab63dcc96c1U, 0xbda890fdbdc40be0U, 0x3d716e7ebdc6dd76U,
  0x3cd7fa5e3dc81448U, 0xbd9bbaf6bdd92638U, 0xbc461c6abdb0cbe5U, 0x3dc90c83be0679adU,
  0xbd3a35db3daae328U, 0x3bc7260bbd7889ebU, 0xbcd61dcebcbc5dbbU, 0x3d963766be731494U,
  0x3c9726443c5ca005U, 0xbd54171bbde3d627U, 0xb96f287bbd6f6f42U, 0xbdc66f783dd33cf7U,
  0x3d4c7a23bdc13f39U, 0xbe3cde61be85ee00U, 0x3ddbee65bd4c7ab3U, 0xbdbe47cb3d249e9bU,
  0xbde79cf4bd7a5eb9U, 0xbe87e52cbe03660eU, 0xbd35cbbc3d877470U, 0xbdaf1d9d3dcc9afaU,
  0x3bdff9ed3d981059U, 0x3c0c29f9bd3262c0U, 0xbd3120e5bdb4faf9U, 0xbdf666733ce2c448U,
  0x3e357f61be173608U, 0x3d8d81e73da4b7baU, 0xbf06841abe88af4dU, 0xbd067902bdddc96bU,
  0x3b3ed851beab54b8U, 0xbd715555bdc73bd3U, 0xbe0b18723cc0be1eU, 0x3d1381113d480ca4U,
  0x3d50c1673dcd0179U, 0xbdbbc0f7bd9c4ba5U, 0xbd23359bbd9faf0bU, 0xbc98540d3cbe1870U,
  0x3dc4f8c1bdd8c534U, 0xbd35f54bbd3146cbU, 0xbd56d6f63ca7d6f2U, 0xbdcb8183bcbc5088U,
  0xbc6ffa65bc87df71U, 0x3dc76d623d7684e1U, 0xbe146e4f3d449146U, 0xbdd9569f3ba0744dU,
  0xbd727e1b3e22733fU, 0xbbad34b8bdd30a30U, 0x3da6f89abca03115U, 0xbe8dad01bd52183bU,
  0xbd425bdb3dc49377U, 0xbe84be4bbcf9b664U, 0xbdb782903d18b741U, 0xbbec4f223d070e32U,
  0xbdd30da83d49df41U, 0x3b93c04cbcd8ede3U, 0xbce75b923c42b059U, 0xbdf93d27bd3220a8U,
  0x3de1e177be3cd84fU, 0xbdc61c64bccf0c48U, 0xbee5573ebd9c71ceU, 0xbdb59f25be4ef7f6U,
  0x3d88fc32be57c202U, 0x3ca12ae23da62773U, 0xbdb32f963d70404bU, 0xbeea51593c982442U,
  0x3d7023bebd987ac7U, 0x3d76dd43be0087abU, 0xbb84694e3daf8d6fU, 0xbdd2ed4cbdf52476U,
  0x3de4ec22bade5e44U, 0xbd9aad88ba1e2e1dU, 0x3de902cebd690d29U, 0x3ca0824dbe4b0947U,
  0x3d1f48d43d88a490U, 0xbdd5c6b6bd282ba9U, 0xbf014ac4bc8f2336U, 0xbd8e1546bc6310a7U,
  0x3d8ebda2befd114bU, 0x3c2b832dbc717977U, 0xbd6d70153bf11dedU, 0x3c90f795bc5511aeU,
  0xbd7719b23ccf35a4U, 0x3d1fdfb53cbb9af3U, 0xbda8f1c2bdafcca6U, 0xbdc8c9263ca8f686U,
  0xbd9d9c9c3da45f1dU, 0xbd6000173dffa7f5U, 0xbd9f1683bd3c4121U, 0x3d53ffde3d8bea84U,
  0x3d8045593d230fedU, 0xbc918981bcd7ac88U, 0xbee5477d3cae07fcU, 0xbdbcf1e2bd88b8c6U,
  0xbd803ec6bd7da0a3U, 0xbc6b0b67bc9d0eabU, 0x3c04700b3de08ae7U, 0xbdd1b36fbdef7cc8U,
  0xbd9d005abd99759cU, 0x3d2c29503d835a83U, 0xbda4569bbbcdb6e4U, 0xbc9211c6be1b919fU,
  0x3cb482593cc360cfU, 0x3ce9e6fa3dad9e30U, 0xbe49c148bdd106f1U, 0x3e37023e3d04c265U,
  0xbd5626f8be044899U, 0xbc128ecebc285314U, 0xbd9fee6abd709df8U, 0x3bd7a213bca3095bU,
  0x3dc7c1713d45d801U, 0xbd9a9111bd036844U, 0x3db9f0513e0674e6U, 0xbe12430bbdeea94dU,
  0x3d9fc0ec3d2b5d02U, 0xbdb573053d0b498cU, 0x3d4595f0bdf628ebU, 0x3d21a56cbd08f07dU,
  0xbcbba61b3e109867U, 0x3de6a5023ddc66feU, 0x3e1579ee3c6751eeU, 0xbcc461113e155a24U,
  0xbe197c0a3bae6932U, 0xbd8a7e51bcdbd643U, 0xbf2c76aabd917dc8U, 0x3c0c18dbbf604454U,
  0xbdce37a9bf4e78c5U, 0x3cd83fc83d659e4bU, 0x3ce5c4ff3daec5abU, 0xbe561e45bd6a67afU,
  0x3b9436073dbb5573U, 0x3dcbb21d3de653b8U, 0xbdea91b13bf7fb7fU, 0x3da6e6f8bcbd171dU,
  0xbcdc074b3dd50453U, 0x3c933f9ebb89986fU, 0x3df8b2aa3d8c84fcU, 0x3d00f33b3bb3c54eU,
  0x3cb79fec3d7ecb36U, 0x3db4a5373d86cd00U, 0xbdf329f83e0d52c8U, 0xbde2ccefbc82e88dU,
  0x3d394e493e1c2a28U, 0x3e53c555bc3afc03U, 0x3d6e77a93e18d555U, 0x3d1196f0bd830503U,
  0x3da25f113dafe939U, 0xbe2cf107bda5476eU, 0xbd442292bcec847aU, 0x3d6c8ddabdfdcac7U,
  0xbd803512bd6e576bU, 0xbc74cc243dfdb24bU, 0xbcca646c3daa44b5U, 0xbd64316c3d16ca16U,
  0x3c47de8dbd8aead3U, 0x3d88b01fbdf25b90U, 0xbf38f21d3d50b073U, 0x3d1a2a3fbf3bb083U,
  0x3d985ac9bed49feeU, 0x3d0b7963bdc08234U, 0xbd91fdd83ddfdd3eU, 0xbde91399bdfc39bfU,
  0x3ceb8d4fbd5da5aaU, 0x3d37045b3e221bc9U, 0x3def5575bd00a4b5U, 0x3df3b4f4bc596e7eU,
  0x3dae390bbd4aaf2cU, 0x3d81870bbd3602a0U, 0x3c812e7fbdd9c131U, 0xbce5718bbcf33ec3U,
  0xbd8435133d9ab3bfU, 0x3d7265ca3d377bd0U, 0xbdf0a7f33dd5a7f7U, 0x3c38d969bc9776c1U,
  0xbd9bc62cbd7901a1U, 0xbd649dbfbd6e4415U, 0xbdd307fc3c2ca724U, 0x3e274ec93d13a584U,
  0x3d4f7230bd76527aU, 0xbe28412abdac3759U, 0xbd44e972bcc7ea0eU, 0x3d561f3cbd792421U,
  0xbd291a44bd1c12b0U, 0xbdd5252bbc185419U, 0xbdb72cc43ce21c43U, 0x3cb1aada3c505363U,
  0x3d9d13b83ce55f42U, 0xbde49f2c3ca47109U, 0xbeabaf67bd3271d4U, 0x3db1d149bf2e4495U,
  0xbc8bdb55bf356b17U, 0x3d7054db3d9153a6U, 0x3d9550653de07ecbU, 0xbe85dd11bd533ed8U,
  0xba6c6278be8ff872U, 0xbc94287c3de229acU, 0xbd281e403de6396bU, 0x3c9bc486bb6e9106U,
  0x3dc7fe11bdaf1ca9U, 0x3dd3ce5fbde375f4U, 0xbdaa0017bdca7d71U, 0xbd58ff743d4faa92U,
  0xbc9a3c44bd893996U, 0xbd45c30a3db19329U, 0xbea15585bdcfb56aU, 0x3e0424023d4c4096U,
  0x3d7326d7bee535aeU, 0x3cb91a153d1d1c11U, 0x3d9ad5edbd6f71b0U, 0x3e6a09373d57c3fbU,
  0xbbec465b3c9bab63U, 0xbe16304ebd65b77cU, 0xbdd17970bdc45fb2U, 0xbcebbaac3ddefa33U,
  0x3df596ec3d2d98f9U, 0x3e02f17b3e228c0fU, 0x3cddd4d43dd14fddU, 0xbdd32887bd97ef0eU,
  0xbc1d2a283dd41480U, 0xbc8b7ad33dd91661U, 0xbe3736c43dca7ed0U, 0x3ded7bc4bee460b0U,
  0xbcbca68fbebb0675U, 0xbdeec568bc0f364bU, 0xbc142b473d174e29U, 0xbe01aeedbe1b8b27U,
  0x3dc39f863debb2bfU, 0x3da5a1813e13e2e1U, 0x3c902fd3bdc229a7U, 0x3d8efc85bda0c704U,
  0x3d182cb7bdd61379U, 0xbda37b5c3dc6c118U, 0xbda228f0bd4db614U, 0xbcbf2d263e109ee4U,
  0xbddd30c43aeab57cU, 0x3d03ef4ebcc3883cU, 0xbe289ef8bdbdb0f4U, 0xbdc7d5273b9f190aU,
  0xbd84f0c1bf8e1804U, 0xbf41b719bcc0e3f7U, 0xbd15d27e3d927aafU, 0x3e072534bd4dbb5eU,
  0xbd899b28bb684455U, 0x3d150648bd164a3cU, 0x3b9f61b53d0d540eU, 0xbccdd2f63d50c3caU,
  0x3d967ea23ce4ce4aU, 0x3cafe824bcf9d241U, 0x3c68154a3ca5c6afU, 0xbd17d7b4bc92ed1dU,
  0xbe5d87dfbc9b00d8U, 0xbdc9a69fbd2e89a7U, 0xbedbd1643e071655U, 0x3df43af53e21ce6aU,
  0xbd8108833d92fe23U, 0xbd9458863d76e34bU, 0xbd286c503cd35d80U, 0xbead85243cbab3deU,
  0xbd70565cbea49b06U, 0x3dae7b00bce362bcU, 0x3ccedc7fbc9b9107U, 0x3d41c7adbebf6c07U,
  0xb99d4a913df04e66U, 0xbe167d863dafbdb0U, 0x3d88997d3cfc66e4U, 0x3d56db683cef41c6U,
  0xbdb46986be043771U, 0x3df3b579bdbd1b45U, 0xbe555335bddf9ba7U, 0x3b9f4e1ebd9d77ffU,
  0x3e08122b3d8e78d7U, 0xbe055db7bd87eeacU, 0x3d8e9e0ebd8c7948U, 0xbe09b0573df0ce8aU,
  0xbdc757c1bb3ad2daU, 0xbdaf688ebc22ba14U, 0xbe025715bc881091U, 0xbdbbb8f8bd0b9c0fU,
  0xbd182e9e3c43f384U, 0x3d777ab2bc8e5856U, 0x3d44d94abdffbdbbU, 0xbdb9caff3dcf4f8aU,
  0xbda08f0ebd035fa5U, 0x3dd8d1e3bdb11f57U, 0x3cd7d9cbbb4aa4ddU, 0x3d096d95be064b97U,
  0xbcce52a5bd912c47U, 0x3d36bafa3db5fb4fU, 0x3ca4e6483da8e8dcU, 0x3d241a07bde38b26U,
  0xbd15f0b8bbf875a6U, 0xbd7819b8bdaa21feU, 0xbce85f483cdc40ecU, 0x3da0746bb9dde2e1U,
  0xbd895d34bd6d70fbU, 0xbca8640cbdd98973U, 0xbe7b5814bcf1a34bU, 0x3ca4f49d3ba3716dU,
  0x3d7441583dc5326fU, 0x3d72659fbd0b0737U, 0xbb3615c8bbbc34f1U, 0xbd11be23bdcf0bc6U,
  0x3d76a7f23d87cba3U, 0xbdf8afe1bdfc2bfcU, 0x3d340a8c3e1014ccU, 0x3db8b4b9bda98e08U,
  0x3d814db23d096f8dU, 0xbd57e0573d999f5dU, 0x3d54298d3dd461c1U, 0x3d38b7b7bddf786fU,
  0xbdfdc874bc80e379U, 0xbd8719843c76b19eU, 0xbd9f36f63dda8a0dU, 0xbb2aa29e3e1960e4U,
  0xbd37315a3ce09d64U, 0x3dd15ed5bcc1a908U, 0x3da58044be2c9916U, 0x3c4e57713db769abU,
  0xbdb03f53bdff1890U, 0xbd7577f73da643eeU, 0x3d4f22b5bc3ad45bU, 0x3d33e88dba65f4beU,
  0xbbe079d4bceadbc2U, 0xbc25f332bda8169bU, 0x3d9b6c6abd0279fbU, 0x3d2bf2fdbb22099cU,
  0xbdeb0e36bcd463f9U, 0x3dc8550abda7679dU, 0xbdcb8c8fbd2ffe4bU, 0x3d555c043dd03a8fU,
  0x3d06ba65bd6cf651U, 0x3d05a50ab9b641cbU, 0xbd7bc6493d63c042U, 0xbdf347e7bd60535cU,
  0xbcf334713d70b9d1U, 0xbdeb612abe202d6fU, 0xbd22186d3e27f9a8U, 0x3db51eabbc20e311U,
  0xbc3c600d3db521b2U, 0xbe18864bbcac76d1U, 0x3d388159bd27f28bU, 0x3d8651ec3db9ad27U,
  0xbdeb6b14bd983410U, 0x3c97d5ddbbf04a91U, 0x3d4255773d38f4faU, 0x3da0e1d83d8cb607U,
  0xbde01170bdb46d35U, 0x3d5e2a16baf11bf3U, 0xbd3226a73c8e3fd7U, 0x3d67e0e03d03d864U,
  0x3dc6468d3c5794f5U, 0x3d8591183d9bdfa4U, 0x3d81e5dfbddeea16U, 0xbd2de240bd1bda2cU,
  0x3db8a078bca4b688U, 0x3d1cbca4be04f08eU, 0xbdd007a7bdc6154aU, 0x3dad8809be03bfb2U,
  0xbd8bdd66bdad32f3U, 0xbd79ecfd3cd520e3U, 0xbe4bec7b3d120f80U, 0xbd96dbd8be0c9a84U,
  0x3d898a4cbd05b687U, 0x3da25a13bd305a67U, 0xbe383b3d3dbb2271U, 0x3dc3c96cbe020392U,
  0x3d9501fb3d23732bU, 0xbbfe2f1d3cdc25a8U, 0xbdfa43ea3b96552cU, 0x3e370efdbe05c44cU,
  0xbbebedce3cde1725U, 0xbd8d41203d30ad47U, 0xbd8e17553c92acfcU, 0xbc2651a63d5dc042U,
  0xbc8fdaa1bcce521bU, 0x3d293cd1bd68f9a1U, 0x398ba2a4bdc6bac6U, 0xbe03155fbd1ffdb4U,
  0x3cb6c8cc3dbe9985U, 0xbc7b5d46bd858012U, 0x3d117eb9bdc2012dU, 0xbc20ef143dd1a377U,
  0x3c4c0c9fbd5ff862U, 0x3d0377eabdd7d4daU, 0xbdfef285bdbc4978U, 0xbd948ab2bdefb88bU,
  0x3da6a193bdc2e02fU, 0x3d0962bcbdce3cf2U, 0xbe04e35bbd3caf1dU, 0xbd91027bbde3ff41U,
  0xbdbb6a2fbac6a0ffU, 0xbdb9215fbda64240U, 0xbe245cf03d989cddU, 0x3d4d598cbe392bb2U,
  0x3d9143aebd015d80U, 0xbd6b755f3d8af0dcU, 0xba2e28fbbdbd40b5U, 0x3bb456bcbbbac474U,
  0xbdb136133d04d270U, 0xbd9b3a5cbdb6813bU, 0x3c3d501e3d05ce0fU, 0x3d9cc143bdf357acU,
  0x3c184d153d898020U, 0x3bfda2493cdf3069U, 0xbded10663cdd508eU, 0x3c02000cbc8a2399U,
  0xbde3327cbdb6722bU, 0xbd4a18823d05a56eU, 0x3d36db11bd97bfdcU, 0xbdbf3b00bb8e0629U,
  0xbc651182bcfd1c17U, 0xbdae0a113d20023eU, 0xbdb52b753cc2ae34U, 0x3daaa518bb26b68bU,
  0xbc8de0223d743b5bU, 0xbdd7768fbd568282U, 0xbdd73c99bdc7abb3U, 0xbe1020333d627803U,
  0x3cf806c03d84b66bU, 0x3d862489bc172d11U, 0x3bd9b28e3d7dce8fU, 0x3c54646c3db62e9cU,
  0xbd5fddc8bd997d85U, 0x3dce939dbd3c6a6aU, 0xbea893c9bd22978bU, 0xbdf992aabe14cb47U,
  0x3bfa2c2bbd156ac6U, 0x3d8072c6be030507U, 0x3cd560393d83b1b2U, 0x39e8ffbd3d7e4d19U,
  0x3d8f23e9bd28b9f6U, 0x3d07a05b3d3c53eaU, 0x3c7d2ef7bd9c519dU, 0xbdd6e427bd07df94U,
  0x3d184c093c971482U, 0xbe1847963d96f12bU, 0xbcc32ff83dfde4edU, 0xbdc9837abdf49faeU,
  0xbc5491b83e0ba787U, 0x3d8bc85d3dd8f105U, 0x3e139e12bd93880fU, 0xbc9a27fbbe10e569U,
  0xbd94e6e1bd66278dU, 0x3d5f27c7bddd1a7cU, 0xbe231e3e3d899f46U, 0xbd90046c3b93d1d8U,
  0x3d3ed778bc9fd266U, 0xbc8fd627bde6cae5U, 0x3d7d4a8ebd881e0dU, 0xbdd17dc6bc2e1f4dU,
  0x3d9a1330bd0c4fd2U, 0xbd7ef295bd3d3329U, 0xbd0928e0be0d40f5U, 0xbda148063dd06c92U,
  0x3ddfda763dadbf39U, 0xbd21a2ec3d93568bU, 0xbe83aff2bddb892fU, 0xbc46b864bd9b48d7U,
  0x3d94e2a5bd578499U, 0xbca26748bdcffd86U, 0xbd31c741bd52c87bU, 0xbcbf3f383d247be2U,
  0xbd39c965beb83f64U, 0xbd06c6103bb65badU, 0x3d16d6bc3d820981U, 0xbd8996963e00623eU,
  0xbe17903dbca23228U, 0xbdbf36d03d84924cU, 0x3dc1e780bd7b0485U, 0xbcf853abbddb80efU,
  0xbdbc28dc3d0cf8a7U, 0x3b81daab3db0d1c8U, 0x3d0d507ebbf5056eU, 0x3af451903ca06371U,
  0xbd64f37f3dce8312U, 0x3d6399293d16af16U, 0xbe6f58883b9e3be6U, 0x3d4c44173de4ecd0U,
  0x3cf9b86a3e06d946U, 0xbc9e32efbd09c39dU, 0x3de731cd3d9e3635U, 0xbda1723fbd818cf9U,
  0x3d1274c3be4d2047U, 0xbdbc7397bd572ea6U, 0xbdc5bc64bd034e26U, 0x3d59587f3bd198c5U,
  0x3d31f786bda4297dU, 0x3dbbd52dbdb029f9U, 0xbe6a2b2fbd8a5957U, 0x3d8f8b81be864d47U,
  0xbc8009cc3d824545U, 0xbd80a8233b6b1a7eU, 0x3aa6c578bd857a43U, 0xbc61e88b3c8425c6U,
  0x3d13dd93be1d86b7U, 0xbd8391403dbab71cU, 0x3dd3cc563d668d9cU, 0x3e51918c3d909f82U,
  0xbd5ecf993dd8f6d9U, 0x3c0ca5fd3d53440eU, 0x3d3526e7bcffc375U, 0xbd9070d5bd9fe91dU,
  0x3d58b8fc3e0f4f89U, 0xbcee17573d28a661U, 0xbd8d71443bca16cdU, 0x3db1c0ec3defbddcU,
  0xbd116b4a3d876700U, 0xbddcb3263d5be21eU, 0x3c55313ebde22f70U, 0xbd317242bd45e09dU,
  0x3da0f6a53d32ca12U, 0x3d81a75abdd02182U, 0xbca57eb63d933317U, 0xbe1e80e13dc2eb1eU,
  0x3dbb4255bdcda992U, 0xbdbbc3543d42f5d8U, 0xbdb9b1713a28cc69U, 0xbceaa712bdcc9b4fU,
  0xbb81117d3dc69e16U, 0xbd78c3b33dc263aaU, 0x3c8a4be23d7e2e16U, 0x3bf67b17bd8b4c04U,
  0x3c6f55123d6c1110U, 0x3d9077df3d86fcdaU, 0x3d819af0bd4f9769U, 0x3d8fa1bb3d82e210U,
  0xbca048a5be616ab9U, 0x3d76c84cbd2cc595U, 0xbd9c2350bca20298U, 0xbe2135083da39767U,
  0x3d6ab92b3de47673U, 0xbdd3f9203d99e364U, 0x3d6e69ec3ca23beaU, 0xba47baa0bdc04899U,
  0xbd1babfabdabb3e5U, 0xbdb18a9e3d22b24fU, 0xbdeba72fbd886832U, 0x3cdc94133c419c9cU,
  0xbcdb64a3bdafa4ddU, 0x3dce707bbc9a9cf5U, 0xbd52eac73bc4f001U, 0x3cba9974be27f1f8U,
  0xbd563ccdbcc1f066U, 0x3c91ecaebd92de2bU, 0x3d257453bced4460U, 0xbde755cc3c91b6acU,
  0xbd91d74abe3008b3U, 0xbbf1dafb3daf057dU, 0xbd60445dbe041076U, 0x3dc309c23de7c96fU,
  0xbd510dcabc671e84U, 0x3a78f29f3cb10582U, 0xbcabbc47bdc8b874U, 0x3dfc8fbdbd7217acU,
  0xbc0d5b70bdfc4bb3U, 0x3dd1b527bcef109fU, 0xbe020299bbeca36fU, 0xbcf961613d82c1bfU,
  0xbcd6517ebe8d281aU, 0xbe39d91abd5089ddU, 0x3d1ec01b3b63cc29U, 0x3d8cdb02bc6be572U,
  0xbdb1b5dc3d8cee53U, 0x3d014f7f3d8186fbU, 0xbdb13e213db66caeU, 0x3b94fbd13c2d6c41U,
  0xbdcfab38bdb1c4e0U, 0x3cfeaa793d8ea71dU, 0xbe1dfd3bbd1168b2U, 0x3de0490fbdac4ca1U,
  0x3ded272b3deea7d9U, 0xbce87a483dc5ac85U, 0xbdb36b56bb9fdf4aU, 0x3d31ac65be70efa4U,
  0xbd3c4f75be5581d8U, 0x3db5e9fabce994e3U, 0xbd175f013dccb330U, 0xbe753ea3bdddeb7bU,
  0xbd171fe1be76edafU, 0x3d7beefd3dbeb239U, 0x3dab17083dcf1e4bU, 0x3de4d0603d600b02U,
  0xbd90a078bbae3aefU, 0x3cb32014bd217e90U, 0xbe33a4b83de9c489U, 0x3d28139fbdec0d50U,
  0x3ca8679f3dd042fdU, 0x3bf24c533d5f7692U, 0xbb0edf16bdf49ba2U, 0xbc8559ca3d8416a7U,
  0xbd2d8604be7f77e7U, 0x3dd1cd273d0162e9U, 0x3d7276933d8e848bU, 0x3e0e933f3dceff2aU,
  0x3d78506e3d0a7d86U, 0xbd56eed93c9da7bbU, 0x3dc7e89ebdb5982aU, 0x3dd33ecbbb6d9444U,
  0x3ab1c9aabe0f4e45U, 0xbc658e203e077d12U, 0xbcf87ae8bc4bbdf0U, 0xbdcd4fd4bc8c8612U,
  0xbe03529dbd489382U, 0xbd1dcec93c8fb92bU, 0xbe4960d8bda50542U, 0x3dbed005be53ff53U,
  0x3c94790abe4c45ecU, 0x3cda0d913d88addeU, 0xbb69645f3d87404dU, 0xbd8643f5be2010f3U,
  0x3da11d9e3d360d31U, 0x3ba9c6433e0856e7U, 0x3dbb41d7bd990cfeU, 0x3d52779abe1c7dabU,
  0x3c1d5408bd80dd53U, 0x3de37afabd20bfa4U, 0xbdd392e9bdad761aU, 0xbda926733d07d231U,
  0xbdd69fc1bd9c70fbU, 0x3e107caf3cbc8e62U, 0xbe83f8e33d8fb13dU, 0xbde050633d8f119dU,
  0xbd850e88bf24701eU, 0x3d14fc9abd77766cU, 0x3d2723ecbc20a7ffU, 0x3dd1a93f3db3a653U,
  0x3e03fd7bbdc598acU, 0x3dd3c865bce65a29U, 0x3d39cd803dcd0f7aU, 0x3daed462bda5ad61U,
  0xbd63e8ebbc2b834dU, 0x3daecfaabd3d964eU, 0xbdeeb6fa3dd89d02U, 0x3d48ff413d76a5adU,
  0xbdcf9145bc9ac2e7U, 0x3cc3e39fbc0bd43fU, 0xbde4211fbcb9224aU, 0xbd36c1ddbdc4a32cU,
  0xbdc06aa2bd56a49bU, 0xbca703c0bd41e28bU, 0xbc7758c5bdd3baf7U, 0xbe57e844bb9b7c45U,
  0x3d7ad0a7bd0a3986U, 0xbc29a2d63d136998U, 0x3d8e4948bcef165bU, 0xbdef2ea4bdcf1a1dU,
  0x3d993fa53d9b9627U, 0xbda1c1fdbd01725bU, 0xbe39976c3d92319dU, 0x3c649b05be4da610U,
  0xbd7b2e603d8317c0U, 0x3d9ab66e3d3f27b4U, 0xbd766c8d3cc73ed4U, 0x3e050ca83d93d5a5U,
  0xbe6adb223c1816c8U, 0xbc833e7dbc4cfa50U, 0xbd393ac33da006eaU, 0xbdbe08473cc391b9U,
  0xbcd95889bdf580f6U, 0x3cd870ca3a6ed540U, 0x3d975c42bdace774U, 0xbc868b91bce7eaf8U,
  0xbd1669f1bcd86bb2U, 0x3bf3796cbdc1620bU, 0xbdca5eae3d6cf2feU, 0x3d223c42be36087eU,
  0x3e2331a13d814707U, 0xbdc098533afa54c2U, 0xbdcebe85bdf864deU, 0x3d0c6d563d9f02dfU,
  0xbd5ec90bbdde4d04U, 0xbafe1682bd4f7499U, 0xbde8f6eebc90ad59U, 0xbe3526ddba5c3f81U,
  0xbd82167abb943419U, 0xbccb35153cda3408U, 0xbc943b8fbd827424U, 0xbdce43babe5c9f6bU,
  0x3dba1dbcbd75f675U, 0xbd0852a6bdeb6e16U, 0x3d29b8723bcff9edU, 0xbe61b1813e3b326bU,
  0xbdb064603db71ce2U, 0x3d2abbb73cfd2ff6U, 0xbe74b9f0bdb3fb4dU, 0xbc8ec3303daebfd9U,
  0xbe119d99bdaf610bU, 0xbd0f4e46bdeef7f4U, 0xbd8d0ebbbd25e393U, 0xbc07760a3d1fe9aaU,
  0xbd3d0b36bb4a390aU, 0xbc92b403bcb1d1ebU, 0xbde48a08bd2d7315U, 0x3b506a543caff46aU,
  0xbdae6ffc3d45d8cfU, 0xbd65b1a93dcac021U, 0x3c19573b3d0d82f7U, 0x3be0ca0a3d256536U,
  0x3dbf21cf3d3e5865U, 0xbd0687443dd2d3a5U, 0xbc1b50503db8d8ebU, 0xbb98774abda15bc6U,
  0x3d755a693c8c653aU, 0xbc2bdcbebd459441U, 0x3c807f3ebdbfa736U, 0xbe0944b53d18c4e3U,
  0xbd5e8fe9bd324eb0U, 0xbdbebc12be04a85dU, 0xbc3d14603d96b307U, 0xbdbcc4293d9ba0c4U,
  0xbd92a4003d209bf4U, 0xbd32f79e3cd6fe94U, 0x3c9aad3c3d4db47dU, 0xbd9b7b673cfcf0a3U,
  0xbd99478abd011efdU, 0xbd8d83acbd498ec9U, 0xbadd88353d1f2622U, 0xbe0fd1abbe14db8bU,
  0xbe3eb6973af62fa0U, 0xbd7251053da05e6cU, 0xbddc4d823da15100U, 0xbd92a2d43dcc6312U,
  0xbc47dec83d00ba39U, 0xbdbbcffdbe0c8923U, 0x3db3363b3d186e15U, 0x3c3a44a43d2791f4U,
  0x3d46a928bdedeb39U, 0x3c546beb3deae2efU, 0xbdd4864fbb9b61e1U, 0xbdd480f5bdec4b12U,
  0xbd9f23cd3da6ff2cU, 0xbd380e9abcd88ddaU, 0xbdc3224d3cb911ddU, 0x3d76db473de33bd4U,
  0x3d4d86403e02fae8U, 0xbdb75e023c7e63beU, 0x3d653212bc836e0fU, 0xbcac60fdbdd28cdcU,
  0x3d97ffc0bd94aaa5U, 0xbdbc2878bd2f3befU, 0x3d2f8a5e3c10c264U, 0xbda4ac093b422968U,
  0x3dd22961bdcc232bU, 0x3d2a7b94bdb00408U, 0xbe0f3c293aacd3ebU, 0x3d750cb93d7c7aacU,
  0xbc8046adbdea2bfcU, 0x3e0185c7be22f988U, 0xbe3ba3e8bdf99323U, 0xbd7336b0be0e93ffU,
  0xbe7087ad3d7e09c2U, 0xbd543c53bcda5e8bU, 0xbd7a89913ca22fafU, 0xbe7a4c933d829f4eU,
  0x3b86aae2bb221ffaU, 0x3bf1373dbb25fed9U, 0xbddc69423ce05e4dU, 0xbca4236f3d9f8efdU,
  0x3dc1ae89bdd7e30bU, 0x3d3787e23daff08fU, 0xbd010a073d9c5565U, 0x3daa66b93d31a206U,
  0xbca858cd3d2d86ccU, 0xbd701758bd9165afU, 0xbe631c8a3d433270U, 0xbdba78453cb25fefU,
  0x3d896c8c3e22ee1dU, 0xbdc4d572be08e655U, 0x3da298113cfc3724U, 0xbe1ae2773d9341e2U,
  0xbde7b82d3e2bc15cU, 0xbd6b60a0bd6325b2U, 0x3d2cf648bd9bef8bU, 0xbce3566f3dde426cU,
  0xbd943d0cbd2ad044U, 0x3d3173f0bdbc2312U, 0xbe29259e3dcda0d1U, 0xbddd05c5bded6247U,
  0xbdf28030bd9a4701U, 0x3d30eb163d86f01bU, 0xbe513ec1bd27f39aU, 0xbdcfd0b13d2bcda3U,
  0xbdc9a4f83dc4d7d5U, 0xbd753a803d5fe4a2U, 0x3caa2789bbe24325U, 0xbe7fb154bce26ef7U,
  0x3d1f6fb03b33d994U, 0xbe16ce97bd9f7c93U, 0x3ab59091bcef061fU, 0xbded553dbc8337b8U,
  0x3bec1048bdc9e837U, 0x3c9e164abe00cfbfU, 0xbca9891dbc2fd305U, 0xbdb93906bd89ddbbU,
  0x3b6afe28bd8f65a8U, 0x3da671efbd845991U, 0xbe1746b6be21b44cU, 0x3dc9d2583b736c98U,
  0xbd88f2a1bcffd780U, 0x3ddcd917bcc5aa3bU, 0x3ddb64febc4f2fc7U, 0xbd2204be3cca56d5U,
  0xbdc0f5b43d83562cU, 0x3b660be0bd87598cU, 0xbd364687bdec601eU, 0xbd77be89be012eefU,
  0x3c86659f3a27e32fU, 0xbd6c1c34bd55bee3U, 0xbe527b433d6d7bccU, 0x3b611d3d3e33bb8cU,
  0xbcadfb9ebcc2fd3cU, 0xbda6af893dcc6547U, 0xbe4a7128bdb62056U, 0xbd62805ebd75c5e3U,
  0xbd24b77d3e123e5bU, 0xbd99b1923d3b1f93U, 0xbdab47433b551408U, 0xbe7dece23da15b70U,
  0xbd981c09bddf4707U, 0xbe075a123d7c611fU, 0xbde0590e3dd105f3U, 0xbcd696d23dc820b3U,
  0x3db193ddbcbc82dbU, 0x3c8230dabdf15a3cU, 0xbdb88a043d332db2U, 0xbd6e30f0bcf6103bU,
  0xbdae0ec43dbbe0c0U, 0x3d42fb083dad81adU, 0xbd0a8a03bd818fd7U, 0xbc0aa764be1897d1U,
  0x3c926e373cb2896eU, 0x3cc045ac3d1fc2acU, 0xbcdb4089bde5435bU, 0xbe287490bc2e2bcaU,
  0xbd2074e93e070625U, 0x3d53d0afbdca15bbU, 0x3d9cd0debce338b0U, 0xbd55b330bd21e9b9U,
  0x3d3a0b473bc684f7U, 0x3c58b8b9bdb8ab17U, 0xbe87c1243cd1f141U, 0x3cf27b9f3ee07625U,
  0xbd25066d3b0f6e21U, 0x3dae5c22bb04c852U, 0xbe0f9e793c9b1660U, 0xbd925b073df9eb3bU,
  0x3b14e3f3bc4dff68U, 0xbde5cffc3cb01025U, 0xb9d6c9a8bda34239U, 0xbd44fa1f3d16b9e1U,
  0xbd7eb9a7bde4ca85U, 0xbdf9755ebdd5881aU, 0xbdd4b157bd037988U, 0x3bccc5183d6bf044U,
  0x3dd7175abdd557e7U, 0xbd5d1244bdac79beU, 0xbd4c89dbbdebc26dU, 0x3d6920f6bdc0e94bU,
  0xbe05d8a93db94091U, 0xbc304a3dbcc77aefU, 0xbd1240babdeb7cceU, 0xbd459a1f3d80846cU,
  0xbde6de16bdc53121U, 0xbde35c403c5c72b6U, 0x3dc08b98bca458f9U, 0x3bdef8eb3c4c58caU,
  0xbdaf57183d41339bU, 0xbc8ef0943d159714U, 0xbdcdc601bdc72325U, 0xbdb19ecdbdabbff6U,
  0x3d9ef777bdf2546cU, 0x3da9c73f3cb73eeeU, 0xbdda547dbd5e0516U, 0xbc96f9ca3d639271U,
  0x3dde6450bdedeabaU, 0xbdd80a83bdf067cdU, 0xbbc6e8f9bde1f5b4U, 0xbc8aa4ca3d8905f7U,
  0xbd7f83833db969d8U, 0x3d4acbdfbdfac6a4U, 0x3baa203a3d78790aU, 0xbde135813c00cb2cU,
  0xbd30c6e53d8a0279U, 0xbd5d488dbcc36236U, 0xbd34cb96bcd90a84U, 0x3d359f6bbce31f53U,
  0xbdcbfea03cf397e7U, 0xbd016cc43cf0519eU, 0x3d9714b43ddd782cU, 0x3d8f51883c4064f7U,
  0x3b70eb6bbc8778b4U, 0xbcb271dc3d4bd159U, 0x3caf6e493c03b03dU, 0x3d0aa7ae3ddb9342U,
  0x3dc5a8dd3dd547c0U, 0x3d5245e83c148417U, 0xbdf224b1bbe0462cU, 0x3da216ac3dce3809U,
  0x3d5b10f63d14eec3U, 0x3c6b42303d47f7b6U, 0xbd9670abbd5451cbU, 0x3b9bf6aebc3e5e93U,
  0xbddc76373dd688d8U, 0xbd755212bcf451a3U, 0xbd195b56bd9566ebU, 0xbd87ad49bd896e50U,
  0xbdf1b2bf3d0dc582U, 0x3d87f7693dd50166U, 0xbdd813743de8d014U, 0x3d00d2ef3ceea839U,
  0x3dad8c34bc840430U, 0x3dc29b8fbe1bc428U, 0xbd92cc8ebcc55503U, 0xbd360310bd8f3c64U,
  0x3c559c933da6a908U, 0x3d2781b53c68f44bU, 0x3dd07fac3cf4ea94U, 0x3d397bea3ca70bd4U,
  0xbdb26c4e3d3834bdU, 0xbc80f7283d8f5d8fU, 0xbde3888dbd36d785U, 0x3b99e2353d8f277bU,
  0xbe03c93fbd07a487U, 0x3d18379fbcf738f8U, 0xbbc62a30bddb2b6eU, 0x3da00e1d3dc91513U,
  0x3c6a38913b154540U, 0xbdaad314bbfa7b52U, 0x3dd578bdbd1fc9adU, 0xbd7b0e643d6a4fa3U,
  0x3db9ac063d6c8a87U, 0x3d42cf5cbdb7e920U, 0xbda245093dddf10bU, 0xbc57bac83c0026adU,
  0xbb9ba14e3dd7e812U, 0x3d0370c5bc0f63b7U, 0xbd16fa893d8b49c4U, 0xbd341136bdafaa79U,
  0x3d8e7d68bdbafd16U, 0xbc11cbb8bd257e48U, 0xbdd4e1983cabc430U, 0xbd7bacf2bd62a284U,
  0xbd02a481bce58558U, 0x3d6b60a0bd4ebba5U, 0x3d9c9140bdd33fe0U, 0xbdb4158f3d375c5fU,
  0xbcdd93273cd7cbd5U, 0xbd49b451bdb368a0U, 0x3ddde3563ca5c151U, 0x3d10587cbb45fca5U,
  0xbd9e36fd3db6435dU, 0x3bbcf4a23d66af5dU, 0x3d218a6a3badec3dU, 0xbd368480bd96688dU,
  0xbe3d32e53b53ba09U, 0x3d8e3584bd79b4beU, 0xbd2134a2bdfb9e46U, 0xbd9a30953d25a94fU,
  0xbdc27808bd739a07U, 0x3daaa8dabd884ebcU, 0xbdd33630bdbee143U, 0xbd684b97bd161f09U,
  0xbce1dac33dcd8940U, 0xbd69d15e3c3673b3U, 0xbd9bab2cbd3ba621U, 0x3c140db7bcb4d22cU,
  0x3dd2f18b3db53297U, 0x3d41c2b6bd927d1dU, 0xbcab9eb43d4938b2U, 0x3da6fc0c3d96a59eU,
  0xbce70124bdb48832U, 0xbdb55a71bdd0d2ddU, 0xbdbca4e0bd196070U, 0x3d6dab93bde6c716U,
  0x3b8d04e23b8de060U, 0x3d9c50723ca098b7U, 0xbd92c974bda4dda4U, 0xbcc05038bdbf7005U,
  0x3dc8c7cbbcce65fcU, 0x3d12e0733d5e9c59U, 0xbd8e8e06bd2e0f2fU, 0xbdc2a9923dbe15c3U,
  0x3c6d7aa1bd384972U, 0x3dc5adef3d0d0056U, 0x3d83844fbd9fd2fdU, 0xbd8dd2c8bd775d54U,
  0xbb58f01cbdb9edb0U, 0xbd71b638bd10f880U, 0xbe08b91fbd0fd770U, 0x3d33691abd944a83U,
  0xbd2658ef3d186798U, 0x3d2e6846bd480fb4U, 0x3da7ae52bd83069aU, 0xbd8026893d7d7764U,
  0xbd6afe113da80304U, 0x3d4acf5c3dc05212U, 0x3dda68ec3d8fd977U, 0xbcca25b7be0b61d8U,
  0xbdd2156bbd6a13a9U, 0x3dd633403d7ee0c8U, 0x3d6320513da289c6U, 0xbc8208633d81c6bfU,
  0xbd8dd2243d930addU, 0x3dae9ee33dcda926U, 0xbcb5f4663d478bb0U, 0xbd8337f2bd8e87b0U,
  0x3c24e5093da6bf9cU, 0xbdc392a3bd27da78U, 0x3aafd4753d315fdeU, 0xbdb72a67bdc21243U,
  0xbd6f4cf7bab43f22U, 0xbd83bcad3db371a4U, 0x3ca64470bd83a0e8U, 0xbd24bba63dba6c30U,
  0xbdee75c43da4cad1U, 0xbdd76652bdf789aaU, 0xbd630452bdc3c925U, 0x3c6cb0503cc93f51U,
  0xbdbd8392bd5de086U, 0x3da7bcc33db46c19U, 0x3d32a0adbe057ec1U, 0xbd10967cbce2568eU,
  0xbd6ec59f3d9117f4U, 0x3d980b833d8e3cb5U, 0x3d821ad1bd911f64U, 0xbc72b8d4bd91126aU,
  0x3d80987ebd88a5c0U, 0xbdc7e8f3ba75e40aU, 0x3cbc7188bdf3dc2cU, 0x3dceb7a73d6c834bU,
  0xbd17f4183cbee654U, 0xbdb9e67dbd74d257U, 0xbd3e8ac93ba1c9caU, 0xbd0da5b73ddad4d5U,
  0xbdceebc7bb7375ffU, 0xbdb11b0c3da8e960U, 0xb905e772bc149e58U, 0x3b676764bdf5e00aU,
  0x3c94fbd7b969051bU, 0x3bc320983c894756U, 0xbd7263afbd083a35U, 0xbd8786c73db451a9U,
  0xbd817c15bd7776d6U, 0xbdf9f49b3db0107aU, 0x3de94cbcbb93b8daU, 0xbd1ebe6dbd4ff7e6U,
  0x3d72bbfa3e09b1c2U, 0x3cb9455cbd88b3b4U, 0xbd217c683d5600deU, 0x3cb5ee17bddbb82eU,
  0xbe22d3a53dcd799eU, 0xbd5e7a0c3dc8d681U, 0xbe0ef58bbb0192bfU, 0x3dcfa9f53db57c4dU,
  0x3e063f02bd1e8cb9U, 0xbd11a9a03da209beU, 0x3c82a056bd1911c6U, 0xbdd35714bdea6555U,
  0xbaafd1ca3d19deceU, 0xbdf597163d0536c2U, 0xbced53e43d1efb4bU, 0x3cd29b24bc4077f1U,
  0xbd1f4081bdc67913U, 0xbdaacd473c0a1606U, 0xbda46b79bddcf111U, 0xbdb7d5813cc2d3abU,
  0x3d82555ebd8e1c4aU, 0x3d156b5f3d997a7dU, 0xbca786a3bc6aadb1U, 0x3b1a1608bd8a37b9U,
  0xbd9de6a1be02b16fU, 0xbd7638ccbdfc5decU, 0xbce62b53b9ae71cbU, 0x3d221e8a3d3756f1U,
  0x3be5fb40bd9ebf6eU, 0xbe5e6e5dbbaa85abU, 0xbd626d90bc40bd60U, 0x3d451fcbbcc2c7d3U,
  0xbd642244bc636e03U, 0x3d80e1483d1a4232U, 0xbd76de8dbc121a67U, 0x3ca66b203da4192dU,
  0xbd5448bf3cc7a5fdU, 0x3e13ad85bd9adc16U, 0xbcc153cbbde0144eU, 0x3c428913bd94a8bdU,
  0xbd00ab63bd0d9d7aU, 0x3db4c335bc9b42a8U, 0xbdf861e73dc8831dU, 0x3d82dafa3be3a0e8U,
  0x3d74de11bdb6ecb3U, 0xbdcaab833d290473U, 0xbb1d893abd896c2dU, 0xbcf9b6dc3c105120U,
  0xbd9406d53cb8c8a4U, 0xbdc1729fbdab5539U, 0xbd6fbab6bcc3f381U, 0x3c009132bda51197U,
  0xbc25b1293db5b6daU, 0x3b12775ebb8019e4U, 0xbd94c1053cdc3708U, 0x3d879524bbdc889aU,
  0xbd5efb07bd01bf07U, 0x3daa4c5ebe1edc3dU, 0x3d319e833d92a4a3U, 0x3cddb313bdcbdebdU,
  0x3c6ed0e63df21a7dU, 0xbe214db3bd27f937U, 0x3dbf7bd33d72a12fU, 0xbcf9a59f3d8602b2U,
  0xbd95d821bd211076U, 0x3d888b7e3d766073U, 0xbd625086bd0794abU, 0x3dc7da2abcd1a613U,
  0x3c0577babdc0194cU, 0x3d79c30bbd26934aU, 0xbc9c2330bdcbdf10U, 0xbdba02a63b99d3eaU,
  0x3dca6cf93de5a1fcU, 0xbd27c045bdb455d5U, 0xbdc166693db4af81U, 0xbdd79be13dcdf2e2U,
  0x3d14b9b9bd15e8c6U, 0x3cb04de2bc3a44ccU, 0x3cf104c0bdb7fa8bU, 0x3c9c85d43cf3744dU,
  0xbdb9feafbd932a0fU, 0xbe0504ea3bf13df2U, 0x3bf7ccfdbcf37caaU, 0x3cfff2c5bddeefa3U,
  0xbda34984bda2f3beU, 0x3df22ba5bd1b4b12U, 0x3d6be4403d5df43dU, 0xbcd408a73c01f089U,
  0xbc67203d3d83a90fU, 0xbdae9954be140d9eU, 0xbd31a812bd2f7e20U, 0x3d8282ca3cf4d1a6U,
  0xbd702b543d939e96U, 0xbcee5bbe3d43e88cU, 0xbd01c3abbcdb9184U, 0x3da3b168bd8e86a1U,
  0x3dda5250bd571269U, 0x3ddb8de4bd1e9644U, 0x3d3711d1bdf2435cU, 0x3d6bf7083cb63339U,
  0xbd178d373cf0f2b4U, 0xbc378951bdd8e886U, 0x3d2c9f583da90f76U, 0xbc5b1ed93d0a4c4eU,
  0x3db4662c3df96f21U, 0x3d81673c3dc2f641U, 0x3cd2223bbd03e496U, 0xbd807021bd77dee8U,
  0xbc5a08743e1581a0U, 0xbd31ff5bbce5bdcaU, 0xbdbb51763d3ef674U, 0x3d57ef23be4ec9b1U,
  0xbd9044bdbdace294U, 0xbd25b597bd97883eU, 0xbdb4d12c3d94ca1aU, 0x3ce0b581bd45f833U,
  0x3dd47c573d8d9ebeU, 0xbd90ea6a3d804b49U, 0x3d84fdd4bdb78e1cU, 0x3ceabc0ebcd05442U,
  0x3cf278823bf97f08U, 0x3caf0305bdd0df76U, 0x3d1a1c68bd311dbdU, 0x3daf50d13da6ac46U,
  0x3d1e97de3c8d4355U, 0xbe42a2083df67302U, 0x3cb4dfff3dde63fdU, 0xbcdf24b63d6ccb46U,
  0x3e045dadbd5a1427U, 0xbd6e4a9bb9dfa9f5U, 0xbd73d327bb9e0001U, 0x3c8673853d144991U,
  0xbd90c375bdc4c5a1U, 0xbc6c5044bce2b158U, 0xbdb678bebd1f2bdcU, 0xbd5fd5f73dfdce95U,
  0x3d0d012c3dc0cf9cU, 0x3dcebafbbd92b997U, 0xbd84c9a43db1f2b2U, 0x3b9506c03da205beU,
  0x3de411433d861658U, 0xbb851668bd62b9b2U, 0x3d7093fdbcd58e33U, 0xbdbfa1fcbc6fd851U,
  0xbcfe526d3d01e99bU, 0x3dda0ab23d5e8fe7U, 0xbdf9be4fbda02bfdU, 0xbd0fe4e13b60711eU,
  0xbd219ea9bd603d26U, 0xbaaa7a273d7bd280U, 0xbdbb6a09bca40aa7U, 0xbdbc8eb83d234460U,
  0x3d2fd08a3bc5808eU, 0xbc9587adbdb23e03U, 0x3b36933a3d85a217U, 0xbd101ec53d885dc2U,
  0xbc300b5d3c24bd5eU, 0xb985b4d7bd939625U, 0xbdcad9973d83bdd8U, 0xbc7f0263bd6c30fcU,
  0x3e0ce971bdc7fd20U, 0xbdbb92db3da751c4U, 0xbcb469f53c3618c7U, 0xbdc89948bd98d10eU,
  0xbdf919af3c881753U, 0xbc1159edbd5117b7U, 0x3c2b8dcebc8fcb0eU, 0x3c1135c13d7a93b6U,
  0xbdba69763d8b2dffU, 0x3db4e5db3d0587ccU, 0xbddfc1b63d59c0caU, 0xbcec49693d06fbb5U,
  0x3d26b03b3e352c95U, 0x3d73a9c73d584421U, 0xbd8ee82ebdcfb023U, 0x3c55fc0abe1ddd9fU,
  0x3dda6d703db9516fU, 0x3da9381abd8ca47eU, 0x3b6508e1bd6bcd9cU, 0xbcf73c403e118fa9U,
  0x3d4f8714bba80a90U, 0x3bc3f7df3dd2ad77U, 0xbda8d7d23ca357ffU, 0xbd7492b83d34803bU,
  0xbd7080debeea36ffU, 0x3d86fbc9bd47fc60U, 0xbdec029e3d20c519U, 0xbd5a5b243e001bfaU,
  0xbd125a73bc47c273U, 0x3d0e08133d8e2caeU, 0x3cfed7203d44beeeU, 0x3d2b0c5bbdf4ae6dU,
  0xbdd2f2f7bdaa84baU, 0xbd90636a3dee0002U, 0x3be19687bd98dda0U, 0xbd9a32c2bd7e7345U,
  0xbd1690043c8f19beU, 0xbdccbd723c26bf74U, 0xbe7533b7bdab6883U, 0x3d4b31edbbba4cbfU,
  0xbd8f6e29be377dd4U, 0xbdc6a49cbb3f1ca9U, 0x3dd81d4c3bb974f6U, 0x3d8fcf7cbbaca427U,
  0x3d75e3e4bd952bfbU, 0x3d8f8fef3dd4aa38U, 0xbd2fa3633d2a55e3U, 0x3cfffd903db19dadU,
  0xbda0f07c3cdcf7feU, 0x3b800f583c9cbd94U, 0xbe12c17ebd8a2ce8U, 0xbdfa83b2bc383e61U,
  0xbdf12e673cf0a9dbU, 0xbe14b6713c88bafeU, 0x3d7f8fdfbdf423efU, 0xbd1434b73d851124U,
  0x3d9ccbe6be4f2fb4U, 0xbd7b2f5c3c68556eU, 0x3d29fd7e3dcc7eb2U, 0x3cfb9a69bd842bcaU,
  0x3d859b333caf8b43U, 0xbdf146be3bf93276U, 0x3c998bbfbce8b4e4U, 0x3d83c1c73cdc8e4fU,
  0xbc72edde3d2fca57U, 0xbd86dd7dbe032690U, 0xbda7fbfc3dc7c87dU, 0xbd1e9625bd9923c8U,
  0x3df5bfc6be17af71U, 0x3dc1dced3d6f3f84U, 0xbe48710fbe23e704U, 0x3dbf0b5ebddb500aU,
  0xbd7e16e4bdd7da96U, 0x3d3a322fbdc385f6U, 0x3cbc84cdbd2e364fU, 0xbdfc36c43db87550U,
  0x3d39ba753d6616bdU, 0xbd283991bdf364b8U, 0x3bb8f4b63d980efdU, 0x3d6ecce53ac24f25U,
  0xbd834490bd4ab372U, 0xbd543576bda495ceU, 0xbdd56365bc4a5e63U, 0xbd11875ebc8a2ed2U,
  0xbdc98450bd04fb9eU, 0x3da88a71bdd21a2bU, 0x3d0187b7b8b56d09U, 0xbdbb12353d3f750fU,
  0xbdc33ec0be8248b8U, 0x3e1343f93c93cc94U, 0x3db4040f3d2f899eU, 0x3da265b13d76bf98U,
  0x3db2954ebca16272U, 0xbe02fdbbbda7e111U, 0xbcc4a146bbd61889U, 0xbe0489a8bcf6042bU,
  0x3cc57e53bc373f04U, 0x3d63f9a23d0628dfU, 0xbd8cdd02bba99c3aU, 0x3d29c7fd3d8b7d41U,
  0x3dbf964abd86de48U, 0x3c5e134abcbd2b87U, 0xbdffa69e3ab2830eU, 0xbb318c96bd22ce86U,
  0xbd998883bd3a2abfU, 0x3db03adf3d8f32d6U, 0x3e238f33bd020635U, 0xbe053aefbacc8b92U,
  0x3c518f20bdccfc4fU, 0x3d8b0385bdf34cdeU, 0xbd8c3735bda03e90U, 0xbc19ab153d2acd50U,
  0xbc46d1783dcbd9adU, 0x3d798fb13dba88abU, 0xbdd99fe03db4ce13U, 0x3e2dd124bdb99ec8U,
  0x3d08cd243db3c443U, 0xbdb61a33bb8786feU, 0x3c3f2800be02e711U, 0xbddaaf573a5feeccU,
  0x3c429ef3be856c62U, 0x3d2e91fdbd52f338U, 0x3d393406be1a581fU, 0x3b23a9763cc767c5U,
  0xbdf95b19bdaa9e9fU, 0xbd9c8fb3bdd9b878U, 0xbdec36c7bb2ecdc6U, 0xbdf0496dbdf4834cU,
  0xbd5dbe16be08126aU, 0x3d2e80713dd7ef6dU, 0xbd69438e3dbaaaa7U, 0x3da0e179bddc1151U,
  0x3dc31eb43dbf2c0aU, 0xbcb75113bd1f58c3U, 0xbde1b819be473f6eU, 0x3d048e753c085b64U,
  0x3de29fd5bcb628e6U, 0x3d7d10b93ba85fe9U, 0x3df48d4b3df05389U, 0xbdb8181cbdd5ab37U,
  0xbd968e5bbe332c3aU, 0xbddd2fd23d85ffe9U, 0x3d2313093d610840U, 0xbdbfc27a3bb52ac7U,
  0x3dd1815f3ccef5e1U, 0xbc6fb02d3b9549d4U, 0xbd39528cbbe9f538U, 0xbcf5cb93bd8e1d24U,
  0xbd9f170dbd126e99U, 0xbd30bee7bd2c0958U, 0x3ddc9b80ba5a6fa0U, 0xbde52b7dbded1c6cU,
  0x3dea3998bea9935eU, 0x3de19070bce6df8eU, 0xbdece3a03d3f6797U, 0xbcdf8cd1bddb415eU,
  0x3d31a93f3d1067feU, 0xbdb914c93d4e9e7fU, 0x3db3ed113dbca4d4U, 0xbd86ec78bd535208U,
  0xbc7389e9bd80c4eaU, 0x3d944a753d0820f7U, 0xbdcb6a1a3d5c4ed2U, 0x3d4457143c8bfe82U,
  0x3d59d25d3c9c0fb8U, 0xbdf4be503d7f3967U, 0xbdf867cabd7a65deU, 0xbd4b0d7dbd8ec910U,
  0x3dacda41be2d8cfeU, 0x3d1d0321bdc5dbb2U, 0x3b9d7ba4bcc20487U, 0x3cc94fd0bda4f04bU,
  0x3ded693abd836236U, 0x3d7af0573e37e6deU, 0x3d91614bbd021022U, 0xbc966cbbbca66583U,
  0xbe056cef3d69ee26U, 0xbd6bca0a3d1e77beU, 0xbdd8eb8ebdbd0212U, 0xbdbff1693d9a0f29U,
  0x3d5c89b23d8ccc63U, 0x3ce458e4bd9a3df7U, 0x3d82054dbd90567eU, 0xb799ce473d28565eU,
  0x3daf1ecbbe40e521U, 0xbd96f78b3da0cd10U, 0x3dfa62d4bde82165U, 0x3d540a313d05e3b6U,
  0xbd757ddbbd1a2f82U, 0xbd486219bde457a9U, 0xbd2c3e4cbd21e82bU, 0x3e10dcd1bdea805eU,
  0x3baf3dc3bc767fcbU, 0xbd8a03743d509126U, 0xbdeca4eb3c88c6a1U, 0x3d9e7bffbe1a4e52U,
  0x3d55fa02bd8f211eU, 0x3d3ab7313cce61e1U, 0xbe5ea3563d35f93eU, 0x3d0951b4be04652bU,
  0xbdaad05ebe109b4aU, 0x3d9a34f23d967892U, 0x3da133b0bda91393U, 0xbe4d44123e15a6baU,
  0x3dacb29fbe37dbe2U, 0xbd053d77bdaef6cbU, 0xba212f1dbd14c826U, 0xbd8ec7c4bd2e377dU,
  0x3d0b1a673bb4903fU, 0xbe23873d3c6daf79U, 0xbd6e876abd900ccfU, 0xbdc1ecc8bdde8c3cU,
  0x3dc236fa3cf27688U, 0x3de9f6c43c4b8810U, 0x3d96b073bc8de746U, 0x3db1d3173db36fdfU,
  0xbda349a73d69b27bU, 0x3da7a8dcbd822723U, 0x3d3d6aa1bc89023aU, 0xbe1d825e3db69d25U,
  0xbcc5d4f03d09f75dU, 0xbe6ce68fbbd8fef6U, 0x3dd5c54c3d47aeb0U, 0xbde4c9263cc503edU,
  0xbcb1fa44bdd45014U, 0x3d0ae987bdf1e413U, 0xbd09a22a3d7f45a6U, 0x3dc1170dbceaa992U,
  0xbd06dd29bc6edf4aU, 0xbd72ce2abcfda04cU, 0xbd8589923d67819bU, 0xbde3742bbdc66263U,
  0x3ded605ebda7269bU, 0x3ceb15193d8c628eU, 0xbded96fa3d508f0aU, 0x3c3db62dbc6a0b59U,
  0x3d95dfe5bd9ded4cU, 0x3db8f3633d5284eaU, 0x3c01bb473db0b028U, 0x3d28ce593be10c09U,
  0xbdcab03c3d3e4f3dU, 0x3d4b33b4bd810efdU, 0xbd51597fbdaa0fd0U, 0xbe3f404e3d5d0351U,
  0xbd1c17cc3daf83dfU, 0xbda371133c777f53U, 0x3d4e2b4fbd357b62U, 0x3d985326bd62a26bU,
  0x3d508da03d4e48c1U, 0xba2598d2bc0eaf4fU, 0x3d5900e8bdff77b6U, 0xbdfc9c0f3d227774U,
  0xbceb51f73d6ef8f9U, 0xbce98b20bce5d2d0U, 0xbdc0d0573e026d3cU, 0xbe0b0d1f3c6dd60dU,
  0xbd434294be03d2d4U, 0x3d62b805bdab949cU, 0xbd1a7e303d1c65fcU, 0x3d85e9a0bc9e8a0dU,
  0xbd3d210ebd93a04cU, 0x3dae8e573dab5427U, 0x3cd75ce43c8a80a3U, 0xbd3db239bdfe07fdU,
  0xbc8a51d33c72338fU, 0x3d6270b93d64d621U, 0xbd3bf81bbde1fc1fU, 0xbdc7eab73d4d93f9U,
  0x3d13b3dcbd8ed063U, 0x3dbcfb75bc08c8e3U, 0x3bd1fd663cf971aaU, 0x3dc3f83ebddf3fcdU,
  0x3cff1b79bd9cbb25U, 0xbdcc871d3d00f063U, 0xbd2afc9c3c07c946U, 0xbd009b32bcf22a03U,
  0xbdb68b95bddde331U, 0xbdef5fec3dc595dcU, 0x3db25b753dc81cb9U, 0xbcb2f1c9bd95d6feU,
  0x3d40ae753d1cfe6dU, 0xbdf1a0a9bdf7f437U, 0xbd373d9ebdc9132fU, 0xbe244c3d3d54e9b8U,
  0x3c262115bd66ae48U, 0xbe3de4003d7bb7c8U, 0xbd96502dbda1a957U, 0x3dc34f273d405bfbU,
  0xbd9c5026bd7004e3U, 0xbd66b5213d59335bU, 0xbe18a0033d92cf86U, 0xbd63a0eabdb8f303U,
  0xbdf00885bdfdee1bU, 0xbb3af8043de9d3a7U, 0xbd2a2ae5bd0c8842U, 0xbbb2363fbe36de8aU,
  0x3d93aaf0bd878b7eU, 0x3c7efea43d85f4abU, 0x3db628063d35f115U, 0xbd1a5a7e3ba23c8aU,
  0xbdee8b3f3d7fba34U, 0xbd40fcd0be1208dcU, 0xbe09036bbde37648U, 0xbde2244cbd866de6U,
  0x3d8cadb53c0569d2U, 0x3d9c860b3d0df729U, 0x3c2ff1d8bce4698aU, 0xbe2e94dcbb88354cU,
  0xbe11a73fbcb17452U, 0xbaee254e3de46be4U, 0xbe364dc8bd89e98fU, 0x3db507fabdae24c5U,
  0x3cc9b401be38aed6U, 0xbe204c993d00e2f5U, 0xbdadf3edbe0cc864U, 0xbd95de863db70d95U,
  0xbde1d98d3db5aa41U, 0xbe2fcc8f3daa1985U, 0xbbb219c5bd17d2acU, 0xbd149623bd2bb2d0U,
  0x3db2bc283d9aca61U, 0xbdae43cdbdea59ffU, 0xbc416d38bd0898c0U, 0x3d6a6d343dc73acfU,
  0x3ce447123d8d1150U, 0x3d5840e4bd8b13a7U, 0xbc6f2d5fbdb0d520U, 0x3d157d0ebe1db1bdU,
  0xbd848e1fbd8abaf0U, 0x3d15940d3aef0f61U, 0x3daab8f2bc79766cU, 0xbdccb358bc86ba76U,
  0xbc035047bc6d6224U, 0x3cc0b932be077229U, 0xbd70c4e33bf655e9U, 0x3d98c7603c999679U,
  0xbcc701e0bd984758U, 0xbd2944b83d1e4eb4U, 0x3dac09c73dbb4dc6U, 0xbcce225fbcb8811cU,
  0xbc171a373d5423a7U, 0xbd67f766bca54205U, 0xbe808a1fbd95e229U, 0x3cda75353d0e00e3U,
  0x3cfb277abdbde189U, 0xbcf78062bd324e8dU, 0xbceff221bdbbe35cU, 0xbe1cff753da4899dU,
  0xbd36fca8bd76185eU, 0xbd401ae8bdc465edU, 0xbc777e0f3d517900U, 0xbace9cf93c55b496U,
  0xbcdeac4a3c777becU, 0xbd152f03be1baa6fU, 0xbd621020bd53a0b8U, 0xbdf701113cffbc9fU,
  0xbe322148bdf07fcdU, 0x3da40f8c3d889eabU, 0xbde7b570be325e95U, 0x3d921f0d3d0784a0U,
  0xbcafa14f3d19d259U, 0x3dc21ff33db0cac1U, 0xbd4c6f743db0e640U, 0x3d953509bd2298f7U,
  0xbdfc869fbe2ff6bcU, 0x3dcfeb07bcd5afebU, 0xbdb9fabd3c45086eU, 0xbdec3c453db3e832U,
  0xbd815a033d81f5a8U, 0x3d48ff8ebd9558edU, 0x3cfb6ac73d560117U, 0xbd4869d7be16b790U,
  0xbd8433d43c379d02U, 0xbd46e6f03d97e7e7U, 0x3dd4c11f3a09ca9fU, 0xbd4cbdc9bdcae861U,
  0x3d9302debd5330aeU, 0xbcdc7558bc324da8U, 0xbd1654f7bda0d411U, 0xbdf434f23d2ed540U,
  0x3dc641f13dca7fb9U, 0xbe898503b99cea65U, 0xbd64d86f3d89c792U, 0x3dd266a93c69d6b4U,
  0xbd5bbc08be25f52bU, 0x3ca25753bd55bca0U, 0xbde0a3a13d929b0fU, 0x3ce5d65d3ce7f2a8U,
  0xbdc6efe9bdcc2980U, 0x3ce50fbfbcdc6527U, 0xbd995052bd62bddeU, 0xbd74d55a3d7ea823U,
  0xbd4e82c1bd779b57U, 0x3d9b5e253b84ab46U, 0x3cbd66a3398e8903U, 0xbe29beb2bd71f09bU,
  0xbd4a466bbdae849aU, 0x3c30fc513d58de75U, 0xbd79bc7b3d9351bbU, 0x3d88374fbd0fddefU,
  0xbe0aa411bbb97d31U, 0xbdae12413d5a9ba8U, 0xbda5996d3d5bf143U, 0xbced1763bdfa6896U,
  0x3d800e233d7e2c8aU, 0xbe1b00233ddc399fU, 0x3e0543ef3d8610dbU, 0xbda5c28c3d4fd3f5U,
  0xbeeb44e93dd02f3aU, 0xbf81af73c005d5a2U, 0xbd05bb82bda269f3U, 0x3db0d484bcc770f4U,
  0xbd114af8bd9ee3bdU, 0xbd1d3136be269911U, 0x3d3702803c49720cU, 0x3da4100e3d344f43U,
  0x3dcd05883d85ba93U, 0xbb45c8e5bdc2d579U, 0x3d5326fe3d81c482U, 0xbc898734bdb80a9eU,
  0x3d5be226bd60d4b6U, 0xbd6821e3bc4af130U, 0xbe943984be196bf0U, 0x3d2b6bb83d695c8dU,
  0x3c8059bb3dac5742U, 0xbdbb2d61be00c19fU, 0xbe27cbbdbd64cc5fU, 0xbf40cba1be168f3dU,
  0xbcdda1e1bf9048a5U, 0x3da3c91c3deadfc7U, 0x3dc4723bbdb890f8U, 0x3ce86bc1be525199U,
  0xbd450887bcc7cca5U, 0x3b1d6c0a3daf0838U, 0x3e8340c53d70ef5fU, 0xbcab6a53bf47e043U,
  0x3dd19c17bd6f1e28U, 0xbdac9c02bd267d51U, 0x3e29ce543d75136dU, 0xbd078cd1bd259b9cU,
  0xbe4fc2e43ed616e3U, 0xbebd5149bfa1616dU, 0x3dc73c07be83193cU, 0x3ec2904ebddcd79bU,
  0xbe2cb914bc20df4cU, 0xbe46971fbd5cf9aeU, 0x3d59feb93e1fd6f5U, 0xbe0bc2443d133902U,
  0xbd0606f7be2d29e1U, 0xbc4b28a1bde82558U, 0xbc10eb183d59719eU, 0xbba3382fbb29e96fU,
  0x3c2224563e2513c2U, 0x3d95ed263dde1e7bU, 0xbeb405b6bd6da1bdU, 0x3dab762d3c89aab7U,
  0x3da5c2133d67a47fU, 0x3d5300433d99c1f9U, 0xbe1b76fa3d589b9eU, 0xbee43e62bd674841U,
  0x3daefa5ebec73580U, 0xbbe4349fbd436fd3U, 0xbd8796d53c384924U, 0xbda420ea3d130858U,
  0xbde978693dddbd6aU, 0x3c9a08b5bd0e76a9U, 0x3a8d616abdfc2103U, 0xbd37e990beb04d36U,
  0xbd3462a73d0b7b8aU, 0x3d862e36bd842fb0U, 0x3ecac0d13e0d849aU, 0xbdfa94033da1faa9U,
  0xbe8df45e3e8a3b22U, 0xbebf0112bfa45f89U, 0x3e23870bbd17a27bU, 0x3f07d232bd7a8476U,
  0xbde43a0a3db1886dU, 0xbd93681dbdacf4f0U, 0x3da9fced3bbff45aU, 0xbda5b1133d91a0f2U,
  0xbdb77bb6be3e6265U, 0xbcce283a3b5f1849U, 0xbd80b413bc1e2076U, 0xbd3ff9a3bd6671d0U,
  0xbba719fc3d299f24U, 0xbd4cc87fbd9cd125U, 0xbea446babdef3c1eU, 0xbd77d4293c35571aU,
  0x3cdc37213e44f893U, 0xbd1fbc87bd90bb09U, 0x3c0814b3bd494249U, 0xbe9db600bbcc2797U,
  0xbd24e353bc79b23dU, 0xbda4d641be010bf9U, 0xbdb3ece5be235c6aU, 0x3bd41402bd8162bdU,
  0xbb8663b43dbe0ce2U, 0x3c3f20ac3c8b8a6aU, 0x3ca089773d144ad4U, 0xbbdaf8ed3e03f631U,
  0xbd4372583d8ea995U, 0x3d7ee7c63dbf020eU, 0x3f3e5e293c4fb1c1U, 0x3cd9df163bad5fe4U,
  0xbe8267cf3eea36b0U, 0x3df12980bf94e861U, 0xbc9e2b7a3cd3357bU, 0x3e8839773da22288U,
  0xbb3be68fbcb9a57dU, 0x3d1730e13e2b1181U, 0x3dcc0c273e00e123U, 0xbbc25dd13bed9b3aU,
  0x3bf81f72bdbc6596U, 0xbdec0b613beba67cU, 0x3d5049a8bbd09ef4U, 0xbd2442f63dbf22f2U,
  0x3c4441eb3ca2b85fU, 0x3d09ba0a3d8732b5U, 0xbe91ca4ebd8318f8U, 0x3da46fb2bd87aa7aU,
  0x3ca48291bd94d34eU, 0xbb9e80ef3cacf867U, 0xbcba8060bd35bb85U, 0xbee040163c6f8210U,
  0xbdbdc1353d071144U, 0x3c40aefdbd07989cU, 0x3b4b2119bdee7710U, 0xbcac3c15be21e6a3U,
  0xbd3a1230bdb7f186U, 0xbd3a1a42bc5f0654U, 0x3e33eb353d88a4f2U, 0x3d1b81a33f0c9379U,
  0xbdda77353dd8bf5bU, 0xbda29521bc87fb51U, 0x3f67d1d23d077821U, 0x3c4b86aabc23ca53U,
  0xbe987b783eafc9bfU, 0x3d882150bf1460e0U, 0x3d1a6810be08b5c5U, 0x3dcf94313db5df63U,
  0x3c2f7e3cbca5ce1bU, 0x3dd846873e43e874U, 0xbd8962a5bde6fb92U, 0xbd76d8233d102682U,
  0x3da9070abcf7d022U, 0x3e02eaa1be01c7f9U, 0x3df2db20bd99ed5cU, 0xbd98f004bd79eb77U,
  0x3d8c80013d95c90dU, 0xbd537f593ded64b7U, 0xbeb6e7bf3dbdb331U, 0xbdd99633be26693dU,
  0xbcece4f1bdbc1bbcU, 0xbddcb2a43c9fae25U, 0x3dbd08ddbccc2aa4U, 0xbf412265be075377U,
  0xbd9a7d11bf3ba45aU, 0x3ca8fee23daf047eU, 0x3d29f3f3bd92716bU, 0xbda787d83dc25601U,
  0x3e1a1c28bdc3e6c5U, 0x3d3a1498bddfe69dU, 0x3e2a27bf3d92d127U, 0xbc22f74d3ea9381eU,
  0x3cce691abc791506U, 0x3dd2562a3d6a9926U, 0x3f1b0a683d89663dU, 0xbb7b5e753d4ed7aeU,
  0xbe03e7a33e04f69cU, 0xbdfec969bf9d3726U, 0xbc135e9e3d0f3d8fU, 0x3ad86263bce96a4eU,
  0x3cb54791bd5a741eU, 0xbdc55ce43d7dd5d7U, 0xbd6821e1bd4b327eU, 0x3cc2efcbbdb7a503U,
  0xbd5b44fcbda303f9U, 0xbb989f17bd9bd172U, 0xbd302ed3be1b7ca6U, 0xbd05f9f13cd1343aU,
  0x3eb9e1493dfb8488U, 0xba8f1356bba8ee53U, 0xbe8f6620beab4c91U, 0x3d761e303db0dd55U,
  0x3da997993e805511U, 0xbd46d97bbdbcdd9dU, 0xbdc2f9e6bdc59e12U, 0xbde59c9fbdf383e3U,
  0x3dae7abcbf950d0aU, 0x3d7ebccabdf2c88fU, 0xbd9d71ab3d67cd12U, 0x3d0ba74bbf23c1bdU,
  0x3dee85af3d0b6db4U, 0xbdcd23693cf5d3eaU, 0x3dc349b0bdbf07bbU, 0xbd4f73b0be861bd8U,
  0xbce6fe4ebd559348U, 0xbd8ce8c43c9a0fd0U, 0x3f8300c33ca73481U, 0xbd629515bdcc3d5dU,
  0x3d887185bc2ef90eU, 0x3b5c7e283bc29f75U, 0xbcb62416bcc61e36U, 0x3d2d633cbd9fe0afU,
  0xbc6f61dfbd4fdb98U, 0x3d7002b0bd942af1U, 0xbdef2b5b3db4da3cU, 0x3dd2cdb73dae115eU,
  0x3d879c1e3da8d121U, 0x3da70e6ebdb7fa69U, 0x3db50573bd3b025cU, 0xbd3e78f3bd2414e0U,
  0x3e235e913d75b732U, 0xbcd8ef9ebdf8da78U, 0xbca1e50a3d96a3a2U, 0x3dc9cad93d68001fU,
  0x3c3a556abb2ae0ceU, 0xbd2e0bddbdb4d99fU, 0xbdbb24f43da6802fU, 0x3c291e9d3d96090fU,
  0xbd9e7b45bdb0cd23U, 0xbc1930bbbdcda734U, 0xbd99ef8bbd9b30bdU, 0x3cd39303bb1faef0U,
  0xbda8331c3c8e2d23U, 0xbd52cbae3db09908U, 0xbd723c58bc39dff5U, 0xbe0b0a67bd61d7b7U,
  0xbdf0a189bd330e39U, 0xbd15d01f3cb01c10U, 0x3b5a60f43db91b2bU, 0x3c8bc5dd3ce17f03U,
  0x3d868d713d81b9e0U, 0x3dab5e59bdda27a6U, 0xbe0424e8bdb1adb3U, 0x3d4742763d9cfc57U,
  0x3d09d0ecbdde248fU, 0xbd8eaebbbd0fa090U, 0x3da73c88bcec118fU, 0x3d1cd1f8bd8ffc78U,
  0x3bbb8e9f3df91e82U, 0x3d41101b3d82575fU, 0x3d4bd9813b263c2dU, 0xbde4d51f3dbbf6bdU,
  0xbd6636f93dc4adccU, 0x3d1e00603c98e8c8U, 0xbd84ac4cbc5c79d6U, 0x3d515c57be037ed5U,
  0x3ccf59443d34ea0cU, 0x3d01e00a3dd7f469U, 0xbdb23252bdb5a764U, 0xbd768ffa3d9f5c93U,
  0x3d3da5f13d9ac218U, 0x3cea76cc38ede4c7U, 0xbd49f3c2bda40d06U, 0xbddc877abdf78bd5U,
  0x3d8e2d6bbdb56f72U, 0x3d6a5012bcacceafU, 0x3d1e5a90bdb5099fU, 0x3d750ebcbc02fb3bU,
  0xbd1ba35b3da147a7U, 0xbd2c34623bdac485U, 0x3d4dcbb2bd8b1d74U, 0x3cb02cd23d3f0d40U,
  0xbde571a33d9ed10bU, 0xbdaae16b3ceb1ec2U, 0xbcb14c3dbddb3548U, 0xbcd8a4663ced6751U,
  0x3ce15753bdd0356bU, 0xbd8628293d23efdcU, 0xbd3454713d9d4699U, 0x3d996253bcbce347U,
  0x3baf7141bd8752a3U, 0x3da27955bd428432U, 0xbdc6c82d3d72e3b2U, 0xbdb551fcbd8ed85eU,
  0xbd395088bdca1c33U, 0xbc94ba13bcbf459eU, 0xbd8b82503d8efa33U, 0xbc23c0e63d1ffa75U,
  0xbd12fe8cbd92d443U, 0x3d9c19853dbfa89fU, 0x3c1ebf1bbd989a86U, 0x3b3143443d0de16aU,
  0xbd740ce3bd751233U, 0x3d889c2c3cd0267bU, 0x3c1d8c513c833843U, 0xbb1275283cbd08e1U,
  0xbac6a134bd8946ffU, 0xbcd55aaabc2e5a44U, 0xbd21c2f0bde98f9dU, 0x3ceeb0cfbdfc53ddU,
  0xbd5715fabdc961c9U, 0x3db71895be164ce2U, 0x3d896d6abd6aeb95U, 0x3dc0c8f4bd6b2e46U,
  0x3d7b08d73d0bdbb8U, 0x3c78cf913cf3aa6eU, 0x3cdf3f3e3af75102U, 0xbd040779bd9ec484U,
  0x3d2f35083c48959fU, 0xbcabb09e3c3c95d7U, 0xbdbd1e343d6069d7U, 0x3d941c50bd27d7a3U,
  0xbc529c753b2a77afU, 0x3ccd0afcbd8f98b9U, 0xbd608c253dadc847U, 0xbd1968f1bdeb4091U,
  0xbdbb000fbcc364ebU, 0x3c9f41eebdc72d59U, 0xbe0027fcbc579351U, 0xbca7829fbde2ffdcU,
  0xbd9a0571bdf2c38eU, 0x3d5b7c68bd9bf7d0U, 0xbd27b1733db24003U, 0xbd5c042dbd9c32cdU,
  0x3cc73922bb8706deU, 0xbdfea388bd40af9fU, 0x3db2f975bd152720U, 0x3d4e79f4bdde98ddU,
  0x3da3d528bce0273bU, 0xbd7803bebd020d0eU, 0xbda72c84bda6baa1U, 0x3c15ed5a3d051ab1U,
  0xbcaacf1c3d287baeU, 0xbd9a2e2ebda9539bU, 0x3d09627bbcec9ddfU, 0x3dda7948bd22eb3cU,
  0x3bf836d1bdfa66c3U, 0xbcb11a9cbdf547a7U, 0x3cf24c4c3cb951beU, 0x3cc116ee3dc3c7e3U,
  0x3d9c51463d7cf54eU, 0xbdac15fbbe006651U, 0x3c5d3322bd00ba28U, 0xbd8f6fc73db071a5U,
  0x3ca4b695bd6b3fc8U, 0x3cf5fe923d7e202fU, 0xbd406d3cbc3f10deU, 0x3d99fc0f3dc8afe2U,
  0xbc5a788b3d62bfc0U, 0x3d2f7fd3bce83963U, 0x3ba563c43cfb52e8U, 0x3d9504b4bdd8213aU,
  0x3d7251acbd27ed81U, 0x3dccf1623d9a272bU, 0x3cac665ebcf5568cU, 0xbc98d0863d95e722U,
  0x3dddec06bddc329fU, 0x3d7ce0de3cd40062U, 0x3cf8e7753d6f0f7bU, 0xbdfc5d7cbdaa994cU,
  0x3dbfeb093dc1b612U, 0x3d498d16bce682d1U, 0xbe11e8dfbd7ee4afU, 0x3cd2f2ef3c8e8c60U,
  0xb86eba2e3b162989U, 0x3b310041be29e570U, 0x3dce66063d8a0d73U, 0xbd86398c3da378a5U,
  0x3c3796b9bd328da6U, 0x3d8cf31b3c27ad93U, 0xbd66c35c3b857444U, 0xbde6b2a23ccd70c7U,
  0xbdd043cd3d65b31aU, 0xbd1de674bdd03824U, 0xbdcd3ff73dc219f6U, 0xbd7c1014bd701eb2U,
  0x3d16f3913dd1f4f8U, 0xbe05336fbcbb34f1U, 0x3da196d73bee99e0U, 0xbdee2113bd96309dU,
  0x3d913886bd418c3bU, 0x3da16eecbc75e035U, 0xbda30c893d392937U, 0x3dd9798dbd7d0c05U,
  0x3d8fa5fa3b0a50c0U, 0xbd8a5e98bd6043d3U, 0x3d58cf7ebd31c1d8U, 0x3db71b1fbd045c7bU,
  0xbdb5bbdbbe0d03ccU, 0xbd99fe5a3dc5a1a1U, 0x3d8d600d3d955357U, 0xbda95c5dbda2a07eU,
  0x3dc12d2d38cfbf7bU, 0x3d90ff51bc7f705dU, 0xbcf67aedbc037be0U, 0xbdc3b2e0bda606a8U,
  0x3da4590fbca5b64cU, 0x3db539f0bd18db2eU, 0xbdee6538bde18458U, 0x3c936773bcc007bcU,
  0xbccf949ab961f881U, 0xbcce0d2ebd96e348U, 0xbdfc67f5bc36e0f2U, 0xbdbae6743dbcca08U,
  0x3bb21883bc0d29a1U, 0xbdfc66c8bc540b58U, 0x3da4ee63bd9886e0U, 0xbddd0a7ebdd89e75U,
  0xbc6783d23c167fc9U, 0x3cf2a0f03d3b62bdU, 0xbe04a2b6bdc7a7bdU, 0xbdcf02033d637ef5U,
  0xbe4eadc03d9530aeU, 0xbd1325383d31254fU, 0x3c6eef783cc7ad4dU, 0xbd8acccfbd4ba504U,
  0xbdc48590bde48903U, 0x3dda159fba3ff780U, 0x3da1bddfbd037066U, 0xbc67afd3bd84ddd2U,
  0xbd6ca76e3d4fd6abU, 0x3d363db7bb8062e1U, 0x3d196565bd39c2f2U, 0xbd3947f2bb34ee66U,
  0x3d64ba95bdcc1b20U, 0x3da31529bd112567U, 0xbe0d0d73bdca6e1bU, 0xbdf163853c8bb25aU,
  0xbbcafa8b3d191dfaU, 0x3d918d243d3c84e5U, 0xbddbbaa63cb9b824U, 0xbccd1a463cf83905U,
  0x3d0727203dc2383bU, 0xbd29cb383c12012aU, 0x3d47404fbdbb6502U, 0xbe1376563da6cc3bU,
  0x3cd1176abd89cf37U, 0xbd125ddb3d77340cU, 0x3d16342abd286dabU, 0xbd8046a9bc33ee39U,
  0x3dd69fbebd81e585U, 0x3e004f7e3d364f67U, 0x3c2ec629bd3158b6U, 0x3d0b5b62bd81a702U,
  0xbe33e582bddca260U, 0xbd7ea4d33dbf69fdU, 0xbe2f5567bde9fc8dU, 0xbca335843cf65037U,
  0xbd14027f3d95e6baU, 0x3c363361bd146868U, 0x3db40c4cbc762996U, 0xbe08c6b43d958635U,
  0x3d490711bb1caa3cU, 0x3d99fb77bd8adc74U, 0x3d56870abc819554U, 0x3d0599b9bd9f877dU,
  0xbd052a853d1abdd0U, 0x3da5553b3cdfb9eeU, 0xbe20ec0a3d8b13d3U, 0xbdb3fa75bd8e9bf3U,
  0x3cf948f8bd6285ebU, 0xbd737ccbbdc5d4f0U, 0xbd9fc9cfbd93b73aU, 0xbdbfa648bd1ec2eeU,
  0xbe1a22073d739852U, 0xbd556f02be09032cU, 0xbdbe27363bda4c74U, 0x3d3347f23b955ff0U,
  0xbda01293bde9895bU, 0xbda119e3bdb5eef8U, 0x3d1e2ef23d9c850aU, 0xbcfdc19dbd0f2ab2U,
  0xbdf89b0c3dacd5c4U, 0x3c830b92bd6da16fU, 0x3da23e4cbde473c4U, 0x3dc0fb4dbd9fec8eU,
  0xbcfca070bd9d6fc7U, 0x3dcb76dabd915101U, 0xb9895cd93c641308U, 0xbda9b3b13d16c1c1U,
  0x3cbcd7ab3d19b17bU, 0xbda47881bd68e439U, 0xbcce0f1ebd75c634U, 0x3d3e7f9bbdc293a9U,
  0xbd07f9a0bdf7a987U, 0x3db875f3bdd9302bU, 0xbde654b6bc347030U, 0x3d816bff3c7a3769U,
  0xbd2e03e2bd308d32U, 0xbda170323cc315daU, 0xbd371b183d89555cU, 0x3d6df5ddbde97ac8U,
