/**
  ******************************************************************************
  * @file    network_isd130_data_params.c
  * @author  AST Embedded Analytics Research Platform
  * @date    Fri Jan 19 12:48:53 2024
  * @brief   AI Tool Automatic Code Generator for Embedded NN computing
  ******************************************************************************
  * Copyright (c) 2024 STMicroelectronics.
  * All rights reserved.
  *
  * This software is licensed under terms that can be found in the LICENSE file
  * in the root directory of this software component.
  * If no LICENSE file comes with this software, it is provided AS-IS.
  ******************************************************************************
  */

#include "network_isd130_data_params.h"


/**  Activations Section  ****************************************************/
ai_handle g_network_isd130_activations_table[1 + 2] = {
  AI_HANDLE_PTR(AI_MAGIC_MARKER),
  AI_HANDLE_PTR(NULL),
  AI_HANDLE_PTR(AI_MAGIC_MARKER),
};




/**  Weights Section  ********************************************************/
AI_ALIGNED(32)
const ai_u64 s_network_isd130_weights_array_u64[63969] = {
  0xbd2723fcbea686bdU, 0x3e114e77be270b48U, 0xbe150415bd45fe02U, 0xbe0e502b3bce8a8fU,
  0x3cac42c9bd64e476U, 0xbafa8ba8bd8d2366U, 0xbe7984b53d565fafU, 0x3da934bcbe081518U,
  0xbe598869be0ca300U, 0xbe1a832a3db2fd7eU, 0xbe803b31be84e8ddU, 0x3d8e7b5a3dda6e1aU,
  0xbe0c95e5be977158U, 0x3db90095be5f416dU, 0x3d26f632bdeeabfcU, 0xbddb0e4bbe9d7e1aU,
  0xbe564c8abdd705f3U, 0x3ca1371dbd1130a9U, 0x3a9d7acebe77d79cU, 0xbdeda3d3bf14e971U,
  0x3da83491bd6cf461U, 0x3d0e9a9fbf286b86U, 0x3d449f28bcaf0beaU, 0x3dd6df2fbf1c4b25U,
  0xbe072682be8eeb2aU, 0x3d97dc4cbde901a7U, 0xbe64bd46be8c4456U, 0xbc6a8532be8b7690U,
  0xbd9ca6593d2c77beU, 0xbd46743fbdd280fcU, 0x3d4f80a1be202f34U, 0xbdbf779dbd400bb1U,
  0xbd2c4980be113e06U, 0x3db39a89bd82c4d5U, 0x3d9a27e2bd4e8704U, 0x3b8e82f03c54ecc5U,
  0x3e2a0c9f3e416d12U, 0x3d44479bbf4849e4U, 0x3d804d273db3287aU, 0x3cb0d914bf49ff18U,
  0xbdefacbf3e5f8173U, 0x3d9f1c9bbe27894cU, 0xbda26fffbbaff316U, 0x3cd8d710bcd25349U,
  0x3e1829d0bde350fdU, 0xbdb1c715be0bade9U, 0x3a913938be21622fU, 0x3d735b253da28987U,
  0xbdd911a5bd3edf49U, 0xbc736678be3c9ae5U, 0x3d83342bbd1b9124U, 0x3df996cf3dd00393U,
  0xbd748b3a3c516414U, 0xbdda5bd63de372c1U, 0x3c0b3a87be15e118U, 0xbcf6fae5bd442b4dU,
  0x3e17fd6fbcd4df85U, 0xbd89a521be1a915bU, 0xbcd9ee7ebe1f86eaU, 0x3dc40240bca183deU,
  0x3d146e55bd4e4e64U, 0x3dd96e10be99900cU, 0xbe3b3f12bdfc2663U, 0x3d4b3621be1287e8U,
  0xbb716b0e3bc6d94aU, 0xbe1fb4f3be5a4279U, 0xbe1830e7be5f20dfU, 0xbd9701d7bd528d4fU,
  0x3c2eb362bd7f984fU, 0x3abece79be5b1b2bU, 0xbc7e47e13da52cafU, 0x3d937855bd30b514U,
  0xbe817b1b3f741279U, 0x3a05fa5d4094adb4U, 0xc046a62ec0bc3878U, 0x3e0ee48bc0c108b0U,
  0x3fbad0803fb61ab4U, 0xbdfe69a73da2aaceU, 0x3eab29bc3dfd9f3dU, 0xbdf9c328bfc3f5e4U,
  0xbed1dd8f3e51e874U, 0xbdd2f175bfa29771U, 0xbc95a2e0bdd71752U, 0xbe1d75ffbfc8ec4bU,
  0xbeb75b08bf51a28aU, 0x3d4e4f4dbf863302U, 0x3e57929bbf2618d1U, 0xbbfa97673e0f14a5U,
  0x3f77259d3f00a69dU, 0x3de89e753db34353U, 0xbd2a128a3dc02cbaU, 0x3d97210dbe080743U,
  0xbdbff910bdf7fa0eU, 0xbd0bfb6bbd4eff2dU, 0xbd2dfe16bd10693dU, 0xbd0bc8babde1dc99U,
  0xbe1b86203e13d01eU, 0xbdf08e0dbe192aa2U, 0xbd9ad3dbbe3f5a8aU, 0x3db18ae2be78c4b3U,
  0xbd86fee9bd9f67c2U, 0x3cf457e5be87927dU, 0x3daffd9dbe294fefU, 0x3c89e0d03d769eebU,
  0xbe0275eebde34efbU, 0xbdb935cbbe11922dU, 0x3ba560fd3d2d760aU, 0x3d96da59bdc775cdU,
  0xbf8c6aebbf838b25U, 0x3e22fee04010593cU, 0xbfcc5aa2bffbd856U, 0x3c047ba3bfc39791U,
  0xc016c772c01a14f5U, 0x3dc317cbbffe8d22U, 0xbd8300b2be533138U, 0xbe1bf4a9be2b429fU,
  0xbd943788bc9e0614U, 0x3e14d5d7bc9f5ab0U, 0xbd8f0fad3d1a3bb7U, 0x3c221c5abea677ceU,
  0x3ddf1f1d3ddec3ddU, 0x3e1c3ff13f4404bdU, 0xbe131405be0d37b8U, 0xbd7cdae03f1e7fd8U,
  0x3e11e1583a675f9eU, 0x3e3f5cde3f6fcb44U, 0x3d3ce7623d3cac90U, 0xbcf2a68cbe556dd3U,
  0xbe74b7b5bdc4de12U, 0xbd0bc111bca09e4fU, 0xbe2890b4bd0973e1U, 0x3d8fbcd8be19abf6U,
  0x3f5313b9bfa1cfa4U, 0x3c72cf0fbefec8c7U, 0x3e24ae0abf2bcdfbU, 0xbc8658173ee74ebbU,
  0x3f973100bf9091cdU, 0x3bc006e9bf025340U, 0x3df19de3bdeca017U, 0xbe02dbe93c50381cU,
  0x3cf01ff3be168351U, 0x3e01e593be1b1c8aU, 0xbdd1b50d3d2a590cU, 0x39647f2e3d3005f0U,
  0xbe2095563d23dbbfU, 0x3dcb28e73e01c019U, 0xbc85ef93be068236U, 0x3c1f38ee3d87bd7fU,
  0xbe4602ae3d8eeec4U, 0xbddb45fd3daef936U, 0x3cec5be1be45a279U, 0x3da34421bd228505U,
  0xbe55c23ebd79cff4U, 0x3d7021bcbe8c58a1U, 0xbb96477b3c882117U, 0xbe0466d3bddb99c8U,
  0x3beeceea3d83b64cU, 0x3da64970bdf61d14U, 0xbe15af8b3deafe7aU, 0x3cfe0de5be906b2fU,
  0xbd92fb18be4c8ff2U, 0xbde5d72fbe9ebf63U, 0xbe0cd54ebe6adc09U, 0xbd86518fbdbc08b1U,
  0xbe5274acbcc04331U, 0x3ce703c23d22751dU, 0xbe83925ebe1e90caU, 0x3d2ad509bdd5dfd7U,
  0xbea1fb78be08c734U, 0x3d80974dbeb86fb5U, 0xbe98624ebe91334dU, 0x3cbb9138be0059f0U,
  0xbe83bb52be7497fdU, 0xbd9bd649be38f7a5U, 0x3c92734dbd27ee67U, 0xbd700d6ebe185e78U,
  0xbd672cf93c562a78U, 0x3db267d8bea57015U, 0x3decf838be0c56d3U, 0xbcd10d59bd340d90U,
  0x3d0294a3bde235b4U, 0x3d4e0c6abe5d8105U, 0x3c99d027bdf2f95fU, 0xbe106f09be11fc13U,
  0xbcc35be7be4f2eedU, 0x3db9cdabbe0497f7U, 0xbdf387febe6c7970U, 0x3d8243ccbe1299ceU,
  0xbd804175bd3e8137U, 0x3dae09e33dbb87d5U, 0x3d8e0830bd676c17U, 0xbe15fce4bda41707U,
  0xbdc9540d3d98a132U, 0x3df56e3b3d84ad67U, 0x3da365eebe453412U, 0xbe051c493d9e7c35U,
  0xbbd33710bb56d369U, 0x3c6c6543bddcb079U, 0xbdc72abfbd8f917dU, 0x3d57ba02be6b8761U,
  0xbd30dfa6be316917U, 0xbacfe2d7bcaf6d92U, 0x3d185345bb47674fU, 0xbd48881abdfe27bfU,
  0xc0a272bec08a5700U, 0x3e6ab7cac096cd06U, 0xc096b91ac0580244U, 0x3e44c575bf1409bcU,
  0xc08f17a1c088f74eU, 0x3e80ff92c021869fU, 0xbd4a539b3db8c34bU, 0xbdf1a9eabe86640cU,
  0xbe6d7187bc99e13dU, 0x3d0bbdb0bd2307deU, 0xbd66bc463d8f45e3U, 0x3da4d3a6be0876a3U,
  0x3dac9614bd8fa8bdU, 0xbd198a64be1e566eU, 0xbe2c76993c3dc01cU, 0x3d8b65503c5674d7U,
  0xbe23d2b03d3234f9U, 0xbd0985babc939f91U, 0xbee62704bf39e7b7U, 0x3e61919d3fcf957dU,
  0xbf0b251cbf3fd92cU, 0x3dc397443fc16bb5U, 0xbf0a95eabf4656bfU, 0x3e4817353fccb0d4U,
  0xbdcac42dbd12d341U, 0xbe7be6ca3e5bba82U, 0x3d15d50abe069d6eU, 0xbdfc45dd3e93f4d6U,
  0x3e86869d3d8ceb40U, 0xbe8337e53ea74fe7U, 0x3c4d78efbc3c96b4U, 0x3d871a60bdc47702U,
  0xbe0e1c3dbd25de42U, 0x3db198a43ce50017U, 0xbd8cb1cb3db3484cU, 0xbe1ebe72bc69f86eU,
  0xbf19ca273f8a7c5dU, 0x3b9328533e11d28aU, 0xbf6024ef3cc56779U, 0x3c83c40dbe425024U,
  0xbf136ea83f9a405aU, 0x3c0a28893f1f4ec4U, 0x3dd664debdc2c7a3U, 0xbc827d9fbdc958afU,
  0xbe11c0003d5dd482U, 0xbc92ec743dadbe36U, 0x3c83f6a0bd4f707aU, 0x3d19baf3bdf86012U,
  0xbd56911cbbf35295U, 0x3c9abbf1bdb8d76bU, 0xbe53b49dbe54532eU, 0xbd2e17613ccd149cU,
  0xbe597dbfbd5e6afaU, 0x3cc98252be586129U, 0x3d343117bd6e4712U, 0x3d3dcf213c99eaa7U,
  0xbda16e66bd6c1d83U, 0xbd8c7f97be6dccadU, 0xbd9b68463d8b5854U, 0x3c992ffbbe46acc2U,
  0xbc3e893dbcdc23cfU, 0xbdd4e316be97dbd9U, 0x3d52cea53d732f91U, 0x3d5680c7beae93a4U,
  0xbafb5028be3d69e8U, 0x3d6c1a79be1f46a9U, 0xbfc42e21bfd67661U, 0x3e96ecbbbeb92824U,
  0xc0064935c009eb7eU, 0x3df8a3e2bfb1ea2bU, 0xbff98ceabfa16750U, 0x3d930c00bf5b8712U,
  0xbd2002dfbd82bc6aU, 0x3da1f6aa3d560c91U, 0xbe89c644be276ad9U, 0xbcf3facb3d644c81U,
  0xbe72316ebe5068feU, 0xbd4852f4bdaa119dU, 0x3db00978bdaa1f22U, 0x3c84756dbfc6b442U,
  0x3e6cf051be982caeU, 0xbdfaca56bfa5638cU, 0x3df24126bdc242b3U, 0xbdd04daabfc57feaU,
  0xbdf92ccd3df53a7eU, 0x3db2ff83be8ad5fbU, 0x3d943e91bd5810e2U, 0xbe1ee9a8be5e904aU,
  0xbe3cb38c3cd89642U, 0x3d8d1f67bd202f3cU, 0xbc3dea943c253d0cU, 0x3e275518be1c6af7U,
  0x3d3b589d3ce655d8U, 0xbdccefa3bdea1f05U, 0x3c351a0dbe47232dU, 0xbd708351be87751eU,
  0x3d3125993d155e26U, 0xbd929d8ebe640eafU, 0xbd0a131bbde31b6eU, 0x3e2f268b3c6cc5c3U,
  0x3ca252d7be5943e3U, 0xbdcea1d03c9eea09U, 0xbd160cab3d218804U, 0xbd07e35e3d70e735U,
  0x3d8fa3f6be054472U, 0xbda5e3543d268260U, 0xbca005e93cbff352U, 0x3dee075ebc678672U,
  0xbb724650bd5e314fU, 0xbd9c9a09bd179367U, 0xbe52c5a4be151adfU, 0xbd5c1950be39c871U,
  0xbdec888ebe0104abU, 0x3e0f8147be8872c8U, 0xbdaa9b67bdffcf7eU, 0xbd4dd4eebe1bedb3U,
  0xbdc25ba6bc75a4cdU, 0xbd9ad23fbd771726U, 0xbd01f9e1bd67598dU, 0x3e034caebe85262fU,
  0xbe147cf3be60253cU, 0x3ddc4ef4be22cd5aU, 0xbda933233bc2d987U, 0xbd27cbe6be4d0149U,
  0xbe3450a7bda5ea17U, 0xbd83175dbe3cb2e9U, 0xbdbb4ce33d58ce31U, 0xbd94398bbe26ae23U,
  0xbe0d7d1dbe837a19U, 0x3cf2036ebc1c49edU, 0x3da53469be00d0d3U, 0x3d41f2f23c0d21beU,
  0xbed6f8d0bf5b4c34U, 0x3ebedd8bbfdf8617U, 0xbe2aaa0abe97ff21U, 0x3e8e9343bf8a1e5fU,
  0xbedab87bbf26ae1eU, 0x3eba559bbf9adbf9U, 0xbe7ea596be9ec63aU, 0xbdac3292bcf6211eU,
  0xbd5f309bbe1d6168U, 0xbc4336b7be32dfd9U, 0xbdbc2d8cbd974932U, 0x3dca7f4e3dd90f4eU,
  0xbd16c302bde71d2bU, 0xbd316344bdc3949cU, 0xbdbb081ebe1133d0U, 0x3da2a5d5bcf90b4dU,
  0xbdf2b4953ca05cfdU, 0xbd10de78bd7e38f0U, 0x3fa62e2bbf4e8c3aU, 0xbd33fe073dc3767aU,
  0xbef09e21bec39c9eU, 0x3d305a7a3eb24b60U, 0x3f36a38fbf81d4aaU, 0xbbbda4abbf848bbfU,
  0xbe217967bb3e3f19U, 0x3e006d97bb62efbeU, 0x3de84bb33c963a4aU, 0xbda976313d6949f5U,
  0xbdd95d96bc9a086cU, 0xbd2d0dbc3c2f1a43U, 0xbe036791bd54aef1U, 0xbbfad090be3afb50U,
  0xbdc54c2fbc6a9469U, 0xbd8cf8dbbe2677f1U, 0xbd80f059be4cb4a7U, 0x3da224d53d97a57fU,
  0xbe6f428abe1142c5U, 0xbad083e0be92d1e5U, 0xbe420459bd1cd3abU, 0xbc66e020be95e669U,
  0xbe8001683cc807d7U, 0x3c5889dabea658fdU, 0xbf4ccd96be240fdeU, 0x3c9433033fd465d6U,
  0xbea1e8e5beb4aed1U, 0xbd2bddc43fc641f1U, 0xbe9d23b6bf3fc0f1U, 0xbdea61e83fbde94aU,
  0xbc55e2a6bb7d2bc5U, 0xbf0c20d7bdabac83U, 0xbe01e78dbe6530bdU, 0xbd60e36dbff70f58U,
  0xbdc92c93bd74f4b4U, 0xbe14457fbe18ca29U, 0xbf9614a3400c999cU, 0xbe0a42d6bf8fb3a7U,
  0xbda423ecbd809badU, 0xbe2cbc514032edeeU, 0xbe5ffe70becc5899U, 0xbd970c873f7b2c5fU,
  0xbe40a65ebd10f771U, 0xbda18cd8be1494e5U, 0xbe35fa7abe2f773fU, 0xbd267844bdc4e282U,
  0xbd9d51c2bde91317U, 0xbe40350e3fa6f7fbU, 0x3fa0cfb8be2271c8U, 0xbe0a20e63d50dba6U,
  0xbd9ef1a0bf26e321U, 0xbe5b44f6bd306b19U, 0x3fee9c71be63782eU, 0xc0bd45edbd0df82eU,
  0xbe06370abe41afdfU, 0xbdf77f35be47ce2fU, 0xbe02d36cbe4f90dcU, 0xbe46c345bd68895bU,
  0xbd44e35cbf9c2d95U, 0x3ee24c7bbd471cebU, 0xbd7ecaa8bd087a81U, 0x40066d65be57b77aU,
  0x3c8c56f3bcb1c079U, 0xbce9dd023d9f55e7U, 0xbc343094bd689f90U, 0xbd104676bebf6ceeU,
  0xbd07cc343d0da712U, 0x3d423c72b92e9f40U, 0xbed79456bf57be35U, 0xbbd040d6beb6427dU,
  0xbb9d5f943b9058b3U, 0xbd81359cbf399985U, 0xbcb37040bf02d3e4U, 0x3caba360bda18219U,
  0xbccb84963b1423d6U, 0xbb9823e0bd4514e4U, 0xbcbb0ca33d4828efU, 0xbcfb774abd05b33fU,
  0x3cffd0313d3842a6U, 0x3d16ee24bebb1036U, 0xbf48b11e3cbe7871U, 0x3ca66a74bda78fd1U,
  0xbd2830d2bfe5315aU, 0x3bc47b173d2c210aU, 0xbf45a99a3c92e295U, 0xbd206d613d031ba8U,
  0xbd3d9f823c090e49U, 0xbd1bd5e2bd293560U, 0x3d2a4fbb3c6dfa22U, 0x3d3da34bbcaa7b7cU,
  0xbbabb231bf07303eU, 0x3ee826e3bd52d74bU, 0xbc7b23a7bd473117U, 0x3f131e0cbd25b9d1U,
  0xbcc4dd123cf6a39cU, 0x3d0949c73d191ae4U, 0xbd588c38bd0b3295U, 0x3d2ff8d4be7463e8U,
  0xbb0b00cdb95fd334U, 0x3d38d9f8bd8b76c1U, 0xbe8d0777bf914f15U, 0x3c94fee23da4093cU,
  0x3cedfd27bcd84fdbU, 0xbca804b2be715c50U, 0x3bfbf471bca3d35bU, 0xbc80e0233e20de27U,
  0xbd53a4dabcc7dbf3U, 0x3d50ed72bd2878a5U, 0x3d3842533c88a1e7U, 0xbd83ec4bbd4218c2U,
  0xbbd2baeabd05b95dU, 0x3cd8f17dbd304e6bU, 0xbf1273f93d47379bU, 0xbc2c473dbe16c191U,
  0xbc50ff5cbfc14241U, 0x3d3d615c3cfe1060U, 0xbe963204bcb70cb5U, 0x3ea3a4d13d776777U,
  0x3d0012253b9ca6b8U, 0xbd4ea739bd193f73U, 0xbba183c7bad0b340U, 0x3d1b60af3d07aebfU,
  0x3c370c53bebba683U, 0x3ea2cb79bcd1090bU, 0x3ca81281bd03b7e3U, 0x3f1c91af3cf0e5f0U,
  0xbc661e8f3d6be8a0U, 0x3d247a543cf300acU, 0xbc8d7450bd5796efU, 0x3ca2ca6cbea80af9U,
  0x3d409e7a3b254b51U, 0x3bd7323b3cd54ad7U, 0xbea1193bbfba7a45U, 0x3d46ad443f24411cU,
  0x3c83169a3d139f2dU, 0x3cbf8a24bf0bd1d7U, 0x3cbdccb53ea48c8aU, 0xbd4c3aa93e836f08U,
  0xbb444d673c8b2334U, 0xbb6678783d0322b6U, 0xbcb9533d3c002440U, 0xbc53d047bc94faa2U,
  0x3b89c658bd3c1dfbU, 0xbcfeddc0bdce3798U, 0xbf2e7932bc838904U, 0x3c785e3ebe371f89U,
  0xbcec9f65bfb374d0U, 0x3ccc583a3c363cc4U, 0xbea174d0bb8455bcU, 0x3e4701483c15de6aU,
  0xbc680c99bd03796bU, 0x3d4f4b15bbdbb3a8U, 0x3c9123683c9127b3U, 0xbd2f8d83bca28016U,
  0x3b08680ebebb4b03U, 0x3ea8f20db9b223b9U, 0xba28940c3d5dccb5U, 0x3e0982bc3bf5d91dU,
  0xbd6979853d59ce46U, 0xbd4c0902bc7dcaa9U, 0x3c19d7cd3cd102bfU, 0x3cc903e6bebea05fU,
  0xbd212f8bbcb764d4U, 0x3d73794f3d94d237U, 0xbecfb6dabf9e83d9U, 0x3b3f707c3f42b68fU,
  0x3c49d162bd7f2c21U, 0x3c40c043bebb7019U, 0x3d8913783eb11a52U, 0xbd446fd13e770032U,
  0x3d32a267bc8f9080U, 0x3d0bcfd33d364203U, 0x3b62353fbd447443U, 0x3d4bffc03ce954e5U,
  0xbd0fc746bd122496U, 0x3d2774a3be99a83cU, 0xbf44546ebb876578U, 0x3d001d59be34440fU,
  0x3d1ab148bf982529U, 0x3d3c65c0bd5f2b5bU, 0xbe8b6b6abab3a8e3U, 0x3e91ee94bd89843cU,
  0x3c8f539fbc0ee152U, 0xbcf7a33e3cc34bc4U, 0xbca7157e3be66238U, 0x3bf921eebd6f1b8aU,
  0x3ce79012be80d885U, 0x3f04c131bc894b74U, 0xbd4a9388bd368e66U, 0x3bfd133f3c75dde8U,
  0xbb9270a23d0a125fU, 0x3b244fbf3b85953cU, 0xbc9aa163bd3e45b2U, 0x3bef5877bf138c2aU,
  0xbb12caa0bd116f6dU, 0xbcbacc433cfb5731U, 0xbf392dc1bf928183U, 0xbcec114b3f09c860U,
  0x3cfcd89bbca63d0fU, 0xbd1fa81b3c9648aeU, 0x3d227fb93e8c6e31U, 0xbd1044a0be56701bU,
  0x3d822e283c187cf2U, 0xbcfa6ac5bceecefcU, 0x3c0d5fa8bca83ce8U, 0xbb7475fa3c83dfdeU,
  0xbb980e2abb98149eU, 0xbd09ce72be68a659U, 0xbf5e6ea13d509357U, 0xbd438f51be000ba8U,
  0x3d189b4fbe599cfaU, 0xbc132e983cc5a939U, 0xbe0afd17bd0378ceU, 0x3eac62873a025df2U,
  0x3cdce4003c7466eeU, 0xbd143e9bbbab3a9cU, 0x3c2169f83c1856ccU, 0x3bf1d4a9bd98e1aeU,
  0x3d7ba22bbe9c4cb1U, 0x3ef3099fbc0db585U, 0xbdb9837d3cfc5b7bU, 0xbd028e63bc87a10eU,
  0xb9a5ed373d753c71U, 0x3d6d7f603cb01a60U, 0xbd1b6fabbd716bf9U, 0x3ccbd95dbe9cc5eaU,
  0xbc50d886bb9e77cfU, 0xbd829bafbc36b5d0U, 0xbf911d74bf2b9b93U, 0xbd0585523f44a4b5U,
  0x3bd5e809bb61dbf9U, 0x3ced1224beece72eU, 0x3bd0d6263d6f1e94U, 0xbc8fad0cbf0309cfU,
  0x3cc21784bd27d097U, 0xbcf2ab15bc2c2702U, 0x3b3afcb13c505de1U, 0xbd394718bbdc02cbU,
  0xbc520faebc1fa095U, 0x3cc988a9be6ea590U, 0xbf78123b3d799129U, 0x3c4f463ebd6d85b7U,
  0xbcc0345d3e4af867U, 0xbc990a6dbcacff0eU, 0xbe16129c3b871e8eU, 0x3e610791bc2aee4eU,
  0xbc933a26bd46c423U, 0x3d4ae97abbe4a4bbU, 0xbb84eae13db1e999U, 0x3d472acf3ce33fa7U,
  0xba6058ebbeddfa8cU, 0x3eb3f929bcd0f63eU, 0xbc4fefd73d0a18faU, 0x3dce7cc93d4859e9U,
  0x3d4f6e403d398a6cU, 0x3c959acab95ffca4U, 0x3c84351fbc22b5deU, 0xbd394f6abdbc3f9cU,
  0x3cb4b9fe3c895dd1U, 0x3cca30b3bcc28a5eU, 0xbfacc072bf39be6eU, 0x3d3515f53f11fb12U,
  0x3d4832bb3c23d204U, 0xbd633f91bd8b03bcU, 0x3d06aa303e669db1U, 0xbd04aa2abeddcf3fU,
  0xbd05446fbc561f1fU, 0x3d0ca8bf3ca70df0U, 0x3c4482c93d94eb00U, 0x3bbba2edbcbd871dU,
  0x3d048dd9bd072dd5U, 0xbba4a243bd1f21adU, 0xbf4d6458bcb76bf9U, 0xbd269fd0bde086c0U,
  0xbb61e59b3d11c7a3U, 0xbb5996d23d675f27U, 0xbd91c413bd3ec646U, 0x3e63a2ddbc5a0e71U,
  0x3d12ae563d16cfc9U, 0xbd47ab033c94cd13U, 0x3d664d453d382f66U, 0x3b8cef11bb61633cU,
  0x3d35fd47becae9cbU, 0xbe8e92b0bc671dd1U, 0xbc24afc13cb15f10U, 0x3e2ac06abd1374d7U,
  0x3b8e3ce93c6d417eU, 0xbd11c788bb60571dU, 0xbcbcfbc1bcbda9c6U, 0x3d340ea1bbd351c6U,
  0x3d5af3883d01c989U, 0x3d089c793d5dca38U, 0xbf667155bf37343aU, 0xbc4959b83ec0c4d9U,
  0x3cf81a6d3d0544fcU, 0xbd84d66e3e774febU, 0x3d48b6323ec3238eU, 0xbd60f42fbf142441U,
  0xbc585e9a3bb328b2U, 0x3dbb668c3bfb8e9bU, 0x3ce0a7713d38ce9bU, 0xbd0488e4bc55042fU,
  0xbbdec144bca19b1aU, 0xbd0c1c99be98589fU, 0xbf2f660bbcc8817dU, 0x3d321503bdb47966U,
  0xbbff7a11be3fb652U, 0xbb68be4e3d104d8eU, 0xbe2b8024bd66c56eU, 0x3e9c89c5bd85d735U,
  0xbd0b86b63c8fdc83U, 0x3d06fc36bba47c15U, 0x3d860e99bd14b641U, 0xbcef894dbcc910d0U,
  0x3d389591becc285bU, 0xbf2e7969bce5bd06U, 0xbd04a158bcac5eebU, 0x3df51d3fbce7c690U,
  0xbdfb59ddbc0eafb2U, 0x3d35d16bbd29e80fU, 0xbd6ac997bc2685fcU, 0xbd29e3a43da99088U,
  0x3d61810b3ce8ceb2U, 0xbcc7b52c3d4f9629U, 0xbee7617cbeffad01U, 0xbc179ce63e7f2624U,
  0x3d74fe0dbceb4bfeU, 0xbbb5cdfebdb6dd8eU, 0xbc84e4e63f0ea623U, 0xbd35a20dbf155452U,
  0xbc75e4e23cf2ff6cU, 0x3d640ece3d00fea8U, 0x3cc4d451be084f6aU, 0xbc195a10bc4cf2beU,
  0xbcf38d36bd2df9d8U, 0x3d134bf73d77fb00U, 0xbf5fe7c0bcd7e429U, 0xbb191bacbd91d0bcU,
  0xbd4aca6cbe804f0dU, 0x3ca928823dc2aa9aU, 0xbe7320c93cafc37bU, 0x3e09d5afbe02798fU,
  0x3cf7233a3ce15d8dU, 0x3d3909bdbd610d38U, 0x3c82699d3d0cd957U, 0xbcc799f23cc8018bU,
  0x3dc3703bbe4f80c1U, 0xbf445431bc4e700aU, 0x3c1606e23cfe0959U, 0xbda21d6fbc4dde84U,
  0xbddcf4a03c9ed93cU, 0xbce2e0b43d092ca9U, 0x3ccfe321bc089cd5U, 0xbcf38b7cbd10afa7U,
  0x3d66beec3d0e356cU, 0x3d10edcd3d9cc91dU, 0xbe8fb6b0bf61b95fU, 0x3cca5dacbea3978dU,
  0xbcbda6c5bcb892d3U, 0xbc27221fbcf7c2c7U, 0xbc2b110d3ef3c4a9U, 0x3d16b3ebbf4bb383U,
  0xbd1ccbbfbd0c9a2aU, 0x3d2d81123d0b36cfU, 0xbc8ae2b33c5de7deU, 0xbd2d4527bb955795U,
  0xbc8368b13d42de9cU, 0x3d138797bd6c6cc5U, 0xbf6074573ba0bc51U, 0x3c6d7838bd5ffcc4U,
  0x3d1cf559bd861084U, 0xbc1745913dae6a96U, 0xbeefce093d0ad8bcU, 0x3e12d302be495871U,
  0x3d2b1331bc24661cU, 0xbcc555393d0d309aU, 0x3cf4f15c3cda08a1U, 0xbc5480ffbc91790aU,
  0x3ca0e5f4becaf64aU, 0xbef3aa233af76c56U, 0x3c49b40d3cd9944bU, 0xbe068d093d334cf6U,
  0x3d2fb7b63cf1d9ecU, 0xbc4c52693d83429bU, 0xbd83fce33c1420e4U, 0x3c4d54eebe1476c9U,
  0xbac26334bceceac2U, 0xbd16530e3d6dad5bU, 0xbecf73c5bf8e1942U, 0x3d15718abf2218cfU,
  0xbbd62de43d79cb85U, 0x3d49ffc23de7f353U, 0x3d0860db3ec50f49U, 0x3bbba7f1bfd07381U,
  0xbbd1f7dabd14ad80U, 0xbd4c173a3c837aa6U, 0x3caadf39bc1a1daaU, 0x3c98f8fb3d4845d3U,
  0xbce95d453d11d5a2U, 0x3d2a54c3bd6151b2U, 0xbf8b9f15bd0ff69cU, 0x3bbd741bbd2bb120U,
  0x3ce7bace3cfe4cf0U, 0xbc40b7443de032f4U, 0xbed77220bc4df9c8U, 0x3e0646e1bc8be596U,
  0x3cd6e4febc69da46U, 0xbc992e73bd0da527U, 0xbc3075c53d9f2726U, 0x3b2eb722bd52e441U,
  0x3c4e4bbbbf16b547U, 0xbf3a83793d54fd7bU, 0x3d95bfa63ce0dc75U, 0x3c8b1f57bd048022U,
  0x3c13b629bd3f3a2eU, 0xbd2e9b503ce5d8efU, 0x3c8b2343bd80d4f7U, 0xbd220e1abe0c6a4dU,
  0x3b358281bc356945U, 0x3d44df75bcae85afU, 0xbf054647bf82b475U, 0xbcafb4efbf22072eU,
  0xbc31df5238386160U, 0x3d6b8389bdf78355U, 0x3cd6e6053e8561b0U, 0x3ca70cc2bfc470e5U,
  0x3d4b7117bbeb53d9U, 0x3b179711bd1a83feU, 0xbb67ec833c7f6a7aU, 0xbd29149c3d20db18U,
  0xbd33a9343d43147bU, 0x3cc98eccbe19f3a7U, 0xbf8174d23d31c232U, 0x3d1c96d3bc93da1dU,
  0x3b9c69923ce32ca5U, 0xbd7354db3dce0029U, 0xbe8416aebd0632c6U, 0x3e28fdd6bd887ce3U,
  0x3bc01e93bd12ed67U, 0x3d418e493c3aa984U, 0x3d6d2291399cef46U, 0xbd5d25d63d518271U,
  0x3daafb8fbec7df32U, 0xbf107f8ebd5c8be9U, 0xbc80bed63d479011U, 0xbd533a953a19c9a0U,
  0xbdb1187d3ca38040U, 0xbb5bb67f3d80daa8U, 0xbca856d0bcef9965U, 0xbc868788be08fc87U,
  0x3d13d82cbcef4b01U, 0xbd39312c3d909740U, 0xbec8133cbfea3710U, 0x3cc5574cbf479a48U,
  0x3ce5b510bca48e25U, 0x3d3310b2be5ddca8U, 0xbcfa5b353e6245cfU, 0x3cd04affbf7f653bU,
  0x3d1d1dc03c847c52U, 0xbdda34bbbc9fc5d2U, 0x3d1ce5653d3974bbU, 0xbc602db5bd26bc0cU,
  0xbc10a9d63d10643dU, 0xbb2562a6be89e254U, 0xbf8a75fd3d0b3b14U, 0xbcad8afbbb7e142bU,
  0x3c80eaf33e933a97U, 0x3c1af2643d8a24ebU, 0xbf3332323c752c63U, 0x3e85cdc63b96cba3U,
  0x3c2874f33d436730U, 0x3d0487b23bdc682fU, 0x3bc49df1bd3884b8U, 0x3d309928bb81fa44U,
  0x3d257fd2bf2db55aU, 0xbc1f9d733c444262U, 0xbdbb07dcbd35980fU, 0xbe37b4f8bcbf2586U,
  0xbb5d00b1bd7bd552U, 0xbc37e0b33aec8957U, 0xbcfa464e3c3f2cf0U, 0x3c6a4f3a3d1b8677U,
  0xbd4b867a3d492211U, 0x3ccbe08d3d3a27d5U, 0xbe35f784bfea681fU, 0xbc135b21bf29c6b0U,
  0x3d547b5a3d157ad1U, 0x3d282cc1beb2c074U, 0xbcbcea873dc34f52U, 0x3cdbd3c8bf217fdaU,
  0xbcb30d973d0e8690U, 0xbc26994cbd2b77bfU, 0xbcc57788bb19831fU, 0xbd0e13f8bd5006a2U,
  0x3d227f743cd3f62fU, 0xbd38994fbe8a7904U, 0xbf9201ad3d233effU, 0x3d45166cbc7dfa47U,
  0xbc9838c63f024ccaU, 0x3cb776b23d561a74U, 0xbed3759a3d21e3f2U, 0x3eb427ad3d3bde92U,
  0xbc6242ce3cbf0094U, 0xbc9a7371bcee9690U, 0x3d34f0173bb6c665U, 0xbd5e7a0fbd116a5cU,
  0xbd442562bf0d41a2U, 0xbdd04e6abd5cfec4U, 0x3d1d84e93c919ee3U, 0xbefae7673cb4d176U,
  0x39e5324c3c420ab4U, 0xbc43a8a13ca73384U, 0xbd077f3abc2e4f1cU, 0x3d61c6133df4eb95U,
  0xbbaaf789bd2bef16U, 0xbd1b1797bd246b15U, 0xbe334e85bfd3c889U, 0xbbbd42ffbed88154U,
  0xbd3eca513d1a3f21U, 0xbd253f24be664f30U, 0xbcb686c7bd434c33U, 0xbcf1ec37bed7f468U,
  0x3af617a3bd0c1ac8U, 0xbd34b3753d2d7055U, 0x3d0f8f8e3d28d73aU, 0x3d298dc73d20732eU,
  0x3cc72d6cbca78e3eU, 0xbc58d02cbe39e359U, 0xbf89fcf4ba9aed3eU, 0xbd0d85603d00d54eU,
  0x3c90cd4b3f359331U, 0xbd03b9383da77320U, 0xbe85b8e8bbf3a975U, 0x3e97dc3b3d8f57dfU,
  0xbcc4fb58bd67a2baU, 0x3d0332c3bd573edaU, 0xbd2b7e323d8504e0U, 0xbca780b8bd4ee8a5U,
  0xbc6b7490bebd1fe5U, 0xbd122aac3c2e0422U, 0x3d0565623b9095e8U, 0xbf3d83e63cc4bf85U,
  0xbc9f0790b98677f4U, 0xbce7ba133d906a06U, 0xbd0e25e8bdadf3cdU, 0xbc71ddd33cc82e49U,
  0x3cfb6ef33d288dd9U, 0x3d5191723cc5a13cU, 0xbdc8aa4ebffc3ba6U, 0xbd1ad210bf42fc7bU,
  0xbca89835bc80c933U, 0x3cc05b07be7b3ecaU, 0x3d0ef447be4aaba6U, 0xbccec6b0bd2aff9fU,
  0x3d752cfdbc01a2aaU, 0x3d0f8d663c9518cbU, 0xbcb2c08e3d403052U, 0x3d6b35a5bd329e22U,
  0x3d14b0113ba448a6U, 0xbd15d653be787133U, 0xbf9790f23c6ab5e8U, 0xbba592773c920336U,
  0x3cf847f83f22a473U, 0x3d49e8973dc19804U, 0xbe433cfc3c514cbdU, 0x3e397489bcab5a0dU,
  0xbd5c6a6b3bcf3305U, 0x3d1648713b402cf4U, 0x3bf96d633cc09a89U, 0xbd4f4d2bbc4979e2U,
  0xbd9742b6beaea5ffU, 0x3c69535bbc28d7ceU, 0x37e123743d518e7bU, 0xbf7c430abd32800cU,
  0xbc63bcd6bd26cc96U, 0x3d0b15e73b81eff2U, 0x3c4883f1bd33905aU, 0x3afdf148bd226aaaU,
  0x3d20548cbcd1f0a7U, 0xb93fd4203c5e2abeU, 0xbea0dee3c00c9113U, 0xbcba15afbf0be5c5U,
  0x3d2f1c4b3caa692fU, 0xbce284f9be0e505aU, 0x3d09dce8bea5f0d2U, 0xbc832ffd3e6f4338U,
  0x3d44c363bc8ead14U, 0x3c98fd87bbfea087U, 0xbc77bef1bcfe61f6U, 0x3b02e5123d30169cU,
  0x3d0895d6bd255674U, 0x3cad8d16be1b03c3U, 0xbf89f3a73c39be6aU, 0xbd436064bd0ecd82U,
  0xbcaf716d3f089329U, 0x3d179c0b3bb918bbU, 0xbe674b7ebcc98f0fU, 0x3e1e0eebbda77a86U,
  0xb8cf795b3d9d00d7U, 0xbc5e50bdbc55f4e8U, 0x3d09d45e3cb58fc4U, 0xbc7a2916bc0d12beU,
  0xbd97ea15beb6759cU, 0x3e822f2d3aeec458U, 0x3c7c12e1bd39a539U, 0xbf773470bd99f20bU,
  0xbdbbee52bc0865ceU, 0xbd8fd3203d881404U, 0x3c40d639bdbd550cU, 0xbca87cb0bd3c130bU,
  0xbd3a8dde3ca38680U, 0xbd15d32d3bcd56eeU, 0xbe5a3c7dbfdc33b2U, 0xbcc98585bfa0bdebU,
  0xbd9b241c3d26e448U, 0xbc9ce535bd6621d7U, 0xbce76939beb5b520U, 0x3c496b4e3b4abd9aU,
  0x3cc3bfb3bd629e1dU, 0x3b26ba4abd3bc02eU, 0xbc1cd226bcba9732U, 0x3d2ceeddbcc98033U,
  0xbd0df9203d05e4d8U, 0x3c9b8d19be4d9da4U, 0xbfa91d0e3ccbd86dU, 0xbcd54107bd16076eU,
  0x3d173f4d3f3e3e90U, 0x3c1fdfec3dac4c8fU, 0xbe86a3d4bd22f159U, 0x3e41aa6cbd898664U,
  0x3d2d48513c231781U, 0x3d03d9b63d0539bfU, 0x3cfe8ff6bd058c88U, 0xbcd213b03bf98ac8U,
  0xbdb2d263bebdc97fU, 0x3d76937d3bdbc02fU, 0xbbb9b59b3c9e41acU, 0xbf4df4733c6ec7c1U,
  0xbcf6b7c23d3d2c71U, 0x3d5942acb9fc6931U, 0x3d5c7a3cbc712eb2U, 0x3d2e95d2be0e233dU,
  0xba387402bd35124aU, 0x3d61ecacbc8bc1eeU, 0xbea0b561bfb598daU, 0xbd263a9abfbb697fU,
  0x3ce66f29bc7d88aeU, 0x3c053c75beb62a97U, 0x3d3bbb99befd63c0U, 0xbc188cdabe33a97cU,
  0x3cb752c0bd3b2c72U, 0x3d5a45ccbcd3771fU, 0x3b29a4a1bbb079e2U, 0x3d09e442bcfd6296U,
  0x3b7774743cff9c5eU, 0xbb56e95bbd8670c6U, 0xbfb3ec3e3d16abeaU, 0x3bc8c34bbc97cbbaU,
  0xbd3088bc3f417798U, 0xbd1c9afa3d388c7bU, 0xbf01d78cbcc87c54U, 0x3e302e433cf89975U,
  0xbcccf8afbd073bbfU, 0xbb615beb3c761ad5U, 0x3c8cd3583d66bc6dU, 0xbd325402bcc5005eU,
  0x3c7fbd36bea3e10cU, 0xbe2f88b43c68ff44U, 0xbcca0e91bd4f04c0U, 0xbf87da583c73acafU,
  0xbcddd36f3d5b89c2U, 0xbbab5bd2bdb3798eU, 0xbc7cc6363c431ce3U, 0xbd07694fbe3809e0U,
  0xbd096f1f3cb9281fU, 0x3b6104c33d32fe26U, 0xbef7d2e4bfb21a23U, 0x3d1aca4cbfa18414U,
  0xbdb460e23cae608aU, 0x3d29d3e6bef60b77U, 0xbb9f9a87bebfde09U, 0xbd75b3213d893d5dU,
  0x3d0214f8bd3e804aU, 0x3d920cb03d187cf5U, 0xbd05ced5bcf862e2U, 0x3cfe76813c9e36b6U,
  0xbbde9b163d1d22c6U, 0xbca2c75cbe65b417U, 0xbf8957a6bd7f8302U, 0xbd2fbc043d084518U,
  0x3c485e2e3f4350b3U, 0xbd52960bbcdbd816U, 0xbe835eabbcdb637aU, 0x3de1ab9bbca89a5bU,
  0x3b9a93013d1ca11eU, 0xbd27e26fbcabc19aU, 0xbcc02cdbbc946564U, 0xbd132218bad28a60U,
  0xbd608972bed7b992U, 0xbe7c9690bd203f78U, 0xbd8a944c3cef909dU, 0xbf8cd2fdbd45e64cU,
  0xbdacd9f23a03e6fbU, 0x3b2ff7cdbc2a4e24U, 0x3d2f743c3c0e4938U, 0x3d2df61abe25f3eaU,
  0xbcd198f3bd45e27cU, 0x3d9e88bc3d19135aU, 0xbf1b6a74bfa6b7cbU, 0xbd40a7f6bf770bfcU,
  0xbc613768bad1097bU, 0x3c9a2b9bbf11c12eU, 0xbb81162ebed010b8U, 0x3c84cdf13e97a9ffU,
  0x3c6b847cbd2c1a4dU, 0x3d8ef269bd375144U, 0xbcafb88ebdc11729U, 0x3d00d5fc3c4dc1ffU,
  0xbb1859413d00e36cU, 0xbcd09558bd5b1718U, 0xbf78dc08bd655f0bU, 0xbb1c3705bcd0eb71U,
  0xbd078f5a3f0fe511U, 0xbd0b515a3d7543ceU, 0xbe1543073c32e21fU, 0x3e4fdef7bc3731ceU,
  0xbc3e2d2a3c3698f4U, 0x3cb76b74bc012f6eU, 0x3d81a5efbc10238bU, 0x3ca765863d228392U,
  0x3bff65b1be918143U, 0xbe303245bd2cfca3U, 0xbdb69ab6bcebf17aU, 0xbfa7f32d3ceab57eU,
  0xbdab60e3bd2b5700U, 0x3d0a7575bdbdcbf4U, 0xbccf6874bd6bd840U, 0x3d38e3f83cd019a3U,
  0x3cb7bb25bc2dbca5U, 0x3ca4932ebd8756d1U, 0xbf03d2dfbf6138f9U, 0xbcf30d8abf80f764U,
  0xbd53ad17bd3704daU, 0x3d7676bfbe9c66aeU, 0x3cef5290bf023282U, 0xbd75826a3e58f3c2U,
  0x3aab8e313cd001fdU, 0x3cc45d733d4a60daU, 0xbd475f89bd5b9090U, 0x3c409374bd0c4d5fU,
  0xbd0fdf5f3c9cdb3dU, 0x3d376e623d99e25cU, 0xbf87e6c2bd0aa472U, 0x3c4b3cf63d54fb96U,
  0x3d473e183ebe1cebU, 0xba8c20f0bce7b8efU, 0xbddea8e23b95ebf3U, 0x3e627191bd44ecbcU,
  0x3ca2b0633d61e36eU, 0xbd52b0b4bc921943U, 0x3d890fa93d7ae869U, 0xbc8ffd853d578fd7U,
  0xbd1dc129bea09a85U, 0xbe478f1ebcf39e9bU, 0xbd8e10f3bc2dd758U, 0xbfa31748bd721f6eU,
  0xbd36c5afbd68becdU, 0x3d2b0ea7bc9ee06fU, 0xbd3b95c7bd433c20U, 0xbd4767643e01de65U,
  0x3cadbbb4bcd19917U, 0x3b9dcb33bbd000feU, 0xbf1fb49dbf1db7a0U, 0xbcf1ce43bf92aed8U,
  0xbd46e3863d248465U, 0xbce0275cbee2dcc1U, 0x3d30ac19be845924U, 0x3c8c9b3dbc442e37U,
  0x3c257e76bc7a08a1U, 0x3d0d38cabcf911b5U, 0xbc9cac89bd59c1ddU, 0xbc2592d1bd3c8cbcU,
  0x3cc5da043d4bcfc2U, 0x3d17d41d3bdd61f6U, 0xbf699173bc96fd10U, 0x3cdff453bbc545efU,
  0x3d2be7fc3e7d1ea0U, 0xbaf0e43abc9e1742U, 0xbda88f39368fabdfU, 0x3e12d097bd0149a8U,
  0xbca5e863bc22055dU, 0x3ca8819a3cee5473U, 0xbd25e29dbd68f4e3U, 0x3ccf53a93cf249c6U,
  0xbc99c3f0bd742807U, 0xbe3b5682bcb0bfe3U, 0xbd57e0ee3ccc7fc2U, 0xbfa46f683c1e08f0U,
  0xbc2c07a0bd1f08eeU, 0x3cbd49ddbd22c620U, 0xbd05e0c9bd103114U, 0x3bf48b353e8fae2dU,
  0xbc1e1d09bb2db762U, 0x3bc6eefc3c27246cU, 0xbf1e1614be42376cU, 0xbcc97fa2bf45c89fU,
  0xbcb6ae2e3d4af2b8U, 0xbd4dbf8fbd941ce2U, 0x3c10c357bd6793dfU, 0x3c4157febe7fe1bfU,
  0x3da3f7cbbc45a634U, 0x3e0585f9bcf54c6eU, 0xbd39b9873d158858U, 0x3c15228b3ce0ed7cU,
  0xbad3ac7c3ca1a7deU, 0xbcdbb8d93d589358U, 0xbf15fe873c4342efU, 0x3bff87993d472ed0U,
  0x3d1dccb83dd809dcU, 0xbc154b023c6b8306U, 0xbd2c7f8abd594725U, 0x3e56cc37bd20aa0bU,
  0x3cf31c9abd800b08U, 0xbd4a240fbd6bab65U, 0x3d2521b23ac4131aU, 0xbc36835a3c0d6b9cU,
  0xbd111381be088b63U, 0xbd23a801bd0b51d0U, 0xbd555f5ebc2097a7U, 0xbf88cd41bd77e33cU,
  0xbc38d36bbd36fbf8U, 0xbcd6b5593c788d5bU, 0x3d34ce33bcff18dbU, 0xbcc5974b3e6ca548U,
  0xbcaaea68bca33aafU, 0x3d601d983ca7d7bdU, 0xbf2792bf3c6e00c9U, 0x3ccc466cbee4a07aU,
  0xbd87e6d23c8b4000U, 0x3d19e23ebe4d02fcU, 0x3ca22ea3bd919274U, 0x3cb2dfd1be8d31d9U,
  0x3d7ea954bc8925d6U, 0x3d3d55333d2758d2U, 0xbceb4f813cba4737U, 0xbd8e28cabc0ec89dU,
  0x3d081e663bc4e260U, 0x3c6ccebcbd023c68U, 0xbdc7c76c3d26f334U, 0xbc97c45abcc1d9deU,
  0xbd2103fd3dab1f65U, 0x3c9dfe793d22541aU, 0xbd5bb745bcc75436U, 0x3e786768bd8dffb5U,
  0x3c7fee493d267509U, 0x3d35e9373cb3983eU, 0x3b156eba3ca6e784U, 0x3c8a1d5a3cdeef06U,
  0xbc5fb0fabdd47b48U, 0xbe9ada213c868b6cU, 0x3dae0257bcdce52eU, 0xbf35a4bf3d377b7bU,
  0x3c92115b3cd04f4dU, 0xbcf3630ab9d88dd0U, 0x3d1773723ca258b1U, 0x3d49a6db3e865e56U,
  0xbcb0748e3c9119a0U, 0xbbd4c0623c6f600aU, 0xbf16e0533d02ee17U, 0x3c3d9acbbf0a1c7fU,
  0xbd6772b7bd75d75fU, 0x3d53f066be8dc1a6U, 0xbd364c01be6f36c7U, 0x3be4cf34bedb77baU,
  0x3d70f1c73d09f573U, 0x3d56e11f3c6db50eU, 0x3d3130adbb579c3aU, 0xbd8b8f523a28b1a3U,
  0x3cc28ddfbd11e3b2U, 0xbc012c39bb42aca6U, 0xbe78ebe83b7c5360U, 0xbcb73b783c26dc6fU,
  0xbcc0c2573eb63d51U, 0xbd676e36bd01f4c7U, 0xbe3435b43c3cc5f6U, 0x3e34d84b3da7f256U,
  0x3b49253b3ce61f41U, 0xbd37f329bcce47e9U, 0xbd108ec73daccf6eU, 0xbcb95a973d06fb1dU,
  0x3d0f72a43d1c5a07U, 0xbf12218bbd0045c3U, 0xbd1f9f023d23bc0bU, 0xbf0d16eb3c7f53d4U,
  0xbd6dc56c3bd15319U, 0xbaea7ee9bcac9831U, 0x3b798b083ce24870U, 0x3be3f58f3e46bd32U,
  0x3c9929a1bd2ec6caU, 0x3c7222ca3c2f473dU, 0xbe813c70bee95e0bU, 0x3c247abbbe96d10cU,
  0x3d28a7263cf82330U, 0x3d374582be74feb9U, 0x3d4c179ebe748877U, 0xbc284ddbbe4bb370U,
  0xbd00ee4f3d56d6f7U, 0x3d0d9e25bcfd5548U, 0xbcef0dcdbd4005a1U, 0xbc20a083bc90fbe8U,
  0xbd1b47a6bd212847U, 0x3bddeb11be06f9b3U, 0x3d4b3b8c3d116ee4U, 0x3d6fffd43b8b272fU,
  0x3d58f5dd3e8dbde6U, 0xbd0f1b683d969bc8U, 0xbe726d493b832996U, 0x3dad5be4bd4d671aU,
  0xbbb9cb1dbd00b9dbU, 0xbc190710bd2ae5b5U, 0xbd55b49a3d011adcU, 0x3cf3c6b63d466c23U,
  0x3e2b82143d744dfdU, 0xbe5ee4843d27e65cU, 0x3d38cbd43d3c352bU, 0xbea8bb013d8991edU,
  0xbd0124143d7ba769U, 0xbd12e4d8bd413d90U, 0x3ceb62b03cac8558U, 0x3d0dd55e3e2ea09dU,
  0xbd186513bd3e6533U, 0x3bb00c4e3c4cfcd2U, 0xbda0c605bf64b17eU, 0xba44aa3b3e0d2a28U,
  0x3823990dbd5ec704U, 0x3c895e913ea727b4U, 0xbc9695c2be8a97caU, 0xbc2c17e0befcfa0eU,
  0xbcd9515abcc0f55fU, 0x3d23c55fbca945f4U, 0xbbd9d4463ccfdddfU, 0xbd1e3f523c228d6cU,
  0xbc3b8fdebced88c0U, 0x3c0d7060be82478bU, 0x3cb194cabd43d6a8U, 0xbc90a543bc623dd9U,
  0xbd0fe7f33eb047f5U, 0xbd05318c3b8bd036U, 0xbe5abf88bd4e88e6U, 0xbd3fd9363d0ca60dU,
  0xbd0990563d444825U, 0xbbe195483d03a770U, 0x3caf0012bca37982U, 0xbb1e432a3c6ba92cU,
  0x3cf66c183df70717U, 0x3ce130a63d11ab31U, 0xbcf90b6f3d28d208U, 0xbe67f2f3bbfcda7cU,
  0x3a837fee3d98aa61U, 0x3d543149bdd0a238U, 0x3cb45f963cdc0ab2U, 0xbc739cdd3e2ecc15U,
  0x3c4defb93c4b2248U, 0x3d9d4274bc8129b2U, 0xbec43285bece1d45U, 0x3c20d5893e7cfcceU,
  0x3c895e753d24a17aU, 0xbc6d6b583b336235U, 0x3d26a063bee597a2U, 0x3cb0b69ebf4739daU,
  0xbb9b70983c2c95dbU, 0x3d0c68b73b9d28bbU, 0x3cd811d63c98d4c7U, 0x3d4894bf3cca9a51U,
  0x3bb2d9a13d6767b0U, 0x3d63b9d8be1439cbU, 0xbd27c8e0ba72c61fU, 0xbce613f73d1c690eU,
  0x3c3620153f1eed75U, 0x3d019f6dbcc217a6U, 0xbe488f8f3d0229bcU, 0xbe651ef2bd295f6fU,
  0x3d33a8ab3cb77b0eU, 0x3d5f1de2bc034976U, 0xbd288658bd4fc00fU, 0xbd173af53c58ce6cU,
  0xbc8911d03e1f1d77U, 0xbd479e443c973ba9U, 0xbd892a35bd0f23aaU, 0xbecc009abd4af23dU,
  0xbd025fed3dab5091U, 0xbd2a409abd660538U, 0xbbf74f2cbbb45db8U, 0xbcbe76053e4bdc9cU,
  0x3cc451d7bd15d92bU, 0x3ca87ac1bca2f500U, 0xbe376100bcb8a4c7U, 0x3b985e3d3e8916c8U,
  0xbbd3faddbc937e46U, 0xbd6f8f5bbe9feb32U, 0x3c11bd5dbe70ce96U, 0xbd32be38bf5f47baU,
  0x3d3d8eb23d008144U, 0xbdc8a5ef3c2cfab5U, 0xbc8d4ac2bd884e77U, 0x3ca7e993bd5b3dafU,
  0x3c4793fbbc72ae7bU, 0xb9e726ccbe1f7bd9U, 0xbd20d8933cb15b21U, 0xbd0dcc023d8ebb7eU,
  0xbbdfc7303f190299U, 0xbd263ccfbd634737U, 0xbe170ae4bc88b01eU, 0xbd5d7ac7bbb9091eU,
  0xbd4cfb0dbd129623U, 0xbd0ad5a7bd4e2c3bU, 0x3d8b5cfe3c0da584U, 0x3c9500f4bbfdbf40U,
  0x3cfd2d9ebd303740U, 0xbe98d2febdb29392U, 0xbd189de73bd10c48U, 0xbed65466bd3e7ac0U,
  0x3cb37f8e3d065e64U, 0xbc3aa8e0bc0eeefdU, 0x3d1c4e763d12c3c5U, 0xbd5b85b63d1817e4U,
  0xbd4061fa3bf5bd91U, 0x3d60931f3da04646U, 0xbef57d43bef49e9eU, 0xbd01913d3c66f3feU,
  0xbc1e69a7bbdd2c1dU, 0xbcfff494bf325ba4U, 0x3bf385263ca09b46U, 0x3cb8acabbe124da7U,
  0xbce2b4ccbd9b51ccU, 0xbd92329bbcedd3d7U, 0xbd18fd30bd87cd4cU, 0x3daaa05bbd51819aU,
  0x3b710dfd3c7ea7a8U, 0xbd0f1edbbe8b64daU, 0xbf14d76fbd4d033fU, 0xbbb1b80d3e96a36aU,
  0xbd1d47283f304f1bU, 0xbd3a27ac3dd72267U, 0xbeec73adbc8ae0c9U, 0xbe4e19b6bd467221U,
  0xba9b54f5bd3218e8U, 0x3c84bf53bccd888aU, 0x3d745ee5bcb942f7U, 0x3d302b3bbc34187cU,
  0x3d17ae6fbd182aafU, 0xbf18c794bd57327aU, 0xbc8ffaf3bc939ce7U, 0xbf89098abc725e4dU,
  0x3b424500bcd483e3U, 0x3c3709a7bcc02f42U, 0xbc97d04fbbbe5a60U, 0x3d4b944bbd5b0e39U,
  0xbd4003f1bcbb9d9bU, 0x3b882b65bd1f1e60U, 0x3d448e1d3caccd9fU, 0xbd4231983c4451deU,
  0x3d3f7195bd4bd939U, 0xbd69a79abbf492f3U, 0x3d29173dbbfc1f64U, 0xbbe817d9bc9006deU,
  0xbd31a6a33c8239b2U, 0x3cb6f217bc8e4fbeU, 0x3cc8b9c43bb49d00U, 0xbd4157d1bd17eed3U,
  0xbd45b4bd3b99f0a1U, 0x3ce4e10bbc5125c8U, 0x3c5dab1f3cec2823U, 0x3c8ebf1ebbd0f993U,
  0xbb39c845bb77a678U, 0xbd12b32e3d56f85fU, 0xbc315c703b979008U, 0x3ce03a85bd2aec0eU,
  0x3cc026e8bc621fc3U, 0xbc93664abd57f116U, 0xbc05aad13cc1e5b0U, 0x3cf9afe93bb56cf0U,
  0xbcfecb23bcafc71eU, 0xbbaf8ae13ce401b3U, 0xbcfb14b43d2c0725U, 0xbd0444fdbd3ed169U,
  0xbd443948bd22e368U, 0x3d246ca23c687151U, 0x3c5db037bc9c5a69U, 0xbcc7abe8bd62ae77U,
  0x3bc4b1ca3bda000eU, 0x3bfde4adbcfb5413U, 0xbce5952b3d1ec4fdU, 0xbd109e05bd5b2a1bU,
  0xbcdeb953bd1631fdU, 0xbd2328eb3cdd7f4dU, 0xbd175115bd86312aU, 0xbce08d123d1c6d51U,
  0xbd1217ee3c18c894U, 0x3c0a72f1bcab659aU, 0xbd6577bdbcff0d09U, 0x3d0a4c813d3dee99U,
  0xbd305eb83c0c1ba1U, 0xbd2f4a933d3b89d9U, 0xbd16cd963cb182daU, 0xbd14ecf1bd345943U,
  0x3ca9abdbbc139ce1U, 0xbd0362143d58785bU, 0xbd30924f3d0f3b2dU, 0xbd60d7133c826e7fU,
  0x3d2e0c48bb507806U, 0xbc283d35bd12d07eU, 0xbd66ae5fbd3af73aU, 0x3d1a7ccb3bde4590U,
  0xbce48b163bfbc31cU, 0x3c2311413cc952eeU, 0x3d4e0d893d3a2411U, 0xbc221fd3bd0e678bU,
  0xbc55a6d43cbee6afU, 0xbd2ab6223cdbe640U, 0x3c062aa2bc33ba07U, 0x3c9f841c3c8141ffU,
  0xbcbbc958bbfe28bcU, 0x3c05062ebd718aadU, 0x3d3dd6c93cfcaf9dU, 0xbd429267bca3ca3cU,
  0xbd2d518cbc8b415eU, 0x3d0de2243d28ae23U, 0x3c921b9f3cf70689U, 0xbd319884bb005dc8U,
  0xbd5f9cc1bc5b3a14U, 0x3d0be39fbc69753aU, 0x3d234cf5bd2c0e8aU, 0xbd3432993c9257b7U,
  0x3cd74a0cbd5a4a09U, 0xbd29c06a3cb72d45U, 0x3cbd2b893c33a43fU, 0xbd0c9560bd10cfb2U,
  0xbcfcdf00bd2c1ce0U, 0x3cf38978bcee5a9bU, 0x3d075256bce9e0a6U, 0x3c143eb6bc98ec36U,
  0xbcb0ea393d13064fU, 0xbd450d11bd2a86c8U, 0xbd2b23913c58e4a5U, 0xbd2192383b5d9090U,
  0x3d345a9d3c5132cdU, 0xbd406795bd03cd75U, 0x3b546f60bcff7696U, 0xbcb2ffc2bb318ef6U,
  0x3d3ada773d04e72dU, 0x3d13120d3c471116U, 0x3c45d1ad3b69cc92U, 0x3b68f9cb3c5c63b5U,
  0xbb9e843fbd160a84U, 0x3c8617e9bd2c4d5aU, 0xbc801e61bd4e412aU, 0xbbc8291ebd11d0e9U,
  0x3d44ae293c34dd81U, 0xbd33f9ce3cbf7701U, 0x3d275f5fbd86d77fU, 0xbbf77f7abc82bfa5U,
  0x3cb146013cf4e4e6U, 0xbd0101babc0d4d2aU, 0x3ceb47ba3cd23f37U, 0xbd32cca93c9b5123U,
  0xbcee5ce6bd30cdb4U, 0x3cef23e83d178a24U, 0xbc1d018bbccd78e0U, 0xbc4173423cdfdca9U,
  0xbbfca4343cd6d9d9U, 0x3d53e157bb406920U, 0x3d12e84cbd599253U, 0x3cd2df3fbcd55eafU,
  0xbd66284e3b8c9507U, 0xbd3c0a1abd07f3eaU, 0xbd22ab383d1c41d8U, 0x3a825f85bc4f5768U,
  0xbd335061bcc68958U, 0x3b0254053d3ab1aeU, 0xbccb4f9d3d47e2f4U, 0x3d4cfc15bc42204dU,
  0x3ca60a4abd418310U, 0x3c919edcbc897f3aU, 0xba4d30babd54cd75U, 0x3d486c713a9488b4U,
  0x3d5b68ce3cf43063U, 0xbd612dcd3c397d66U, 0x3cc14c313d193078U, 0x3c7725ebbc96c0b3U,
  0x3d421055bb8a0d93U, 0x3d371d083d397df4U, 0x3bca0b06bc332f5fU, 0x3c50cb1e3c08ead1U,
  0x3ce73d683c596694U, 0xbd58bd21bd07cd82U, 0xbd64db3cbc9e2f30U, 0xbc79800c3c131e80U,
  0x3d1c2de53b189a07U, 0x3ceb17f13c65bdf4U, 0xbd1361053b34220fU, 0x3d3583313d030a00U,
  0x3c8ec464bd0a9b6cU, 0xbc5837233d05a655U, 0xbccfa5233caa5316U, 0xbd129e88bc906a7eU,
  0x3cb4acc63d3dee49U, 0xbd5941a53cd6bff7U, 0xbd1c3cd33bd25ad1U, 0xbc5c7dc63c90b882U,
  0x3c9a0b8d3c2f84ccU, 0xbcc01c6e3ce4a562U, 0x3d1d042dbbfc967aU, 0x3ca53d1dbcf4c161U,
  0x3c083744bd205abcU, 0xbc495ef93c8a7581U, 0xbb2be348bd2ab2a0U, 0xbaacaefc3b3665e7U,
  0xbd0c36b03b53ff72U, 0xbd1959c83bb5043aU, 0x3cdf9be13d3afe1eU, 0xbd522ac5bbefaeebU,
  0xbcf09b0e3d196a40U, 0x3d29733abd0f1796U, 0x3d5293b5bd6303e6U, 0x3d5228e2bc60659cU,
  0xbcf4b3a83c469604U, 0x3c10df98bd0e2db6U, 0x3c900fb73b804f78U, 0xbc7c733ebd03e030U,
  0x3c5bb66e3cb4491eU, 0x3c3bb24dbd31069cU, 0xbd5ae3e0bd33cf31U, 0x3aec6bb4bcb37f3bU,
  0x3d3d8be23c4e718cU, 0xbcf51beebd01ce65U, 0xbca6f895bced9a3dU, 0x3bc19a36bd3d2764U,
  0xbd3eb727bd5989f2U, 0x3d1c2f7ebbb9ee6bU, 0xbc78921e3ca87c7cU, 0xbd025f953c58c074U,
  0x3ca817c13c64268cU, 0xbcb19dd0bb8134b3U, 0xbd03f78e3c9b4a4eU, 0xbd33d6f03d54528eU,
  0xbbb9b5e03ce628aeU, 0xbce6a76ebc569d4cU, 0x3d0efdfa3d3d5ea9U, 0xbd4fc4b2bc8378e1U,
  0x3ada3ca4bcbc6f04U, 0x3ca981b93cddda60U, 0xbd54eda23d421825U, 0xbd3bf83cbd0f1b66U,
  0x3c69941ebce82536U, 0xbbadf925bd24b979U, 0xbd641cd1bce1a378U, 0x3cd6784dbabcfdebU,
  0xbd25aa653d3dae51U, 0xbd24ef00bc8ecf4bU, 0x3cc4a602bb436de0U, 0x3c1f8c7c3ca9456dU,
  0x3d215e0cbce0503dU, 0x3d0150babd538ba4U, 0x3c824f213cff1ef6U, 0xbd3348eebce42e9cU,
  0x3d46ff01bcf7424cU, 0x3d0c52febb473c20U, 0xbd36ca703ccd85acU, 0x3d256b21bcc02962U,
  0xbd0ab771bd4382ebU, 0xbcfab56a3cf0106fU, 0x3b90d921bcc46f88U, 0xbd4d0db33d307fdfU,
  0x3d2749ed3c1f6974U, 0xbd566c1b3cddd86bU, 0x3cec389a3cf1329fU, 0xbcbd0bc73d26a8b2U,
  0xbc11db483d36edaaU, 0x3d01117bbc38f01dU, 0x3d4a907cbc3e5812U, 0x3cdbf9763c30b321U,
  0xb9b92e8a3d370159U, 0xbd70135abca5e51eU, 0xbba6f386bc054b46U, 0x3cefdc35bd2c6bc0U,
  0x3b83d138bc266c42U, 0xbd0ac07ebc14ab88U, 0x3cf498f8b9ac5f14U, 0xbcab12e3bd400853U,
  0x3d00b5593c8d32beU, 0x3d26b16bbcb06c0fU, 0x3d34283b3cebccc2U, 0xbd350d1cbcdfe37fU,
  0xbcd517a5bbcc6dd5U, 0xbc5ea10cbb1d4d01U, 0x3c96f9a2bd2e5cdbU, 0x3ce5e0acbc39ca19U,
  0x3c84d5b13c521c9fU, 0xbcca7a8dbd220ccfU, 0xbceeacc8bd7cc988U, 0x3ab23e1b3cbc5582U,
  0x3ca6b5693b6ce909U, 0xbd614e1b3c4a7d57U, 0xbd6a00643cfb86a7U, 0xbd4b1847bd4000d7U,
  0xbd422fdabd439f31U, 0x3ce617753b6fc1b0U, 0x3b92e1f83bb9cebaU, 0xbd2b7eb53ce9260bU,
  0xbd1f8ed5bd65e9e1U, 0xbca5a233bcd17482U, 0xbc9819943d105116U, 0xbd522328bd80a337U,
  0x3d311950bcdce0baU, 0xbac615343bcab0bbU, 0xbb4b0e163cc14df7U, 0x3ae63bd43cb19362U,
  0x3d088f4f3c29d218U, 0xbd0a7920bcdcdcecU, 0xbd0d826abc0351a5U, 0xbd2ae922bca74927U,
  0x3baceadbbd40c9a0U, 0xbb1a87c73c83325eU, 0x3b779670bca048e0U, 0xbb07131f3d2194efU,
  0xbca99bdf3c8507efU, 0x3d26cd29bbc2134fU, 0xbd3250143c50796bU, 0x3bdb34a03ca2ecd0U,
  0xbc9cf4c33c88fdd0U, 0xbd418add3d1ceb17U, 0x3d2f1f803d1d0b86U, 0xbcb6a58bbd556b4fU,
  0xbca08ff5bacba606U, 0xbb9013a0bd4baa12U, 0x3ccc94cfbcc8543bU, 0x3d3aacd9bc686ab4U,
  0x3be9b3a5bcf3e35fU, 0xbd6255103b550158U, 0x3c4b94fc3c217c68U, 0xbba208873d074d48U,
  0x3cbdd8be3b4b55faU, 0xbd1497aabcc85ef7U, 0x3c20963abb43eb62U, 0x3ccb7bdd3c436566U,
  0xbbeec46fbc47b594U, 0x3ca83bf8bd707085U, 0x3c233505bd051af9U, 0x3c251df0bcdf0433U,
  0xbc3b8b783c9b5566U, 0xbce02644bc206e09U, 0x3cf053e5bcb3dae2U, 0xbd4bc4383c8dbc95U,
  0xbd6a7a293d0d2e31U, 0x3d2faac83c7ff336U, 0xbb93c8f03cddd3a2U, 0xbd2caf38bd4976a5U,
  0x3d3c93d1bd279dddU, 0xbd0566b5bb6f5ed0U, 0xbd32737c3ca359b2U, 0x3c4efc7fbc3a242eU,
  0xbd523f843c362585U, 0xbc81db923cbc09aaU, 0x3d2f417fbd67e757U, 0x3c94d9ddbd46ae2cU,
  0x3d17e5efbd3e5af4U, 0x3d30bf28bd1bb7b7U, 0x3b762786bc617189U, 0xbd059912bd3c7777U,
  0xbc1967bf3cf0bb52U, 0xbcff238bbd1f7d94U, 0x3d1840453d4cc7dbU, 0x3ca01ab13c47565cU,
  0xbc9284ea3d3b8b8aU, 0x3cfee52bbcee7c3fU, 0x3d043d903d0afdd1U, 0x3b53e968bd59bf25U,
  0x3d4615523d4e58d0U, 0xbd541199bd040cf0U, 0x3cfd57cebd357c4aU, 0x3d31be22bd528b52U,
  0xbbd8f2f83bd2395eU, 0x3cbe38e4bd148b84U, 0x3ba8b009bd642d8cU, 0x3cf49b3fbcbfeb1aU,
  0x3ca125d4bd30cda4U, 0x3d0516773ce77287U, 0xbc87e84ebd032669U, 0x3ca0979e3cfe9480U,
  0xbd3db1223d239c61U, 0x3d45ec15bcb15c24U, 0xbd8f1baebd14f0f6U, 0x3d0196423cb68af4U,
  0x3c5992c0bd2b4c15U, 0x3c42ce59bb992a60U, 0xbcf286083b8350b7U, 0xbc47140f3d096719U,
  0xbc7c7531bd57f710U, 0x3cc1f141b9d0124aU, 0x3ab29c3d3d39b85bU, 0x3b9b7ed9bd4e0b59U,
  0x3d38a4353cd5d34eU, 0x3d171cf2bd0238b9U, 0x3c8518da3cc9fc92U, 0xbc8f0fc73d39cd91U,
  0x3d542d69ba4d7610U, 0xbce4f6dbbd543a09U, 0x3d0583fb3cde0554U, 0xbc6ff18abd62805cU,
  0x3d30984dbcdfed74U, 0xbd603b693cd91166U, 0xbcd6bce43cf4d857U, 0xbb4c39c2bb2dd99bU,
  0x3d40d799bcee2cf7U, 0xbcef1e1ebd224269U, 0x3d4ada31bd396304U, 0xbd419acdbd21954aU,
  0x3d184aedbd4956e5U, 0xbd4c98dc3cf76696U, 0x3d37924ebd01c86aU, 0x3c748b69bbe1e848U,
  0x3d15b6dfbc9f8446U, 0xbcb27d1a3cb505d0U, 0xbcf554debd58832bU, 0xbc6df8e2bd664b8fU,
  0x3d090d93bc5c3c83U, 0xbcdc0a57bcf9970eU, 0x3d2be0403cb2b2b2U, 0x3c4e9b7e3d0bd27bU,
  0xbca0e62abb986b5dU, 0xbd37d6313d13f321U, 0x3d2a2886bc0a7bd7U, 0xbca1863d3d1cba21U,
  0xbd7002cbbbad0d88U, 0xbbc1b8a8bcfd885dU, 0xbc8310cc3caed3f9U, 0x3cdc0594bd2c4537U,
  0x3cd7ffce3961cf10U, 0x3a3559dcbd134b95U, 0x3bebc4153cd716d6U, 0x3c3edf033d2a90f4U,
  0xbcc2e673bd1df4b2U, 0xbd159b6dbd32c422U, 0xbca80554bd40d567U, 0xbc8d63693bb842acU,
  0xbcce6fb63d3f3163U, 0xbd3812ebbb11a2c6U, 0xbd3819553b41fdd1U, 0xbc9e5327bd5ce77fU,
  0x3d153d553abfeca0U, 0x3d12eb283d227608U, 0xbd73ba6d3ba6a8c0U, 0xbd7896d2bc6ab596U,
  0xbd6c4a47bcfdb587U, 0xbd5c58b93cd6732bU, 0xbd0a6eb63cf65516U, 0x3d0e99ddbd36fe8dU,
  0xbbd266993ce33edfU, 0xbd229ba93c5a83bcU, 0x3d1d86873bd37968U, 0x3b561b8a3d49baa9U,
  0xbd23b1723c88616dU, 0xbceba0fa3cef4030U, 0x3cb1e495bd55ea59U, 0x3c9f157d3c599314U,
  0x3bb434db3cd95142U, 0x3b187cbd3cd2f177U, 0x3c4827bcba2fc175U, 0xbcf456b0bcb7c326U,
  0x3c9dd2aebd4e52bcU, 0xbc3db9b33c827bdfU, 0xbc7ad38e3ac9e0cbU, 0x3cf56c1fbd5c691eU,
  0xbbca790abd2503ebU, 0x3d2f246fbc8f0276U, 0xbb5df76fbbb91651U, 0x3c53e5933b11b29bU,
  0xbd0fd5e6bc05127eU, 0x3d39eae93d43e1b6U, 0x3d4beb3ebcbaec7fU, 0x3cc196f13c826138U,
  0xbd45f1cf3d2288c5U, 0xbd6e479ebcb914f0U, 0x3d3ce36dbc8d8292U, 0x3ccad14a3cee92d0U,
  0xbca950823d1ea581U, 0x3c9864463d2d9d66U, 0x3be601bcbb930164U, 0xbd390e7bbc7a37dbU,
  0xbc297618bcdf7045U, 0x3cceebf13c92b446U, 0x3bd301093d21d9a1U, 0x3ae3cafabd414f81U,
  0xbd3ca9ddbd3e3afeU, 0xbc071701bc3fc4b8U, 0x3d2162bc3c268820U, 0x3d3e917b3c8c98aaU,
  0x3cb0f83c3d06e7dfU, 0xbd595e97bd403021U, 0xbcefdcfdbd0e4e5dU, 0xba873742bcb3a2deU,
  0xbd0aefe4bb2771cfU, 0x3b0cea26bc46699dU, 0xbca6033c3cd3064eU, 0x3c2b01afbd031de7U,
  0x3cdf879cbcdd1a43U, 0xbcb722f13d0cb51dU, 0x3ce68fc83c161f8dU, 0x3c4fbb863d2702acU,
  0xbc97c4263d1ec93eU, 0xbd0594273c325d55U, 0x3c361cedbd39ff1bU, 0xbd1fc3fdbd10d66cU,
  0x3ca8a671bc393300U, 0xbd687e3b3c552c53U, 0xbd0dc9d9bd0a6091U, 0xbd4df8e5bd05189aU,
  0xbcfa7fe7bd6045dfU, 0x3a9b11e93ba2568cU, 0xbc63b3c6bca0c814U, 0xbd53ca6c3ccd5817U,
  0x3d3780083d3a4090U, 0x3b89e1353d3d312dU, 0xbd1a1c91bced0314U, 0xbcd515a03cfeef3eU,
  0x3d48decb3cfaf626U, 0xbc0dea203cae6264U, 0xbd2f684cbd229e0aU, 0x3d33dd5d3c5d847cU,
  0xbd5b63c53d48cedfU, 0xbd26f3adbca489ccU, 0x3d17bd69bb9c98cfU, 0x3d20b8ba3d3d1eabU,
  0x3d209cd53d2baaa9U, 0xbd0cf61b3d00ae00U, 0xbaf1c7593cd46b7dU, 0x3cd32fe33cc010b7U,
  0xbbd8b0593b4a4dbfU, 0x3d1f56b8bce9faa4U, 0xbc6e6dca3d5fd461U, 0x3d47c22bbbcbc2ecU,
  0x3ccdf50a3d34007aU, 0xbc231b3e3c0b8dceU, 0x3d123ab1bd1bab80U, 0xbc2afe7cbc871928U,
  0xbcbe69f0bd5a0575U, 0xbd1fa766bd29c63dU, 0xbd5faa963d1dffc1U, 0xbd14fda4bd23db56U,
  0xbce72f1e3d2bc39eU, 0xbd39bfeebcec8135U, 0xbd9307483d2c0129U, 0xbc5da09ebd37cc2eU,
  0x3ce8c967bd6e81f0U, 0x3d2127d23b7e48c0U, 0xbc58db6e3d193bafU, 0xbd6dc471bca2e277U,
  0x3d1cb757bc8d65d3U, 0x3cb4c72e3cc1a10eU, 0x3d0b0fa5bd6ef2e6U, 0xbced7bdf3a6c9200U,
  0xbcd20644bd1205f0U, 0xbcabc31ebd57c79eU, 0xbcb9d4363c821e65U, 0xbc690f8b3d5c66c4U,
  0x3cde0a0abd130db9U, 0xbd2a4676bc00d658U, 0x3cf67038ba5a5cc1U, 0x3d160b463ca36d39U,
  0xbc3cb57c3d43cb87U, 0x3d3b8427bd22bce8U, 0xbccc8feabd56c6faU, 0xbd60acf7bd52b889U,
  0xbd26c8efbc27e355U, 0xbd41f8d63c47e205U, 0xbc95d77ebba1ec33U, 0xbd4d7512bc9998d9U,
  0xbd583941bc915412U, 0x392cfc5fbd0d8337U, 0xbcb26bafbc78588cU, 0x3cc26c353d21d9b6U,
  0x3cacac5cbd024d16U, 0x3d09f7bcbd416ee6U, 0xbc444965bcdd4cccU, 0x3d3c57f53c25e4d5U,
  0xbd0e854f3d057e9bU, 0x3c83262ebd1fe2a9U, 0xbb5957e8bcf2fac0U, 0xbd0d0f41bc8e3870U,
  0xbd206c313c811a25U, 0x3c9ea4163ab24929U, 0x3d42f6463c9dbe7bU, 0xbc891c9abbdbdd28U,
  0x3c96228bbcc80d85U, 0xbc8923143ce5de10U, 0xbd11dab63d342bcbU, 0x3d4565063cd4db41U,
  0x3cc3576abd3c7d89U, 0x3caac394bd357431U, 0xbcb2ae343cac9b36U, 0xbd171da73d0bd463U,
  0xbc337d14bd3a7d0dU, 0x3c32da453c5f8805U, 0x3d15345b3d5cf710U, 0x3d254e59bc9508f9U,
  0x3d485575bd3d865bU, 0xbc42cd513c54c70bU, 0x3cc82e5dbd0f53d9U, 0xbd545561bd46f6e8U,
  0x3c1b12a3bd5c7458U, 0xbb64bfb03d216e1cU, 0x3c8f237a3c6c5c6cU, 0x3cbc775dbbbd6770U,
  0xbc727bd6bc98bf39U, 0x3d0105c13cbbde74U, 0x3a6097f93d10fb3bU, 0x3ca7d5b63d0a147eU,
  0x3a0c8897bc683d3dU, 0x3c9ab9eabc6820b8U, 0xbb9ee78e3bdb22b8U, 0xbcf1eca0bc516460U,
  0x3c94b7f9bbaa8b22U, 0xbd3fb1823d430300U, 0xbcb17e57bd15819eU, 0x3d21afb33d4682a7U,
  0xbd20f4443d15acb3U, 0xba776925bd5b5539U, 0x3ced8eda3cba13b8U, 0xbc59d6183cb01a09U,
  0xbc7117243c7dd9b7U, 0x3ccf73993cf817d6U, 0xbcb1b3a039911eb3U, 0xbd1f4b53bd5d1931U,
  0x3c4aab77bc2913e8U, 0xbc5e71953bb012deU, 0xbb9ca330bd27a9d0U, 0xbcfd2c61bcff643fU,
  0xbc4e82243d4cf8d7U, 0xbc8e57babad4b713U, 0x3d308eadbcb742a0U, 0x3d1482863c905617U,
  0xbc9c228b3abdf360U, 0xbd5215883d55a494U, 0xbd5b277fbcbc5418U, 0xbd6ec4043c603fb0U,
  0xbbfb58c5bd46f3f6U, 0xbc919ed33cc5bb59U, 0x3b55a143bd524aceU, 0x3d019014bd801c31U,
  0xba50254ebd5a96c9U, 0x3d22b1a1bc96ba24U, 0x3c3041b7bd4198aeU, 0xbce729abbc7d4b54U,
  0x3d07f933bd6419f7U, 0xbaab367cbd3024feU, 0xbd52dbd43d25ec2aU, 0xbd2727b0bc985b44U,
  0xbc98f9903b085a00U, 0x3cbba8ea3c9cb7c3U, 0x3c855972bc449776U, 0x3cbaa7713d149c8fU,
  0xbc7e63ec3d100cebU, 0xbd424ee6bd35c58fU, 0xbd3aad65bd3d90b5U, 0x3c9cf2b63c8cee84U,
  0xbd550b0ebc9e32f4U, 0x3d26f520bcecc98aU, 0xbc76ff2bbd1ba1ceU, 0x3cfba2243c53c3f7U,
  0x3cd8891ebcca8519U, 0xbd23f0fb39d05a53U, 0xbaf17ccfbd891697U, 0x3cf47bb0bce6de7fU,
  0xbcada20fbc95197aU, 0xbd08e1b13b5ff2e0U, 0x3b45ba4b3cae16feU, 0x3d10f557bc30422aU,
  0x3cbf1a073d03961aU, 0xbd0c5aa7bb903078U, 0xbd9a80693c15002fU, 0x3cebb324bd25c655U,
  0xbc5feae73d3e354cU, 0xbd5cdc11bcddc39eU, 0xbc9ff2fbbd344032U, 0xbd5d68df3d373e21U,
  0xbc8fa9be3c68a63fU, 0xbce808833d4f0942U, 0x3c946f05bd0f3d4fU, 0xbc1940593d4c94e3U,
  0x3cd80c903c937042U, 0xbd7634863ccdacbbU, 0x3d0f0af3bbcd008eU, 0x3cb80e4f3d45cd05U,
  0x3d2a0278bc8fe8c3U, 0xbd5bcbb83ce66d2cU, 0xbd3e6782bcd95febU, 0x3bc9dfbabc820800U,
  0x3d2ad070bd426080U, 0xbbadb8babd0f679eU, 0xba9d4d223c2a9632U, 0xbc0a50c63d30caa9U,
  0x3d12cdd5bd193ccbU, 0x3d0022593cc18fc3U, 0x3d24864abd792f9aU, 0xbd6b98103d39ef2aU,
  0xbd537f7e3d321e13U, 0x3d2803763d1bd9dbU, 0xbd6982fbbca56f3dU, 0x3b6dd328bd25296eU,
  0xbcc76b2abce40c77U, 0xbd16bb3b3ca59a16U, 0xbd96beb03cdc03a3U, 0x3c4958debcf45810U,
  0x3d1125953caa7b73U, 0xbcdfb8103ce796d2U, 0xbcf61f10bcf6304fU, 0x3ca0a1fc3c1bbb4cU,
  0x3d0e44e9bd1a2c78U, 0x3d3b6852bc6badbbU, 0x3c2017643c7fc4faU, 0xbccdbf5dbc4c1804U,
  0x3c5408333d245334U, 0x3c9a5ab83cf667e6U, 0xbd060faa3c0fbabcU, 0x3b33ebc53c15f4e5U,
  0xbcc5ebe4bbd2df0bU, 0x3be0ebd63ced7c78U, 0xbd5459573bf50e40U, 0xbb9c39f9bd29fe82U,
  0x3cdbc6acbcdc3a23U, 0xbd21f62e3cc00fa4U, 0xbcfae81b3b3fc8faU, 0xbb156cbfbd5015caU,
  0x3bba51883d1ecc7fU, 0x3cfe7501bd5b407aU, 0x3d0ae8a2bd906b0aU, 0x3b54e72dbb9f1f61U,
  0xbc1b05f8bceabd65U, 0xbd1bd461bd100e5aU, 0xbd5335863c51ed4fU, 0xbd262a33bd4f20d8U,
  0x3d38b2c5bcf815e7U, 0x39993678bd18d973U, 0xbba84e4fbbde7b51U, 0xbd028c19bca149e3U,
  0xbc6bbc16bd2147c0U, 0xbd007a6cbd23d6a3U, 0xbcc6940abbb7266fU, 0xbcc93e71bd5508afU,
  0xbc834d66bc0df1e8U, 0xbc86b3503c1ff923U, 0xbc97355d3d2c3404U, 0x3cdbaf16bcfd92e9U,
  0xbd1a2a543c7bd018U, 0x3d267524bd1d7020U, 0x3d0193a73c8dc85aU, 0xbd077c973d532b9eU,
  0xbd2d1dffbcea68dfU, 0xbd0695b7bd3ffce7U, 0x3d0159fc3bca10aaU, 0x3d3b19503b9518d0U,
  0x3d4969383d153c3aU, 0xbd43e120bc7450dbU, 0x3d562891bd142045U, 0xbd05d15bbc889439U,
  0xbd05b01bbd075e65U, 0x3c7be154bcd127a7U, 0x3d09eb58bd9a6d10U, 0x3d305554bd3e99b1U,
  0xbd22734d3cd18deaU, 0x3c8fd6d73d13bc76U, 0xbc9642bd3d09d2a5U, 0x3d2b1e5bbbe3335dU,
  0x3d0520d83d3f794bU, 0x3ca72a2e3d1ef818U, 0xbc016affbd123745U, 0xbc86fefcbcca579eU,
  0x3c9ee647bd14d26cU, 0x3cea22dbbcc466ebU, 0x3c9948bbbd5cbe43U, 0xbc9fc076bd0e47c8U,
  0x3d22ad13bc9715faU, 0x3d1111d23c27047bU, 0x3c850ed3bc5fd558U, 0x3d557a05bc339a88U,
  0xbd1e478cbd2af448U, 0x3c7def4ebd0fd9bfU, 0xbcfa0b0cbce48313U, 0x3d286197bd194a60U,
  0x3ccbfe6abc1423e9U, 0xbd6c01df3d0fd384U, 0x3cb590823cbaec94U, 0x3ceb6c4ebbc2037eU,
  0xbd15b16f3d256d7fU, 0x3cc7221dbccf8b4eU, 0x3cb227693d242d68U, 0x3d4aa5b53d3af438U,
  0x3d017ff73b085eecU, 0xbc269145bd651dcdU, 0x3d175899bc056129U, 0xbcde14983cd11c22U,
  0xbc8182823cff6a36U, 0x3c6e96543d495b5cU, 0xbd7513b9bd5b9346U, 0x3cab1212ba2380a1U,
  0x3c86f12bbd62b2feU, 0x3cf34cb03d231c32U, 0xbdc9fa19bcbfe9a2U, 0xbd757035bd550946U,
  0xbb164356bce0cff1U, 0x3b98cab73cf293deU, 0x3d37f739bd29c5f6U, 0x3cfa913b3d48f837U,
  0xbd66ed41bd56721dU, 0x3b92fb12bd05b468U, 0xbd0f7462bcd0d267U, 0xbc9490813c651654U,
  0x3aa7d750bc648ca0U, 0xbd2934073c1f639bU, 0xbc596fac3c3fe1d5U, 0xbd226ed73c2ad281U,
  0xbd50ed753c008425U, 0xbc8290b9bccfe999U, 0xbac07bd63d5a370bU, 0x3d1332b63cc21757U,
  0xbad96b653d316a70U, 0xbc29a164bd2650e8U, 0xbd554d643cd8300dU, 0xbc7bc4103b7a7ce4U,
  0x3c8e2bb3bd17be35U, 0xbd4411c2bc6500f9U, 0xbce751bdbd0dffe8U, 0xbbe9b3a1bc0278abU,
  0xbb92d924bd4c1b40U, 0x3b4a9b25bd1af4baU, 0x3c2e091bbcd2f836U, 0xbd1574ff3d419357U,
  0xbcb9ea80bc1b7a72U, 0x3cafaf4fbbb30151U, 0xbca3e7babd20d99cU, 0x3d109ab4bc894cf8U,
  0xbd5ac4ebbcdac4dfU, 0xbd0b91323d366577U, 0xbd428f313d02e94eU, 0xbd05f12d3d1ea93bU,
  0x3d2f2eb3bbcae7f8U, 0x3d3425ce3b294c1fU, 0xbcab1008bd3eda5dU, 0x3c81b0553c6cc6dcU,
  0x3cb2a16f3ca21036U, 0xbcc09a75bc197bddU, 0xbce59368bd30deafU, 0x3b1d5cad3c75731bU,
  0xbc8666ba3c379860U, 0x3d322c8f3d1393dfU, 0xbc9907023d1ce4a9U, 0xbc013ae838dc81f0U,
  0xbce359a23d150a8aU, 0xbcd14f463c3d7d48U, 0x3c5d9936bc85612fU, 0xbd5bacecbd16bdc0U,
  0xbd2470083d26c6a8U, 0x3d0bf1563d42ef46U, 0xbc108265bbc285abU, 0xbcaccc86bd15a9a8U,
  0xbd2f29923c674d4cU, 0xbcbe7bea3d56f8afU, 0xbd319b013d43d3d5U, 0xbd1e4d54bcd57076U,
  0xbd2de4503bd80c1fU, 0x3d0903abbc7163ecU, 0xbd783e98bd45a433U, 0x3cd6a096bd7414c4U,
  0x3d4b95d93d0bcac0U, 0x3c201b2e3cfd2a16U, 0xbd21005f3c3d1238U, 0x3c4ac9bfbd2b29b1U,
  0x3d3821803d23d76dU, 0xbca52ac03d3368b9U, 0xbc25ccf93cead57dU, 0xbc8e250a3d1e7399U,
  0xbd467ff8bd536d04U, 0x3c577aa9bc61c4fbU, 0xbd128bf33c583ac5U, 0xbc36f0a2bbdbc51dU,
  0x3d493099bb8a41d0U, 0x3d14f3a5bd5f4a9cU, 0x3ceb27943d3f8010U, 0xbc45ea3a3d19e8c4U,
  0x3d286191bd2b6b3dU, 0xbc39a5183ce72206U, 0x3ca211ea3d2b932eU, 0x3d450fde3ceadae6U,
  0x3cf81bd23ccc2423U, 0xbd14bdfd3cf16925U, 0x3ccb6307bd8e1cacU, 0xbd023f6d3ca563c7U,
  0x3d19426c3cc1e9daU, 0xbd1839e8bc470f2eU, 0xbcbb51373c0af9e4U, 0xbd50d6e63cab05e9U,
  0xbd52180bbb20c676U, 0xbd53cbca3d310292U, 0xbdb6b4cdbb2f4590U, 0x3ccebdd8bce5b5f6U,
  0xbcad50073cf7daaaU, 0x3d3d873bbb189680U, 0xbb480620bca9f1beU, 0x3d307131bd2c18beU,
  0xbbad223dbc6cf82aU, 0x3b7e8b9cbd1c6cdeU, 0x3c5e75233cc8c79eU, 0x3d170e023bc96518U,
  0xbb84832abcd84b33U, 0xbc926f373d4004d3U, 0x3babb0d8bd10c5a9U, 0xbd52584e3b7f02b8U,
  0xbcdde60bbd66df4fU, 0xbd36f5e7bc59cd1fU, 0x3cff1b34bccf3f90U, 0x3cfdc7babced5aabU,
  0xbc70e8b5bb21e6feU, 0x3d3452b5bcfe74a2U, 0xbd4e9ea83cfc4688U, 0x3bfc7ea8bc619d9cU,
  0x3d047b27bd2e78ecU, 0xbd3a69fd3c708309U, 0x3c9fde0c3cc233e7U, 0xbd152b3b3d2f9971U,
  0x3c1d4298bd268b4fU, 0xbb24b037baadfdbaU, 0xbba2c51abd50ed8aU, 0xbd6579813c349ec1U,
  0xbcc39384baf4122aU, 0xbcb3ad913cf0c96aU, 0xbc0802fabd088903U, 0xbc825ae03ce5653aU,
  0xbc926632bb939965U, 0x3d2ecb5a3c8fa416U, 0x3bd64fef3cdd08f0U, 0xbc9016e5bd316e50U,
  0x3c65786d3cfca497U, 0xbd31f2a63d558fbcU, 0x3c0eb028bca3812eU, 0x3d1d9d843d28d835U,
  0xb9a08089bc6761a4U, 0x3cf925183d008c88U, 0xbd4a5c0e3abd0665U, 0xbd4e3171bcae826bU,
  0x3cbce6a6bbbd75bdU, 0xbc93a4cd3d1d784eU, 0xbd4dbc9dbc9d15e8U, 0x3c1f7001bd458131U,
  0xbcd8a45abc881303U, 0x3c50432dbd62a155U, 0xbcf0b9f0bd2096f0U, 0xbb98e2363d07d31eU,
  0xbcb6315e3c1fa653U, 0xbcdf4880bd701a06U, 0x3c931009bd9978e9U, 0xbd28306c3d30d9ffU,
  0x3d1ab7b7bb0e5410U, 0x3caec386bd13fde8U, 0x3cad42603c4edcecU, 0x3bed18ce3d0be30cU,
  0xbcb3a1ec3cf5138aU, 0xbcfa0cf7bd224653U, 0xbd960caf3c9c72d7U, 0xbcd137ccbcf64b2dU,
  0xbb54451f3ca1a164U, 0xbd4e0af4bd23a1e8U, 0xbc791bde3c8da926U, 0xbd62fbe03d062c95U,
  0xbbf55a36bd0a84feU, 0xbc4ef954bc00610fU, 0x3c30781a3cac0b53U, 0x3d40e221bd0df57cU,
  0x3cafab6f3cb59852U, 0xbc83fc043d331942U, 0xbc87985a3d590f00U, 0x3cf528bfbd07e99dU,
  0x3cd66fb13bbe3557U, 0x3c4c2b2b3b2d8400U, 0x3cfcd1363d3021beU, 0xbd20cd7d3b0f5206U,
  0xbd3020abbc8c9f96U, 0x3afdfff3bca192b6U, 0x3d1094e9bd02e5dbU, 0xbc26d34d3c98f389U,
  0xbca66a78bce2f7a9U, 0xbbff8485bcdb69feU, 0xbd17aa23bc07032dU, 0xbd196ecdbc9f118bU,
  0xbcf4ab7f3d583e35U, 0x3d35bf8ebc3486efU, 0xbcfe2e8f3cb97546U, 0xba49e6acbd5dbc20U,
  0xbd47c6a9bc860adcU, 0x3d3de307bc8a43edU, 0xbd8977bcbc11f9cdU, 0xbd2fa78fbd5da94cU,
  0x3a0d1f16391cfca4U, 0xbc4a3e42bd42e04dU, 0x3c4376dc3b32b256U, 0xbc3492c7bd200740U,
  0xbd61f2573cd4beffU, 0x3d2b09d43c555878U, 0xbd799c333d39be5fU, 0xbb8abcd53cc4388eU,
  0xbc1f9c023bdb29e2U, 0x3cb2861b3d06582eU, 0xbd0a27503cd4cdf1U, 0xbd519f73bd020756U,
  0x3aeaa9883d2f2217U, 0x3c0587a2bd24c4cfU, 0xbcef1728bbb7c732U, 0xbc7292f7bd688ff1U,
  0xbd1a64493c89888fU, 0x3cbbed44bd20ea2cU, 0x3c4d855c3d595000U, 0xbbdfbbc33ad7feadU,
  0x3d3310093d466337U, 0x3c553834bca67ea1U, 0xbcbe2fefbd21843eU, 0x3cac00f63cbedfdaU,
  0xbce8f9983d320955U, 0x3d09034c3cf0f1a1U, 0x3cf9c0303cb3b67fU, 0x3cfb6e2b3d43454dU,
  0xbc08c0e2bb9b3162U, 0x3ca0a7e63c90c4d0U, 0xbd019adfbbf67970U, 0xbc0d8693bc9bec77U,
  0xbcf22915bd228cb3U, 0x3d32ffd33d2b7589U, 0x3d4d7982bd3605eaU, 0x3ce751cdbd6595d3U,
  0xbd3813c63c25b7e1U, 0xbd5750ed3b464fb7U, 0xbd1021353c07bc95U, 0x3c6d4f7a3d1b1a09U,
  0xbd351bf53b47dd1bU, 0xbd338adfbd45889bU, 0xbd306f0a3d5a0dd8U, 0xbc4bdd85bbf4686aU,
  0xbc014786bd34df08U, 0xbc303237bba83928U, 0x3cacd0823c5924ecU, 0x3b4d8d30bd557b7dU,
  0x3c32278cbd70ca63U, 0x3d33d67fbd531004U, 0xbcfd5aa53bd24478U, 0x3c31f64cbc97ce00U,
  0xbb879840bd4402d3U, 0xbd0cfb2c3c2c2c47U, 0xbd206bc7bd4e4cb7U, 0x3be236853caf792aU,
  0xbada180ebc2de58cU, 0xbcebe3c0bd29a5e3U, 0x3d17ac0d3cd737a7U, 0xbd6de10f3bfd6d91U,
  0x3d12f994bc98f8aaU, 0xbd65192cbc356674U, 0x3ce5e4db3c02a35cU, 0x3d3735debc9edad8U,
  0xbc34ef0cbbf00d28U, 0x39a05f00bd1cb816U, 0x3cdc3cdabc04ec1fU, 0xbcafa0eb3b697079U,
  0xbd136ed23d1216cbU, 0xbc6532403c9746e5U, 0xbc39ad5fbd30bebcU, 0xbd5c3a22bd0bc198U,
  0x3d3d4a22bc8076e4U, 0xbd68940f3c0ead95U, 0xbb282ba03d113f8fU, 0x3d1aba23bc8daadeU,
  0x3cfd6a55bc263772U, 0x3d387c6c3c716924U, 0xbd55abfa3d529887U, 0xbd088aa0bc5995a4U,
  0xbd32569dba479263U, 0xbc212ce5bd75d6bdU, 0xbb770560bd07afa1U, 0xbcb1f7c83d1e2d7bU,
  0x3d2d4df13c681854U, 0x3cb2da3abd47e174U, 0xbc388578bc42bfdaU, 0xbd3d5fbe3d39ccc7U,
  0xbd66398ebd0e39feU, 0xbd3d064e3d1b0605U, 0xbd00ce65bc080b56U, 0xbc60e4883c0c110bU,
  0x3b56a4e2bd0f8289U, 0xbcd47b53bd4551a0U, 0xbd2bc060bcd854ffU, 0xbcba9e19bcab663eU,
  0x3cf9cede3b254c30U, 0xbcf606443c63b124U, 0x3cc147c2bd599de9U, 0x3b424c1abb9a9e39U,
  0xbd09a37dbd551d51U, 0xbd4efc39bd3bb300U, 0xbd0c8d763d1a2e5dU, 0x3cd6c3c2bc6e0b58U,
  0xbd1d05a83c73192bU, 0x3d3765ba3c58005dU, 0xbc37a370bcaa1452U, 0x3ccc493ebc959334U,
  0xbd70133e3d04f255U, 0xbc8ec69ebcba42aeU, 0x3bf4bbf8bcf33f9cU, 0xbcb56888bca3a214U,
  0xbd2e7868bc7497b9U, 0x3c8555793d03582eU, 0x3d2172633ce2370aU, 0x3c1c8d04bca02d68U,
  0xbae036e03d2edb37U, 0x3d0b5b6fbd58ac05U, 0xbce8d1ec3a91fa8eU, 0xbcad31733bcf0592U,
  0xbd4523b1bd105d91U, 0x3d2507343c0a7dc4U, 0xbb4f28c43bcc8361U, 0x3cef20d2bc4e6d06U,
  0x3d14ea17bd320856U, 0x3d09781a3d34bdd1U, 0xbd3cffa53c77db34U, 0xbd69fb7539a1f7f7U,
  0xbd45424bbc4cb664U, 0x3becac88bd4db3c2U, 0xbd3eeae03cefe3e8U, 0x3d29122cbd216d24U,
  0xbbbd6e503d0bfd74U, 0xbd27e617bc13ce7fU, 0xbc7b5cd03bf15a7fU, 0x3cd604cebd379fbcU,
  0xbd5bad56bd57328dU, 0x3ca32112bd5d2f78U, 0x3c5cb4e43d1fa62dU, 0xbb392cf03d32c337U,
  0x3d398a37ba9a9d5aU, 0xbc87b9923c44939cU, 0xbc5a8158bc857b48U, 0xbb61c5703c3c7a2dU,
  0x3cdeadfebd1445adU, 0x3d439353bbecd19bU, 0x3ca2402e3d37857dU, 0x3cdd14debd48275eU,
  0x3d3dd2bd3d21cef5U, 0x3d149a513cd62578U, 0xbb0fa2773ced11a9U, 0x3ced616dbd7687c5U,
  0xbc6d14743c945daeU, 0xbc4de2093c0a354cU, 0xbca581b9bbb36616U, 0xbd1ac5c93d0d0973U,
  0xbb5ae011bc821e3aU, 0xbcfd6d373aea23c0U, 0xbd0ab1b73d4c355bU, 0xbc862aa0bd8ac449U,
  0x3cd9cc0a3d204975U, 0xbc143d583c91c57eU, 0x3d08666dbcbfbc28U, 0x3c1960e9bcbdba93U,
  0xbd6192b4bca4b414U, 0x3c90ecfdbd4d8642U, 0xbd57d0fcbd2c21d3U, 0xbcfeac81bd40e4ffU,
  0x3c4f93abbd05e057U, 0xbd225d15bca2a079U, 0xbcaf2292bcedaa6fU, 0xbd090670bc0ed1d0U,
  0x3cee6716bd0a0c54U, 0xbd64a23fbc2e1768U, 0x3cbf7afe3cbed3b6U, 0xbcadd68ebd49e612U,
  0x3c93e896bd4c4c76U, 0xbd5608d53d27d6a1U, 0x3ca22afabced33d5U, 0xbcd45f8f3d4284bfU,
  0xbc96bf48bd06398cU, 0x3d149a7bbd69bcc8U, 0x3d393b76bd7a4c43U, 0x3d3a06c33cc467c9U,
  0x3bbcdfce3c638924U, 0xbd37cd953b4146e0U, 0x39e3ed783d3df365U, 0xbcde649abb8529afU,
  0xbd260b013c1041b4U, 0xbccfa8ebbd32c535U, 0xbd8247833bef7018U, 0x3d09ed9c3a8828d3U,
  0x3d4f1f79bd3a1630U, 0x3d08ec073d085bcbU, 0x3c40bba43d357950U, 0xbc3ee16dbd207613U,
  0x3aa79f963c589096U, 0xbc7f4591bd4b8083U, 0x3d207bdebd17af06U, 0x3c30913cbd4cd3b0U,
  0x3cad9fd9bd5c40b9U, 0x3b0c82f63ca39598U, 0xbcca4a96bc56857cU, 0xbd3baab8bbe3d308U,
  0x3d228125bd5ec963U, 0x3ba1fbaabd43a06cU, 0xbcf0820c3d359ddfU, 0x3d288e83bd544d72U,
  0xbd0336fcbccf2556U, 0xbd2afd393c9da8ffU, 0xbd341087bc872726U, 0x3d43c479bcb0fc7aU,
  0x3d5a77cf3c474c6cU, 0x3cfdf9e2bd0182b9U, 0xbd723e70b9f4631eU, 0x3d0fd419bd694b2eU,
  0x3d1ea02bbd066cedU, 0xbd152faabb23c6e0U, 0x3c099316bc9e5528U, 0xbbe71d1abd6ba735U,
  0x3d187b21bd54ba63U, 0xbd508cda3d577235U, 0x3c07b1e9bd4b7e53U, 0x3cfe3dd7bd7a217fU,
  0xbc141ac03d14d69dU, 0x3c3ac474bbbdcf80U, 0x3d2cd95dbd16010aU, 0x3d206bbebd21cff8U,
  0x3d0d85293b59cafaU, 0xbd1963b83cb3270cU, 0x3cfa8069bd001b82U, 0xbc160fc03d4c0b37U,
  0xbd6f2e863c676540U, 0xbd0c77c73c4847c7U, 0xbd4ffca63d3ba60dU, 0x3c9519dabb72b6c0U,
  0xbd3c40ae3d0c6ee2U, 0x3d1a3b503d0a3191U, 0x3c13e4a43d01fda5U, 0xbcd6cfb13c06c4a0U,
  0xbbb05bd83c3920d8U, 0xbcb470ecbca76e94U, 0xbc8bf108bd396362U, 0xbd32b80ebbe171a8U,
  0xbc84893a3ca91b4aU, 0xbc802d3e3bb6bfbcU, 0x3b9bbc6a3d1f74e8U, 0x3d3a7ad73caa0207U,
  0xbd402568bd299620U, 0x3ce925b4bd1a6690U, 0x3d419792bd40ed6dU, 0x3d346a48bd73d574U,
  0xbca39577bc98b7edU, 0xbc7ecb0fbd0f47f4U, 0x3c8e1c373cd34cc2U, 0xbc046dc8bca5b56eU,
  0x3d2aa5833cc5c4caU, 0xbd05d107bbacfcf8U, 0xbd151023bc75909fU, 0xbc6fa185bd5ab071U,
  0xbd045357bc297ce0U, 0x3ca3b7923c2357b3U, 0x3bd94ba23cb060adU, 0xbd34ec56bce49fc1U,
  0xbd6b01cfbd6f86bdU, 0xbb5928a4bbc35a28U, 0xbd04f6bcbd588db2U, 0x3c23777cbc5c7e14U,
  0xbc8fcf1ebd17825dU, 0xbc8c00dd3c8bf7b2U, 0x3d462d3fbcadd556U, 0xbd2971a1bd40773dU,
  0x3d04c6173ca68800U, 0x3ce4fe8bbc6279deU, 0xbbd2e630bd59499cU, 0xbd48232cbba652c8U,
  0x3c737b44bd4e4ebfU, 0x3cdb4c85bd216e67U, 0x3d0355ab3ceced68U, 0xbd52e676bd40da21U,
  0xbd65642bbc3bbb60U, 0x3d31908e3d50bfcdU, 0xbcfc78b8bcb99b67U, 0xbcadb616bc475f0fU,
  0xbd47590f3cd87a7dU, 0x3b65f46b3bddd400U, 0xbc8f96393d23794fU, 0x3c726b433b280e73U,
  0x3a9745a0bcffbc38U, 0x3cd2f30a3b82beb0U, 0x3d45189d3c78b424U, 0x3b3a233dbcbf9a1cU,
  0xbcd41fb5bd43620fU, 0x3d165403bd4ad367U, 0x3b652f0ebd6f978bU, 0x3bdcc6f8bd5b1a04U,
  0x3cf61e4a3ccc7c55U, 0x3c1a3cccbce2eab9U, 0x3d066cb93d50c337U, 0xbcc4746c3d44eaa3U,
  0x3ce5e336bd396074U, 0xbca97588bd393e86U, 0xbc044570bce8b4d5U, 0x3cc43ca63cb4eb0cU,
  0x3ca180cabb1a4a47U, 0x3d218ab3bd0e5becU, 0xbd534b453c7bbb44U, 0x3d08c5813d343171U,
  0xbd457b923c82d326U, 0x3cf1b6a5bc42eadbU, 0x3cfa57f8bcdeb804U, 0x3d185ababc9a9889U,
  0xbbae36db3d2bcd51U, 0xbc86b2b93c2f3494U, 0x3c2dbf41bceb5d6bU, 0xbbe829fabce0a138U,
  0xbd5c0078bc8ad330U, 0x3d0aec9f3c96907eU, 0x3d1e8520bc5ff0d4U, 0xbcdb3bb8bc94b4a1U,
  0xbd2dced0bc91b294U, 0xbd31ef503cc7f382U, 0xbd0b6d2b3d3e8a61U, 0x3c2dc9aa3c919736U,
  0xbcca2153bd6e083bU, 0x3c5ce6ffbd4ed875U, 0x3ce3ac7d3d0f36dbU, 0xbd46bc23bb41e4b0U,
  0x3cc67b0f3cef1012U, 0xbcff58fa3d1b469aU, 0x3c6bc9943cd01cb6U, 0xbd44f700bcb35848U,
  0xbc3797a0bcf9ecf9U, 0x3c8bb47dbbd5eb70U, 0x3d0ff93d3d006231U, 0xbd30ed93bd1ce501U,
  0xbc9f82aabd6a2d86U, 0xbd63f1ca3c8ecfd4U, 0xbd0580803d2bd111U, 0xbca269563b0452d0U,
  0xbce12bc2bd5ae6f9U, 0xb987f28d3d2baaf5U, 0xbd1d5fdbbd5e7810U, 0xbc8b03e33c4f2ed2U,
  0x3ba96dcebd1934a7U, 0x3ba5852e3cc933feU, 0x3c4946b5bae20a80U, 0xbd28a8293d0cdc79U,
  0xbd12670dbc927fb6U, 0x3c8ef6f1bbfb3f60U, 0xbd717350bd293a7dU, 0xbd191c16bc8689dbU,
  0xbc26f72c3d0b718dU, 0xbb3d5620bb8bfd70U, 0xbd3a50b73d05682dU, 0xbca3d8dfba98fc4bU,
  0xbbec5cdd3cd631a7U, 0xba80a076bd0137e5U, 0xbaddf3fcbd39f5ddU, 0xbd4d7d933d249d8dU,
  0x3c9e9cd13c9bdf94U, 0xbd09d91ebd1c79a9U, 0xbd043724bd43fbd4U, 0xbd5cc6eebca6d620U,
  0xbcb81789bd132b1aU, 0xbd3dcc0bbd0bb830U, 0x3b054930bd11e9fdU, 0x3c5f4464bc3926deU,
  0x3d18c125bcf81df7U, 0xbc55a7ac3bf18b1fU, 0x3d43a4e3bce06377U, 0x3b9ab4183d3abbe5U,
  0xbc0425483cdd3222U, 0x3d01e5c2bd75d365U, 0xbd5de2043d229544U, 0xbc9818913bf92480U,
  0x3d0d27693d31c79fU, 0xbd48f3453c4b884cU, 0x3b6634d4bd09d9c8U, 0xbc8f745c3d33ec00U,
  0xbd6f55cabd6bae8fU, 0x3cd9cd0dbd1509c7U, 0xbca8c9543cfe0e36U, 0x3d313700bbc7b976U,
  0xbd40f17dbb7abee0U, 0x3cd8faa63d3f4c3fU, 0xbd36598e3caafea8U, 0x3d4041c83d2edb82U,
  0x3d13e71fbc61f248U, 0xbd26207fbd5043a5U, 0xbd56c69e3d3f21bbU, 0xbcd2e44b3bffaf10U,
  0xbd171325bc1208b1U, 0xbd4bdc123a95aa10U, 0x3cde4fd6bc0374b8U, 0x3c0a2cc43d31a3a1U,
  0x3c69e7f93d1251d8U, 0xbcda5f953d120873U, 0x3b83b0c03d0082fbU, 0x3c8d6a663cc4f42eU,
  0xbcca8bf9b9cfe5b8U, 0x3bd1c3cc3d0c7419U, 0x3b9d7be03b9b1c40U, 0xbd54cedfbb86a4e8U,
  0x3d36d29fbb9ad9e0U, 0xbd47cf4ebd204d0aU, 0x3c7d5c5939313678U, 0x3bb2be8f3cacc72aU,
  0xbd3b0d30bbfb0e90U, 0xbd70dbc73cf27f0eU, 0x3cb73156bc90d460U, 0x3bb18b10bbe86f63U,
  0xbd52348d3c37edc4U, 0x3cce8077bc8477a2U, 0x3d2b1070bc418334U, 0xbd159dc1bd92a639U,
  0x3cc3c21a3c25e6c4U, 0x3d19a69d3cae49faU, 0x3cc56d923cd4c36eU, 0xbd02b126bc025a4dU,
  0xbd516d91bd6ac8bdU, 0xbd1f38753ca536a6U, 0x3b0e1de2bc519670U, 0xbccae5c4bcc459c4U,
  0x3c0f3d5d3c9504dbU, 0x3d24468b3ca40c5fU, 0x3d013033bb3c9500U, 0x3cc48e363b50fb20U,
  0xbc7120f7bd5387fbU, 0xbcadae113d38ecf7U, 0xbd463dadbbd5e13fU, 0x3925a400bc716cd9U,
  0xbcb9f4a2bcaad5b7U, 0xbd8cb8263c7fb43aU, 0x3d08792bbd2ed256U, 0xbd3c46c03c289979U,
  0x3d1e0455bd3414afU, 0xbcd4645bbccc7253U, 0x3c11706dbd6ae2d2U, 0xbd0e69fb3d3b09e1U,
  0x3c9f21c0bd1923feU, 0x3cceaac73c0eba44U, 0xbc0a5169bd59ac84U, 0x3ce0cc3b3b63e096U,
  0xbd21f01e3bd0b830U, 0xba5f3247bd3e337bU, 0xbd685e6bbd10fc06U, 0xbbbe8edbbd56e194U,
  0x3cbff81abc7f0b00U, 0x3c63f60c3d58b72fU, 0xbb226c403beca94bU, 0x3d0b1aa33c6377c9U,
  0xbb6039d63d3422ebU, 0x3b85d0b1bd251805U, 0xbd04aeffbcc4adf7U, 0xbd9a67f73c7c6ab4U,
  0xbc9bb45bbc848b3aU, 0x3ca22ad6bcef564dU, 0x3d535f833cf32393U, 0x3ba063c8bd1bfc83U,
  0xbb4a2e9bbcdd016cU, 0xbbab04ef3cf51ef6U, 0x3c97f4c63d29adedU, 0x3c1d2604b9dfb36bU,
  0xbd3824bdbda36145U, 0xbce72a43bd7cd076U, 0xbd1056bcbc016184U, 0xbcb295e23bbbd3cfU,
  0x3d560a833d3dc68dU, 0x3c7f020039adff7fU, 0xbc3c96e1bd0c23ebU, 0xbd1f8d1bbd3b13deU,
  0x3c1fcbd33cd0a902U, 0xbd26bab9bd36d0b7U, 0xbd3596aebb97f64aU, 0xbbc9f53c3cb9fd6dU,
  0xbd358aabbc65982cU, 0xbc7d1efd3c60b74cU, 0x3c88ed5c3d3c7d81U, 0xbc0e899fbd82660fU,
  0x3d29a293bbcf26c4U, 0x3c55d9dcbd4f020eU, 0x3c77517c3d2a8effU, 0x3cd8f95f3c362e23U,
  0xbd6e33edbd6066fbU, 0xbd36e6b8bd3f58f0U, 0x3cde71c1b9e5c6afU, 0xbd1c47d8bcf08196U,
  0x3b8decc4bd44a61aU, 0xb9eb0fccbcc02778U, 0xbd30747ebbc2ffa8U, 0x3cbc51b6bd123ac6U,
  0x3cf866fdbccf52bcU, 0xbd847d8abc826f04U, 0xbcc8460ebbda2cc8U, 0xbceda140bc3c9f89U,
  0xbceea670bd2b5a23U, 0x3c4378ef3ab07a2eU, 0x3cde6ddebcd633e3U, 0x3c29934cbc0f942cU,
  0x3a9a5a203cbf888aU, 0xbcbdf1f7bd1dc798U, 0xbca5d1ab3c585defU, 0x3ccbae63bcc7418bU,
  0xbd43afd2bd1e1b59U, 0xbd73e0093d256135U, 0xbd4e2f39bd1d0e15U, 0x3d04faba3cbc5f19U,
  0x3d2599453cfe62c2U, 0xbd032519bcb3bc1eU, 0x3ca87d613b360b30U, 0xbca218e2bda49695U,
  0x3ccde2e6b989a5c4U, 0x3d3fb155bd41dda1U, 0xbd1cd25a3d18d1deU, 0xbd5540dabd4b7569U,
  0x3c0766c8bd0199a1U, 0x3ba863983ba622b8U, 0x3b047c2fbcfc8c5cU, 0x3cf8a776bd151be6U,
  0x3d06f8633c3f486eU, 0x3d154ce53ca6c4beU, 0xbd1ed631bcacbbfcU, 0xba909dc0bc315b54U,
  0xbc02c2bb3d4376bfU, 0xbcec3fadbc6b784cU, 0xbd1de6ea3d5a4c1bU, 0x3d35674dbd3af5c2U,
  0xbd42aa56bd367051U, 0x3c104385bccdfabeU, 0x3c99f5f2bd3dd773U, 0x3c5aaa7cbd2e926eU,
  0xbd6029293cc1dedeU, 0x3d1e0d13bd39f7b0U, 0xbcf09551bd64072bU, 0x3cfada05bd3abcb2U,
  0x3cd600f3bd5a76edU, 0x3d2fd5d13cbdfdceU, 0xbcb18270bc640c15U, 0xbd30b2833d1326d7U,
  0xbd26151ebcdcf420U, 0xbd7ec915bcbc9eecU, 0xbcb88a65bc86992cU, 0xbcdfecc33c2a0fafU,
  0x3cb25bf2bccbfba4U, 0xbd4971eb3d034739U, 0x3d3011f5bd53a283U, 0x3c5b0ef23d0593fdU,
  0xbd0c6b9abd93bc13U, 0xbd09fe46bca788b3U, 0xbcc33bc0bba260e2U, 0xbd1224d6bc282378U,
  0xbd52a8debb8a6ff7U, 0x3ce3b827bad6650aU, 0x3d18cb6fbb9b1c91U, 0x3d48de65bcd74f60U,
  0xbd6d926fbcb54465U, 0x3c854fdf3cc9540aU, 0x3ceb3f66bb107650U, 0xbc97b688bc56804cU,
  0xbd44aa7b3d044b96U, 0xbcc62bbf3ca1f589U, 0x3d15f9e9bd136321U, 0xbd1358d53cf240feU,
  0xbd268f9c3cd0cc1eU, 0xbc997ae0bb724723U, 0x3d44c2873d090e39U, 0x3d18a0f3bd109264U,
  0x3d36edfd3c0e9b51U, 0xbd6a86c7bbdeb178U, 0x3d270e16bd01141fU, 0xbcf361e9bd38e587U,
  0xbbcc44283d471e6fU, 0x3c11448c3ba79dd0U, 0x3ce3010f3d54de9bU, 0xbc5899c63b646767U,
  0x3d13ef35bc5c180cU, 0xbb7e2db0bd40b993U, 0xbcd3df9abd3895e2U, 0x3b0928a4bc9c9ac0U,
  0xbd14d273bd16ea4dU, 0xbd05e47cbd5a4924U, 0xbbec9252bd3229eaU, 0x3c9123b6bc407598U,
  0xbcfe5bd93cf37833U, 0x3d3254d83ce457b7U, 0x3bfcbfc83d2bdbe1U, 0xbd4e26b5bd5d24e4U,
  0xbd722cd9bc32e8ccU, 0xbcfb9eba3d0787c1U, 0xbcd7640e3cc5baa6U, 0x3d0da94dbd907e89U,
  0xbca1feb63cbf0c15U, 0x3cb75236bd62b0f2U, 0xb9c5f100bcb05f58U, 0xbcfa9cf93d49e621U,
  0xbacce044bd148674U, 0xbc18992abd165092U, 0xbd950a92bd7d79cfU, 0xbd3c3ce33c54a37cU,
  0xbd4eeedfbb377800U, 0xbbaef70dbd4c7b42U, 0xbd0951bd3af29d00U, 0x3d3f043bbd681eb5U,
  0xbd19b7e33d077b47U, 0x3d0cf24e3b4e7d50U, 0x3c6e5caa3d1a3fe7U, 0x3d061b6cbbc3da55U,
  0xbcbe42373b502b50U, 0x3d56351b3bba7700U, 0xbd276ffebc197178U, 0xbd5dc7063cfcde4cU,
  0x3af8ab6d3d11c95fU, 0x3d533737bd057225U, 0xbcff221abd6dd09eU, 0xbc85bd643ac4dc20U,
  0x3c1979f53d425796U, 0xbc0b1bd53cfd8d58U, 0xbcbdd2863cad6606U, 0xbcd9cd043d258c25U,
  0xbc1df0de3d22a282U, 0xbd45d74f3cee8812U, 0x3c3f1e543c2a8a2cU, 0x3d0cfd193cac9180U,
  0x3c934d12bd2c46b6U, 0xbabedb91badf2616U, 0x3d5a6c173d4f2e21U, 0xbd4183cbbd43ab43U,
  0xbc93efe23d0bc7d9U, 0x3c99ad5dbcbf217fU, 0xbda034efbd68d965U, 0xbc2946c8bcec7b0bU,
  0xbcb737af3c9072ceU, 0x3c773fa63d427d6dU, 0xbca7fb383c3dd4acU, 0x3cbe4dd5bc8306ddU,
  0xbd2e1ce3bc649ca4U, 0x3bebdeac3c4fbdfcU, 0x3c0e0633bc04d9e8U, 0xbd65f6e3bdad49dbU,
  0x3cbc6f2ebd489be8U, 0x3d291447bb9a5388U, 0x3c2527ac3d185ab3U, 0xbd6d823fbc8d55d1U,
  0xbd668dcfbd3e3d70U, 0x3c6c8b24ba9cf2b2U, 0xbb5c53b33ca7b7fbU, 0xbc8c9e663c1b3984U,
  0x3b83b434bcd32ff2U, 0xbc32887d3d0f1fb6U, 0x3c1c9d3c3b9ebb38U, 0xbc15f2d83d004d83U,
  0xbcb0f8e73d2084ffU, 0xbcf629973c213524U, 0xbd182cc6bd3eaaf7U, 0x3c1d7becbd8ef363U,
  0xbc668e48394bb322U, 0xbc2515433ba667bfU, 0x3c1238c4bd1a0df8U, 0xbcbe83393c8cb052U,
  0xba9981a03d431cadU, 0xbc0ea930bc6197b2U, 0x3c5143d8bd34faeaU, 0xbbfab16ebd26112cU,
  0xbc8f75d7bc1d5ba8U, 0x3d1973123cce24e2U, 0xb9655b343cedf80aU, 0xbc5248523cc7ba09U,
  0x3d05b5abbc874b62U, 0xbc7904aa3d5324fdU, 0xbba91a2f3cddba6aU, 0xbc19e984bc1a69eeU,
  0x3d2bc8bdbcf8476bU, 0x3c2ad69cbb3f8f20U, 0x3d0112cf3c90f143U, 0xbd54ab37bd3f85dbU,
  0x3c3726af3c789e54U, 0xbb6f18c0bd094272U, 0xbd4c78babd0a7267U, 0x3a8c0e603c90628aU,
  0x3cbffb1c3c4627c1U, 0x3d31c5a3bd34c7cbU, 0x3d3878493c79ac4cU, 0xba79cfc0bd36f277U,
  0xbcbaf27c3afa59ceU, 0xbc8f15123d33c9c9U, 0xbd50d88a3ba55700U, 0xbcf0c4c9bbcf00e6U,
  0x3d53ea47bc8b0365U, 0x3d1bc132bbe3305bU, 0xbbc012383cdd1a6aU, 0xbc6b29c0bcc5fe16U,
  0x3c1b68d4bd1f15dcU, 0x3caacc5abb1449faU, 0xbc9d9a4abd0b344cU, 0xbd29cf003b0c6285U,
  0xbc910a8d3cbf92c2U, 0xbcd72977bd5851dcU, 0xbd301a8d3c192a4eU, 0x3d4252bcbc176805U,
  0xbc556173bce18f53U, 0xbaf348e6bb0ba8c0U, 0x3c60d71fbc93cce4U, 0xbcf0a23dbda48077U,
  0xbca8d8763cd80b16U, 0x3d429b07bd0f7e8dU, 0x3c92f64e3d407f31U, 0xbcf728a53cfb65f6U,
  0xbd7181333d1f9db1U, 0xbcc6e041bd179a2fU, 0x3d0895913ccee015U, 0xbc0b3204ba6ba900U,
  0x3c572587bd1f4196U, 0x3ccb72d33ae3550cU, 0xbcfed5883ceb97d6U, 0x3d3fb7a5bc89042aU,
  0xbcdb172fbd5cf13aU, 0x3cc453b53cb44726U, 0xbcb28be0bd3b8fcaU, 0xbd3a8df2bd4c59e9U,
  0x3c41af44bd324fa3U, 0xbb25945c3c70a299U, 0xbcb0cf70bd158cbcU, 0xbb89a7383cded93aU,
  0xbcdfdc52bd363891U, 0xbd3108643c42ec08U, 0xbc9ddc953cd135e7U, 0xbd16f59a3c3d7c9cU,
  0xbccf4eee3d0358ceU, 0x3c8694913d4ed53dU, 0xbc1f92f43ccf157cU, 0xbd4ad52f3cc3e755U,
  0x3d3d27123cc69dc2U, 0x3bdd45de3d1e7443U, 0x3c54709a3b94c8a8U, 0x3c5fe927bceaf2d7U,
  0x3be547c03d43e88fU, 0xbd2163aabd5361bfU, 0x3c1895943b33dc88U, 0x3bcdde243cac5958U,
  0xbd1b8a893cd5521dU, 0xbc872c90bd17f805U, 0xbd0a8fe6bcb7c5a7U, 0x3d2bfd01bd40e522U,
  0x3c797191bced9be6U, 0xbd5e9d323d0f90b9U, 0xbc1373d43d1c7882U, 0x3d2c270bbd512bdaU,
  0x3cf382833c7209e8U, 0x3cf2c430bc718968U, 0x3ba0f2c83c675f7cU, 0xbc32f9f0bced5fb9U,
  0xbd48189e3cee08b8U, 0xbd3ddf23bc095140U, 0xbd4309febccc97ffU, 0x3d49b439bc05d7baU,
  0x3cad1e423d4402b3U, 0x3c6d6be93d109596U, 0xbda856ccbd58eda0U, 0xbcd029f1bd0e66bdU,
  0xbcd496553d3d11d3U, 0xbcfa3243bd251f3eU, 0x3d1b93503d019c98U, 0xbd49b9aabd14a618U,
  0xbc29f115bc0497f8U, 0xbd3e2e8a3c68f5c4U, 0xbd3e4956bb3d4700U, 0xbd29ceecbd6e11e4U,
  0xbc76d4083cbf8ed2U, 0x3a096f40bd40412cU, 0x3cb74a4e3c91c3eaU, 0xbce6641bbd490737U,
  0x3d3995313cb68564U, 0x3d399ad3bcecf111U, 0x3ca50488bc26d30aU, 0x3c9a7852ba925380U,
  0xbbbf46e43955b2adU, 0xbda9d111bd443168U, 0xbd076394bd4b5dd1U, 0xbd44aead3c4e2e84U,
  0x3c153596bbd2e55eU, 0x3d020f97bd3d8311U, 0x3d00d551bcfbf25aU, 0x3c2c6e84bccb3cb7U,
  0x3be48168bc93a56dU, 0x3c78101ebcc7d030U, 0xbd3d63f2bbbf9bb0U, 0xbd0bb4d83c077030U,
  0xbd2c90523d573ed3U, 0x3d22fbc43b5008b3U, 0xbca19825bd47c136U, 0xbcda8308bb26e901U,
  0xbd186f0e3d2f3189U, 0xbd0f0e57bb792ec0U, 0xbc89733bbd410fd8U, 0xbcfe24553d43a1e4U,
  0xbcb48181bc8c951eU, 0xbd5ea8d33d321799U, 0x3c977d733d29e611U, 0xbba38050bd734b78U,
  0xbd4df3313ce0210eU, 0xbb70d040bccdce1eU, 0x3c5fcdf4bbc7fb7dU, 0x3ba3f40fbca55fabU,
  0xbd25c1bc3c3d64b2U, 0x3c2df6543d357ba1U, 0xbcd482a7bd08c0c2U, 0x3d3fdcb3bd26df31U,
  0xbd2c39893c1c20b7U, 0x3bd686adbca9ebc3U, 0x3d3b29e3bcc84e8eU, 0x3d4585813c0d4c34U,
  0x39d514173c4847aaU, 0xbc1b21383d1085b3U, 0xbd19e290b98ff180U, 0xbc4c0e2c3c2d9c2eU,
  0x3cbddadebd694f50U, 0xbd5d8186bd61a08eU, 0xbbad76c0bcf96aeaU, 0xbcc198d23d11beb3U,
  0xbd56b16fbc6b1b78U, 0xbc66d6a8bc8bf7f3U, 0xbd18a07ebd06b8dcU, 0x3ce66cf7bcd72999U,
  0xbd02b3c73cabfcfaU, 0xbba4c370bd29beb1U, 0xbce380dcbc2b9f52U, 0x3d20ce023c2175ffU,
  0xbca9a8733d31f399U, 0xbad5d1e1bcac7c40U, 0x3c0f68133d4e1443U, 0xbd1914efbcd2ea4bU,
  0x3c7419a4bb96dca0U, 0x3c8dab7e3b53d3b0U, 0xbd451372bd3e0e72U, 0xbc58bf603cd05e24U,
  0x3d102422bd59df79U, 0xbbc197f03d17c4d4U, 0x3cfcf4d8bcd6e1b0U, 0x3c8c5c5e3c55e414U,
  0x3d101dbd3cb0d337U, 0xbc948481bd83bbc2U, 0x3d176d51bcf67f21U, 0xbc3261bcbaa10a40U,
  0xbcf54d69bd1f2a90U, 0xbbe764f63c993b3eU, 0xbc87fa9c3d10d3a5U, 0xbd3158a0bd5caacfU,
  0xbd5d88d33c94f37bU, 0xbc9c0e973cb06a9dU, 0xbc1f3960bca0d2c4U, 0x3d0119a13ccc0c06U,
  0xbd2bac8dbcff1b68U, 0xbd06a562bcc268a5U, 0x3cae28fb3cc765b7U, 0x3ce3442ebd120deaU,
  0xbd640a22bd1fa81eU, 0x3c394495bc00159cU, 0x3d218f79bd15bce1U, 0xbd660cccbd55279bU,
  0x3c7b0697bd9a4356U, 0xbcfc30843ce4594aU, 0xbd4752a63d275d8dU, 0x3c009628bc9e4e0cU,
  0x3d044d03bca24b3eU, 0x3ce0d9a63d29c7e1U, 0x3c8ebda63d01707cU, 0xbcd4e5ab3be6e040U,
  0x3cfb7e143cae265cU, 0xbd407409ba803f42U, 0xbd137f0cbd572e65U, 0xbc973f6ebd39b029U,
  0xbc8e75e5bcf6537cU, 0xbd585bc23cbd7d07U, 0xbd5164e03ccbeb32U, 0xbd3809a63d45d5fdU,
  0xbcfa23b1bd2f2e80U, 0x3d2999c63cfc685eU, 0xbd7eef26bb9167d0U, 0xbcdbc7353c34db53U,
  0x3ca1a266bd3fbe0bU, 0xbd3bdc283d0ff225U, 0x3d35b545bd296d65U, 0xbd306cd6bd131787U,
  0xbc1ca94ebc70ac90U, 0xbd2268413ccf5e83U, 0x3d1d20fd3c9ce376U, 0xbc9cf8a93b0edce0U,
  0x3c8bbbe23d125c08U, 0xbd5e08a03c81c6f2U, 0x3d0131383ca58ed8U, 0xbaebae7e3acb468fU,
  0xbd43b2edbcab710eU, 0x3ca4193cbce36cb9U, 0x3c7eecfb3c021274U, 0xbcdb8013bd5fa65eU,
  0xbcf420b23cf5aef6U, 0x3d4c2563bc94bd6eU, 0x3bdd98e03c7809c4U, 0xbc38ee8cbc2ad36fU,
  0xbccec449bd50a166U, 0xbbb3f2803d48e909U, 0xbd71a4d5bd13a056U, 0xbc88b2bc3ca175a2U,
  0xbd199c603d102173U, 0xbcfcde583c8d5dd4U, 0x3c6fa454bce0d07dU, 0xbc668044bcdfb1b6U,
  0x3c118e1dbcbc926eU, 0x3d17d85a3d23b043U, 0xbd1279a0bd345ce0U, 0xbcf0f9b23bb5d60cU,
  0xbd060322bd4cda1dU, 0xbbff1b573d238d6fU, 0xbced6092bd08b593U, 0x3d597921bc318b90U,
  0x3c312c5e3d5004bdU, 0x3d3c39923cc5d310U, 0x3d19f183bd05dad9U, 0xbc69cf0ebcae4a32U,
  0xbbfe1ad6ba2a3486U, 0x3d367a87bd53659eU, 0xbc3e14623d28967bU, 0xbd092468bbd08e03U,
  0xbd45cc47bc69e7a4U, 0x3d3ebd16bcfe9820U, 0x3ced6fb13bee6978U, 0x3c39c196bc841d3dU,
  0x3d536af9bcf5635fU, 0xbd4ebaa6bc7af8b0U, 0xbd06d1f43b180d7eU, 0xbcb36de83d372ad4U,
  0x3d3f7d213c4521bbU, 0xbc1e77f03c2fd7f4U, 0xbd27c4ce3d13c3e4U, 0xbabbd140bd13067eU,
  0xbc6018db3d345148U, 0x3c4e2a98ba377725U, 0x3c807bf23cfc04ddU, 0xbcd3f8f63c8cfab2U,
  0x3cecc60fbb0375e0U, 0xbcaa4dd23cf7ddeeU, 0x3cb61956bd290d10U, 0x3cf7a6e23caaac58U,
  0xbd2cc206bcf95aa2U, 0x3ceca1ddbc9ef376U, 0xbd5ac0aa3d41e609U, 0x3cc909f6bd19106eU,
  0x3c07559ebd3cebd6U, 0x3ca39a023c52d0d2U, 0xbd4117913d08a45fU, 0xbcd950803d0f4d7dU,
  0x3bed3954bbba6729U, 0xbcf6d4bcbcc37058U, 0xbcab61383be8f20aU, 0xbd53d76d3cc1aa4cU,
  0x3a832632bc784484U, 0xbd24100a3c2c76e4U, 0xbd04afa2b8f42a00U, 0xbba16965bd7fe808U,
  0xbca7ab5cbd0334c8U, 0xbcb76fe6bcbbbc14U, 0xbd0788eabcfa1938U, 0x3bca27a4bd493f3dU,
  0xbd2b24e33c076985U, 0xbd0a82703b839048U, 0xbc30f1133cfe75aaU, 0xbc89a04c3d139f51U,
  0x3d214217bc0f1fb2U, 0xbcf338f0baecd258U, 0x3d4a40653d163652U, 0xbd17f73a3c972ffaU,
  0x3bd797f2bcaac990U, 0x3d15ba31bcd77243U, 0xbd2d52e13d38f1adU, 0x3c8b7db6bc5c44baU,
  0x3bd448103d2b485cU, 0x3c85948e3d2d9773U, 0xbd4ac5eabd095f81U, 0xbb1abab03c9dadaaU,
  0xbc944c10bc6a9cd0U, 0x3d3a8d083ccdab9aU, 0x3d2d3e8dbd57d4ecU, 0xbaffe00c3d5b9e87U,
  0xbce2448bbcfdc012U, 0x3cc611d8bc5cf280U, 0x3c9628e5bd3a9c0eU, 0x3cc4c446bcb82101U,
  0x3d31aff73d05102dU, 0xbcf6137bbc7b85f8U, 0xbcda20b23cb900f2U, 0x3aa6faaabd776abfU,
  0x3b178fe0bc42bf08U, 0xbb820e583c9256eeU, 0x3c85cc323cc68675U, 0xbc50bb44bbe552d0U,
  0xbd62bb65bd2c0713U, 0x3cc643563d536423U, 0xbcb9ebc8bc527775U, 0x3b83ac68bd43f458U,
  0xbb1dbeeebcd042f3U, 0x3d0939cabd507480U, 0x3d45f811bd0c9375U, 0xbbd4e3c0bc74be20U,
  0xbc1309fabbe8e53cU, 0xbd1c84e63c3d5e94U, 0xbd1855843d162bf7U, 0xbccebd1dbd6e996aU,
  0xbcb00b7abc401375U, 0x3cafc564bcfb089cU, 0x37ec7000bd0ac7c6U, 0xbd02bc22baa57d8eU,
  0x3afe8a843d4b95a7U, 0x3ca8508ebb9770e0U, 0x3cdace26bd874e49U, 0xbc28b7cdbc579c80U,
  0xbc45b815bd299bd2U, 0x3d19c779bd47cd38U, 0x3c8dbb5fbc909915U, 0x3d3b688cbbcbb6f5U,
  0x3d1a311e3cbeb81bU, 0xbd55a4b1bd066f0dU, 0x3b3529d1bd25e898U, 0x3c6e36ff3b911575U,
  0x3cbce8e23c88ae36U, 0xbd134cb23c4595e4U, 0x3d43b6553caa93f7U, 0x3c69084a3c7b577fU,
  0xbd09a1b9bd36c7d4U, 0x3d00fb933d5872bdU, 0x3cf5daaf3d0d9c29U, 0xba897ca0bc5c6164U,
  0xbcafc170bc1967e5U, 0xbd62676dbb21e415U, 0xbd475272ba40ddc0U, 0xbd24859eba0b9e80U,
  0xbd5992743d854fa9U, 0x3d267820bdb3c763U, 0x3d205bafbcf1f6d6U, 0xbcfbb704be41b624U,
  0x3d02d028bd18e002U, 0x3c83004f3c46d3dbU, 0x3b30338ebf08f8f3U, 0xbd58e4c1bea3f1bfU,
  0x3d30da143cac9a51U, 0xbd4899dc3e4869d0U, 0xbd17e0763e72ace1U, 0xbcb7fe09befe4cc0U,
  0xbc3ad9253c0e104aU, 0xbe0638bbbd2c210cU, 0xbcff0d38be01c9c5U, 0x3c8569ebbcc0a3e3U,
  0x3cb1b75cba4ab353U, 0xbd67c385bcb36642U, 0x3e44e4ba3b56d84eU, 0xbb11e9b4c03745d9U,
  0xbd23da123db1a928U, 0xbd1378d6bb89cc08U, 0xbeaac8e5bd218648U, 0xbcec898d3c96d780U,
  0x3c5c5a2cbc2a3496U, 0xbd7498c5bd77ca1aU, 0xbd73dbe2bda098a8U, 0xbc6bfb87bc5328f8U,
  0x3cdbba13bd7f64caU, 0x3f0f0a413c34eb26U, 0xbd4df12cbc07e8c1U, 0xbedbfccdbd3d1f07U,
  0x3cb4926cbbc1219bU, 0xbc0fdaa7bcb2090eU, 0xbd30ad69bd2ced03U, 0xbce28884be8af6cfU,
  0x3cc1ae1dbd6cdcdaU, 0x3cfa3771bcb9ab44U, 0x3d027b05beb8ed10U, 0xbd4b20fcbe87d3fbU,
  0xbd139f61bb9a1970U, 0xbd374e46bdb50e82U, 0x3c66498d3e99f003U, 0xbd80d866bebd72acU,
  0xbc3fb418bd59ae37U, 0xbd2c9385bcd777e0U, 0xbd0253dabdd97907U, 0xbd44d3efbd8126d6U,
  0xbcabb1d33d691304U, 0xbd970263bdec19f9U, 0xbe3e449d3c114ab7U, 0x3c5c29bdc0589213U,
  0x3ac8b28a3c29a703U, 0xbd37acf3bce23c20U, 0xbe852223bd719e55U, 0xbd700ce1bc81d6a5U,
  0xbd35fed0bad9e738U, 0xbc90aa073cb4bf26U, 0xbaa4d362bb98780cU, 0x3c4e01a8bc73c433U,
  0x3d65d7babd62136fU, 0x3f8eeaf4bd943798U, 0x3bcb0ceabc64121fU, 0xbeccd3083cf5fafeU,
  0xbc8569bcbd1da106U, 0x3dad7e59bddf70b1U, 0x3cf43d313de695f3U, 0xbbea8758bf07fe70U,
  0xbcd22a79bd5e0aebU, 0x3c9e71cdbd6713feU, 0xbd19220cbe989997U, 0xbc3423e8be35d962U,
  0xbd1a9f44bc8c210eU, 0xbd4da17dbe05641cU, 0xbd37521e3e932eacU, 0x3a83734cbeceb1f5U,
  0xbcaa35cdbd4e0e0bU, 0xbd3294713d3bbf9cU, 0xbc2cc9cabdcdb5e3U, 0xbdb40bdebd6c46bfU,
  0xbc48075ebb1d037eU, 0xbcee0cd4be6ad41cU, 0xbf33b228bd01875cU, 0xbc8c6878c08465f4U,
  0x3cc1b872be5e04cbU, 0xbd46425bbcfa4574U, 0xbdd658b5bdcbc395U, 0xbcc6a2b0bd504cffU,
  0x3d6a15a6bc0114d5U, 0xbcc9d107bcf19307U, 0xbdc2fa3e3c72f24bU, 0x3d2a85343c129b5aU,
  0x3d339501becb052aU, 0x3fa36eb73b9240c4U, 0x3c9d5f2cbd638605U, 0x3b7e008b3d2b6a98U,
  0xbaca0842bcc9a4dfU, 0x3d108450bdba39aaU, 0xbb72cadfbc34f24eU, 0xbbe47e85bf171478U,
  0xbc55de24bc8d083eU, 0xbc475ac7bd05a6abU, 0xbd37b326be8aeffcU, 0x3d094530bed6d0f4U,
  0xbab70d83bd010b12U, 0xbd470ef7be2ec513U, 0xbc794d503e4a36b7U, 0x3d43f65dbf2cdc12U,
  0xbc54c0b83cb7b1d7U, 0x3d03143a3d0c8428U, 0xbd3737b5bd461da1U, 0xbe085325bc90a17fU,
  0xbd65ca0b3d11f246U, 0xbd0d047bbdb099ddU, 0xbf2bef0fbd0728eaU, 0x3c4a7bd1c0a37ff5U,
  0xbd633167bdf4be45U, 0xbd669211bbe0bd2cU, 0xbe570d543ce6f07eU, 0xbc97f0523d0e8b1aU,
  0x3d0b2763bdbe7f22U, 0xbcaeaed9bd2453e1U, 0xbd5f95223c0aadcbU, 0xbca6a31e3c7e1d37U,
  0x3b91a153be8e5126U, 0x3fee953dba2222a0U, 0xbd3916bfbd74f279U, 0xbf4983fe3bdf9cb8U,
  0x3d14917fbd2f7ae3U, 0x3d9a19a7bcf87533U, 0xbad6cc9e3c65bc8cU, 0xbd40b7a7bf3f716eU,
  0xbc3ed2283bd2ff6bU, 0xbda6e53ebd4af073U, 0xbd27d844be9287e9U, 0x3d1028f0be7777ecU,
  0x3d2377c2bd5c6478U, 0x3d300047bd7f77a7U, 0xbd0df7cc3e3107e8U, 0x3c9ddbcebf87ae20U,
  0xbd24dff6bcaacbe2U, 0x3d0846453cd32a5cU, 0x3d0f8ca93cb898aaU, 0xbd96fe66bd5378e9U,
  0x3ca0d79abd30fbd8U, 0xbcf130553c7a11e7U, 0xbf48cb10bcd93479U, 0xbce37cffc096a8b6U,
  0x3d246238be3f29d6U, 0xbca1b264bcb74a18U, 0xbdba6a5ebd34a4dfU, 0xbccc7ee0bd730f1aU,
  0xbd0fdf323ceb4462U, 0xbd494151bd58136eU, 0xbca337863cc595c1U, 0x3d5b843d3d44a316U,
  0x3d65d052be9ef656U, 0x4005cdda3bdfc728U, 0x3cf168013d02fc50U, 0xc017e39ebbc8610eU,
  0xbcba3c983c39aa46U, 0xbb151562bc0a852fU, 0xbca26d21bd5e6943U, 0xbd5418ccbead7dccU,
  0x3c79f99c3d4102d8U, 0xbccb096e3d10b34aU, 0x3d301199bf0a9e47U, 0x3d32803abd0c06f3U,
  0x3c573b943d1479aaU, 0x3cf5a687bda57393U, 0xbca0f38d3dd30b3bU, 0xbd53b7bfbfa5fc22U,
  0x3c6f27f8bd3cb176U, 0x3bb29760bd49349dU, 0xbcf8cad7bc01a671U, 0xbcea4f753ccacb6aU,
  0x3ce9889f3cd157ceU, 0xbd83786f3ce55a92U, 0xbf18518f3d3d6e23U, 0xbd94aa06c088b128U,
  0xbd573598be88ecf3U, 0xbd184415bd42aaccU, 0xbc94a9b4bd98505eU, 0xbc6454cd3ca3df61U,
  0x3d04d20d3c7e50fbU, 0x3c753982bd14ba7dU, 0x3d010e0cbd936354U, 0xbd0d997cbd1e59d0U,
  0xbd795aeabf218615U, 0x4006c4fabbbc4bbbU, 0x3c4ef746bd2b58d4U, 0xc053e0193c9c3f18U,
  0xbcc344aebcb8b355U, 0xbc9401f73d9d760dU, 0x3ce311b5be0f496aU, 0xbd316422be49f38bU,
  0x3d4406093c17d1cdU, 0x3d7b332abd74a169U, 0x3d39913dbf1612a2U, 0xbcdaf0653e269ff6U,
  0x3c36f46d3d311699U, 0xbd01f3b2bd9561caU, 0xbd80a2103dd22ddeU, 0xbc3228aebf9ea6bcU,
  0xbd1d958bbb6fcc25U, 0xbd029c153cec3815U, 0x3d3e0dffbd58d9d6U, 0xbc82c895bc05470fU,
  0xbd46e2ce3a819779U, 0xbc827ec8bd984da8U, 0xbf18e4433c3a427bU, 0x3c1634e8c08afb87U,
  0xbc8e5f40be8bc855U, 0xbbe614ff3d572753U, 0xbe08570d3c17afb2U, 0x3c2eabe1bc357458U,
  0xbd424887bd76f6afU, 0x3d02d0333d018ed8U, 0x3ca893edbd991563U, 0x3c6df544bce96d74U,
  0xbdd6864cbf5937d2U, 0x4006a3efbcd9e551U, 0x3cd9edfb3b44e4e3U, 0xc05fdc5dbd2c4b9aU,
  0xbc84d1e9bce7183eU, 0x3c0c3a313c88dafcU, 0xbb7a8d4ebe196eddU, 0x3cac6975beb1c2eaU,
  0x3cb12accbc8e07aaU, 0xbca9025c3cd1935bU, 0xbd632eecbf290439U, 0x3c8bc5083e945163U,
  0x3cdf1db43cce3522U, 0x3cd83bc6be106fdeU, 0x3c8217ac3dd21b7eU, 0xbce2717fbf920fb6U,
  0xbd3fe495bd0921ecU, 0xbbab4f50bbd38eb2U, 0x3d87241e3cf45db6U, 0xbd8bf3d13c44151eU,
  0x3cfe06843d4a8c87U, 0x3d6f76febe2f5ab2U, 0xbef552f13b499fc9U, 0xbd1f4affc0707bd7U,
  0xbd337749be35a30eU, 0x3c62e3d53b876e08U, 0xbe1bab78bca72bd9U, 0x3c8ee6333bfe5ed3U,
  0xb9e4e8d5bd00175bU, 0xbd37f56abd477e9bU, 0xbd82072fbd053a3bU, 0x3c8f220cba892685U,
  0xbd1ce985bf1c07bdU, 0x3ff0f080bd5e1ee2U, 0x3d03d77b3d22e7baU, 0xc041f0ef3b917a9aU,
  0xbd4a5e913bd5d293U, 0x3c3432ee3c84e966U, 0xbd68f47cbde3394dU, 0x3ce5e96bbea2d902U,
  0xbd0e2bba3cc0d9e1U, 0xbd62c36abd5a9432U, 0x3bf5739bbeac451fU, 0xbcc743073f48330eU,
  0xbbff807cbc3d9590U, 0xbd013cfabd21a236U, 0xbd1518f73e11ed48U, 0xbd57b841bfa13370U,
  0xbd66590bbb4acfc0U, 0xbdaa9735bd39352eU, 0x3b89eab9bd51694dU, 0xbc952922bd1cd1f8U,
  0x3b796a233cd2d9b8U, 0xbc8d74e1bdb5b89fU, 0xbecd42a7bd57a8eaU, 0x3d51dea9c04a1fe3U,
  0x3c8c17d63c5eb057U, 0xbd4139b5bc82c112U, 0xbdbbe085bd98b474U, 0xbd6bd06a3d096ec3U,
  0xbd34814fbdaf5aa8U, 0xbc24c680bc33ffc6U, 0xbdc2d00fbe18e158U, 0x3d0591d7bbc54607U,
  0xbcc7154fbeb1f3cbU, 0x3fd1705dbd11a7ecU, 0xbd3279b3ba779313U, 0xc0248a60bcb9167fU,
  0xbc930279bc63d241U, 0xbce93dffbd63176aU, 0xbc76a295bdd436aaU, 0xbcff7c65bf069baeU,
  0xbd038ab43bea2b91U, 0x3d16d6bcbc44265bU, 0xbd6cf4d1bea24b16U, 0x3c89a2a93f4f04bbU,
  0x3ce5e94f3b6851a1U, 0xbcc6967a3cdd08ceU, 0xbda622093dfc1fcbU, 0x3cc7b226bfaf0659U,
  0xbcb71bd4bd0e78caU, 0xbcf793e7bce71e02U, 0xbd89ee65bd08ab7bU, 0xbc863600bd6e4066U,
  0xbd05d4eabd2f7b56U, 0xbd0642fcbc721379U, 0xbf33a2f23ce0c155U, 0x3c78f654c067c991U,
  0xbd44916cbdc30677U, 0xbd1c0f4fbccd1f73U, 0x3cbbc4e6bd14986cU, 0x3c9359d3bd27a768U,
  0x3cfb81cd3d3a0a00U, 0xbd016e9cbba94e50U, 0xbcd19e75bd460fcbU, 0xbb32fa8ebce50303U,
  0xbd863adcbf25e2cdU, 0x3ff9c13dbd278f3eU, 0x3c17b948bc7d4e97U, 0xc030d911bd6ed606U,
  0xbd1188fe3ce775b8U, 0x3c269cf23c88a4f3U, 0x3d8fa8b7bd8d5994U, 0x38bd60edbf7a21bbU,
  0x3be784de3d399636U, 0x3b365871bdb3aadaU, 0x3b0afbfabe36883bU, 0x3cc60a483f7bc94bU,
  0xbd49aa483d3785c4U, 0xbbc7bbcabc99c47cU, 0xbd7a376a3d7b6d00U, 0xbd6148b8bf89df2aU,
  0x3d141c1f3d2dd40aU, 0x3d7036a63c1ce604U, 0xbcf599eebd20f767U, 0xbb9c4f1cbd51f0edU,
  0xbd43e7b9bc3bd77dU, 0xbca5e0723d52808cU, 0xbf32d6053b824ca0U, 0x3cdf7380c05eba02U,
  0x3ce6f70b3d3dc19cU, 0x3c230f54bcb3ccd8U, 0xbd001be3bd7dd815U, 0x3c3b5c55bcb9e048U,
  0x3d8e79483db4f557U, 0x3c8b2c993c0ec57dU, 0xbcd10a86bd1a6fc3U, 0xbcf3e498bce3ab94U,
  0x3d770129bee33bbbU, 0x3fd32e3fbcee0303U, 0x3bcf35bf3d0974aaU, 0xc01f75b4bae5ff96U,
  0x3c88cbdf3bee08f9U, 0x3ca9e3fe3d09d156U, 0xb9268644bd833c05U, 0x3ca0988bbf82bc2eU,
  0xba15c3123d1bada3U, 0x3cf7f279bdc79f45U, 0xba1bb288bd945423U, 0x3c4f4c6a3f2c7e43U,
  0xbc0b582f3d1f18dcU, 0x3d25785e3d94d54aU, 0xbd4aaf4a3c623c8fU, 0x3d7c96b1bf0bdbcfU,
  0x3cf83df53d407497U, 0xbcafaa743d1c586aU, 0x3bcea1403d164ea7U, 0x3d890ef8bd185f5fU,
  0x3b8b376bbcaa0da3U, 0xbd0fc1073d1657afU, 0xbea8f5c13d1d0744U, 0x3ce90dc0c062e2faU,
  0xbd5b3a6b3e957e9eU, 0xbc5dcda4bd51837cU, 0xba3b2de3bd349dedU, 0x3bc16d20bd585cecU,
  0x3d5bba733d481201U, 0xbd2874823d3c2227U, 0x3c90cf7fbcf79383U, 0xbd773a693c5dc376U,
  0x3db6d375bf1fd49eU, 0x3fce039c3d3a79ecU, 0xbb9db3bb3d0d94e3U, 0xc01ff39d3c90c525U,
  0xbc92c4f93d07f3c5U, 0xbc270df7bc4abb39U, 0x3db7ce8cbd85edebU, 0xbd69187cbfb68fe9U,
  0x3d2e4a84bcc7fdf7U, 0x3d17c3d9bd9cc8cfU, 0xbcd50d4ebea28788U, 0x3d5e76d73ebd0c40U,
  0xbc0f42403c6071eeU, 0xbd8913b1be15619dU, 0x3cd3fd633d2bbec4U, 0x3cab879ebf2b7be1U,
  0x3d766b21bd25a859U, 0x3d515f55bd0a270aU, 0x3d15280abdd3793fU, 0xbc9e3a35bd8e9835U,
  0xbd046ee4bcaaeb16U, 0x3ce0b3623ce885aeU, 0xbee4e656bcdfdf08U, 0xbd0fe6c9c051bab1U,
  0xbb11479b3e885ef8U, 0xbd53c8a43d17953cU, 0xbdf98feeba013149U, 0x3c847d943c579c91U,
  0xbbf09cc33cbcdcfeU, 0x3c9db1a93c9a910cU, 0x3bd53e7abbaf7dcaU, 0x3d08aef3bcc52338U,
  0x3e0bdcdfbf119664U, 0x3fdae375bcfe68d5U, 0x3d1613f2bcc40b08U, 0xc031da513cec696fU,
  0xbd423a9cbd956e3eU, 0xbd5ed7093d48f3aeU, 0x3d6b60fdbd657ee9U, 0x3d337fd1bfbd5284U,
  0x3b8be4fabd312dfbU, 0xbc054742bd5422feU, 0xbd750aa0be7d855eU, 0xbd09fd8a3d67655eU,
  0x3d6290c53ccee250U, 0xbd2c58b7bda59af2U, 0xbd43b1213ddfd771U, 0x3d3f271fbf3098d6U,
  0xbcc8feb6bbc9a3d9U, 0x3c09b83cbd0e6e93U, 0x3c1052bebd6684d0U, 0x3d0cedd33c9ddea3U,
  0x3ca2e056bd36140cU, 0xbc165b97bd1bb872U, 0xbe7894e8bd4b0786U, 0xbcbef194c04a3a75U,
  0x3d1ee3a83eb90d81U, 0xbd637c5e3d4a3733U, 0xbdf8b9f73b340992U, 0x3c2838fbbd1087adU,
  0x3d117ad33d26633dU, 0xbd64e7313d0d35ceU, 0xbdb611dcbd773b9aU, 0x3ba97246ba6b0e34U,
  0xbd28f131bf434e99U, 0x3fcb6515bd137950U, 0x3cedd6753d37e0daU, 0xc039e5233c8055d6U,
  0x3c65d984bd80aad1U, 0xbd1d8301bcea8288U, 0xbb28054cbdd74128U, 0x3d24722abfa09489U,
  0xbcc4133f3cf1a203U, 0xbd51c7c6bdc5908fU, 0xbd6c16e4be7234e8U, 0x3d654e02bc9243abU,
  0xbba84e793ce12f52U, 0x3d9348e9be084396U, 0xbcd609863e11642eU, 0xbdb4caeabf2f160bU,
  0xbcf501223d4e4510U, 0xbd4f658abd12be61U, 0xbd3bc66ebdfe81ccU, 0xbd814f43bbd23151U,
  0x3d4b29f6bd2f0e56U, 0xbd253e08be633e72U, 0xbe542b76bd205d6eU, 0xbd539980c0836500U,
  0x3d243ad23ee59e5aU, 0x3cefbeffbd23e22eU, 0xbe871b99bd898781U, 0x3ce52169bca176d5U,
  0x39a5bd6dbd1b48d5U, 0x3d1b66a9bd70af38U, 0xbd859c47bd74c4e6U, 0x3ce69ec6bd019d42U,
  0xbceb06d7bf05763eU, 0x3f8616d53c524334U, 0xbc555e07bbdcc647U, 0xbfafc61ebcd41cafU,
  0x3cdde0d3bd4844eeU, 0xbb25193ebda0bf7eU, 0x3b904b0bbdd67248U, 0x3ca3cb7ebf40d2ddU,
  0x3d2617a73c93688fU, 0x3ca5cefdbd5c9acdU, 0x3b8a676ebeb73f4fU, 0xbb895aae3dd1f576U,
  0x3d03b48d3d11bc27U, 0x3d5219b7bdc14d1eU, 0xbcc413253e022303U, 0x3b88c40dbf25eec0U,
  0x3d2b2d97bc07ab2fU, 0xbd8f64943c85dc99U, 0xbcf436f0be03079aU, 0xbd8311a53cb9b91aU,
  0xbd5b13f0bd1ff397U, 0x3c963da6be125982U, 0xbec461a8bc57926aU, 0x3cd3dfeac08f148cU,
  0x3d3f8a1c3f23adbdU, 0x3b5f44d7bd34117dU, 0xbe6448393d25ff74U, 0xbd084b3c3c3847cdU,
  0xbc9fbb573c818b1aU, 0xbd0f001cbcd6d30dU, 0xbd23602cbdb7d893U, 0xbd34a69a3ab62e8eU,
  0xbd144aaebeeec94aU, 0x3f698754bcfbbf73U, 0x3d43001bbd3b4781U, 0xbebca4f93cdde40aU,
  0x3bb2ba23bd59ad60U, 0xbd44e32fbcdb38beU, 0x3d571adfbdc14539U, 0xbc801e35bf1b42f6U,
  0xbcc1e327bc20c4f2U, 0x3b0d1759bdf906d6U, 0x3cf4a4cdbe99fc02U, 0x3d2796983e9720a3U,
  0xbc091c78bd6a3160U, 0xbcfd60f4bd3632fbU, 0x3ccbba883dfaef3bU, 0x3c92a2ebbf0bc0d6U,
  0xbd0c616cbd2f4397U, 0xbdef3f97bd08e9f5U, 0x3cb330a8bdc42184U, 0xbb8a38dc3cc68cd3U,
  0x3cd48e9a3d5661b8U, 0x3ad8d2c3be2d9f0dU, 0xbe3cb3513c160aa2U, 0xbc8513c3c07e76c7U,
  0x3c73d9ad3f09bf3fU, 0xbcc58d3a3d4854e7U, 0xbe9ce443bd247720U, 0x3bfef1e23b05cc34U,
  0x3c85e1bbbc868a09U, 0x3d12f0e73d3133eeU, 0x3d0ed6b3bc59ad42U, 0x3bd4336abad26967U,
  0xbd125473beb96134U, 0x3ece9235bca6ad8cU, 0x3d5359ccbd6ee3caU, 0x3d0f68f7bcea4ea9U,
  0x3bb312be3c05c45cU, 0xbd7f57d43cdd6553U, 0xbbe082ecbdf3aec0U, 0xbcdf0cf7be8c5f47U,
  0x3cb8b93d3d14d82bU, 0xbbde4781bd2027e5U, 0x3c998aa4be905e66U, 0x3d47c2953e585190U,
  0xbd010f323c775699U, 0xbd0c077fbeaf41afU, 0xbdb9a0cb3d9ad24aU, 0x3a37e27bbed89b9cU,
  0xbcd71413bccbc550U, 0xbde4da13bd0aedd1U, 0x3d3901c4bdad7c30U, 0xbd2f2897bd073329U,
  0xbcd313a33d049effU, 0xbbd4dd5dbe2dc1ceU, 0xbdd092723c382aa8U, 0x3ca180bbc03df628U,
  0x3d250dba3f106a72U, 0x3d07b158bd4e2acfU, 0xbee7fe3cbcb62a32U, 0xbc887ea4bd1119deU,
  0x3d338cdbbd330f26U, 0xbc80a40dbd3098e2U, 0xbda857eabd53445dU, 0xbcbe47e7bd10501bU,
  0xbe019426bf070fc6U, 0x3e2d6edcbdf4cc52U, 0xbd243cc6bd2e79a0U, 0xbdd177d03d186d97U,
  0x3c37bbf8bd52e376U, 0xbcf508a13dc46627U, 0x3baf2692bcee936eU, 0xbc3f4435be9feb64U,
  0x3bdf43bdba97fbacU, 0xbc9e2c3dbd31e429U, 0xbc8537e2bf3ceb18U, 0x3be206883ec84622U,
  0xbd570e93bc6014deU, 0xbd0c7af2beb7b0efU, 0xbd12ec0f3b49e221U, 0x3d2bae5dbe4e7889U,
  0x3d53ec7abd15cf3fU, 0x3d1473353c86f6b2U, 0x3d1cbdc2bdc53aa3U, 0xbd4c15babc1d4d7bU,
  0x3ccd4cf9bc92bc83U, 0x3cece81fbe7799f3U, 0x3d8c8e93bcd54406U, 0xbc13e55dbfda202eU,
  0x3c1612763ec43598U, 0xbd0fea383d090a33U, 0xbe488b2a3d1467c2U, 0x3b07e6a53d169057U,
  0x3d53c36ebccc934dU, 0x3c75c5f3bc4766beU, 0xbcf1bbbabde5453cU, 0x3cca877e3cdcb304U,
  0xbcd431e6beae9347U, 0xbe2bc4a83d388016U, 0x3ad098f03bf7b694U, 0xbe7f177e3c83b43aU,
  0xbb97aa57bd387955U, 0x3db38a633c077e52U, 0x3d8278f8bd8202c2U, 0xbd13c9abbea595f5U,
  0x3d2ccffcbc781591U, 0x3c7c15bcbd82f869U, 0xbd2f142fbf243f03U, 0x3d3ef75a3ecb3076U,
  0x3c33b5db3bb0dff7U, 0xbd72b2b0be3665b8U, 0xbce4f64fbc805d43U, 0xbd002a8fbea307f8U,
  0xbc0be7febd3c494eU, 0xbc815136bd190bfcU, 0x3d0f065abe059962U, 0xbd17c9e7bd134e9eU,
  0xbd1bc9f0bbb824d1U, 0xba510b54beeb6fb4U, 0x3ecaf15abb80a220U, 0xbcf67e32bfae1c1eU,
  0xbd08618c3eaf0cc9U, 0x3d225f21bbc06958U, 0xbe677d503d7942bfU, 0xbd062713bd421888U,
  0x3c216c8fbc6c699aU, 0xbd07c83ebc8147acU, 0xbcffd45bbc1f0e8fU, 0x3d3c42cdbd1f1ad7U,
  0x3c8ed356bd7b9036U, 0xbf2bfd603d3e10b3U, 0x3ce15f4fbd80931aU, 0xbe832de53d43617bU,
  0x3d0856093d2143eaU, 0x3d12b448bd6832c5U, 0xbc370080bd5ad0beU, 0xbd1a2d06bf164a5eU,
  0xbd5b71f6bd09867bU, 0x3bd83d72bdda6f88U, 0x3cc362c2bf42700cU, 0x3c54edec3eeebac9U,
  0xbc9595fabc39e269U, 0x3ca4fd1fbeb5299fU, 0xbc9a4b57bd973990U, 0x3b4e48c8be5203d5U,
  0xbcb4e179bd458cf2U, 0xbd1be057bc13359cU, 0xbd338c87bde68109U, 0x3cfe720ebb58da2eU,
  0x3c64e1d8bc60cdb2U, 0xbd77a4e0be9ee69dU, 0x3f02e9233c7cf20cU, 0x3cd8491dbfc3f63bU,
  0xbd1cd4373ebbb395U, 0x3cf5cce1bcb48a34U, 0xbf1a22853d0cdee1U, 0x3c24aef43c054cc2U,
  0xbd786199bc441fe9U, 0x3c763155bcf887d0U, 0xbd9a07b3bda23024U, 0xbc816b483d4ab68cU,
  0x3e17a69a3e8579f9U, 0xbf5ee4fcbd49f4a4U, 0x3a25b6f43bfedc58U, 0xbecfaaad3d2bb57aU,
  0x3cb222323cbec1e1U, 0xbd49fd9d3cfeae55U, 0x38b2b364bd430a33U, 0xbd259e8bbf1bd61dU,
  0xbd6d802a3bde575fU, 0x3c1ea53dbc197b71U, 0xbce7b099bf64d502U, 0xbc86215e3ebdb07aU,
  0xbc11f5ffbcf91ccbU, 0xbc7408ecbedccd6bU, 0x3c8cb5a0bd7fc9c2U, 0x3cf1b7ff3e156b42U,
  0x3cce02cebc94d5efU, 0xbdcb05d73c57669dU, 0xbcd8f355bbba968eU, 0x3d4fbfcebd66343bU,
  0xbbb0aec13d190a4dU, 0xbc9d7d8bbed2a17cU, 0x3ed1c55c3c918678U, 0xbc9462eec0010219U,
  0xbd38858a3e4b94ccU, 0x3d30b37d3c9a0c46U, 0xbe15594abcac5b54U, 0x3d26308ebcde7de3U,
  0xbd5876c8bbbe5562U, 0x3c97f6fbbc50c87cU, 0xbdb3c736bc8a8d2fU, 0xbcc686633c2dd9e8U,
  0x3dbfb7293e5c9537U, 0xbfc4d204bcb83833U, 0xbd25a5a1bcd87703U, 0xbef9d5e2bc57894bU,
  0x3cbd86c33d71e49fU, 0x3d446025bd117f5dU, 0x3c8ff5c8bd3aab84U, 0x3c8a4f33bf259e0eU,
  0xbc82ec3ebcf3fbbdU, 0xbd4cb05ebd260e46U, 0x3bf70a09bf24ad56U, 0x3d8a2d973e912e94U,
  0xbd5f2896bcada727U, 0xbd45e24fbdd58689U, 0x39f90e6f3d171219U, 0x3b9317ee3e89cac3U,
  0xbd806ae7bc72a7bdU, 0xbd277a56bd057cc0U, 0xbc02af55bd80d707U, 0xbcd4764fbb9595f1U,
  0x3ca362053c15ece8U, 0xbd4e9b99bef8e57dU, 0x3ef42dc2bb38f089U, 0x3d3d5063bff13cebU,
  0x3cd3d2983ec5dfd2U, 0x3c993b773cc86f3aU, 0xbe34b193bc9c8a5aU, 0x3d1b90673c241409U,
  0x3c1419493c4280adU, 0xbca3c20f3d26c6fdU, 0x3c6268fcbdb1ec6bU, 0xbd53497c3c2a656dU,
  0x3d94a3dd39fa99b2U, 0xbfd1461cbd71e583U, 0xbcd56d9d3d32263dU, 0xbf210932bb83b068U,
  0xbbf094153e005f0dU, 0x3d5eb999bddcc9c6U, 0x3c962769be0afc5bU, 0xbbd2e725bf483439U,
  0x3d079a45bae58c67U, 0xbc0e8461bd92c68fU, 0xbd4d2330bf010bd2U, 0x3d4fd21e3e999125U,
  0x3d051415399dd949U, 0x3bdad0f4bea5d1cfU, 0x3bbd3e783d27fad4U, 0xbcc6a8b23e8f320aU,
  0x3d344a303c4a80ebU, 0x3c3996b63d3cf4caU, 0x3c2752d13a8d4e07U, 0xbd654dc63cc129eaU,
  0xbc73c6e2bd0a1db2U, 0xbc603f0cbf1af812U, 0x3f095f763c3b5620U, 0xbc898bb6bfe6ba4eU,
  0x3c85130a3ef52c9aU, 0x3d344439bb136b70U, 0xbdd71b53bd48dd50U, 0xbbe3e7d93b58175bU,
  0xbca2affe3d12419aU, 0xbd532cb73d5eb9b4U, 0xbcdb8260bcec1982U, 0xbd240c653cff7335U,
  0x3d9ce1f6bdf3ac9fU, 0xbfe3efe9bcc04c06U, 0x3b9bc0d63d0150ecU, 0xbf3e5990bcbff0e8U,
  0x3c7d7e8e3d290c9eU, 0x3cf704aebd0b2b92U, 0x3d79a275bdd9393dU, 0xbcd13901bf3e27e0U,
  0xbcdb5dd33bed9d2fU, 0xbd703eb43d4d2058U, 0xbd66d7b3bf5b09dbU, 0xbca908ea3d6c7f6bU,
  0x3d3d28f9ba9e30b2U, 0xbd1f8c15bf06cbf7U, 0x3d7726503c5bd015U, 0x3d2770173da99178U,
  0xbc58ab5bbc56db53U, 0xbc52745bbd1f28e5U, 0x3d5956173e17e9c5U, 0x3c4a6ba03d166f06U,
  0x3c115e223c7368e2U, 0x3d4a9100bf2ce195U, 0x3f1771943d29fe4bU, 0xbd10295ec0097a1cU,
  0x3c0c78253dbdd1d0U, 0xbd6ed28c3d452ec1U, 0x3ecd1dcfbbb49073U, 0xbd243fff3c2e4bfbU,
  0x3c9781df3c5e00c6U, 0xbc92d7153d03cb74U, 0x3d1e395abd2e52a0U, 0xbc7438b7bd36bc66U,
  0x3da1b830bcbd1d80U, 0xbff50996bd5e71cfU, 0xbd707becbca9cf2cU, 0xbf819e9dbc49f0cdU,
  0x3c8673b4bc94ec4fU, 0x3c9e882b3df1a94dU, 0xbca190753c8c39efU, 0x3c77930bbf0bd792U,
  0xbd05c3d1bd19e8d0U, 0xbd0510193b8449f1U, 0xbcb5ed13bf4c5520U, 0xbcd58b07bbd31532U,
  0xbd012ca73cc7974eU, 0x3c1aa669be38ecebU, 0x3d044c463c99285eU, 0x3cb5ecc93d8b01e9U,
  0xbc7b7f1c3d04ef21U, 0xbc09354ebd522f3fU, 0x3c3fcaf93d5ea271U, 0xbc4748c0bca5f5f9U,
  0xbbee76423d6488b9U, 0x3d5f408cbeb5da76U, 0x3f14651ebc925d71U, 0xbd6e566ebfe27ff2U,
  0x39578e463b90b4d2U, 0x3c2d0edb3d39a36bU, 0x3e8e01c3bd06d46eU, 0x3cc6c1203ba2a8d1U,
  0x3c8803673cc6ba22U, 0xbc55dc893a4aaafbU, 0xbd20054c3d07976bU, 0xbd35cfaabd05eb81U,
  0xbd500fc03db7130dU, 0xc00b704fb8d2e052U, 0x3c8987f03d3794a8U, 0xbf78a86d3bd99a4fU,
  0xbcea8eb0bd9a49aeU, 0x3c950c473cfbdda7U, 0xbce29a373c30c490U, 0x3d023dc1bee78cb1U,
  0xbcb003783d10623eU, 0xbcd3a5b3bc6702f6U, 0x3cbe10c7bf42b6b3U, 0x3cf71a2dbccb1cafU,
  0x3c1fe87fbd32fd9dU, 0xbc1f0c47beb98a78U, 0xbd5f9de6bdbd18caU, 0x3d1ab927bedc5f72U,
  0x3cf570ec3d228642U, 0xbdb50e53bca07668U, 0xbc9448cd3d342839U, 0xbdeb9096bd5df969U,
  0xbcf2d6193cb1d14dU, 0x3a410de1bdd6a481U, 0x3f3328053d087b99U, 0x3c63e5aec008d747U,
  0xbcb866feb984abb0U, 0x3d4186d2bcfadf04U, 0xbe95429f3d0b42c7U, 0xbad099633cb2aa5aU,
  0x3cebbf0fbc8229b7U, 0x3bb25e29bd12cfd9U, 0x3d3d29d9bd18efa5U, 0x3cf11a533b2b80e3U,
  0xbde40cf1bd98c5d4U, 0xc0113157bc84506dU, 0xbd752f863cac2ca9U, 0xbf8aaccabd6c2290U,
  0x3d3b98b5bd3d2597U, 0x3d39376f3c111b5aU, 0x3cd7228c3c512a70U, 0x3c8b6b3d3c7bab6fU,
  0x3d2405993c9d6c4fU, 0x3d6a7e273cb0ecc1U, 0x3ca150ffbf04090aU, 0x3af663883e0d44bcU,
  0xbd6cd5c6bd54146fU, 0x3b013bb7beb8eb53U, 0xbd622875be2f8c18U, 0x3d1b22e0bf3fc954U,
  0x3d29fbc3bd7206f2U, 0xbd5c656ebd0fe160U, 0xbc4dd840bde158fdU, 0xbc91a46e3d6fc9cdU,
  0xbcf27c7b3c88eeaaU, 0x3c7e7e44be3b790cU, 0x3f0b78f3bcb0781aU, 0xbc775536c00d1a4dU,
  0x3d06493ebe019c72U, 0xbd0051dabcb31c1eU, 0xbf2b97b9bb6fc92cU, 0xbd0f3bb7bd78fe73U,
  0xbc0aaf933d247a8eU, 0x3c209ffdbd059082U, 0x3ca6ea50bceafed4U, 0x3cacced3bd29da0fU,
  0xbd5efdb6bd85b214U, 0xbfeb01efbbfa0a10U, 0xbd1e40113d19b87aU, 0xbf790f6fbcecf57dU,
  0xbd4c5985bd9b951cU, 0x3d43f05bbcde7bdbU, 0x3c98442cbc77b05dU, 0x3c1f689a3e7c9906U,
  0xbd319eb6bd58a3f8U, 0x3d9eda4d3b02df21U, 0x3cd3c950bee8c84bU, 0xbd0718373dd72a16U,
  0x3d1f6e45bd6376b9U, 0xbcc9d772be530f1cU, 0x3ce89694bea2895dU, 0x3d9f974dbed6ab62U,
  0x3c2c059cbd29a39aU, 0xbce8a04b3c784893U, 0xbd889b93bd4b71a8U, 0xbd61bbb83b877b96U,
  0xbd570c4a3d7f464cU, 0xbd74c7c0be4d283eU, 0x3f120e7abb3abf1dU, 0x3d6aa513bffffd3aU,
  0x3ce57411bbef167fU, 0x3b87763cbcc4d147U, 0xbf1175a03b423f45U, 0x3d18afa5bc86df11U,
  0x3c723a303c9c5dfaU, 0x3ca983573c2a2612U, 0xbcb0bdc63b23e57eU, 0x3ceda69abd8525a8U,
  0x3dc83e823e309144U, 0xbf5b3d5e3d5e1236U, 0x3ceae0e73d107161U, 0xbf8b1ab9bd10dcbfU,
  0xba6377b83c945a80U, 0x3c9e3e99bd294a69U, 0x3da7f59f3bb1e835U, 0x3d228e093ed944d0U,
  0x3caa74d63c556854U, 0xbb584e9e3d52aef3U, 0xbbacc3c7be6c3f15U, 0x3d15cc703e86bb7aU,
  0x3c33074039f133a8U, 0x3cd36eacbd113cdeU, 0xbc57c2ddbeb63743U, 0x3d6ef07bbec8ff91U,
  0x3d1a7c1a3d1e18d7U, 0xbb4553eabd6b34f5U, 0x3cc7f4943a648e31U, 0x3c4ce7ec3d970897U,
  0xbc643e743d3d24c2U, 0xbd57a78e3db4c956U, 0x3efff6c73cd6c9c0U, 0x3d07f947bfc84f3cU,
  0xbc8f11ec3d51d381U, 0xbd36a88ebd5499e1U, 0xbe6dd9c638954522U, 0x3c70f9c53cced665U,
  0x3ca4595a3c9801c1U, 0x3cbd98613b7bb2dfU, 0x3c4f3211bd515b62U, 0x3c9b1169bcc8974fU,
  0x3dc9b3183e2df4f5U, 0xbf19448b3d37514eU, 0xbcf61b1e3cc67645U, 0xbfaef16ebcd65c77U,
  0xbc863944bd15fe3eU, 0x3cd3d82b3d46d71aU, 0x3d7588303dd746e8U, 0x3cbcb50f3ebd042dU,
  0xbd3986ba3ceaf445U, 0xbc4fc57bbcce9233U, 0xbad0889fbcbfb64fU, 0x3d8374213ea094c1U,
  0xbd35855abd684bfdU, 0xbcbcb62cbe861e68U, 0xbcd31d7ebec88ff0U, 0x3d7f17bdbea4bd89U,
  0x3d436540bd191a42U, 0xbb9d63413c87d39bU, 0xbd0998dc3d5a69e4U, 0x3d59cd3e3d891a6dU,
  0xbc8cfe433c28e7daU, 0xbcbe03a53e36f8d8U, 0x3b0885d33aff4c34U, 0xbc8c07b1c006bdeeU,
  0xbbad4b6f3e14fa5bU, 0xbb639ed4bd24d6b6U, 0xbf0549a53d20d2d1U, 0x3d0b4c463ce1c2aaU,
  0x3d2a42a23ccd2d7aU, 0x3cde58b03c2c4dc5U, 0x3d075cf8bd59b44fU, 0xbd96ee7e3ce3038eU,
  0x3c9b084abdfe4307U, 0xbec6cea63c8177b6U, 0xbd4bcb9abc60f0bbU, 0xc0080ea7b9ea9654U,
  0xbd2ce11fbd9eaeb2U, 0x3cd93bfcbcce90adU, 0xbb8d78debd708461U, 0x3d416eebbf5cc2c5U,
  0x3c70b1c3bcdfad6fU, 0xbd3ba69fbd29fb04U, 0x3f0c5a08be2faefcU, 0xbce255c2bf43a68aU,
  0x3cddd616bd4a091bU, 0x3a919ecc400d4303U, 0xbd4c2e82be3b2d26U, 0x3a9ea8b23eed3c98U,
  0xbd580ad9bd6c07fdU, 0xbd487f7f3c09ec05U, 0xbc9a805d3d50e34fU, 0xbcb068fdbc1ab39aU,
  0xbcd6ed45bd4171d3U, 0xbd95ccc93e041374U, 0x3d8b5eba3d178defU, 0xbd757cc63e81430cU,
  0xbb3b1dafbf4dd5acU, 0x3d2e03603bd38490U, 0x3fc5f7cf3bf5b79cU, 0x3dbb7df03d3d9aedU,
  0xbd04453fbd01d3b6U, 0x3ce85b8a3a01de15U, 0xbd42ced1bd0e11c7U, 0xbce4b5dfbd645577U,
  0xbd565f6bbfa3fee2U, 0xbf103fbdbd9ea407U, 0x3c811c4b3cc55438U, 0x3e715ab4bd1f6247U,
  0xbba94ff0be187a8dU, 0xbb395761bc79d182U, 0xbd42629e3cf139b1U, 0xbd101c12baab81c6U,
  0xbd1dbe02bcc0ed97U, 0xbd80c1c2bd39c6e5U, 0x3ed50947bdd46066U, 0xbc93e85bbfc1764cU,
  0x3caf00573d4ee095U, 0x3bd18be04009de52U, 0xbcd2ee203d297c72U, 0xbd0a04bc3f20d10aU,
  0x3cf1d0373d369a15U, 0xbcef694bbc84f0c7U, 0xbd858e573d38f781U, 0x3cda71c6bdb8c5d5U,
  0x3cfc1576bd325b24U, 0xbd4c7e7bbfabf260U, 0xbd0ebe7fbd6d4a4fU, 0x3c0f27663e2f3fd9U,
  0xbc1e9ddfbf17e5a1U, 0xbcd406eb3cae4802U, 0x3f74ed53bd43933bU, 0xbe12c6d93cbdc708U,
  0x3cf3ba873cad4656U, 0x3d3c27a83c87e0b3U, 0xbd61d6803d36b13eU, 0xbd431f69bb92d09eU,
  0xbc525b98bfca5c42U, 0x3e5eefd1bd046dbbU, 0xbd278cf0bcfaa449U, 0x3e867281bd0328feU,
  0xbb2dd7febd123856U, 0xbd4bb256bd28bd28U, 0x3bbefcd2bcb66d0dU, 0xbc8677d1be8ea360U,
  0xbd5ee6273cccd93dU, 0x3c73399cbd8d229dU, 0x3e9c1975bdf8be08U, 0xbd0b0b8dbfda6836U,
  0xbc07f3223ce4e386U, 0xbd3292ad3fec5b9eU, 0xbd98eae33dc3741cU, 0x3cb424a63e510df5U,
  0x3cf8cf7fbc4d8f5dU, 0xbd46abd7bc88a9b5U, 0xbd09467dbd0b760cU, 0x3ce980e1bd4d3a7dU,
  0x3cb83e1f3c45bfedU, 0xbcddb6d7bfbc79e8U, 0xbca9b384bc7f805fU, 0x3c8066c93e50f810U,
  0xbcb0a051bf0284c4U, 0xbb8193bb3ca1fae6U, 0x3f2ffce3bd5c2108U, 0xbefa2130bc186848U,
  0xbc5930b03d302c1cU, 0xbd16e37dbc0e918bU, 0xbd5765633d4c74c7U, 0xbd1dde243cc1b80eU,
  0x3c013a03bfc7ed3cU, 0x3f3270e93b86ae04U, 0xbc35e46ebc87d313U, 0x3df52d15bd72a9adU,
  0xbd2232c5bd0d5ed6U, 0xbcc59f6f3d41fd93U, 0xbd12d3fb3c1bd8edU, 0x3d1970c8bf39249fU,
  0xbc4a8f1cbd5b0428U, 0x3ca5f1eabd46d1f5U, 0x3ecec50fbec38864U, 0xbc8afa8dbfd1da4bU,
  0xbc6d3dec3c49b3ccU, 0x37d039123fe95160U, 0x3c9c78233e37e5e8U, 0xbd14aa65beb6a06cU,
  0x3d194b973d3c8930U, 0xbd3295c2bd5247a3U, 0x3cf9fb523dafd1e6U, 0xbd599b67bca65b93U,
  0x3d1ac6c03d3a6158U, 0xbcbb7d3cbf92692aU, 0xbe9642c73ae16372U, 0x3c0c8cb73deb54bbU,
  0xbd40d100bd989e67U, 0x3c9ae3f8bd471c66U, 0x3f257ab13caf1d0fU, 0xbf76e40e3c81d908U,
  0x3d297c0d3d106842U, 0x3d34aafcbd213622U, 0xbaefbc563cc00098U, 0x3c51b82d3c077663U,
  0xbc934952bf961004U, 0x3f5714c7bd9608f6U, 0xbd4706f0bd43c3d3U, 0xbc46d69cbc82e62bU,
  0xbd086411be09e5f5U, 0xbd5b8e4abcb065baU, 0x3bf71cbc3d6031a3U, 0x3cd5151cbf8b22ceU,
  0xbbf6b41dbd5e8653U, 0xbd6726eabd4bfbbcU, 0x3ed38b61bf2b5058U, 0xbd681663bf653bd0U,
  0x3d3829bcbd49d01aU, 0xbd5dee04400d2b97U, 0x3d7f21833e86fe2cU, 0xbcbbb348bc7647ccU,
  0xbcc08cffbc000898U, 0xbb9647c2bcc6d8f6U, 0x3b32d97ebb86f520U, 0xbd2524623c978125U,
  0x3cdb75e4bc853207U, 0xbd84e6b6bf501e5fU, 0xbf0153d13c9d55d1U, 0xbd37c6fb3c0e5df6U,
  0x3cca01923d4c9975U, 0x3d3aa0ec3ad0db80U, 0x3f7aec83bd336acfU, 0xbfa9d607bb1af1cdU,
  0xbd032c0fbd4d651eU, 0xbd307af8bbb32affU, 0xbdc8cf4a3c8fb110U, 0xbd5857ecbbfe6edeU,
