/**
  ******************************************************************************
  * @file    network_isd90_data_params.c
  * @author  AST Embedded Analytics Research Platform
  * @date    Fri Jan 19 12:21:08 2024
  * @brief   AI Tool Automatic Code Generator for Embedded NN computing
  ******************************************************************************
  * Copyright (c) 2024 STMicroelectronics.
  * All rights reserved.
  *
  * This software is licensed under terms that can be found in the LICENSE file
  * in the root directory of this software component.
  * If no LICENSE file comes with this software, it is provided AS-IS.
  ******************************************************************************
  */

#include "network_isd90_data_params.h"


/**  Activations Section  ****************************************************/
ai_handle g_network_isd90_activations_table[1 + 2] = {
  AI_HANDLE_PTR(AI_MAGIC_MARKER),
  AI_HANDLE_PTR(NULL),
  AI_HANDLE_PTR(AI_MAGIC_MARKER),
};




/**  Weights Section  ********************************************************/
AI_ALIGNED(32)
const ai_u64 s_network_isd90_weights_array_u64[43489] = {
  0x3cec17e5bcab91ffU, 0x3df5100cbda5efedU, 0xbd9db380be1512edU, 0xbe30d8463d109577U,
  0xbdc3434abdcb8374U, 0x3d58382ebe2a347dU, 0xbf2df646beb5a9a9U, 0x3d9035b13f822644U,
  0xbd5803bfbe992423U, 0xbe5630cd3f85eb2dU, 0xbe0f5455bf400255U, 0xbd6c33d03e7807b8U,
  0xbda7682ebe94078bU, 0x3d19d259bca27e63U, 0xbde4560abd3e4026U, 0xbe21f3de3cfd326aU,
  0xbe60f87dbe3d5ea2U, 0x3dfe0d46bd85fad8U, 0xbd29a5273d1d086cU, 0xbc34419cbd5ee039U,
  0xbdc132b0bd955f91U, 0xbd9627d13cae6706U, 0xbc61ad13be131fa6U, 0x3db881b5bde2bdd0U,
  0x3d8a9952be0c5ed8U, 0xbcfe83dabd6dc9c5U, 0xbd8839613d6a143cU, 0x3d8dcf3d3d7629a1U,
  0xbe03de29bdb8ef67U, 0xbd0e592fbdf272c9U, 0xbcc678abbe12fd82U, 0x3d4d4e7cbc36d2c6U,
  0xbd867fb8be0fcb21U, 0x3d233d303dd829c1U, 0xbe0e6e22bdd6973fU, 0xbdb6b2a63daac1baU,
  0xbda676fbbf6dbcebU, 0x3e6415d93edc0af6U, 0x3c54e2c4bf6df6c2U, 0x3e93c3653f349539U,
  0xbe93f831bf57ba69U, 0x3e3f48bd3ee9a9c6U, 0xc06ac893c04f4df9U, 0x3e033bb3c01125caU,
  0xc053006bc0162312U, 0x3e65e8b8bd6419b5U, 0xc03ecb8fc033b2a3U, 0x3dcf0e94bfb9dedfU,
  0xbd1055e13d76bf71U, 0xbd10a0e9bdb9a3fdU, 0x3d0d1fb5bdcdcabaU, 0x3dc4004bbd55a295U,
  0xbe2fda3bbe22a141U, 0xbd68249a3c1e3a22U, 0xbe5198f3be397fdbU, 0x3db7c8033d85abe9U,
  0xbb924a1bbe83556cU, 0x3cdf959abe731209U, 0xbde2bae8be8054acU, 0xbdeda4743da978d4U,
  0xbdf49e4c3def8142U, 0x3b805c333cd9aa39U, 0xbd42b95d3d14e691U, 0xbd4c89c4be7ed37aU,
  0x3d999338be62c067U, 0x3d4bdce3be405536U, 0xbe968df7bebcf335U, 0xbd875480bea6f2bdU,
  0xbe29e092bda92429U, 0x3c69f6a2be4d0557U, 0xbec7db93be8fccd3U, 0x3d75304fbeb58796U,
  0x3c66bbc8bda648cdU, 0x3d6d56c83e0b1cc5U, 0xbea2f0dabe621399U, 0xbcd5b53cbe3e2464U,
  0xbd89e974bd2e08c1U, 0xbd03caf2be0b5cd8U, 0xbe04bbb1bd9ecd5bU, 0xbddd7562be64b504U,
  0xbe289512be25b81eU, 0x3d758be2bd9af52aU, 0x3ca71e813b85a933U, 0x3d429d55be1fb8e2U,
  0x3e053adebe04fa66U, 0x3d812dbf3d3cb3b1U, 0x3d322639bdb7686aU, 0xbd8886d8bd118427U,
  0xbd82a346bdc6b23eU, 0x3bb46632bcfa7297U, 0xbe7ae6a63d8473feU, 0xbe6904573f6366caU,
  0x3cd38f0a3d362d06U, 0xbe4122423f597a3dU, 0x3e3d2f303e4af099U, 0xbe7201523f5fe7fdU,
  0xbe563e943d9079fbU, 0xbd8085cfbe46a730U, 0xbdc0a03d3dc58a35U, 0x3cd87ac93d353056U,
  0xbdaf90ffbcd1ba75U, 0x3d157514be41962dU, 0xbe6842c53d643946U, 0xbcf68bdbbed5ba07U,
  0x3d66c2a73d7892e8U, 0xbcafec9dbeaea024U, 0xbd8fd85fbe30a684U, 0x3d8364febea60990U,
  0xbd3b2bbb3c35283fU, 0xbe0c25adbe222aeeU, 0xbe4aa07bbd4b8613U, 0x3d92f8243d9a6a5cU,
  0xbd3eba1ebd2a9cf3U, 0x3d839c1c3d567131U, 0x3b5b82c1bdb59240U, 0xbd2e34d2bcbe37ebU,
  0x3d08cd503dcaaae0U, 0xbdd05e58bca2a88dU, 0xbe36e76abe0b8b4fU, 0x3e15467bbe47e04dU,
  0xbe456ad53da77834U, 0xbdbde74fbc9e0d34U, 0x3d301af63db26747U, 0x3e1e7742bc29fe6dU,
  0xbe1dd5d8bc0292aaU, 0xbd705da7bd3fedc0U, 0xbe1aceed3b96b6d3U, 0xbdd8a192be758fd5U,
  0xbdff7e15bda1cea4U, 0x3de516db3d3ecc80U, 0xbe011cb0bc59943aU, 0xbbbea6bdbe1e8140U,
  0xbd5999ee3f2b769eU, 0x3d91eb0cbd87f3f8U, 0xbf73de143eb22fabU, 0xbc23c1953d5356bdU,
  0xbf90331b3fa104c9U, 0xbd24482f3f1219c3U, 0xc0519c68c035f4fcU, 0xbcec379cbfcb8c45U,
  0xc05e59abc0327b88U, 0x3e73f2b13e08eefcU, 0xc05d5ae9c035ed83U, 0x3e9503e9bf5f2ceeU,
  0xbd9fa0cc3c01ff1aU, 0x3da5ebef3d6163c3U, 0xbc938190be1c6e75U, 0xbe1b3023bdbc05bbU,
  0x3dcb1d26bdbc727eU, 0x3d9143b4be0be61bU, 0x3e0a69f2be44d632U, 0xbcff0f40bdbaa62eU,
  0x3ddc3c9bbe09988eU, 0x3d17c52bbe41615aU, 0xbda9705cbe251a11U, 0xbb6064c5bc8f59eeU,
  0xbe392083bca3a387U, 0x3cd382b8bdd837e5U, 0xbdb8ae10be88ff64U, 0xbd6474dabe38d739U,
  0xbd3603b0bc33da20U, 0x3d1fb661bd45def9U, 0xbe0001a13cc5fea5U, 0xbda9a044be8f75cfU,
  0x3d328b06bd9bb8ffU, 0x3d9c37b9be99a4d2U, 0xbdf6d819be6ec6a6U, 0x3c19a004be83e78aU,
  0xbd1eb835bcf45bfbU, 0x3d89e79f3d634a0bU, 0x3ba24cafbd46fba2U, 0xbc804f223d73ac5fU,
  0xbd8a250ebd02c3bcU, 0xbd3fc6eb3dc63e76U, 0xbe962d68beaa975bU, 0xbc6422ffbe86631bU,
  0xbe5abc07be947401U, 0xbc1d4790be1273faU, 0xbd111f9dbe3129fcU, 0x3cc1c879be56801fU,
  0xbe43f6543e07ae31U, 0xbdc64700be370564U, 0xbe03cc1fbe070736U, 0x3e0967163d3a5442U,
  0x3e05c271be118f7aU, 0xbd1f49d8bdc62a37U, 0x3db3db01bd8038feU, 0xbdc14f90be1ca7ceU,
  0xbe2c0b4c3e053b3fU, 0x3df682cbbe6448e1U, 0xbe4197c1be351630U, 0xbccaea943d124ff7U,
  0x3d868f10be6d03c4U, 0xbd6abc59bd8523e7U, 0x3c1ae682be610873U, 0x3da72aa2be84c191U,
  0xbda07d73be564f3fU, 0xbc97bbfa3d4ecff4U, 0xbe00071bbf6a5985U, 0x3db28d223f6c907cU,
  0x3d5ce993bf1b635aU, 0xbd7175ca3f9c2596U, 0x3da435edbf24fc1cU, 0x3d86aebd3fa80313U,
  0xbe0dda3abe74e0a9U, 0xbd421ebabe380816U, 0xbe15c5febe3803bbU, 0x3bf3535dbe050c06U,
  0x3d6cf87dbdba188fU, 0x3d3dbabbbe129c27U, 0xbe7701b73d812735U, 0xbdb893653b8c7e61U,
  0x3d052ca9be300657U, 0x3d69f715bcb9373cU, 0xbc845f2e3d54f23aU, 0x3d13edfd3d778b03U,
  0xbbb0d3d0bbc60b96U, 0x3e00405abd9723c1U, 0xbd70315ebdde7747U, 0xbcdaea34bd148b4fU,
  0xbe374cc3be5d329aU, 0xbdc95644be6b3ae2U, 0xbe327915bda1d39eU, 0x3c6fadf7bd782955U,
  0xbd050e07bdd5bbe1U, 0xbcc3b3bdbdb1a1b6U, 0xbd7b0f50bcf97327U, 0x3c4b0ff9bdd2f56bU,
  0x3da97d20bd93f04aU, 0xbd0b250abec3a5a3U, 0xbdd7db33be7f3251U, 0x3db0bf8bbef4bfe2U,
  0x3d7158293a2ce30bU, 0xbce46660bf263ebbU, 0xbdf41b5ebe4a4353U, 0x3dc679013c87f869U,
  0x3c88a479be1e6582U, 0xbd09ed503ce40b57U, 0x3cb1e0973d1ea0ceU, 0xbd77af4c3c312180U,
  0xbd996426bddde2fbU, 0x3d2bdf39be3a7548U, 0xbe26a801bd80f608U, 0xbde81909bda3d1e7U,
  0xbe4b1211bd202d0dU, 0x3d94185dbe10f673U, 0x3d0c26663c2cb0d5U, 0x3e3989b1be57dcfdU,
  0xbe969b92bda5988aU, 0xbd7f2533be1e02b2U, 0xbe9d4542bd7e6844U, 0xbde9dfc7be1d6e24U,
  0xbe41c9193d1aa2abU, 0xbd4fd1fb3d5488eeU, 0xbcec2cebbe44b908U, 0xbdd4c3e7bd1ae6ffU,
  0xbbb4972e3c5e3a6aU, 0x3e232c943dbbde24U, 0xbdb9893ebdacd6f1U, 0x3c46a3bebe00833bU,
  0xbe102a1bbe034dbaU, 0xbc9979a4bd56913eU, 0x3d84f110bc863e94U, 0x3c3e65003d97abe3U,
  0xbf80ec25bf9ae363U, 0x3e0d01553f125549U, 0xbfaf4c36bff4dc9fU, 0x3e421f3bc007f6f1U,
  0xbf8e9855bfc78c3cU, 0x3dbeb9b9c01d9b0eU, 0xbd2a6c24be5af635U, 0xbc64f58abdf1d749U,
  0xbe7ca635be3b9d01U, 0xbe06fcb7be2b5c26U, 0xbe53270c3d126488U, 0x3e1846febbccbc75U,
  0xbfbac161bfa593b6U, 0x3dd2201c408f832bU, 0xc0a5dea0c0b38790U, 0xbe4bc983c0a7415cU,
  0x3f3e26393eaa3d38U, 0x3df8b93fbf147e4cU, 0xbd1b91bf3d5b7e22U, 0x3d666acf3d9e88f5U,
  0x3d5e3bf5bd8f6088U, 0xbd5a7b4bbd4e5c00U, 0xbdf58aabbde89e5fU, 0x3a72e4643d3dd728U,
  0xbe493d403f2bf315U, 0x3da2595d3fd61e0cU, 0xbd183337be2d44f3U, 0x3d6527c33f9f37caU,
  0x3df53699bea586d0U, 0x3d609c923fb74889U, 0x3db655ddbd96b33dU, 0xbcf74f113d33dcf2U,
  0xbe7575113d5266ceU, 0x3d642bee3dd828bcU, 0xbe00ebec3cedb224U, 0xbcb71f0abe04cbc5U,
  0xbe3fd4e2bd5c2f7aU, 0xbdde20223c0d2852U, 0xbe3a5c4b3cb1c13cU, 0xbde9032ebe411dd2U,
  0xbd2a6e2cbcb8a11bU, 0x3e6203c5bd987ac4U, 0xbcd1dd13be4574afU, 0x3d4af137be93a9ecU,
  0xbce49049be291ec4U, 0x3e0b35c4bdfbb3fcU, 0x3c18ab9b3d69c857U, 0xbe2fb42bbea5f642U,
  0x3dc6002abe1c8d03U, 0xbdf4019fbe937ce4U, 0xbe3bb2fbbe325283U, 0x3e287e76be8dc191U,
  0xbd75a6043da50689U, 0xbd28ed6cbe93e7acU, 0xbf18b191bf8df0cfU, 0x3d8381863e2e8550U,
  0xbda03cdfbf1d2371U, 0xbbdd7dd63e7021bcU, 0xbedb5033bf869106U, 0xbd5d5e943e26e3e7U,
  0xbebe7385bed5b74bU, 0x3dfc1398bf96b0fbU, 0x3e624fbebd37c170U, 0xbd465359bf8c5b9cU,
  0x3f1296353ee41f2eU, 0xbc9360a5bf6953f1U, 0xbf7b4b2cbed91301U, 0x3e1474e93ffde8dbU,
  0xbf086a9bbf70b7d9U, 0x3ce638a1bf850376U, 0xbfd1341fc00161faU, 0x3dbc9f0ec03c69d2U,
  0xbc9060cebe08a1a8U, 0xbd76fcf23d21438bU, 0x3caec3f9bdb8bd1aU, 0x3dd16b1ebc91700fU,
  0xbde5d5dcbda1cbcdU, 0xbd2a09f9bd51d24aU, 0x3f9eacd9bf7e7e85U, 0x3e06b1333eb8b2e4U,
  0xbe15caddbedf3871U, 0xbd9bf86d3eac7df8U, 0x3f3863e4bf8de9e9U, 0xbd64ff14bf67120fU,
  0xbe1d27c83d1537edU, 0x3e14ca993d8c4e08U, 0x3da26f523d543c19U, 0xbde3364fbe4752ecU,
  0xbda597a2be2fa82cU, 0xbcf340f3bd7c218fU, 0xc0a4924ec09ad39dU, 0x3b9c9ed7bfe1f1c0U,
  0xc09cd923c08bf646U, 0x3e0f1f89bf37aeedU, 0xc064d5e0c05b5dc8U, 0xbca03b33bf919425U,
  0x3cf8c635be1930b9U, 0x3d97767bbdcf64f3U, 0x3d8794c1bd42cb85U, 0xbde05543be8d3c4fU,
  0xbe7d9810be33eab9U, 0x3d0f9cf6bde2891eU, 0xbee4c10d3e80d4acU, 0x3e4972be3ea67e4fU,
  0xbf43224e3eb4c4f4U, 0x3e4638d43e92ff94U, 0xbebac0013da4113bU, 0x3e5e2150bcf09e4bU,
  0xc07b593cc04b20bbU, 0x3e19c663c0051b4bU, 0xc05988e4c0178f8bU, 0x3e5e945a3e2da43cU,
  0xc0493913c034e2d1U, 0x3df3a40dbfd3af9eU, 0xbce5c2dabe1529eeU, 0x3d52826abe220d91U,
  0x3d3233a6be3b121aU, 0xbdcc227c3d0467c6U, 0xbdc03202be1afcedU, 0x3d4890b5be138845U,
  0x4015f008bd00a25eU, 0xbe123a97bdd7bfdcU, 0xbc24bfcabdc6600bU, 0x3f30539d3f274fb8U,
  0xbde763afbdb37ae7U, 0xbe07fde6be0ddec7U, 0xbe15c75dbdb82b41U, 0x3ec83eedbda070bfU,
  0xbe9a651ebc93f91dU, 0xbdc56400bdbbc4e3U, 0xbcbce7ccbdee1d08U, 0xbe366ed03e50dfe7U,
  0xbdc114c3bdb433a5U, 0xbe2a26b0be288130U, 0xbda5cd66bdf42803U, 0xbcf97bd0bdaf66d0U,
  0x3fad284bbdfc1d55U, 0xbdd4879dbe0f986eU, 0xbe1b2ef1bdd633a0U, 0xbdf1daacbf0d33bbU,
  0xbe795c51bd78badeU, 0xbe212645be106248U, 0xbe038c083fc04e76U, 0xbdf823a8401311d8U,
  0xbe01c82c401ab405U, 0xbe8b9036bdd14c24U, 0xbd9137bbbe1134b0U, 0x3fe2fd31bfcc5c24U,
  0x3ef84331bd0caa35U, 0x402ce058be1c65d1U, 0x3f008c1bbe1c27d6U, 0xbb808ce73f0340f8U,
  0xbdcd316abdb19d6dU, 0xbd78673e3be511bfU, 0x3c03b810bd76ff96U, 0x3d4c44563c822447U,
  0xbd41f1f03cbcbbf2U, 0xbdc0721abcabd090U, 0xbd873a55bdad4e36U, 0xbdeff2aabd6656d5U,
  0xbd40f584bd42170dU, 0xbd73313cbcb2f6ebU, 0x3cbd9b993d084375U, 0xbe2114e13d1e8dc0U,
  0xbd6650cb3cab28e9U, 0x3d37f18dbcc1d893U, 0xbd88bd05bd2b2e55U, 0xbcfaf1e23d237ef8U,
  0xbdb3171c3c2a8a8bU, 0xbbb35b5abdd55629U, 0x3d2b98a63d06fc86U, 0x3ced3636bd9f65e3U,
  0xbd51aad6bdda4bbcU, 0xbb12c8b6bc5456f7U, 0xbd780598be2f82fdU, 0xbbae983abda30127U,
  0x3d99f281be073395U, 0xbd25a446bd49b40fU, 0x3d122169bd0675d1U, 0xbe0c5d7abbc2c646U,
  0xbd569b8bbc0c07faU, 0xbe013cd3bd8206a4U, 0x3c44e9313c9c929cU, 0x3b870230bddf6bdbU,
  0xbd7a2ff2bdd4ee33U, 0xbd85f446bdcfaae9U, 0x3ca71178bd8e679eU, 0xbd3df745bdb8af75U,
  0xbdf4b706bd447fd9U, 0xbd8e1e62bd6a835cU, 0x3d380284bdc6eb58U, 0xbaf085ab3ac9eb10U,
  0xbd51c688bd839d06U, 0x3b8cbdefbd35c37cU, 0x3d07e3b33d5a8a66U, 0xbd96413e3d23535cU,
  0x3d2631e6392ce8fcU, 0x3c919af63d100b54U, 0xbdd9898f3d233977U, 0x3d59bc573d2570f4U,
  0xbe12d8a23c8fd846U, 0x3cc13d07bdc8eafeU, 0xbc258a0a3d54d99bU, 0x3d7283e6bd5f3fa8U,
  0xbda9f6dabc3ac9f0U, 0x3b53e4bc3c953951U, 0x3d33430ebd7aa267U, 0xbc8f9a97bdf9cc5dU,
  0xbc6f72b7bdbd6d0eU, 0x3d00b0f8bca09ee7U, 0xbdb673cfbd3cbb07U, 0xbe1f8306bd804626U,
  0xbdc526e9bd16ac13U, 0xbd9e974d3cc23479U, 0x3d40551cbd7eb4eaU, 0x3d07f0e2be13b325U,
  0xbcbee733bd7fce61U, 0xbce5e763bcf7f0cdU, 0xbd07aa28bd2b79e2U, 0xbc49994abc2c7d50U,
  0xbe22d263bd68500dU, 0xbd0c56d9bcf7ffdcU, 0x3d0d47e33c50b6deU, 0xbd8649213abe56c0U,
  0xbc8962143c98cf49U, 0x3c8de2aebb52d68bU, 0xbd13da4cbd8b7798U, 0xbe1c2d70bd29f25aU,
  0x3c60882bbd5ce83fU, 0xbd895b163d3e6b42U, 0xbdd43169bdb88f82U, 0x3cf833a43d0faa40U,
  0xbd3e2cc0bd8a6024U, 0xbbaf2eb13c97a9faU, 0xbd8a5f4c3cd70a92U, 0x3d1b2c76bd5d57adU,
  0x3d237f45bd8b793aU, 0xbd8986b4bcecab74U, 0x3d5e8f98bd9c25ecU, 0xba61b4eebde9ea47U,
  0xbc4beb32be12db37U, 0x3ca45478bcd55533U, 0xbd427b433c8c871fU, 0xbdfd82713d722f10U,
  0x3c4d7bb33d54c862U, 0xbdfccb0fbd1b2ee6U, 0xbd37bedc3bd510c3U, 0xbd21c4d8be22312bU,
  0xbd697bac3d7d8b2aU, 0x3c60fea73d619d06U, 0xbcd1ca043d6b7deeU, 0xbbc8fc5ebd815a59U,
  0xbdbe4e243c6f4656U, 0xbd9cc93dbd9d8223U, 0xbcefff2b3bd36a39U, 0xbdbbe9f23cefa846U,
  0x3db5e2f6bdb1ca1eU, 0xbd89d792bcc831e2U, 0x3ce4fe2dbba88313U, 0xbcb56d02bd33e78dU,
  0x3d1ec89dbda5e0deU, 0x3d549cb5bc36a038U, 0xbdc592d5bd90ec56U, 0xbd1992a83cab0ef5U,
  0xbd399982bc9f5feeU, 0xbb19306bbc8f9458U, 0xbd81238ebd7f60f2U, 0x3b3c2dd7bcf6d8caU,
  0x3c91a48abd0b72f0U, 0xbd657dbe3d5ff99aU, 0xbb80c7e8bd220c9cU, 0xbd2a150abd4e5baeU,
  0xbd874a58bd16c726U, 0x3cb9acb9bc455004U, 0xbd052cc53d27f8cbU, 0xbdb674a13da946ffU,
  0xbc63abb73d1d7d5dU, 0xbd9a32b2bd2c75c4U, 0xbd1d62b2bd79ba74U, 0x3d60cb8abd573c36U,
  0x3cbda0163d4ade5eU, 0xbd10b915bc32f7c0U, 0x3bdfd0d0bc52e14dU, 0xbcccc2133c0d9c8cU,
  0xbd5730abbca0cff3U, 0xbca1b1f2bc20d868U, 0x3a95421d3c09f107U, 0xbcac8b74bb651bb6U,
  0x3d3ec3763c861076U, 0x3c886c3abd8ea80dU, 0x3d440a3dbd2fd4feU, 0xbd7c54e43ce3b5e6U,
  0xbd5978ccbda27431U, 0xbc58e6dfbcf28aa0U, 0x3c9698f13d28d45eU, 0xbc826c883cff2974U,
  0xbd5168c03c87964aU, 0xbd9081b6bc2101eaU, 0xbd0a5170bc7af4e3U, 0xbd2129da3d3171abU,
  0xbd476517bd10b4aeU, 0x3d617ca23d006049U, 0x3c9b078cbd45ff6fU, 0x3ce2d0c7bd218ed3U,
  0xbd262d5abe0e7ea5U, 0xbd91d08d3aed67f1U, 0xbda8a16ebcc24138U, 0x3d55d5b63cbb17c0U,
  0xbdca14fe3caba76aU, 0xbc1e7319bcc91932U, 0xbd954cb7bc1c0bb4U, 0x3d63228a3cabe474U,
  0xbd907228bd7dcba7U, 0xbd7c248dbcb858ecU, 0xbcf6c3a6bbcec94bU, 0xbd704bcf3d202f41U,
  0xbc71e085bb75413fU, 0xbc2b6770bd910dd8U, 0x3d1393ed3cdf4281U, 0xbdce5445bd69e19cU,
  0x3d8affa9bd2999d7U, 0x3c8bb6463c0ac408U, 0x3d4d5fa23c410bcaU, 0x3c3188a1bcc5c6a1U,
  0xbc2d3339bdbbe65fU, 0xba70f4203d6d6230U, 0xbd474315bbf461baU, 0x3c84b7463c2e0e16U,
  0xbc7e8ed7bd1027c1U, 0xbd31616c3ca249b4U, 0x3c7ca393bd1a1e07U, 0xbd8c1a1fbd4f6ccfU,
  0xbc578f2a3cca3e70U, 0xbd06204e3d33c6fdU, 0xbce17cb93c5a94dbU, 0xbd4aba2ebc692bf6U,
  0xbdee5cdabdb85154U, 0xbd1472393ca48c32U, 0xbcd0cb52bb91ea6fU, 0xbd327ce13d00394bU,
  0xbd67fd143d0b048aU, 0xbc628967bd686438U, 0xbd3a8abd3c671517U, 0x3ca6faa83d3692dfU,
  0x3c13e2c83c96e340U, 0x3c9031b73bdf82e0U, 0xbd660486bd8d0360U, 0x3d5b8191bbf95921U,
  0x3ddc4a44bd274ab5U, 0x3db2a03c3bab15dfU, 0xbd0005b9bdc427b8U, 0xbc28dfffbc1ac51bU,
  0x3c51f39dbd7cde6eU, 0xbd14dcf9bce2a319U, 0x3c7adc0a3c95c6baU, 0x3dac193e3d292362U,
  0xbd05fae9bc04bc4dU, 0xbd6f1a57bd32142dU, 0x3d53e23ebc8da73eU, 0x3d4e5da03cb1a86aU,
  0x3da881823d58018cU, 0x3d0c6338bd469c7eU, 0x3c5ab1d4bd41ab3cU, 0xbd50c870bce2a8e8U,
  0xbd4ce53e3ad2fceeU, 0xbbfb687f3cf8eb5cU, 0xbccfa8603b509eacU, 0xbd616c7f3cca12deU,
  0x3d0eaf18bdc93fe9U, 0x3cabdaab3d64713bU, 0xbd87e13e3cd4644cU, 0x3d1c4fbf3d984a17U,
  0xbd84990e3bfb10edU, 0x3d9a42c2bd835ceaU, 0x3d107290bcdc3040U, 0x3c3580203c51b27fU,
  0xbdaf0b233dc52a2dU, 0x3d00b7193c6c4150U, 0x3d44f7b2bd48ea70U, 0xbd6d38023c8918f1U,
  0x3ddc53833bd62af7U, 0x3ca7b1373cf010feU, 0xbd88c484bd0c015cU, 0xbd0152d73d53f600U,
  0xbd3204183c1f3080U, 0xbd6af8d2bd8bdb11U, 0x3d3e9845bd85e9d9U, 0x3b9010ac3c5f0661U,
  0x3d3c4c15bc964b0dU, 0x3d599647bc1b4c09U, 0xbc5ebaa63cdc2eddU, 0x3d6829eabd4f8ce9U,
  0x3d863d3f3d25922bU, 0xbcefd595bc4a9b70U, 0x3ce4fd8f3c880994U, 0x3d4b02633c7304ffU,
  0xbbbe1795bd0a6aa7U, 0xbd8dab2bbcdd3b4dU, 0x3c8d01e83d89ac91U, 0xbd2b1986bc39c216U,
  0x3d102e62bc340765U, 0x3d9eb9b23d5ec31eU, 0x3c8785a6bbb6edfdU, 0x3c24697e3b7c4693U,
  0x3c71c7b2bd0257e8U, 0x3cb9ae5d3d27d93fU, 0x3d57b8a1bd0d31aaU, 0xbce6c4323d88c4b4U,
  0xbd77554e3b9ecd33U, 0x3d57094fba3e5200U, 0xbd31a45f3d44a580U, 0x3cbe37a6bccd80d2U,
  0x3c9a6a74bc274ac6U, 0x3d4d12f1bd78919eU, 0xbd0aec3ebdacd8c6U, 0xbb3c2dfe3d1c4b06U,
  0xbd4ae719bd1c3ecdU, 0xbd80f65cbb5cc2d6U, 0x3d10d4afbd2ae520U, 0x3d88ac1dbcdb0f9dU,
  0xbc882d643cfa31c1U, 0xbca4a9573ca5b6e5U, 0xbd2c9c0dbcf97632U, 0x3cce45923d3c1172U,
  0xbb650a233d5941a1U, 0x3d59c642bd8a2d42U, 0x3d3f661fbc3b5381U, 0x3d04c450bc8accadU,
  0xbd8cf698bb63b50eU, 0x3ce66dd33c0d604fU, 0x3c5dd1873bb824b0U, 0x3b82ec883ce73f42U,
  0xbdb91d6abd585eacU, 0x3c55a80cbd29bff6U, 0xbd26a1e33c789e34U, 0xbd2c56a63c9005dfU,
  0xbda33968bd693948U, 0x3c47e237bc72287eU, 0xbce2afd6bd879911U, 0x3d7f6202bbc02b15U,
  0xbc949ca33b5e893cU, 0xbcfb4a48bbf39000U, 0xbcae37483c0bd152U, 0x3c5a69fd3d02c52fU,
  0x3d9189f43c91cf2eU, 0x3d073178bd33c669U, 0xbd9d95f6bd37aaf4U, 0xbce18fc4bd3abaa7U,
  0x3d2fc2c1bd15c927U, 0xbd6b57b7bba763fcU, 0xbd651cb7bd841142U, 0x3d7e94e8bd4d0d27U,
  0x3cdbe6f63bfb2ba7U, 0xbd11d29dbd6cd67fU, 0x3d947c0dbd30e6f3U, 0x3c066391bd69fc89U,
  0xbd24ed013ce04d9cU, 0xba8f9d56bd89c187U, 0xbd0a99183d0382efU, 0xbca152f63c524166U,
  0xbd02bebd3d1485f0U, 0x3d5d15623d431de8U, 0xbd87cde0bcf3590eU, 0x3c0b97693d83c779U,
  0xbd1fea67bd7630acU, 0xbd859860bd012022U, 0xbd1a4af6bd44c686U, 0x3d97f6293c04d11eU,
  0xbdc0fd96bd849944U, 0x3cd601553d3a1984U, 0xbd169a43bd3fa82aU, 0x3d82c7e1bc1b972aU,
  0xbdae7b963c8275d8U, 0xbd8d4f55bd6a080cU, 0xbd764f03bd47ea49U, 0xbc9e365ebc99b8abU,
  0x3cf9e268bcc1ba16U, 0x3ccc31083d2ace06U, 0x3ca48240bdc40173U, 0x3b1e8668bd81fbe3U,
  0xbd4f8d51bca32dbfU, 0x3d60565cbd89274dU, 0xbc9e86b7bd24a79fU, 0x3d30cbb3bc7f8ad1U,
  0xbd3d31a7bd075d33U, 0xbd07ce40bcf74befU, 0x3d8ff622bd9403a7U, 0xbd8cbeaf3d68f547U,
  0x3c5bed053caf2c17U, 0x3a4c156abd3f1502U, 0x3ca54bb53d323f51U, 0xbca7f4153c0e4daaU,
  0x3d1766d53bb11960U, 0x3d103c07bd28b0baU, 0x3cf67bce3c8919c7U, 0xbd1596233d6a0dfdU,
  0xbb752d9fbd12e9c2U, 0x3d1fa58c3d3ca110U, 0xbd97338a3d0a5537U, 0xbc9e07ee3daa56e0U,
  0xbcb8237d3d08a3b1U, 0x3d6eae243d1b6647U, 0x3d43b452bd6552f0U, 0xbd03c296bd749ed9U,
  0x3cd3f54ebcecf588U, 0x3cc625fcbd83b8fbU, 0xbd6f66c7bc25afccU, 0x3d281fd73d078e5dU,
  0xbd2594173c18f0afU, 0x3d07d1d73d1edbc5U, 0x3d32b4ea3c97da21U, 0xbddd04febc0532aaU,
  0xbd3f035bbce5a666U, 0x3d2a51f43d47943bU, 0x3d06f5e03cf8f09eU, 0xbd25cc233d28b0ceU,
  0x3d2e3d49bd0765ceU, 0x3d2d5d02bd1dbd1cU, 0xbc163844bd250d3cU, 0xbd37c61cbbefaf7bU,
  0xbcd920a5bc13344dU, 0x3d32beb7bb43616aU, 0x398af66fbc861258U, 0x3c7c7692bdb63117U,
  0x3d177ea1ba523c80U, 0xbc9d195ebcd92e3eU, 0xbcfb0573bd8edb9aU, 0x3d28aa8c3cc7e2d3U,
  0xbda81f94be0f9ab9U, 0x3ce3b1ef3d4518b1U, 0xbd09d5e2bd177969U, 0xbd49a2473d35417eU,
  0xbd819c1bbc1e87c0U, 0xbc0d9cd43d419365U, 0x3d2830443cbfdcffU, 0xbd7dbc223c9b6e79U,
  0xbda9ac453c8026acU, 0xbd838d42bd1e0978U, 0x3ca39fe0bd8f4ddaU, 0xbbc435e23c00d8f9U,
  0xbc3ecefa3d3ca7edU, 0x3d451f9fbd62221fU, 0xbcfde149bd3c288eU, 0xbd0d0c4dbd6fb97aU,
  0xbd0979623ced2db2U, 0x3cfd7ed3bc4e73f4U, 0xbd8e45e9bd71df71U, 0xbcf191da3d9d456eU,
  0x3d4fb1653cd7419dU, 0xbd83f306bcf23341U, 0xbd73741e3ca4b16bU, 0x3c87b54d3d60109aU,
  0x3d0543d63d329184U, 0xbd3b814dbdd2b8fbU, 0x3c9e2defbd43037aU, 0x3cd9cb14bdabd09dU,
  0x3cabb8cdbd6b045aU, 0xbd83a8a8bd1875d7U, 0x3cf4e4073d2729b7U, 0x3c348eecbd87fcc2U,
  0x3b2ed03abd0d7022U, 0xbd1f07e23a8c0739U, 0xbc9654d83b85d9f0U, 0xbda5eea8bdaa785dU,
  0xbd1a0a09bcc92036U, 0xbdb83a22bd541607U, 0xbcde7b93bd66c1e0U, 0xbd480813bd459ac4U,
  0xbdd0c664bb02e6e0U, 0x3c7bc0eabb40ba40U, 0x3d143a963ca27142U, 0xbc89918ebd589827U,
  0xbd5b4208bd8fe8dcU, 0x3b0fcc4c3c4bd504U, 0x3c91a4a2bd34a002U, 0xbc4416bcbd674fefU,
  0xbdc01070bd1e1b1aU, 0xbd90b70fbd0a4600U, 0xbca41e99bd0711aaU, 0xbc18ae61bdb235c6U,
  0xbd6bc90d3d111115U, 0xbc67363e3a293765U, 0xbd3bed5bbd2efab0U, 0x3a3115193cdda500U,
  0xbc8bc1d6bd455e47U, 0x3b579dbb3b192754U, 0xbd5ab4a93b42b35eU, 0x3be19b16bc6c37e3U,
  0x3d37ce4dbd31fc4eU, 0x3d02eab2bc4daa86U, 0x3b9b7a46bd1f4989U, 0xbd8156a63d2412b4U,
  0xbd9042f1bcb89afcU, 0x3c2fdec93b51d300U, 0xbd883c16bd121c5eU, 0xbc7f9aefbdb8cc5fU,
  0x3ce57a11bd81aef9U, 0xbd5c9bcbbcc3f7eeU, 0x3d04fd74bc758bc8U, 0x3cec73cc3d44d125U,
  0xbcae49aa3c0cccb8U, 0xbcf5991d3d5f31faU, 0x3ccba4003d6a0d3cU, 0x3b53a6293d0a9ec8U,
  0x3c26909dbd09eb3dU, 0x3d657e6ebd3c0ec7U, 0xbcc8c0f6bb6e2b5dU, 0xbddc4d3cbd29021bU,
  0xbd19cd5fbcd4a014U, 0x3c9b8850bd8af0c8U, 0x3d606442ba3654bdU, 0xbc7e06d3be2a1646U,
  0x3d5f55c53c84051bU, 0x3bd579103d2cc117U, 0xbd6be0a3bcdc72efU, 0xbbcdacd73cc00687U,
  0x3ce8ce89bd7d45f0U, 0x3d2b48763ccd695bU, 0xbd87e689bd15df17U, 0x3d8658323d0a452cU,
  0x3b9f3dd3bd719179U, 0x3d71e7cabd1875b2U, 0xbb9bad913d02718eU, 0xbc277cec3d2dcb00U,
  0xbdb6b7b3be086ca9U, 0xbca2a673bd77654eU, 0xbbe2503abd85c40bU, 0x3d3cfbb73afa3395U,
  0xbc9a42a6bd3a3b79U, 0x3d09f647bc4a70a4U, 0x3b7018afbd920eb6U, 0xbc8a5a22bd78983bU,
  0xbdbff82c3c759838U, 0xbd6f814b3d44a36cU, 0x3d114852bd04f0f5U, 0xbd30de99bd9372e3U,
  0x3cddee313d3ea27eU, 0xbc6f02d2bc2983a8U, 0xbc75ad2cbd8e9d28U, 0xbcaf11abbd8a11c3U,
  0xbd7a35e33d17a789U, 0x3c69553b3c338b01U, 0x3d219499bd000635U, 0x3d0c4a67bdb284e1U,
  0x3d2dc011bc998941U, 0xbd8246c83c5b265eU, 0xbc690f98bb26bccbU, 0x3bb2aa2abc2acfa4U,
  0x3c7556863d54e1a2U, 0x3c9b57e8bdbe354dU, 0xbd27c86b3ce93120U, 0xbb97dc6ebd18fb3aU,
  0xbcb289a2bc844738U, 0x3c2fb9713d5e05b7U, 0xbcf9b91f3ca1d8c8U, 0x3d614c513cef755fU,
  0xbceec20dbc7e3d77U, 0xbd199b22bcc9fc95U, 0x3cc598d8bd39702eU, 0x3c80c940bcdc5be2U,
  0xbce1c250ba371bfdU, 0xbd71b0b4bcb8e8cfU, 0x3c9981fabd1a708bU, 0xbccdfd10bc7831ddU,
  0xbda1c4fcbd1d5e57U, 0xbc571831bd02ee16U, 0x3d2a4890bd36f0c5U, 0xbcb43798bd421d35U,
  0xbcf8f45b3c7e2f44U, 0xbc5f056ebd858c2cU, 0x3d2dfefa3c554036U, 0x3c11da79bce9eda6U,
  0xbd905515bc26c9bbU, 0x3cf754c33d1840a1U, 0x3ccd78b2bd8fa047U, 0x3c0ff232be2e141eU,
  0xbd735ec8bcbfe466U, 0xbd841dbbbd931467U, 0x3cd7b0bdbc9c1168U, 0x3d71953dbc73df9aU,
  0xbc7db09a3d0cf9c0U, 0xbc2236f1bd09eca9U, 0xbd5c777c3b9d8c2bU, 0xbcc16c20bc7bdc00U,
  0xbba9ff553d363fe6U, 0x3d480d0f3d68ff1eU, 0xbd8e5740bcff4872U, 0x3d3d55d7bcd6247fU,
  0xbd08fd163c09094bU, 0xbdaf572ebca7e46fU, 0xbd980ab7bda55461U, 0xbd5ddc9dbc9eba43U,
  0xbd4bc63fb9bc1817U, 0x3a3261b03d50cf8dU, 0xbd477189bd3f5e99U, 0xbaf1edc0bd949cd5U,
  0x3ca6f13abd563600U, 0xbcf6ffdcbce2fe0aU, 0xbca3cd6a3cb066c2U, 0xbc5d810a3d1edb52U,
  0xbd486a35bd8f3d77U, 0x3d1a9da0bd01031fU, 0xbd3e5058bd8b7b92U, 0xbc55279e3d163d29U,
  0x3d2b30f43d0a117bU, 0xbd3ec3c4bd66e47fU, 0x3d6e0865bd32fcaaU, 0xbd55c872be30e3c8U,
  0x3d1c62cbbdb8a550U, 0xbd80e9ceba7374c0U, 0xbd4b29993cef7a87U, 0xbb8499b6bd840988U,
  0xbdabbbee3a5f5654U, 0xbcb00b31bca14150U, 0x3ccf082cbd82982eU, 0xbd2a439d3d5a58a3U,
  0x3d61efe7bd0ab0c2U, 0x3d133d2f3cf59e5cU, 0xbd6e08c7bce77d81U, 0x3d3e8fa8bd032329U,
  0xbca98b76bd9a016bU, 0x3bc7de18bc7116f8U, 0x3c9455ecbd9e21c0U, 0xbd0445acbc39d149U,
  0x3a9055d43cfc7498U, 0xbdb4179cbad6cefcU, 0xbd84f7b4bc7aa638U, 0xbc3bbfd8bd2cbcd0U,
  0xbd6add6c3d316702U, 0x3cd195d4bccb1b80U, 0x3c39aa90bd1f76e9U, 0x3cdf85b1bc8bc7a6U,
  0xbe0bad753ceea161U, 0x3c749ff5bc9bed64U, 0xbbf912eebca7d001U, 0xbd80eb0cbc04d428U,
  0xbd0b3fa93b8bea41U, 0xbd8001e4bc93e3adU, 0x3d41bcdfbc425bc3U, 0xbd68affdbcc0eeffU,
  0xbd839f9cbd11c3a2U, 0x3c019b113c85b981U, 0x3cf84cff3d192326U, 0xbcd93ea23d19c9abU,
  0x3c938cfd3cf9db20U, 0x3b919dc0bd903dc3U, 0xbc92487cbd1097aaU, 0x3d14db80bd517175U,
  0x3d4664f2bd0908e2U, 0xbd45d06b3d1579dbU, 0xbd39c230bc584246U, 0x3d012ab0bc7bd9c2U,
  0xbda0c8bfbdc24b03U, 0xbd9c1b42bd36f650U, 0x3d34ae413d0a0775U, 0xbd80e4a8bd03dcc0U,
  0xbda69545bd4969f5U, 0x3cc291c4bbfd1969U, 0x3d1ee01f3cab9134U, 0xbbd47198bd4ae15aU,
  0x3bac84bb3d0338d1U, 0xbc7f67fb3d214f4cU, 0x3d4f9d40bc42f006U, 0xbd75d5abbc8a0194U,
  0xbdf3b5f93d1a5143U, 0x3c2ea6debd9c1233U, 0xbd1131eabdabc736U, 0xbdb3511ebd0fa22eU,
  0x3bad43433c93acfcU, 0xbaadbf2fbd339916U, 0x3ca51d043c2be283U, 0xbd9d2b133cb59608U,
  0x3d14aaf3bd04a847U, 0xbbd6c48c3c5e3b60U, 0x3c05eb8f3c8644eeU, 0x3d620cfc3d449373U,
  0x3c255e31bc943cedU, 0x3c9ff7eebd9b4e73U, 0xbb6cca1fbceeb158U, 0xbd8f27aabc988cb3U,
  0xbd40988bbc0c1ed0U, 0xbb1664313bd0d8ccU, 0x3c809645bd2d6353U, 0x3c462b3b3d0008c1U,
  0xbae94e28bd888a03U, 0xbb8ee2c9bd851f48U, 0xbd2c2929bd9fbd2aU, 0xbc5608f73cff812eU,
  0x3be9ae89bc504e53U, 0xbbd5b2f43cb336ceU, 0xbd4488fa3c13393cU, 0x3cc95f8cbc992771U,
  0xbcfb968cbd4cc114U, 0x3d04ab7fbd5e9bb6U, 0xbd4428d43ceaf1cbU, 0xbd091d1bbd013369U,
  0xbc4febfbbb7cea29U, 0xbde113ea3c56cb7cU, 0x3d338ae2bda33453U, 0xbdf71ec2bd0b8570U,
  0xbd5e59f43c58418aU, 0xbd740306bd0fc4beU, 0xbd328783bc151d71U, 0xbda0d3073d2715a7U,
  0x3d3cb2c7bd7081a3U, 0xba8993b6bd312ae5U, 0xbd52b215bd9909abU, 0xbd6bc3c33c14ba8aU,
  0xbdfec205bd05e54dU, 0xbd13bbb03b02ae31U, 0x3d230b573c667170U, 0x3cd4bef83b6e607bU,
  0xbcc0cd853c9fd53eU, 0xbc2dde1cbd6f886aU, 0xbccf9122bdc7fde8U, 0x3d3a9547bd5c55feU,
  0xbd8305dfbd63c300U, 0xbda2d5f2bc9881e6U, 0x3d2d1e57bd7fec99U, 0xbd1b194d3d28e7c8U,
  0x3c21864cbcd7044dU, 0xbcff41fb3d0b92fdU, 0xbc3f6d09bd7a69deU, 0x3c5c2e80be0a10f1U,
  0xbebe1db8b99038aeU, 0x3d74489cbe0d5069U, 0xbd594ade3c32070dU, 0xbe0d8071bf20fe9aU,
  0x3d19598d3d281c50U, 0xbd2e5e4a3d08fb78U, 0xbcab0b3e3ccb3e9dU, 0x3ba502edbcc2fdd6U,
  0xbd8f83a4bd334817U, 0xbd63006e3d3950fbU, 0xbcb3ae9ebcf7389eU, 0xbe9e98aabebc4d28U,
  0x3d5ee457bc81a62cU, 0x3d24847bbd0285cfU, 0xbba622f3bbac1100U, 0x3d8bd49abc73325aU,
  0xc00c1a47bba16de5U, 0x3c4e88a2be3659d7U, 0xbc11700b3ca0b992U, 0xbd839ce0bbc86cf8U,
  0x3c4bde6f3b6cdd1aU, 0x3ca9155e3bdfebddU, 0x3d6020b0bfa98b41U, 0xbd757bc7bfaea81aU,
  0xbda75aaf3e741b8cU, 0x3c5ac9e2bd3a7d37U, 0xbda7fc22ba6b308aU, 0xbfe63be2bfbef3b8U,
  0x3faf20babab70f53U, 0xbf9ba6c03c64ca4dU, 0xbee79f04bd4d0da9U, 0x3cd9448cbe582086U,
  0xbdd98cb6bc47653eU, 0xbca05a85bde627d1U, 0x3d7ca54ebd15e22aU, 0xbe528df8bde714bfU,
  0x3af39218bc4f419bU, 0x3c85b2a13d4f705aU, 0xbd96d8d2bcb0a8c3U, 0xbcb14d75bd59d165U,
  0xbb888e0bbc5014c7U, 0x3c4f05653d23e478U, 0x3c10fb6a3d5a8f78U, 0xbe89ea95bdd786baU,
  0xbc54ba1d3d2b4432U, 0x3d910744bceb4158U, 0xbded9a993d0eb372U, 0xbb92c1493d25d6c5U,
  0xbfca336bbd019a9bU, 0x3d4e1a09bddf04a0U, 0x3d1e31313d88e8bcU, 0xbd13baa1bca9611aU,
  0xbdf907d43bf430fdU, 0x3b5bd453bbb9565bU, 0xbc6f9809bf3d2b7aU, 0xbd387363bf914774U,
  0x3b0204b33e46aa3eU, 0x3d027a593d974a45U, 0x3e86fcd8bc09b794U, 0xbfe6a7cebf855196U,
  0x3f0399fa3c345eceU, 0xbf33c09dbcd62af6U, 0xbee7e2a43cf5b329U, 0xbd908fe9bec06290U,
  0xbe11fddebd030482U, 0xbc668723bda1e51fU, 0xbd4a86bcbd07245cU, 0xbcce091fbe897b35U,
  0xbb9028593c1fe766U, 0x3ce269043d8f7a2eU, 0xbd9d1c99bd6fba0aU, 0xbddd5db0bcbf4013U,
  0xbd3557e6bc9a1128U, 0xbcda3cbbbd671150U, 0xbd4a5cdcbac89fe3U, 0xbdd16ebbbe4e7ff0U,
  0xbd0ad14a3d13eab8U, 0x3d89b500baf05b25U, 0x3c9e2331bc95f037U, 0x3b1496123d75398aU,
  0xbfae83c5bcf6a155U, 0xbd25488d3c919b02U, 0x3da7a1293d0c434cU, 0x3cc40827bcbac4e2U,
  0xbd78ce83bd4e0971U, 0xbd0d15e73d526879U, 0x3cc73e2abfa1e915U, 0x3d0c2485bf7bbed7U,
  0x3d294c183e184715U, 0xbd15ea9cbd131b9cU, 0x3e82a8303d863182U, 0xc0042a1dbfa7710aU,
  0x3eaf10f13cbd5ff3U, 0xbf3263fdbd36e2f3U, 0xbefb0be83d6db01bU, 0xbd9c4f1cbe372310U,
  0xbd8776dd3b11aacfU, 0x3c3fe9e3bd87e21fU, 0xbd2d9b163d827dfdU, 0xbbb10286bed58f3cU,
  0x3dfd10e13d6e59c1U, 0x3d18ab593d858f06U, 0xbdc4d6343b0098e8U, 0x3c6fc7b93cdd8fa8U,
  0x3d2ef7b23d265427U, 0xbd86b2a93d297c43U, 0xbc37d785bd2df694U, 0xbd3764a43dd46b3cU,
  0xbd037a073d6dfafbU, 0xbc2b46d1bb1f6deaU, 0xbd1236d3bd7cfbdeU, 0xbd194acbbd540c13U,
  0xbf87ccd6bb33424eU, 0xbcf2d27abd421026U, 0x3c0455e6bca54b9dU, 0x3d1382a1bc778d3cU,
  0xbd8869febcc3cebaU, 0x3d8312223cc46080U, 0xbcc55da4bfcf89e6U, 0xbc75b7cdbf98fa03U,
  0xbd7095493d8123fbU, 0xbc3e00673b33c73bU, 0x3ed4772a3dc59d31U, 0xc0037e0cbf8f729fU,
  0x3e2b648b3d2d0574U, 0xbe22d03cbda78ba3U, 0xbed6052ebc818108U, 0x3bdf1d5fbe572036U,
  0xbe49366abccf1bf4U, 0x3d14d827bd619fa2U, 0xbc357d903c0f7630U, 0xbe2fe6d0beaec4b5U,
  0x3d5ddce33d51dd02U, 0x3caf6938bce1d622U, 0xbce01ebfbbdcb230U, 0x3d624e61bba75678U,
  0x3d503837bd146d5cU, 0x3ca00eb3bcdd745eU, 0xbc5752e3bcdc70adU, 0xbe4e1df83e3039caU,
  0x3d7cc92ebd940349U, 0x3bbcbf6e3d3156beU, 0xbc99c387bd696ce8U, 0xbbae26d13c8f2c37U,
  0xbf4665923d56f49aU, 0x3cff4ef3bb65b55dU, 0xbca569883d53a347U, 0x3b0abd37bc91e807U,
  0xbd5883d3bd5bb5eeU, 0x3c84009f3d0c955dU, 0x3ce09cfdbfbc9a54U, 0x3ca6d12bbf8c60b7U,
  0x39bd8a70bcda54c3U, 0x3d9830683c1d16b3U, 0x3e89c5eebd1e6a8aU, 0xbfbe0ca0bf820b5eU,
  0x3d4eadbfbc49dfb0U, 0x3d76500f3cd3adf9U, 0xbf21921ebb367212U, 0xbc515568bec5efe2U,
  0xbe6ec4cfbd15abb8U, 0xbcd3bdb13cf85dd1U, 0x3c8217943cef413eU, 0xbe42573abf06ecffU,
  0xbc8695133cac89f6U, 0x3d4a2c0e3c578b97U, 0x3ccbde9a3cff8a20U, 0xbd128d7bbd1e4836U,
  0xbbf91e85bcc12171U, 0x3cee13a2bd2d6a9aU, 0xbcf3f4633c078a72U, 0xbd98d2ba3eac4f8eU,
  0xbccc8a82bc03389eU, 0x3d729d233c49b583U, 0xbddf923fbd8b0bd6U, 0x3d56556e3cf4d414U,
  0xbf36f8bb3c30a571U, 0x3cd731a93d68ae02U, 0xbd06c2fabd38279fU, 0xbd1c1148bda1a14bU,
  0xbdaa7d653ca1f8e4U, 0x3cc4c9e93c98102bU, 0x3c86848ebfc1efc9U, 0xbbedae31bf7257c2U,
  0xbd89dee53d809fb7U, 0x3ce86a443cb8aa3fU, 0x3e3dcaa33c86e40cU, 0xbfa9bf13bf842b60U,
  0x3e231a023d5ea6f7U, 0x3d88143b3ba3e283U, 0xbf4d70873c5b2245U, 0xbce91fdcbed9df1aU,
  0xbe5de98e3d6c678dU, 0xbc3e8c70bd1211e8U, 0xbd3504ccbc5184f0U, 0x3ce081eabe87fedaU,
  0x3c440d0fba468d60U, 0xbd25d1923d7f177dU, 0xbda64bc9ba8758b6U, 0x3c26e63bbbb954baU,
  0x3c0ce56a3d4c3d30U, 0xbd85cbcfbd5fac8dU, 0x3c12d0bd3c02df25U, 0x3dd7b90d3eb6b76eU,
  0xbc64f5e8bd4aa7edU, 0x3d6ae18cbda675edU, 0xbc9e8d323d59ca79U, 0x3ba9d81ebbd5713aU,
  0xbf3b2931bd292a01U, 0x3cbad8543cc5ae7bU, 0x3d679d87bd012371U, 0xbba1be6cbdad8069U,
  0x3d2ff359bd845287U, 0xbbae4cd83d3b45aaU, 0xbd2d0dd1bfa0b72aU, 0x3c360bc2bf83332eU,
  0x3cb4ec1b3da0ca1dU, 0xbba540983d311f5dU, 0x3e2a8453bcfeac7dU, 0xbfa3c254bf88a8eaU,
  0x3d7ae9c7bd33afe0U, 0xbc07f173bc178f89U, 0xbef9609abcbfd6f3U, 0x3c8f79fe3ce746b3U,
  0xbe37b9443c85bf23U, 0xbd013e7c3d99f595U, 0xbc7019a43d916277U, 0xbea2e667bee4ff82U,
  0xbd9d298fbc6e32e6U, 0xbc45536e3d3946b8U, 0xbbb12290bd9ec5d6U, 0xbd88b3863c43797bU,
  0xbcbe6e103da07476U, 0x3d61e75e3bd5bbe6U, 0xbd245ce63d39c5b6U, 0xbe5fe7f13eecb924U,
  0xbc817919bb941210U, 0xbc4293653de0f403U, 0xbca38ae53d03cbffU, 0x3cf2d5a03d14ddbdU,
  0xbf7561023d3f4ce3U, 0x3ca3c8fa3bd05f53U, 0x3d5f06c73cca8a51U, 0xbd518179bd82ef85U,
  0xbd045cdcbd87d256U, 0xbd2297443d3bd3aaU, 0x3c78e9cbbf710e86U, 0x3cecbfe0bf689820U,
  0xbd1e3f863d8a3810U, 0x3d6e777b3d64084eU, 0xbd4d1da5bd1249e0U, 0xbf882ffbbf6b22dcU,
  0x3e66a8dcbc9029b6U, 0xbd8902713d528666U, 0xbc00c4bb3b94994fU, 0xbd9ab0f3beb3c344U,
  0xbe648a71bc4fbce6U, 0xbd18585a3db0e0a3U, 0xbd54cf1dbca22500U, 0xbc9fab75bf1d7259U,
  0x3c86194a3d26fa67U, 0x3da18df43c62c206U, 0x3bc5f7cc3b96051aU, 0x3cbd87e2bd6b599fU,
  0xba9802db3d87a8dcU, 0xbd7452f6bd086ca6U, 0x3c89a38cbd550652U, 0xbdd490c43ed342dbU,
  0xbceda0f1bd293a6dU, 0xbd161ca83cd0bc27U, 0x3d3be0b03d2f3314U, 0x3d0c2047bd4191d2U,
  0xbf8775d53d07481fU, 0xbd69ccccbc08f860U, 0xbc19f058bac1ecd6U, 0xbc843c213c939f35U,
  0xbdaf7648bd226a72U, 0xbd0aa9203d299116U, 0xbd4e7172bf91a696U, 0x3cc52073bf406cc6U,
  0xbc1f12253dcf24f3U, 0x3d89bfa33d47868cU, 0xbd87712f3d04a720U, 0xbf94ae32bf51f464U,
  0x3e5c65f03c7c27b5U, 0xbe1cc0ee3d33512dU, 0x3eb0b4513ca1935dU, 0xbdaf7bfebdb68fc9U,
  0xbe501155bd851eacU, 0x3ca95594bcdd9a9cU, 0xbc1ba438b9e60c44U, 0x3cca6e25bf30bba6U,
  0x3c48d7a53c64804eU, 0x3c957b98bbdc483cU, 0xbcd73567bd481911U, 0x3c26b2973c87e32dU,
  0xbd9fe292bd63cf45U, 0xbc0228573d7e4916U, 0x3cab3bee3d0844ceU, 0x3ec81de73ec3771dU,
  0x3bd39fe8bc1517b7U, 0x3d70e6f53de92646U, 0xbbaf443d3ca228c7U, 0x3c3dad2fbca364ecU,
  0xbf986dc3bcd4c6e5U, 0xbd26f39dbd00ca8cU, 0x3d005932bca855e6U, 0x3b0e88a8bcbb8428U,
  0xbe21ce6fbd415b1eU, 0x3c88bda3bd54ccf8U, 0xbbeea617bf704966U, 0xbd6f79c0bf45d274U,
  0xbd469a743d189786U, 0x3c8b0f3fbc7a8341U, 0xbd0f96303d30a68eU, 0xbe44a3b7bf5460c7U,
  0x3e4066023d070e25U, 0xbe85d9d1bcbc18a3U, 0x3ec2d29b3c3250ddU, 0x3cdcdf6b3e070288U,
  0xbe4e4d77bd0de6f0U, 0x3cf5d8253c066473U, 0xbce63e923d41c951U, 0x3ed8696fbeabd181U,
  0x3e021c8dbca952abU, 0x3c26c8c0bca6016fU, 0xbccade34bd53edbcU, 0xbd34f9b5bd0dd02fU,
  0xbcd14698bd84bb94U, 0xbca4dfe33d16d73bU, 0x3d3326773d711948U, 0x3e951e973ec588b4U,
  0x3d123a24bc2e8b91U, 0x3d1c632e3bd79552U, 0x3d20e61f3c28d9c2U, 0xbc82b2d93d5fb782U,
  0xbf7210183dbb16aeU, 0x3d7901513b7378bdU, 0xbd2314423c3ee5ccU, 0x3bbf7f87bca7c092U,
  0xbda79c043d25f88eU, 0xbd2c69debcd9cf5aU, 0x3d615ff9bdf746c4U, 0x3d6122fabf31feecU,
  0xbd3842d0bd522fbcU, 0xbd51dbddbd619ffaU, 0x3e50e538bd7ba086U, 0x3ea33e84bf45cfd0U,
  0x3d4f32c13d45e3e9U, 0x3f24c5703ce12008U, 0x3ef41e9d3d9d3b41U, 0x3d110fbf3ef70cc1U,
  0xbe935a06bcf78b1dU, 0x3c7154c1bc7b3cb6U, 0xbd70ce99bcf71947U, 0x3f0bb353be496e45U,
  0x3dcb55463c19bb3dU, 0xbc73756bbcea9d6fU, 0xbd5276db3a567a78U, 0x3d61750e3d38ea2bU,
  0x3d93bed6bd0598bfU, 0x3d208e0dbc879ac1U, 0x3d47e1f53b546478U, 0x3eab4f073eca1415U,
  0x3ce498cb3d56f9bcU, 0xbd45f78ebd3b894cU, 0x3d36f924bc64760fU, 0xbcce356c3d1bb612U,
  0xbf4295ad3b50d180U, 0xbcb154913c6817a6U, 0x3d962ea5bc8458acU, 0x3cd8bf98bd6ea8b5U,
  0xbd250ced3d783bf1U, 0xbd8d34b63d602538U, 0x3c76a99dbcde2f97U, 0x3a8e79eebf26336bU,
  0xbc20a697bd2979aaU, 0xbdc2d65abd1ca9c4U, 0x3e1ed6043d8093c7U, 0xbe1b222fbf4981d4U,
  0x3df2f779bd35ab41U, 0x3ec8b184bd89f259U, 0x3ed185bcbd803185U, 0xbd265c7e3ea2e39aU,
  0xbed9ff6ebbdfa3c9U, 0xbc557e6abca5d052U, 0x3d59a3383d321fb6U, 0x3ea6b05c3e2ee511U,
  0xbc5d10d03cfb209fU, 0xbd24a98ebd34fcf9U, 0xbc9ac5babdac5effU, 0x3c40fdddbcc1e262U,
  0xbd662b6dbd990de1U, 0xbcca370c3d31b6feU, 0xbd686e78bd272423U, 0x3e829dce3ee1daacU,
  0xbb48ba2b3d103cd9U, 0x3d0a28b1bce155a3U, 0xbcc945a13d11fe42U, 0xbd2d0aa5bbb3df13U,
  0xbf2cf346bd4eb40cU, 0xbc8afc673b67a31aU, 0xbd21d129bd03fd30U, 0x3d15abbcbd1d0f3aU,
  0x3cdbcae4bd2ba820U, 0xbcfd13b6bd1f5cd2U, 0x3ce08ced3e6c3c7fU, 0x3cfd6734bf5b031aU,
  0xbc05dbf1bdb07d48U, 0xbc7265473c20cc6fU, 0x3e606d1abc7f9c1cU, 0xbd1480f5bf843c00U,
  0x3e1cd496bd20ed74U, 0x3e4a1e17bd2296acU, 0x3f063f84bd0fb31dU, 0xbc62e5e93ead2e66U,
  0xbee0102b3cff7f28U, 0x3d2cfa5e3ad9bcd0U, 0x3d25bbda3c9c271bU, 0xbcc606113ebbf7e8U,
  0x3d4dea82bd3db57fU, 0xbdc0099fbc9317bfU, 0x3d435badbc1ba4a2U, 0x3d2a9cffbc6826ceU,
  0x3bf884b83d30b678U, 0x3d2a60ed3d528b18U, 0xbd509982bd682e88U, 0x3e8518913f190757U,
  0xbbfdfeb53d561443U, 0x3cb85bb03c35fb63U, 0xbc92facebd1029a1U, 0x3d58baa7bc6a1103U,
  0xbe4f968fbcd35003U, 0x3d25c0333d2bf8b4U, 0x3b06118e3d7dc2cdU, 0xbc9b9c67bda97befU,
  0xbd918d46bdb365a8U, 0x3ccdbf583d605352U, 0xbcc432073e26499bU, 0xbd11ba63bf9700c7U,
  0xbbbbbb40be10a340U, 0x3d4a83d93d196b07U, 0x3ecded7d3c9b88f7U, 0xbd9d4c3ebf6491beU,
  0x3e90eee93d8bc722U, 0xbd2853efbc9a5154U, 0x3f0ff6383d51ef0fU, 0xbc75de063e2fb290U,
  0xbed5eea73bc91a8fU, 0xbd8328353d0ef215U, 0xbd3e3c2ebd48e4e7U, 0x3db760153e9a2cb6U,
  0x3d88dc85bc9f671dU, 0x3dcf9771bcf8956bU, 0x3d44fa74bdbc6dc9U, 0x3d4dde023d53163bU,
  0xbcdf21393b176e03U, 0xbc3a4265bd475b5aU, 0x3caa8964bd8256f9U, 0x3ef9d2903f057604U,
  0x39dbc4a23c93fdc0U, 0x3be54b513d3e6620U, 0x3d3ab6843d321647U, 0x3d4c6cee3d5a5248U,
  0xbda19732bd189484U, 0xbd0bc39dba2ee623U, 0x3d7e50963c7172bdU, 0xbc06c1413cc21426U,
  0xbdfe8ae9bd01d7beU, 0xbc5b6c803cfa5fb1U, 0xbca95344bae1f644U, 0xbd7ba5d9bf1bef2fU,
  0x3d597fb0bd947f7dU, 0xbc87abb83cab543bU, 0x3edb81e8bc4059d9U, 0xbddc46a6bf8129abU,
  0x3e770d90bd2de861U, 0x3e76ac27bc05fbc7U, 0x3ef4a27c3d21da49U, 0xbcbc107f3eae8fe0U,
  0xbeae2021bc2a1ec6U, 0xbd0bf3e43d89556fU, 0x3d1b55f8bd64d803U, 0x3e8dd7253e045383U,
  0x3c86c7e6bd39166cU, 0x3d07ed5d3cbbc415U, 0x3c8b5753bd0ec6bdU, 0x3cc25437bcc3f6e7U,
  0x3bedc57c3d3730f0U, 0xbc38cc45bd6e1324U, 0x3bfd1c103d151cf8U, 0x3f1432743ed8d4d0U,
  0x3d43122dbbb48471U, 0x3d54a24bbd72f7eeU, 0x3da37910bd01ccc3U, 0xbd1319dfbd63099eU,
  0xbeefa9983d051ebcU, 0x3cf53070bd438d05U, 0xbcf7b1013d3f9cfbU, 0x3d41e41ebd097cc9U,
  0xbcef6db1bd5468f8U, 0xbd17a8773c8e71daU, 0x3b7267efbe256c10U, 0x3d5b35c4bf064e53U,
  0xbd9473a3be1933cdU, 0x3ca268f43c380011U, 0x3e71e8873c89d177U, 0xbf05cd26bf6dadebU,
  0x3e5c48563d82228cU, 0x3c96d1a63c445e92U, 0x3e53289bba290758U, 0x3db69a273f0057bcU,
  0xbec56625bd3aa61fU, 0xbcd0ab013daf8e5dU, 0x3d2834503d1c5d58U, 0x3f0c4ab53e2184edU,
  0xbd16bb28bd651fedU, 0x3cbc68453d8643bdU, 0xbd6ea15abc8de573U, 0x3d5588b4bc8b738aU,
  0xbcd5493f3d98f010U, 0x3d5b42043b54ad18U, 0x3d181b04bc888c6eU, 0x3f1b69fc3eca2116U,
  0x3d843995bc0041fcU, 0xbd655951bd2ae2c8U, 0x3dd170f1bce1cc02U, 0xbc38ac17bd57e600U,
  0xbf0f43763c28e822U, 0x3d2ccd79bc0a985fU, 0x3d14a68b3cf5e3aeU, 0xbcea6f1cbd5d8543U,
  0xbd15215dbc43e79eU, 0xbd4ac1fcbcd5b6efU, 0x3cd4f1a7be80b389U, 0xbcfb3be7bf551618U,
  0xbbed328abdc9f9b3U, 0x3d65f7b4bbc79180U, 0x3e446ecf3c347435U, 0xbeb2bad7bf9bce85U,
  0x3e7a617ebb05226aU, 0xbefceefc3ba74f33U, 0x3e37a3fa3d406722U, 0x3d824fdd3e8e573fU,
  0xbe8b1ba03d366d67U, 0xbd0156e0bdacce5cU, 0xbc707cbc3ce8eb3bU, 0x3f3da7b1bddf65baU,
  0xbc8a8209bd2ec9ddU, 0x3dcb4b943d40c130U, 0xbd3ad366bdc8b15bU, 0x3ccc3360bd4fc442U,
  0x3cec5b423d4556f1U, 0x3d0595433c6f6ad2U, 0x3bcc04e13d1b70b6U, 0x3f04a0743ec93146U,
  0x3d11d4723d4ecb0eU, 0xbbd5b3aebbe5bc16U, 0x3c927f163c499528U, 0x3d24c25b3d0e212dU,
  0xbeefd73f3ce69f51U, 0xbc708caabd64df52U, 0x3c6babee3b68a4fdU, 0xbd36c67b3ba96bf3U,
  0xbd86319e3bc26ff8U, 0x3ccc34813d217457U, 0xbd3a66703e762c1dU, 0xbc4c3633bf29ff17U,
  0x3cc7b1f4be1a3bdcU, 0xbcde3183bd546b37U, 0x3e71b620bc3fcf0fU, 0x3e946bbfbf827564U,
  0x3e70e8e83d798d27U, 0xbecd7afb3d4d1defU, 0x3e2eaa0a3ca177c2U, 0xbd82f8493f04bf28U,
  0xbebfa95a3d6e49c7U, 0x3d23df2f38ea29d1U, 0x3b883e603d0aada8U, 0x3f40ead6bee38686U,
  0x3ca7890d3d6e8a5cU, 0x3da81209bd29b5f4U, 0x3c3fb0ddbdd6d4dbU, 0x3d3790903c015b19U,
  0xbbdd3be93ccf4f1eU, 0x3cf72e383b9fb605U, 0xbbc9da65bd264785U, 0x3f06869a3ee7fbcbU,
  0xbd1670543c3e9842U, 0xbb8bccf83d0d6d3cU, 0xbc04d40ebd40ab45U, 0xbc3b60883d1f25baU,
  0xbf216eac3cf0bccbU, 0x3c915aa3bdccfa56U, 0x3d9324f23d040df6U, 0xbbd44749bd1ae47dU,
  0x3c020b613c8d2da8U, 0xbc6fef3a3b66fc24U, 0x3d2ea414be574c7fU, 0xbbfc5f13be1e0f5aU,
  0xbd5b2529bdd45918U, 0xbd374c7ebc90b38fU, 0x3d281649bde09032U, 0xbf114045bfa079a3U,
  0x3eaa94b43d5fbd28U, 0xbf562ebebd3cedabU, 0x3dc393723cb5cf54U, 0x3b0944b33eb89ecfU,
  0xbe853336bb824da9U, 0x398cd33c3dae1847U, 0x3d208baa3d5f9626U, 0x3cca160ebf4038dbU,
  0xbce9dbcb3d3fcd4bU, 0x3d1865713daa3625U, 0x3d26468fbd31f8b9U, 0x3a891b6bbca4950cU,
  0xbc9f9c973dfb8c05U, 0xbd46fcaebd5df2bdU, 0xbc8877f0bc600904U, 0xbe1b4aac3f4acca7U,
  0x3c5b88cd3c253da1U, 0xbb9a79023d2422d9U, 0xbd394c473c5d2855U, 0x3d297356bd54fd86U,
  0xbf8a7187bc10574bU, 0x3d304fdfbe14869fU, 0xbb1f2d0cbd47e063U, 0x3d69d297bdccba97U,
  0x3d35655b3c99b46cU, 0x3cc849fcbd61728fU, 0xbd83eca0bf3ad2b0U, 0x3cfe4a54bd95a736U,
  0xbcf1f6d43db3de2bU, 0x3d8cea8a3c382772U, 0xbe80f1283c6208bcU, 0xbf3fb1f3bf01f7d9U,
  0x3f1bf8643d4914caU, 0xbf6560b53d3ff984U, 0x3c3aaebfbd31c90bU, 0xbd0b7dbdbe621dabU,
  0xbf502d12bd161d59U, 0x3d37dfbf3c8d3b64U, 0x3b5a98603d8b147bU, 0xbdf1c938bfa537edU,
  0x3d8ef19abd2742ffU, 0x3c9848aabd5a4d89U, 0x3d968d09bc8f34b7U, 0x3e807ea9bd2b9dc9U,
  0xbdcc01b33d1e0578U, 0x3cd929e5bd2a6ab6U, 0x3d07180fbd389f07U, 0x3e929a7d3f6da324U,
  0xbdb2ed603d285675U, 0x3d12df593d0fd728U, 0xbc2d49dbbc895af3U, 0xbc6b745ebd71fdf7U,
  0xbfda38b6ba571f27U, 0x3d3ca4dd3d2a8e47U, 0x3c86071b3c9a25edU, 0x3c94dc56bab96ed8U,
  0x3d3111e13bbb2990U, 0xbcd87c37bca673ddU, 0xbd02a5b0bfd0678aU, 0x3d183269bea9ea02U,
  0xbc048c333c019376U, 0xbbe4a11ebbf10f00U, 0xbedd79ca3d827b3eU, 0xbfda6c4dbf640465U,
  0xbe244bbf3d154011U, 0xbfbe255ebd6eb285U, 0xbeb55cf73d81204fU, 0x3d795b4abe8c86a4U,
  0xbdc78847bd4857ebU, 0xbd81dad0bd8f2298U, 0xbc885dd63d5c0928U, 0xbd98d28f3cf53f65U,
  0x3e111849bc85715eU, 0xbc8cd1ee3d3036caU, 0x3c802e88bc443e69U, 0xbd61d7efbcf50d45U,
  0x3d1a22243d1b0b43U, 0xbcee5c81bd3e05a7U, 0xbb83d1f5bd5d8dd7U, 0x3ce0e7ebbe2a32ccU,
  0x3cbc89673d18381dU, 0xbd6f3bd63d02d28fU, 0x3c3900c5bc9b47c9U, 0x3d82d2c7bd451114U,
  0x3d6670e03d2d6d30U, 0xbc948bdabce97ca5U, 0xbd8a4be5bcfc9edcU, 0xbd251963bb53fc9bU,
  0xbc7c9df83d070f4dU, 0xbd588d913afd089fU, 0x3d3449123c3ab5ccU, 0xbd4879b73dedb0cbU,
  0xbce1e503be000380U, 0xbbb3e29e3cabb047U, 0xbd3b77bb3d07cdccU, 0x3d91aa22bd98af9aU,
  0xbd6664473d495edeU, 0x3d074005bd6285dcU, 0xbd0de5193d9bdae1U, 0xbcd442e33d6d78d0U,
  0xbd3e17903d275934U, 0xbd32afe53bc4802fU, 0x3c6697403aa58054U, 0x3d351562bd5fbf83U,
  0x3c5512a93d23ee61U, 0xbcc12c2abd252d76U, 0x3c8e4f153c4ec955U, 0xbd395ba0bd45b8ddU,
  0xbd587465bcbe3069U, 0x3d7fbc8bbd4e1905U, 0x3c909b6abd1484a1U, 0x3da6dbb0bd87bbf0U,
  0xbd689cdd3d6c1f4cU, 0xba2864423b80bcd6U, 0x3d3ddff3bd1685b5U, 0x3c719f93bd11e31fU,
  0x3c552c55bc68c7c5U, 0x3d1084373c95aaf2U, 0xbd3027ac3d412040U, 0xbcd6b904bcb18444U,
  0xbd98529e3bedf91fU, 0xbc2cd30a3c93ee59U, 0x3d2f5c803cdf3ab1U, 0x3ca3f1453d86cafcU,
  0xbd570f18be361a89U, 0x3d04a4c1bd4049c7U, 0xbd10bbbd3d8dc4c6U, 0xbd372060bda1767fU,
  0xbd124d14bc46b832U, 0x3d9421353ca182abU, 0x3d3759103bf83046U, 0x3b2a401fbd8b73d7U,
  0xbd91716c3d28ae96U, 0x3ce8cc223bb85306U, 0xbd719649bd6df8b1U, 0xbc06bc65bc25a25fU,
  0xbbab4eb1bd871b0cU, 0xbd10b4a63d6bdb28U, 0x3c649b743d2e56fdU, 0x3cde1dd13d10fde2U,
  0xbd7fdc193d17d202U, 0xbd25aa7ebc8f2ff3U, 0x3c1ea0ff3d474812U, 0x3d9ea035bd24f6b0U,
  0x3d75ba0cbc87c0d9U, 0xbcfc5b1dbc694054U, 0xbce8fa0a3cffdb8eU, 0xbd3048a8bd20e07fU,
  0xb9d01ce73d7b921dU, 0x3d52f012bd94538aU, 0xbc971c67bca19371U, 0xbb62e7463c587b62U,
  0xbca9fec5bd8614dbU, 0xbcfc9ecf3ce2f828U, 0xbcce57933c53b083U, 0xbbfba6463d9bef0dU,
  0xbd67e01abe4d9f32U, 0xbc80e2d83d768ad5U, 0xbd0600cd3c06b3c7U, 0x3c9f1bdbbe169e78U,
  0xbb01c8a63b8c8697U, 0x3cb3c4f5bd4294adU, 0x3b1bef813c175f18U, 0xbcde281bbc69a405U,
  0xbd3992443cdfaba1U, 0x3d129f06bd2269d2U, 0xbd835663bc04ac90U, 0x3d625283bd087742U,
  0x3dca25cfbb455d0eU, 0x3d0454fb3d3986b7U, 0x3ca9891b3c43af7cU, 0xbd189be8b8a61425U,
  0x3d295f173c129942U, 0xbcc1bf4fbcd8bb64U, 0x3c9a9c923c91614cU, 0x3d00ff6cbd09489aU,
  0x3d895e263b0bf5c1U, 0x3d12bb96bc36a993U, 0xbd15aca3bd2f7238U, 0xbd32ea223d31c9b6U,
  0xbd2722d03d791792U, 0xbd9a35cdbd120dc3U, 0x3b8bbbda3c03a2adU, 0x3c0470bfbd061bd2U,
  0xbd9e2d77bd43e1b0U, 0xbcb96f8cbd09c729U, 0xbd45dd79bd4bf022U, 0x3c22b042bd4f0e25U,
  0x3d06ab1bbe6869b1U, 0x3c632baabd0f0e2aU, 0x3a4339a6bc15664aU, 0x3d1b2388bdd6a42cU,
  0x39b01e713d102684U, 0x3bf419e13d0607b1U, 0xbcfa90453ce2f991U, 0xbabeb07d399b7a11U,
  0xbceb0bc43c6127bcU, 0xbd20f2cdbd19c3caU, 0xbd8187b03d4e7091U, 0x3d8dd08fbcf3b3acU,
  0xbc4a7facbd291970U, 0xbc0da33bbd397330U, 0x3d34f4aabb330697U, 0xbd81b2d73ba3cb19U,
  0x3b2064b53c569930U, 0x3d4cdae13d1aacb3U, 0x3d36730e3d710683U, 0x3dda6184bd8f170bU,
  0x3d31b72bbc91ccebU, 0x3d07efa8bbbdc4d8U, 0x3d5c87b23bde784cU, 0xbcaf39023d76ae97U,
  0x3d11a4ffbbdb0433U, 0x3cbf1105bc61f091U, 0x3c6fd9253b28a57fU, 0x3d20e140bd3d9918U,
  0xbd20b9c7bcf8046bU, 0x3c8b97023cf15e0aU, 0x3d79f973bcdb9699U, 0x3b55194e3cedcc7fU,
  0xbd947f43be1a113eU, 0xbd8a32e7bd78d402U, 0xbbb2889ebd77bf44U, 0x3d483435bdf6bd79U,
  0xbcb9501739a81ff3U, 0x3da1c1c53d1fb949U, 0xbc9be72e3da70475U, 0xbc7aae1f3bda91f3U,
  0xba1b6214bd816473U, 0x3d48692c3c079459U, 0x3ccc87343d586f82U, 0x3d12a11ebd48a7d2U,
  0xbd17be843ac8b2f8U, 0x3cbf365f3bcdab47U, 0xbc1e9e0ebcbc9bdbU, 0xbd3c21b83b778f4bU,
  0xbd2115b1bd9252fbU, 0xbd6cdbbebc3ce8b6U, 0x3cc588f33a807b4cU, 0x3c777e07bdddd2e6U,
  0x3babb74f3c4f3092U, 0x3d516bcebcdf7c47U, 0x3cdcb401bd0545eaU, 0x3d6ca2c63d644347U,
  0xbd452c96bd55283fU, 0xbd40a72dbd427f93U, 0xbd114dcabd13967eU, 0x3be11919bd1ca795U,
  0xbd347f21bcf853adU, 0x3d2eed7fbcc02de4U, 0x3d14c3f6bd296634U, 0x3b7c8f50bd964349U,
  0x3d0aa21fbe1e8f72U, 0x3d30c2b3bd502f91U, 0xbdb51b0f3ca932b7U, 0x3b58b429bdf24abcU,
  0x3d3fcfdf3bfb000aU, 0x3c987ffabd04e022U, 0x3d01f9eebd523e76U, 0xbdcea93a3b235725U,
  0xbd4bde623b52ce7bU, 0x3d24745f3d73f7dcU, 0xbc6c1ac83c16ac93U, 0xbd2b88a23d1ae22eU,
  0x3daffdc7bcc44713U, 0x3d4e201bbd80fa7eU, 0xbc096e4f3baf50d1U, 0x3cc3925f3c0f1dfaU,
  0x3cc907f2bcf85e6cU, 0xbd8e4d403cbe7521U, 0x3c0557e1bccae412U, 0xbca85850bc443927U,
  0xbcef21ba3d27ac1dU, 0x3c93e481bd798513U, 0xbca2363f3d010c66U, 0x3d86b315bd717f46U,
  0x3a99aa00bc82bbc8U, 0x3ba08ee0bce62eeaU, 0xbba205e03ce41fd0U, 0xbca99baebd262ebbU,
  0xbccefb9abc124c34U, 0xbbbb1a02bd2c23c7U, 0xbd4f58d4bd08128cU, 0xbd33668fbc9aca75U,
  0x3b878bb3be1af74cU, 0x3d6107953d00b583U, 0xbb53ecf0bd0ce013U, 0xbd073b06be0c84cfU,
  0x3d4ca73f3c2971d7U, 0x3d41e5153c59e54fU, 0x3d2793ff3d0fccf2U, 0xbd4bb1b1bd41a24cU,
  0x3d0a9d70bd41f486U, 0x3c0faef13d11f3a2U, 0xbce2c3f83caa918eU, 0xbda4a217bc9402fcU,
  0x3d5f55d23b93339cU, 0xbc08552c3d5dfcd7U, 0xbd6400503c4f3575U, 0xbb8b406fbce49a28U,
  0x3c99033ebd04c6f4U, 0x3c61c2cdbd591c1eU, 0xbc95f182bca37935U, 0xbc000cf8bd2a32fdU,
  0xbd331692bd75bfa3U, 0x3d5a80ecbd4db3f5U, 0x3cbd2ec6bcc309d4U, 0x3d4388633ca5a4f9U,
  0xbc01c090bd33e0d7U, 0x3d0dbe983bb298f9U, 0xbd325cd73d24263aU, 0x3a767f773c982388U,
  0x3d0a8e5dbd1db22cU, 0xbbc8c84b3d1fc17dU, 0x3bfe5eedbdc4b156U, 0xbd8321ae3ca364feU,
  0xbc3695d0bd98f774U, 0xbc6ffdbcbd32b7e1U, 0x3d3e8d323d397817U, 0x3d144040bd65bffbU,
  0xbc51da9c3d5788ddU, 0xbd139c12bd3945d9U, 0xbcec01eb3d8a711aU, 0xbbc8e7fbbc10a36cU,
  0xbdecf10cbcbb2d1aU, 0x3af107563dbf83efU, 0xbd7f91ff3a001e5dU, 0x3b705df1b83ebcb3U,
  0xbb8177203c79c059U, 0xbbf31b68bd3d1b42U, 0xbd25bfc9bd4b33acU, 0xbcb5529b3d204c37U,
  0xbd21ce05bce38a76U, 0x3d1b6e7fbbda9f21U, 0x3cf012d43cc9cd31U, 0x3d796da0bd62de89U,
  0xbd5179223d589b86U, 0xbd4d18523bfe2f2aU, 0xbd11025bbd5586a5U, 0xbc54a1233d34a4fcU,
  0xbc67ec963ca79dfeU, 0xbaf36290bd57e7afU, 0xbd3e17f33bf5dfcbU, 0x3cace8b43be44f3dU,
  0xbcea5055bc34c050U, 0x3ae9ae9abd806e2bU, 0x3d2336e1bce00e7dU, 0x3d5b5aa13c7e4737U,
  0xbcaf4bf4bdbbc226U, 0x3d3da85cbd7519b6U, 0x3adfce87bb647425U, 0xbdb3064fbdbcb820U,
  0xbcbc0503bcfc6664U, 0xbc56d43c3cebbb1eU, 0xbb5b1fde3c666f61U, 0x3cd9a58c3d096ae9U,
  0xbda7e2fe3bbbf2baU, 0xbd4e20363d294fd9U, 0xbcdede043c950b5bU, 0x3c32f28f3b203256U,
  0x3c0022c6bd50e382U, 0xbd8f39b03d1505bbU, 0x3d1439bcbd8aae2bU, 0xbc3ec8febc8bdd9fU,
  0xbd38d4fdbcaf0b3aU, 0xbcffdc4e3c888fecU, 0xbc0dd83fbc270642U, 0x3da8eb4ebd0432b8U,
  0x3d1098e1bd34763dU, 0xbd12f81f3cb19184U, 0xbc8ce1f23d700124U, 0x3b1afeecbc1d4882U,
  0xbba59e49bcbe289aU, 0xbcc973af3c13804cU, 0xbd0097a4bd26bd89U, 0x3d0d79bc3d56cd5fU,
  0xbc3a272bbd833e70U, 0x3d5414173c651260U, 0xbd7b7cebbd767988U, 0xbca6f5f0bbf511e9U,
  0x3d2102d2be003fd6U, 0xbd81b12c3d584caaU, 0x3bf75e35bd039a2aU, 0xb8bc89f2bca4b8e0U,
  0x3d7d9e6fbd55de70U, 0xbbcb825a3d180500U, 0xbd5a2e36bd297f12U, 0xbcc7fb5c3d5ae282U,
  0xbc053bc2bcf27727U, 0x3b9e09723d89a7f7U, 0x3d313a9ebce1b9bbU, 0x3d0b9b75bca85d6aU,
  0x3c9721b1bc2b9b83U, 0x3bd1ff49bd3f1a41U, 0x3d6a7c123b13ee2aU, 0xbd30018f3d0e9c6dU,
  0x3d5b8afbbd501442U, 0xbcc161a3bb6e3ebbU, 0x3c31bf4f3c55bf3fU, 0x3d34797abd0d2c31U,
  0x3d628cb7bc32333bU, 0xbd7a8ef1bd62e4baU, 0x3d4064e03a732ef7U, 0x3d3f33e23ca5deccU,
  0xbcfa1f693d4663ecU, 0xbd40a5bf3b5508b4U, 0xbd6f4f213bc275e8U, 0x3b5eea39bd5aa084U,
  0xbcb229db3d2622bcU, 0xbc326b39bcc37fa8U, 0xbd2d6c81bdac1f99U, 0xbcf05b183d7ab5e9U,
  0x3d316e3cbda5cd53U, 0x3cf03467bd4402f9U, 0x3c5b91bfbc9a986dU, 0x3c177e74be1a3b3bU,
  0x3d3abccb3ca14a44U, 0x3d8ba63bbd98005aU, 0xbd4f1d49bc03c124U, 0x3d478f63bd0f9436U,
  0xbc84a9d13ce2686dU, 0xbd3dcda53dadb86eU, 0xbd2fb0f83d807af6U, 0x3cbfad8fbcd11967U,
  0xbb95ceb2bca051c8U, 0xbd0386663d332d9eU, 0xbd8ee04f3c60c157U, 0xbd40d189bc174e0cU,
  0x3d5f0f7a3cfa4c09U, 0xbb1af9e0bd92174dU, 0xbbf37ac93beea8b9U, 0x3da63382bd134f44U,
  0xbcf431b5bd903194U, 0xbcc8f2113ca1d9cfU, 0xbd79e302bd3d4fa7U, 0x3d51f3e03d28d9f0U,
  0xbcdfb97f3d334a2bU, 0xbcda3a60bd4f5cacU, 0xbd7425dab7d9553aU, 0xbd422547ba83aaadU,
  0xbcc3daa4bceecd78U, 0xbd263da8bc5db7d8U, 0x3cf449a1be0a4bf3U, 0xbcd23b293d7a2eb3U,
  0x3d19b82cbe1350e0U, 0xbb4f75a8bca15129U, 0xbd4b2902bd410dbaU, 0xbdb6afeebda01b98U,
  0xbcdae003bd1711f7U, 0xbd42f6123d469569U, 0x3ceb85c5bc7ab73bU, 0xbdc080df3c36fdc7U,
  0x3cc4e06d3aad9c2eU, 0x3c91a6cf3cecb7e6U, 0x3b8e1cf03d21e2b2U, 0xbcae56103c6ef829U,
  0x3d2e73ba3cf486ecU, 0xbd5ad675bd045123U, 0x3c1c98c5bd3fbc63U, 0xbce67f1d3d77ce95U,
  0xbd8a6e933d42f84bU, 0x3caa4da83d336370U, 0xbc25c772bd70b928U, 0x3db9f608bd1e1b94U,
  0x3d3225573c3b0b79U, 0xbd878a21bd7ef7ecU, 0x3c0287693d6722eeU, 0xbd3e3645ba760050U,
  0x3d04faaa3d102455U, 0xbbe13091bd809797U, 0xbcb1655abd173cd0U, 0x3bfed9863d45bd21U,
  0xbd8e17693d0b0f8cU, 0x3d0174d33d07cda4U, 0xbd1d058dbd1364c8U, 0x3d0f64a53da6988fU,
  0xbc83f9cfbe64c765U, 0xbd0fd01dbc8842ecU, 0xbdafa71bbab3f592U, 0xbd2f7d5bbe273a43U,
  0xbc4db1213d0afa2aU, 0x3ab7200fbcca8f78U, 0xbc159e1e3d3efbe2U, 0xbd220e0bbc6b332aU,
  0xbc2480423d1d98e2U, 0x3cbb9bcc3d4b93a4U, 0x3c6289803d00bd67U, 0xbc2a0e0b3d4ee42bU,
  0x3c309dbdbaa05accU, 0xbd34556dbbfae528U, 0xbbc4d0843d5054b1U, 0xbb87b4493d789490U,
  0xbd55e76e3d515504U, 0xbd40d93c3bd70c8dU, 0x3bc5cf223c03ec7bU, 0xba6766a9bdf014d6U,
  0x3d4faa533c02296eU, 0xbc8e3d1f3d480242U, 0xbb9510d73d59b513U, 0xbc3445af3d273b5eU,
  0x3c8f0080bd261bc7U, 0xbd3e0e8a3d0f443aU, 0x3c331a313d49bd09U, 0xbd8aca7fbd1fb2d8U,
  0xbc29bf47bc937386U, 0xbd851d9f3c071085U, 0xbc3772aebc259bfcU, 0x3c122ab93d117994U,
  0x3ca10288be03aaf6U, 0x3d578d54bc597d16U, 0xbb83adc33d61bb61U, 0xbca46d8abd913e3fU,
  0xbd79ba4f3c8f0343U, 0x3d88c7fabcb734b5U, 0x3c57666e3cd63693U, 0x3d76634c3ca3bc69U,
  0xbd8a00b33d136770U, 0x3d80e51a3c655c2fU, 0x3d0d33da3d7b971aU, 0x3cff37c23c0a492aU,
  0x3d65110dbc86a299U, 0xbc7ac1003d760da5U, 0xbd4f17013d303a95U, 0xbd13e07b3d155a87U,
  0x3c9e6537bd3f2eedU, 0xbd2a5e90bcaac9ceU, 0x3afc8f58bd1dace9U, 0xbd234a74bd653817U,
  0x3d06df383d1fc4f5U, 0x3d2dc4b53d6fa5c4U, 0xbc5f8fd0bd5942c8U, 0x3d5150abbd606d72U,
  0xbca492953d741945U, 0x3bc9aa023cd83366U, 0x3cbfe2bfbd3b5999U, 0x3b9d5556bcd661baU,
  0xbd81c391bd7d8300U, 0x3d0292e63cd56698U, 0xbd80bb4fbd0ecd11U, 0x3d44ea75bce575f6U,
  0x3cab7acbbe5469a4U, 0x3d285676bce47ad5U, 0xbd9153953d80ceadU, 0xbccb78e9bdea2c18U,
  0x3cda8e98bcce74ffU, 0xbd44e51ebd81011aU, 0x3c800a653d4fab74U, 0xbd5827433dad260bU,
  0xbde6fe593cd717caU, 0x3c288e983d5d764eU, 0x3d706a003d211ba0U, 0x3d6a9373bb5977a2U,
  0x3c9298a13b9fc219U, 0x3cdfce58bd1527afU, 0xbc35d3a2bcd76646U, 0x3c43cccd3d701d1bU,
  0xbc92d5bd3b1b7499U, 0xbd6d7c80bd0a5f9aU, 0x3b82c47cbd4d33d4U, 0xbd69147bbdaee185U,
  0x3c19da58bd249560U, 0xbd207351bd217435U, 0x3cd456b8bd2a7ba2U, 0x3adaa6fb3d6a85b8U,
  0x3bc90e30bd0871e6U, 0xbd47758b3d118469U, 0x3bb5728fbcc8871dU, 0xbd7fcfd2bbb491c8U,
  0x3bb424b43d2a0268U, 0x3c874a94bd10cacdU, 0x3d4891cfbd2ca7d3U, 0xbd4e5b59baf611ddU,
  0x3d48b3dbbe747e59U, 0x3d0d77073d257a26U, 0xbae823e7bd685af5U, 0x3cc9b43cbd8ced2aU,
  0xbd4a8224bce0cb66U, 0xbd73064bbd80ea30U, 0x3d08e2383c91782bU, 0x3d0209d33bcc7a39U,
  0xbd6ac48fbc7b7f23U, 0xbd76b77b3de1157eU, 0xbc7f3b60bd2f649bU, 0x3d2667433c60d516U,
  0xbc5d0603bd732936U, 0xbd62a907bd243dd6U, 0x3d813098bd912a23U, 0xbd1b833b3d06fca1U,
  0xbd0f7d10bc9196a9U, 0xbd7f78503cfcc6f5U, 0x3d6fb4a73cb4d473U, 0xbd28cae9bdb52744U,
  0xbd4b82ffbd64095cU, 0xbadfce823cc859c0U, 0x3d0a9c98bd13bb30U, 0xbd6f941fbd3c1a68U,
  0xbd669d723cb4080eU, 0xbd03654abd9a4adeU, 0xbcf2a31f3cd89d27U, 0xbd6c5c65bd8e72dbU,
  0xbc3c350a3d0f47b8U, 0xbd4a9ff6bc336308U, 0xbd4a4388bd452b6fU, 0xbd5a675abda2298aU,
  0x3d0bfe21be191861U, 0xbc0819613d4559a6U, 0xbc8936483d1f1f0aU, 0xbd3ef5a4be1e29b4U,
  0x3d13b811bd5f4772U, 0x3c7e9fcfbaeed108U, 0x3c185f2d3cbb7e27U, 0xbcf281203d680c3cU,
  0xbd08af083ce448b7U, 0xbc9196c03c334447U, 0x3b969d60bd283d8aU, 0xbbcbb18cbd68177bU,
  0x3af80dd73d77feb3U, 0x3d6a0a713d87004fU, 0xbd9c07e23cfdffdcU, 0x3d33a8633b9bba24U,
  0x3d3bdade3d598420U, 0x3ceced3b3d1ce49bU, 0xbd653d6d3a3c31ecU, 0xbca64e66bdad7bc2U,
  0x3d0343783d3ea5e1U, 0x3c8683ba3cd13089U, 0x3c70c66e3d20ef1dU, 0xbc0cb8ddbca8d7b3U,
  0x3d05da7dbd281a99U, 0xbd75e450bc662ecfU, 0xbcbce26e3d187af9U, 0x3cdc4facbc2f3774U,
  0xbbde230d3d1b800bU, 0x3cce25a23bd38c4eU, 0xbd87e5a7bd7deaf4U, 0xbba9dd903bde867dU,
  0xbd5de35ebd882ff1U, 0xbd3d35473d51556cU, 0xbd4fede33b85db03U, 0x3ce90baabe0bfe58U,
  0x3d079e913b9eaf6cU, 0x3d63ffde3d0a2113U, 0xbbc35f7dbcfebb2fU, 0x3cddff683da9c53cU,
  0xbdd4b83ebc0f255eU, 0xbd6cf6983cd078a4U, 0xbc228a28bce39933U, 0xbd783bdebcd3a46dU,
  0x3d468827bcddccefU, 0xbc01b03abd516a5fU, 0xbccfb951bd91a6f0U, 0xbda12a33bc8f5da3U,
  0xbd2786ea3d1aa1b9U, 0x3d742c22bda3f929U, 0x3932ac623b9e6fafU, 0xbc4a5ec8bdfe6e63U,
  0x3d20cd48bd8cba0fU, 0xbd0a6d99bd77f030U, 0x3ce1ffad3c348552U, 0x3d7213103b55af08U,
  0x392cb9adbd4df119U, 0x3c1ca56fbc1eb703U, 0x3c45bf00bd7b61dbU, 0x3d223bf93d04ec44U,
  0x3cc3834dbaa27370U, 0x3a9d60523c604903U, 0x3d27d161bcbb6806U, 0x3ce595c73d409f4bU,
  0xbc485042be17fda7U, 0xbae42bcdbd355551U, 0x3d1d6824bd2fff7cU, 0xbd443244be1d849bU,
  0xbd5d1145bca23ad3U, 0x3c9ac088bd1ba5a1U, 0xbc6109433b1310e5U, 0xbcd735023d4e385aU,
  0x3c984ac9bcd04b20U, 0xbc3575643e0732fcU, 0x3d3ac0d4bc4fba7eU, 0x3d024f8f3d823712U,
  0x3d9364fc3cb431d3U, 0x3c52b8c6bd6a31f5U, 0xbd813d35bd06b0adU, 0x3d0f139ebd57aa5cU,
  0xbd352e933cf18389U, 0xbc1fd201bc45acaeU, 0x3c3336783b15a5a8U, 0x3c836036bd0d7569U,
  0xbd44122f3c7cd0e9U, 0x3cafd0bb3c89470fU, 0x3d7e50b63c0b57edU, 0x3d3e6815bd8375c2U,
  0x3cdbb5d53ce63c96U, 0xbd291562bdab1746U, 0x3ceac789bd5e2b11U, 0x3d282f42bd2538e4U,
  0x3cd2afaebce84dacU, 0xbc21b8dbbcb10f97U, 0xbc0d22213cc92055U, 0x3cc9fbd1bdb360c7U,
  0x3a067394be5e2e4aU, 0xbd8c3786bcbfb4edU, 0x3b53a219bd1a9bb3U, 0xbc2edcdfbe042e9eU,
  0x3d2cbc0f3b110c15U, 0x3c35d83ebbc16de6U, 0xbd73e6d53c19916dU, 0xbd0974243d112d37U,
  0xbe06b83abd79a68bU, 0xbd6eeda33c913e9bU, 0x3c9358903c2fdf0cU, 0xbb4ee533bc90be6eU,
  0x3c0e5531bcbd5a00U, 0x3ca24e91bd5c84f8U, 0x3c5656683caa08f1U, 0xbc39a4f13ba36edeU,
  0xbce31c25bd236da7U, 0x3d276d88bc5565c3U, 0x3d0a3d8dbd01c96cU, 0x3dbd34d3bd829238U,
  0x3d10ebf63c820aedU, 0x3d3bdc993cfbed0fU, 0x3d4d5ecb3d5b605bU, 0xbd883938bd028c6dU,
  0x3c93f95e3d450ea2U, 0x3c29eba9bd96d4d8U, 0x3cb9f4f2bd61ce97U, 0xbce8121cbb136baaU,
  0xbc88fc4e3bfa6b60U, 0x3cf4479bbcd70248U, 0x3d6f7f1c3c7d95ceU, 0x3d2a43943d1aa0e8U,
  0xbbf7747fbe5cede2U, 0xbd33649c3d2c9390U, 0xbb6aa7eabd0db19cU, 0xbc5685b4be056189U,
  0xbcf256ca3c113900U, 0x3d2c83943bb105fcU, 0x3c384625bd3a2de2U, 0x3ca7b2383d051f79U,
  0x3d0d923d3d78e762U, 0xbc39155e3d2fcbc4U, 0xbc45c1fc3d0d47d3U, 0xbc1fdffdbd57d8e0U,
  0xbd0cc71ebcb43192U, 0xbc7da48abd018791U, 0x3d489818bd84703cU, 0xbd06668bbcae405aU,
  0xbd320b38bbe4e8d5U, 0x3d2280a23d64c96bU, 0xbd2805c0bd573c08U, 0xbd865acbbd35c251U,
  0x3d0ff44fbce789b3U, 0xbd833ac53ce61184U, 0xbbea68efbdab863cU, 0xbd62e4ca3d666607U,
  0x3d1d29c4bce15967U, 0xbd61258fbd8ccd35U, 0x39dbc0013b9173eeU, 0xbc9867a93d40532bU,
  0xbc9411acbd69aad3U, 0xbd55eb793d683212U, 0x3b8951e83c3947adU, 0xbd1c7fbbbc6fdb06U,
  0x3d30b7cbbd886ad8U, 0x3c8363edbbf68423U, 0xbcd72ef9bd7c36d2U, 0xbd8bc1083d548056U,
  0xbd98f4043ca98c1fU, 0xbccff27ebcac3582U, 0x3c676e003c136b1fU, 0xbd41c024bdd4fac7U,
  0x3cc1a12b3cc37d20U, 0xbd27647ebceda24bU, 0x3d623e6cbd271c32U, 0xbd452c483c2f53b8U,
  0xbd629600bd697cc0U, 0xbc8c6c853af268e1U, 0x3c826bb0bc212ffaU, 0xbcbc6a4cbd330941U,
  0x3d0250703c999c06U, 0x3cb0cfbfbce3458eU, 0xbc88cf343ce9a3ffU, 0xbbc930cb3c3886cbU,
  0x3d4e05c1bcc128f6U, 0x3cdc6ebf3d72e2b1U, 0xbc9dbc883c8e5a8aU, 0xbd4f1346bd70fa33U,
  0x3d4e5fb53c60d3e2U, 0x3cf48c68bd145a3eU, 0x3c9f9476bd242eecU, 0xbd435b1fbc4e41ecU,
  0x3b70cf96b91bd05dU, 0xbd9644babc2a2ab3U, 0x3c60190ebcded9fdU, 0xbd72afdabdc0e1a3U,
  0xbd0106893d08216fU, 0x3c467afe3d302da6U, 0xbdb7b64c3ce207e0U, 0xbcbe90a7bc13a84dU,
  0xbd7d72aebc50da91U, 0xbd6e80113d0d68a5U, 0x3d4a8ca3bacf1846U, 0xbd23e6fabdb3fd6aU,
  0x3ca814fc3d6982e5U, 0xbc2921a2bd4d711bU, 0xbcc7ab363b82a26bU, 0xbc13da7d3c00f14dU,
  0xbd5732adb8e58327U, 0x3bc989653d447721U, 0xbc4e8b5ebb5d224dU, 0xbda72a95bd206b9cU,
  0x3c7bcd37bd2c92b1U, 0xbd770cdabd046e52U, 0x3c425d20bbfd0e2fU, 0x3cb861473cff46b9U,
  0xbcb3ca9f3d1bb227U, 0xbcaceb94ba23b2d1U, 0xbd8db9e33b8d81a6U, 0xbd5ed0a3bb926362U,
  0xbd37bc6dba92fb68U, 0x3ce2f42bbd022bbfU, 0x3c88efd1bd81d385U, 0x397661fa3d6ffb7cU,
  0x3d4251bb3d00ac36U, 0xbd68a8173be0ccaeU, 0x3d89f222bd23a469U, 0x3c9beababd3a1535U,
  0x3d0e4058bbf9e400U, 0x3b4a19cc3d2d744bU, 0x3b93f3633d3fad18U, 0xbd1fc1ce3d5af20cU,
  0xbd291156bc2efd49U, 0xbd906ceb3d8baf88U, 0xbb421e36bd33f34aU, 0x3c8bcfa6bd23e981U,
  0x3d75569abd4b82aaU, 0x3c483d97bcaef5dcU, 0x3ced75183c7edb7eU, 0xbcd78d81bbb2ceb9U,
  0x3d48f41abd49c4b4U, 0xbd2dcc31bd1c36d3U, 0xbc9b93f93d398aefU, 0xbde80b88bd165beaU,
  0xbd699b223bf0ef76U, 0x3d593e36bd0190feU, 0x3cdf75c43be4230fU, 0xbce3af1abafcbdb0U,
  0xbcce32373cca2e17U, 0x3d5841893bec44ddU, 0x3a95ab28bdb357d2U, 0xbc6bf3433c9ac282U,
  0x3be47db03cc1cddbU, 0xbd46200bbbfed9a0U, 0xba2830dbbc0d2cc4U, 0xbc35baa4bd49492bU,
  0x3d5068793be11175U, 0xbd81b066bd4b7487U, 0x3d84cbce3ceff55cU, 0xbc9ea5c8bcf474d6U,
  0x3c19ceda3d035779U, 0xbcf6d9ae3cefb8ecU, 0xba7ee8203cbc5f07U, 0xbd601b59bc8bfcbbU,
  0x3ccf145cbd67a3e9U, 0x3c88e54bbd1a677eU, 0x3b91dacfbd2d0248U, 0xbd2c416b3da958d8U,
  0x3d1848c33d07ea25U, 0xbc8a84463cdddb63U, 0xbc0d589cbcd73457U, 0xbd1f47bf3bfc2250U,
  0x3d3bd6ccbd50d636U, 0x3ad98eb33bc90b82U, 0xbd7b65d23d111b1dU, 0x3c07d65f3cc50a58U,
  0xbce3d8a7bd25eb6cU, 0x3c30158dbd4efa3eU, 0x3c201cc7bacf27fbU, 0x3d6aae35bda164deU,
  0x3d403acc3d3cce48U, 0x3d300aad3d484bb5U, 0x3ca75d71bd3f0851U, 0x3c3b52b8bceffbefU,
  0x3dabf0c63a8eb4a6U, 0xbbb237adbcb3e77fU, 0x3d0995243d06a576U, 0x3bd12e6cbd47a6f8U,
  0x3d0402f4bd6d8809U, 0xbd263b133cb3fd44U, 0x3ccf4f433d2ae325U, 0x3c89fcaf3dfc6e7aU,
  0xb9c3c930bcb7a082U, 0xbd8b3abfbcd956f2U, 0xbce068a0bc9afefeU, 0x3d7263d0bda24816U,
  0xbd5dc9e5bce85730U, 0x3cfa2750bb2b4034U, 0x3cb64993bdd65fd6U, 0xbd03eb883c249af2U,
  0x3dd5caf0bd271976U, 0xbd469be13c0807ceU, 0xbcab61483ca7248fU, 0xbc1ce3d0bda0ecc6U,
  0x3d320ca23b63e583U, 0xbd885220bb087c42U, 0xbd46c0bdbcd80880U, 0xbdb7316f3cd5a626U,
  0x3b494bcdbad1ed4fU, 0xbd60f9cebcd3b42bU, 0x3d131f193ca6662fU, 0xbc8f82bebdd25907U,
  0x3d6814e9bc29ce19U, 0x3c5220073d359e63U, 0x3be92b0ebd08f4abU, 0x3be1c1f83d412ddbU,
  0xbc052739bd7225a7U, 0xbb4d344fbdb596c5U, 0xbd01dc7fbca68aa2U, 0xbbdd7754bc9c68f8U,
  0x3cc90e103cd63749U, 0x3d44b0ecbc70630cU, 0x3cbdfbc53d6fd0eeU, 0xbd87e815bc5dff7aU,
  0xbcffd4b73cca1aaaU, 0xbc373c25bd7f904aU, 0xbdb9fe953ce4b2caU, 0xbbf7272abc347d09U,
  0xbdd847b33b6c3cf1U, 0x3dcd18a9bb733c36U, 0x3d468816bd739368U, 0x3d2aac103d8e557fU,
  0x3d8e7ebdbcaf5c9dU, 0x3d53d3debc896fd1U, 0x3d2e7ff8bd81be22U, 0x3d8b5bcdbdc17c83U,
  0xbd413afc3c4ec491U, 0xbdcc1559bb95cd52U, 0x3d0f417cbc2da3e3U, 0xbcc48f07bcc41fd8U,
  0x3a736140bd32f641U, 0xbca35723bd609befU, 0xbcbf946fbd8b3d25U, 0xbd080713bd6ebab0U,
  0xbd6d6534bd0ab554U, 0x3cc8d94dbd6f6b11U, 0xbcdb4cdcbd2c9f6cU, 0x3ca3f2c93d4b37b9U,
  0xbd9494e3bb963b11U, 0x3d6db3a0bd723ad9U, 0xb92404f8bd6ea04aU, 0xbd8f7bc83cd3b017U,
  0xbb2805b03d4c5f28U, 0xbd0634f43d299b40U, 0xbccd0a37bd24c44aU, 0x3d0a7205bba182a4U,
  0xbcfee2f1bc62bf45U, 0x3c56cb843d0350d9U, 0xbd1deda2bd8d99a5U, 0x3c518b23bd95351eU,
  0xbd00ae8f3d7af2afU, 0x3c939b41bbc8c146U, 0xbbc9fa4ebca1b3d9U, 0x3c2d9068bb29d96eU,
  0x3bd8d9f13d67dcfbU, 0xbc1fd368bd2495e0U, 0xbca50e74bcb9d823U, 0xbd2a29e7bc1b9af3U,
  0x3d073848bd42981dU, 0x3bb932cb3cc903bfU, 0xbd34c6a9bd0878b4U, 0xbce75df2bb9ee63eU,
  0x3a6cbbd9bca3ba4eU, 0xbd252890bcdd1048U, 0xbd242be33d7dcc30U, 0xbd238e1bbd5f39f4U,
  0x3cf04377bcd3971fU, 0xbbacbe81bd31084cU, 0xbd31b94b3ccac9c5U, 0x3d4fa32d3ccd629fU,
  0x3bb41cbdbd72b494U, 0x3c01c74a3c3f40d3U, 0x3d43009f3d83936eU, 0xbdab55b93d48a4f5U,
  0x3caf35dfbd813b58U, 0x3ce6375ebcc46e5eU, 0x3d8fb1d7bcc383abU, 0x3b89f29fbcd42cb7U,
  0xbca4624e3dd47554U, 0x3b99d2ee3d677edaU, 0xbc442b27bce7f362U, 0xbcbf7512bd018373U,
  0xbdbc36303d127d4dU, 0x3d18ed2e3d48e9c4U, 0x3c808da6bd400897U, 0xbc5e0aec3d1ef0bbU,
  0x3d6ded903ce4e775U, 0xbb64a7dd3d82cc96U, 0xbd09c562bc46ae4cU, 0xbd23109239801f25U,
  0x3be5d12fbd070cd1U, 0x3d8697013c64a54eU, 0x3d0a965abd839aa4U, 0xbc9a6e19b994294dU,
  0xbd9c95793cd3fa8cU, 0x3a49cb9d3c52f4e1U, 0xbc869ac13c90cf8fU, 0xbd8b2332be063914U,
  0xbd16a8cdbc8535c6U, 0x3c428395bcd54fa7U, 0xbc82c81cbd9bc3a9U, 0xbbe65c26bd46c889U,
  0x3c91eec83d35af41U, 0xbc4ee59bbd1baac9U, 0x3d066eb33d54e02aU, 0x3b82a2eebcb7b250U,
  0xbd3af2c53c4ea64eU, 0x3c87d7bcbba37f5dU, 0xbb9ad6d1bb281a16U, 0x3d2b3a9c3cc40b17U,
  0x3c6f7f43bbae5e2fU, 0xbd888d593ca3a72aU, 0x3d87a578bcc7c3c3U, 0x3d20fefebdecf144U,
  0xbd09a67cbd1d1d5aU, 0x3d76e40fbca2014cU, 0xbd65aed6bda4f845U, 0xb9a140e33d43a160U,
  0xbb7a56fdbd27507aU, 0x3d1aefce3b838923U, 0x3bfef000bcfe3b28U, 0xbc182cd6b92ca07aU,
  0xbacdd983bd39dcb1U, 0x3d331792bc9e3386U, 0xbcb937bd3b9ee5a0U, 0xbdb80f9abd490975U,
  0xbd8dae70bd379f3eU, 0xbd5ffed0bc8f9844U, 0xbc0008f6bd44136dU, 0x3c06d312be35f4a6U,
  0x3a4fcbce3aab59e1U, 0x3d4284b0bd2983f1U, 0x3b8ebf45bcf04fa1U, 0xbcbc81f1bcc6cb70U,
  0x3b24e01bbd0711c1U, 0xbd429d3cbcffd4b7U, 0xbd5eb45f3d782597U, 0x3b702b4a3d2dd34cU,
  0xbbc1a672bcdd4780U, 0xbcb274edbd6424c8U, 0xbcc500223b333a91U, 0xbc89d51d3d920863U,
  0x3c8a0b81bdfb7789U, 0xbd8284b53c58c69eU, 0x3bf9b5f4bd488e1fU, 0x3c318efebdb63cc6U,
  0xbdb991eb3d49b3ebU, 0x3d4e19c3bd7a2195U, 0xbd693c37bcabcf88U, 0x3c1e45febd409014U,
  0x3bb6ced43b733d2fU, 0x3a94a5c23d5aa4eeU, 0x3c9de2f0bcc8692dU, 0xbc7741b23d1202f1U,
  0x3cf94172ba4f39f7U, 0x3da896bbbd930335U, 0xbc31e908bd3b7d0eU, 0xbd4605803c265d23U,
  0x3bdbeb5e3d3c0ccfU, 0xbd8b1ae0bd97b694U, 0x3d867eb1bd871643U, 0x3d6f5e36bd9319c9U,
  0x3d3f764bbc98b832U, 0xbb5593bf3d4e2ba7U, 0x3ceead16bce32195U, 0xbd53e6f93c91c176U,
  0x3d82d1373c2ecf7bU, 0xbd8a48d9b9bd0bcaU, 0xbd72a40e3d840771U, 0xbd9f57babdb512d6U,
  0xbd34549fbc531933U, 0x3d0bab663d675a18U, 0xbc4776b93d495f0dU, 0xbc2a26403cdf3c00U,
  0x3beee878bddf3417U, 0xbd101ae53caa2852U, 0x3d8610273d02ad17U, 0xbc9ea2e83c91e791U,
  0xbcee39d3bd658f18U, 0x3cec870bbc1e5b28U, 0xbbd798943cc4348bU, 0xbd6df268bbba1ba1U,
  0xbddd1d26bbf320c4U, 0xbd3f030dbc3d5312U, 0xbce8f0403d4660eeU, 0xbcbd4b50b9d321beU,
  0xbbd72dd23d4e765bU, 0xbd2930cbbca692dbU, 0xbd1623c83a98d0dfU, 0xbcf1bdc83d30889aU,
  0xbdc43eeabc46be81U, 0xbc2691f0bd229c64U, 0xbd0ab0bcbd28f1e2U, 0xbbed0be13c2e623bU,
  0xbd651576bd880049U, 0x3d4eb9cbbd705358U, 0x3aca8992bdb8dac2U, 0x3cff8ff6bd042631U,
  0xbdb9cb443d781789U, 0xbd47ee04bd45f76fU, 0xbd6700ecbcd055d3U, 0xbcb2b180bdb12408U,
  0xbd36d6e73cf1e42eU, 0x3b00360d3d277ad6U, 0xbd500ab8bd1f5aa5U, 0x3c9ce92fbd26d1f4U,
  0xbd65d16abda0a58eU, 0xbdc505eb3b899e26U, 0xbc99a88fbd1c339bU, 0xbd2eea2ebcfea125U,
  0xbd7e2673bca5d9d0U, 0x3cbaf44fbd0ce8c6U, 0xbdbe74323c8743c7U, 0xbd9b4468bc4bc088U,
  0xbb6aaa7e3c638cc2U, 0x3d376831bd3063d8U, 0x3c1bace8ba546361U, 0xbd75a5853c68d2ebU,
  0x3d644a18bca8d796U, 0xbd07cf9c3d6785c8U, 0xbd5827f0bd428e56U, 0xbde76223bc27a74dU,
  0x3c347c32bcdb4811U, 0x3d5de6c7bd835d5cU, 0x3ca0a30ebb90f151U, 0xbd18a05ebba1326aU,
  0x3d66e307bd275c33U, 0x3d6031373c26c191U, 0xbd820267ba71e1cdU, 0x3c937ac8bb85ca68U,
  0x3bda9e203d471503U, 0xbcb0772cbda0c47fU, 0x3c56c143bbd52453U, 0xbd08e795bd9288ddU,
  0x3d783a87bd1fef33U, 0x3c7f8671bd46b732U, 0xbbd7ce3bbc7a0301U, 0x3c9a5eebbd2fe21bU,
  0xbc9ab5e3bd963263U, 0x3c896bf2bd2f1470U, 0xbcae010cbc1340c6U, 0x3cae882abe121af3U,
  0xbbe113983c88bd1eU, 0xbcaadebe3d2b29c1U, 0xbddcfc52bd5cdb25U, 0x3cb60fddbd3a5145U,
  0x3bdb3a20bca70544U, 0xbc3b416a3d42b4afU, 0xbd7dc96b3d2b193eU, 0xbd084f11bd4ca71bU,
  0x3d77e3f6bd8e5e89U, 0xbd4f2e083cbad26bU, 0xbd951e31bceb4c62U, 0xbdf8330abcb0bcaeU,
  0x3cd9fd833cc3f05cU, 0xbca87a563d24bb30U, 0x3b97f225bc21647aU, 0x3d19cc35bd9994c7U,
  0x3c91d93abc49ae03U, 0x3d0f3016bce8bfa4U, 0xbca4d34bbc47a832U, 0xbc3c010dbd232e76U,
  0xbd17301a3d63862fU, 0xbb9724d43c53ca91U, 0xbd3e1652bd66fd34U, 0x3b844e04bda2cd15U,
  0xbc2deecebd4f0230U, 0xbd3be19c3d52800eU, 0xbd0b7e163b48d8d9U, 0xbc5af915bdd0ae78U,
  0xbd7907adbd9712aaU, 0x3d0c74c93d7ac8c7U, 0xbd8be5bcbd28d017U, 0xbda5bc79bd6003beU,
  0xbc8b9b673d5dafafU, 0x3b1a6948bcd3692fU, 0xbd99ca9abd025be7U, 0xbafdc012bd354456U,
  0x3da7d19e3cff94a7U, 0xbd881a943c9ee485U, 0x3bfa81903b57f22aU, 0x3bc8de14bd178687U,
  0xbc4243d43c0794f1U, 0x3d41a2cdbd149ec2U, 0xbd5874bdbd6e143cU, 0xbd57d92d3d62df7aU,
  0xbd66440d3d25d70eU, 0xbd5f33b6bd5f5a65U, 0x3cfa89f23cc637edU, 0xba74e1febda78bbeU,
  0xbd6b7403bcbf50d6U, 0xbcc4a432bc112191U, 0xbd02e1a1bdb5ca75U, 0xbd5fd2813d6f73a8U,
  0xbd841dc8bc2bf7f5U, 0xbca6b72d3c97abccU, 0xbc1bc41bbcfdaa1aU, 0x3d3a10f6bd818858U,
  0x3d1189803d71d513U, 0xbd9037c6bbd2676bU, 0x3d7d4b8dbd3f5a0bU, 0x3ab68d48bd8be032U,
  0xbb55c439bdd85a80U, 0x3cb9072bbd4d0cffU, 0xbb2792fe3d84b741U, 0xbd899627bd0c33caU,
  0xbdcaf7273d1054abU, 0x3c150518bce8e167U, 0xbd7fd8123cfb66efU, 0xbb77f330bd7f32beU,
  0x3d5cdc1fbc4b9fdbU, 0xbd931331bd395670U, 0x3c7d4758bd88bab5U, 0x3d774c7ebd50a43cU,
  0xbcb0f3973c9d687aU, 0x3d164c01bba0655fU, 0xbb8d0b963cc0c4e6U, 0xbc1cbd46bd04a0e3U,
  0x3d248e68bb90e44fU, 0xbd0d87f3bd656589U, 0x3d1116403ca8cffcU, 0xbd8bb028bd18b341U,
  0xbd6183de3c702fceU, 0xbd351c123ca74171U, 0x3ca49468bd7257b8U, 0xbd5801f33d35d340U,
  0xbd0f146bbd2e3f3dU, 0xbbdc372ebd2aa624U, 0xbd676f8cbd10ef7bU, 0x3d22f390bc335e55U,
  0xba9ece9b3d597dd3U, 0xbc020c093d3dd685U, 0xbd112149bc30b7b3U, 0x3d61ec8dba6ba73bU,
  0xbd4cb908bdaa39feU, 0x3d48bac5bc32f6bdU, 0x3b93ba763d01b383U, 0xbd09210fbc0d34c1U,
  0xbdc28c2abcb93801U, 0xbd7cd2443d3803a6U, 0xbce46de4bd62e363U, 0xbd026d61bd969a04U,
  0xbda89f293d47a73aU, 0xbd189594bd880606U, 0xbcacbe10bc747638U, 0xbd38b464bc4ce7c1U,
  0xbd43d46cbcf1069fU, 0xbcb4a6c03c0039f0U, 0xbd4479b7bd0cdcd2U, 0x3b98365a3d018cbeU,
  0x3d2656fdbccc75feU, 0x3d25f99abb958e5aU, 0xbd2ca3303d40d0f6U, 0x3c3f4575bc28954aU,
  0xbd3857d8bd39ab5aU, 0xbd4f8b8e3c9ac193U, 0x3bfd0079bdb34331U, 0xbc61f9ccb91137d1U,
  0x3dac3ebb3c93e034U, 0xbcf7c436bd9df15dU, 0x3d6c1a34bd56d33bU, 0x3d4d37af3d298ed5U,
  0xbd1f3440bd84febeU, 0xbd603f883d340cbcU, 0x3d62c2ba3d3c045bU, 0x3d2742773d213ef6U,
  0x3d04dec73d117a65U, 0x3cd87ff1bcdb1d8bU, 0xbd25ca91bd5f565cU, 0x3d83d3cfbd6e2164U,
  0xbd6c75d4bd6136ceU, 0xbd212fdfbd01e6a8U, 0xbcf382e33cafe46fU, 0x3d10469d3d13211fU,
  0xbd37ea6e3c515bd4U, 0x3c8eb358bd4087e9U, 0x3d66ed4abc175841U, 0x3d17eb87bd8d9df5U,
  0x3c90ce8bbd248c45U, 0xbd4a9815bd45a2bbU, 0x3d68a5adbda57d63U, 0x3bb045ba3c398b57U,
  0x3c7598c03ca6bf44U, 0xbd324ff4bcde2428U, 0x3d3d66763d1f723eU, 0xbc456ae6be059431U,
  0x3d30a6d43d8c916fU, 0xbcf8a000bd3a29a8U, 0xbddecde9bd89fd5dU, 0x3d6b26fe3ca8f29dU,
  0x3bb85303bc23005dU, 0xbd57eb163d65bee6U, 0xbd3c5104bc392ae4U, 0xbd39b7683dbb6f42U,
  0x3d02f4d23b6b634bU, 0xbd34f4b1bd60054fU, 0x3c8954be3d5bb9dcU, 0xbc8d9be13d9fef6cU,
  0xbd8d110e3c5aecb3U, 0x3d198f753ca758b4U, 0xbd3526503d139087U, 0xbd24a85d3d46e034U,
  0xbc03e65dbd30dcffU, 0x3ca33c2bbc3ba79dU, 0x3d28d91bbd85f3daU, 0xbc661b2dbce0874eU,
  0xbd86d60b3d452643U, 0xbd1afe73bd1318cbU, 0xbd106318bd6ff041U, 0xbd15c31cbc543bd8U,
  0xbc9d22f83cb51425U, 0xbd2b71eabcb32cddU, 0xbd7196843cf20e55U, 0x3c024ae7bd0482d4U,
  0xbd451b0dba4c5b53U, 0xbb81ffc43c1d6382U, 0xbd5b70f2bd8ce5b7U, 0xbbb701a8bd1cbf7eU,
  0xbd082ac9bd808a46U, 0x3bffbbca3d204301U, 0xbdbaabd33b0db3c0U, 0x3ab05224bbbac3edU,
  0xbc1b00aebc187c9aU, 0xbd2e8fb7bc9b2863U, 0xbc3784f5bc2a55bfU, 0xbd105b75bc8e46b1U,
  0xbcf491b4ba5a8ecaU, 0xbd293461bc8c371dU, 0x3d695eb1bd248e21U, 0xbc674103bd740b44U,
  0xbcb448613dc08547U, 0xbda92f73bcf66b29U, 0xbd0f857d3d3ecc2dU, 0x3a6ae98c3cadd3f4U,
  0xbc8e5f1d3ce81388U, 0x3d321b923d792c36U, 0xbc1cf3a53c0bb53fU, 0xbd5e5db03bc3e90dU,
  0x3bd5cc073bd72315U, 0xbd30b36fbc9edc74U, 0x3b7c985b3c3dbd19U, 0xbc91dd76bd9c08ffU,
  0x3b8df862bce0308aU, 0x3bd73df8bd717593U, 0xbb31e1813c648e0fU, 0xbc9a5b6a3d1bb7c9U,
  0xbcc5ba27bd8ce162U, 0xbd2952d13d50980fU, 0xbba669d83c0df81eU, 0xbc54962fbd90843dU,
  0x3d6df2793d23f61eU, 0xbd646c40bd6fb981U, 0xbda71e5f3b170acaU, 0x3c7fe65bbb9836c1U,
  0xbb51dcfe3cd144fdU, 0xbb1bb154bd8abb70U, 0xbcc53eb2bd50316eU, 0xbd2e2f223b9356ffU,
  0x3d89c4f3bd090835U, 0x3bf70e7cbd64dceeU, 0x3c65af9f3c5ff82cU, 0x3d591c9bbcc2024eU,
  0x3d36c7ac3d8adaf5U, 0x3b5bdcd83b899453U, 0xbcc01b493d22f3abU, 0xbd6fb4db3c32cc59U,
  0x3c087d9c3c332bafU, 0x3d02a863bd46318fU, 0x3d54a40cbc51bc95U, 0x3b39256d3d654254U,
  0xbd83cea3bd548728U, 0x3d12188f39157fa2U, 0xbd91ffae3bd52888U, 0xbc8d81383d33f059U,
  0xbd758511bcfee2feU, 0xbca06c5fbd7896c7U, 0xbd2f2bfdbd692e87U, 0xbb1779a23cfa61a2U,
  0xbc82ad60bc47f844U, 0xbccb5e913d86e63fU, 0x3bdd14563c487059U, 0x3a4001db3cd6f789U,
  0xbc8fd3743cccfa45U, 0x3ceef5e33d0ac18bU, 0xbd2aabd3bd9856feU, 0xbd2ee1a5bd142731U,
  0x3d58ff0c3d3bef50U, 0xbb0091a9bb31d712U, 0xbbb3f8123d8c91cbU, 0xbd8eeff6bcdf1e83U,
  0xbd6864163d80e29cU, 0xbb94de233cb9738eU, 0xbbedefbcbdaf82a0U, 0x3d28dfe0bdae2a6fU,
  0xbc5c88ecbd274154U, 0xbca8eeadbd42dcc4U, 0x3b9b8df0bc146192U, 0x3c0d49623cf5b944U,
  0xbd2559903bdc41e7U, 0x3d1668c53d4b333cU, 0xbb1742d6bd56f175U, 0x3bfa78b2bd7ad2d5U,
  0x3be9f850bc5747aeU, 0x3c40f364bd70d371U, 0xbcfc4d72bd666207U, 0x3ce28b803aa26ae6U,
  0x3c9dfb283c6b001dU, 0x3d5f86423c6055a9U, 0x3d3b68f2bd3b9592U, 0x3c8b8279bcf286e3U,
  0x3b89c6b9bb32336fU, 0xbc0349edbd55967eU, 0x3d168fbabd910272U, 0xbd91a2e93b6f6124U,
  0x3d0664723d19c8eeU, 0xbca18c9a3cf581d4U, 0xbb03351dbd65fc31U, 0xbad894003cd8d8b4U,
  0x3d1650103cb49d4cU, 0xbced966dbc6d29a0U, 0x3d5384d33c355160U, 0x3ce61ecd3d5098ebU,
  0x3cb23c39bd63222bU, 0xbd8dbc2439a6bf4dU, 0x3c0dbc78bd019d58U, 0x3d54161d3cc4f1d8U,
  0xbca1e70dbd9b1f85U, 0xbca73401bd19137aU, 0xbd0dff723cbccdf8U, 0xbbf45998bcd38058U,
  0x3a97f234bd808a5bU, 0x3d3c347a3d4ac9f1U, 0xbcd1e872bd85c985U, 0xbc9cb9fc3d6ae800U,
  0x3d79cf86bc4c363aU, 0xbd4dd6dabc7a8cc8U, 0xbd4f17d1bd873832U, 0x3c344c603bc8b440U,
  0x3cd264b83cbfe860U, 0xbd7b81383d5a187fU, 0xbd9222f03c988cceU, 0xbc9a61623b67727cU,
  0xbd4174d83d54d8f0U, 0xbce25c40bc616923U, 0xbb7232203d33b5b5U, 0x3cae737ebcc9fc85U,
  0x3c4fe3783ba10d6bU, 0xbcd8d64cbd91d79aU, 0x3c91c7003c6a54f0U, 0x3d7d8db23d0ffd20U,
  0x3c9f5500bc035c04U, 0x3c9075ecbd2c313aU, 0x3b96e74ebb0fd160U, 0x3d202bd83d8caf48U,
  0x3d51bbcbbd622094U, 0xbd48691bbd83d076U, 0x3d83cedbbd44863eU, 0x3bc6d7ce3cd0a81cU,
  0xbd7ebde9bc35254aU, 0xbd5777433c1cff2aU, 0x3c309fd03d4d81b6U, 0x3d240656bc92b4beU,
  0xbc0292fd3cbb16a2U, 0xbbfa9e283a811feaU, 0x3d27d21d3d00b42aU, 0xbd5ba3bebca1d7d8U,
  0xbc369fbc3d486df2U, 0xbd1d20e0bcd66aaaU, 0xb9be1c00bca154d3U, 0xbd169c4c3a49e512U,
  0x3d11eac0bcf7d51aU, 0xbd25280e3d66de6bU, 0x3c90719bbc6c1e0eU, 0xbcf92c89bd8d6783U,
  0x3d22bfa13cf7ca3cU, 0xbc0daf4cbccaf7baU, 0xbd82dd00bcdb2810U, 0xbd8dc1e3bd52b5d6U,
  0x3d7aa456bba67b0fU, 0xbd521a45bca9bd71U, 0x3bab2df9bd9cbe30U, 0xbd255f1c3d3496b8U,
  0xbd8a33cfbd331f40U, 0x3d532f4a3d0763e7U, 0xbb0110adba91fadcU, 0xbcbd7dd23d96790eU,
  0xbc6ae0ccbd7df3d5U, 0xbd8c82a63abed32cU, 0x3af3c3c0bd785b66U, 0xbd353eeebb4407b0U,
  0xbd11e3c6bce5f01eU, 0x3d26b7a83c6e8cbeU, 0x3d55282b3d81801bU, 0x3c15fb803c01eb87U,
  0xbd3e44c5bd99888aU, 0xbd4417923b36b09eU, 0xbd34c6db3d05a2ceU, 0xbce9cbe03d3cb0e2U,
  0xbcb7cbda3d4b466eU, 0xbd19cac23d42b388U, 0xbd69176ebd860b15U, 0x3d0abc583cc6cddeU,
  0xbca3a8b2bd5f8c19U, 0xbb28bf02bb4089f6U, 0x3cd61ff43b274905U, 0xbcb356b3bd895c07U,
  0xbd768d9abd44ba7dU, 0x3cde43eabd8f50a1U, 0xbccc8b06bd28e890U, 0x3c11edd4bd13dc99U,
  0xbd5033c83b8d5f79U, 0x3d1624a83c0de288U, 0x3a4b99a03c2a97ffU, 0x3bf735a0bcbea2afU,
  0xbbf4e8583c24af7aU, 0xbc44296f3cc254c8U, 0xbbf015bbbcf07860U, 0xbd8d12bd3d77af1bU,
  0xbc410996bcb26aa0U, 0x3d57e8b1bca4ca80U, 0xbd436534ba119e21U, 0xbcaf04fb3d59aa62U,
  0xbdad874a3b43f9b4U, 0x3c982b65bd344502U, 0xbca698f63c94f178U, 0x3d51d6ba3d6a022eU,
  0xbd4c0bae3cc27febU, 0xbd1023b3bd55f7b2U, 0xbda353833b8ddc71U, 0xbd3880cebd74b7c1U,
  0xbcc1eef4bc80bb9cU, 0x3d1937cf3b5e1e97U, 0xbcb8d026bbe438aaU, 0x3b0a88e0bca85f2cU,
  0x3d5f1ff2bcf6aeb1U, 0xbd2047fbbca0393aU, 0xbbbc9ce4bc0b48a9U, 0x3d0854923cf771a6U,
  0xbd45c36a3d4f1733U, 0x3d2721dbbd4ed7e4U, 0xbd1e3354bd069b20U, 0xbc7969acbd8c4324U,
  0x3d8446f9bd21adc2U, 0xbbf3346fbd777aabU, 0xbd1fe32dbc304b3fU, 0x3d0f2674b9c1d863U,
  0xbd8bdaf43b558c20U, 0xbd33acacbdae96efU, 0xbc8fc9123bbacbf0U, 0xbb6fdb473d3e3832U,
  0x3c9005c8bd8380fbU, 0xbd084b4fbc5a3ef8U, 0xbc98cf2c3ce0c5b6U, 0xbb9bf5413c90a9b8U,
  0xbb7fa9ddbd98a723U, 0xbc008eb83cb03573U, 0x3bd69f99bca2c92eU, 0x3c82f3093d625c94U,
  0xbce76e86bbbdf5ebU, 0x3d025e213adf1de0U, 0x3cad45f53d399907U, 0xbcb3130cbd09a6e7U,
  0x3d132938bd1b18acU, 0xbd021a91ba63ee21U, 0xbd2782ac3cd237bbU, 0xbc1d8bb8bcd58bf5U,
  0xbbeaf1903d33392cU, 0xbd62d84a3d3d5841U, 0xbda894d8bd9f5a13U, 0xbc055852bd331eefU,
  0x3d0336e6bd88c469U, 0x3d3237ab3cc4b56dU, 0xbc314834bda2d802U, 0x3d6d9892bd2a958aU,
  0xbced6bfcbcf9807eU, 0x3d52e2b53d6507f9U, 0xbca6745cbd2b3ec5U, 0x3bb4ba30bbcf0a40U,
  0x3d719404bcd2f146U, 0xbd5dcda1bd992536U, 0x3d3fe0e1bcf9a938U, 0x3d1e48933d9994e9U,
  0xbd88dda1bc9eb418U, 0xbc6e82e4bc96d714U, 0x3d1b6db23d706060U, 0x3ca6ae3abd61d1b0U,
  0xbc95c3a5bcc7f434U, 0x3c60e254bcc0c8d2U, 0xbb06f4b5bc5d3280U, 0xbd0958613b7ee057U,
  0x3cd41c95bd85531fU, 0x3cd4c89ebdae02adU, 0x3bb9ce67bccc374aU, 0x3d4808023d5f3b79U,
  0xbd4e15603ca6dff4U, 0x3d3e51f63d3e4bd1U, 0xbc107ebcbd6c15b7U, 0xbd5dab73bce45328U,
  0x3d1e4ce63cd4ef31U, 0x3d66f7ca3b1597bdU, 0xbd118237bd63ae7cU, 0xbd91e2623c788f07U,
  0xbd91b8053c983554U, 0x3d64c176bd061838U, 0x3d81edfbbcc02856U, 0x3b756ac83d229941U,
  0x3c103eb03cb6a969U, 0xbc0a5fc6bcca49a3U, 0xbc8b5953bd8da751U, 0x3cfacc443d3b8f30U,
  0x3d293c8c3c522a00U, 0x3d20a0f9bd35c621U, 0xbd8e6f0e3c2c4d28U, 0xbb1c0cea3d9dd870U,
  0xbbc60990bc4bb45cU, 0x3cc677a03cb9ccf5U, 0xbd53da59bd59188eU, 0x3d204b973c4bdd38U,
  0x3ca13a47bdc13fe3U, 0x3bf1a776bd15b1bfU, 0x3d4479a2bd5fa449U, 0xbd055d4ebd159b75U,
  0xbd8ca5003ce38ee8U, 0x3a520c6ebc8e81b1U, 0x3cb651e63d61f066U, 0xbcf06c5a3c4cb680U,
  0x3d78f4b2bd104829U, 0x3d289cc13d29f293U, 0xbd8096863cbe2efcU, 0xbc514448bd2510bbU,
  0xbcca13063d6bf801U, 0x3c6594b0bd69a9e3U, 0x3c8ea5463c456f41U, 0xbdb3a9a3bcf99ba8U,
  0x3bf973cabd0226f1U, 0xbd179794bd68be20U, 0xbd5560bc3cde7312U, 0x3cbf7d71bc8528e7U,
  0x3d2c049cbd68a5d8U, 0x3d646ff33d2ad9d0U, 0xbd386814bd6b646aU, 0x3d364d863a8b3d00U,
  0x3d5e15c6bcf22052U, 0x3d266636bd79ca5dU, 0xbcc8f71dbd5a4273U, 0x3d1770a2bd2d311bU,
  0x3d4872b83cd72014U, 0xbd0d452cbc587d29U, 0x3c9e95e03d0ec1ccU, 0x3d6777a2bd1794b7U,
  0x3ca44d2fbd89f03fU, 0x3d04b7f8bd0b7678U, 0xbc242eb3bd79bf51U, 0x3d5c94583c66732aU,
  0xbdba3e083cdcb717U, 0x3d20e7103b23a5cfU, 0x3d0a6a753ca5b7a5U, 0xbd2cf514bd45f240U,
  0xbc10ee5c3d6966e2U, 0x3d61498dbb6939b4U, 0x3d3ccaa63b6fa812U, 0x3c135ef83d672052U,
  0xbc941838bc04213eU, 0x3ca8fd283c6b67c7U, 0xbd3b60f63bf435b8U, 0xbd165e323c5d8ebcU,
  0xbd8fd335bd8e7046U, 0x3c6c8150bd420971U, 0xbbc7f5003cac9fbeU, 0x3c6891213d32db23U,
  0xbd792c313d4c8809U, 0x3b30c7893c84d1d7U, 0xbc606b933c4e879cU, 0xbd18428abd29b172U,
  0x3d4c9112bd0870f7U, 0xbcd26b74bbaecc3bU, 0xbd91d054b934832fU, 0xbdac91b9bd072282U,
  0xbbab54cfbd64e08cU, 0xba866521bc461b30U, 0xbc93e2a8bcce5da1U, 0xbc096f7d3d78b016U,
  0xbd8654b9bd45131eU, 0xbd83594fbd25c0f4U, 0x3d5b35dcbd4e5401U, 0x3d47a6423d59334bU,
  0x3cece382bdc852c2U, 0xbd081f53b9d94323U, 0x3cbfc6fd3b0e38b4U, 0xbc437ee4bbb39ce0U,
  0xbd84c3a13cf21c44U, 0xbd429201bd58aec0U, 0x3d74fb5abc7a9ccaU, 0x3ba00a60bd14367aU,
  0x3c4bba283cc36864U, 0x3cdd0f7c3d4c4c49U, 0xbb923c2e3c312a48U, 0x3b9f2cdf3c5b287aU,
  0x3c1a8e3ebd631ae1U, 0xb9ded904bcb30b51U, 0x3d3d561ebd542c85U, 0xbc5e6355bd868676U,
  0xbd3bb710bd60411bU, 0x3d6ea563bd3058eeU, 0xb97beb61bd8c16d3U, 0xbd156de0bd284123U,
  0xbbca303f3c3cf9b0U, 0xbd6459da3c709e81U, 0xbdb611423d2ea8baU, 0xbb06fb733d8563cdU,
  0x3cd2a1c4bb8705b0U, 0xbdb2532a3c691a43U, 0xbc9a31fe3ce13cb2U, 0x3d62a565bb82d630U,
  0x3b36c815bdae1294U, 0x3d1d4fe0bb2f58e4U, 0xbd4ba40bbd2cab34U, 0x3d27d6623db57e0bU,
  0xbd3269353c5f90efU, 0x3ca48c38bd91da95U, 0xbd9d1ee83d167d2fU, 0x3bc67480bc461984U,
  0x3cc502843d13bd49U, 0x3c8e41c2bd350347U, 0xbae53b40bd5a0bdcU, 0xbd8352bb3d6e3ce0U,
  0xbd30c670bc4f031cU, 0xbd79216cbd14a47cU, 0xbcea65e8bcd252dfU, 0x3c0f55f83d006eccU,
  0xbd09d42f3d6493d3U, 0x3d05fa58bcab43ebU, 0xbc6945dcbcaf6babU, 0xbaa088de3d084c96U,
  0xbd914065bc305564U, 0xbaea6a953cb359acU, 0xbd91b06a3d042805U, 0xbb61de703d1492cfU,
  0x3c96f2a5bd909911U, 0xbb9f9d5e3c0ad05fU, 0xbc0305193d5d1231U, 0xbc9cd5d63d3b6948U,
  0x3cc801a63d11130eU, 0x3be5aecf3c91ff20U, 0xbd2d14833d2d4ecdU, 0xbd57577f3d3d98c2U,
  0xbd9a2ba3bc558b43U, 0xbc040a39bcdf828aU, 0xbd61106a3c453890U, 0x3ce3c6dc3c57dc64U,
  0x3ce5c82dbdb9977dU, 0x3ce6f6de3d4661cbU, 0xbd9c917cbd84b52aU, 0x3d0b60ccb7ff11abU,
  0x3d04e43abca14df5U, 0xbd8ebb6d3c273ca9U, 0x3d5b61eabd37fa4dU, 0x3c6cf6d63c0c18d8U,
  0xbba80e783d00617eU, 0x3d118d883c1f971cU, 0xbdb61351bd82b5edU, 0x3cf73d033c8fbf89U,
  0x3ccdfaeabcdf3354U, 0xbd7e4b7b3cca14a1U, 0xbd91502fbd5c9ad0U, 0x3cf7d5bebc4d81c3U,
  0x3c236356bcb4eb63U, 0xbc3506d03ca65d55U, 0xbd86a174bcd2c8dfU, 0x3ccceee1bd585255U,
  0x3c46b8b13d2e44ccU, 0xbc55be94bce8f3b5U, 0x3d52cf68bd4bef59U, 0xbc47f1cfbb2c20d1U,
  0xbd05057fbd73ab7cU, 0xbd8f6f02bccd8bf6U, 0xbd036167bce89c95U, 0x3d0092143d7f6d06U,
  0xbdb678a8bd1654daU, 0xbd81b764bd7f5c66U, 0x3d38a3ce3c50ed88U, 0x3d4c1f7a3d2d3ec6U,
  0x3b9b2fb8bd4edb59U, 0xbd376814bd0e0f34U, 0xbd11ea38bc4d40e3U, 0xbd83cf783d187afbU,
  0x3d03ff81b9ef02e1U, 0x3c8ca89ebd4b20cfU, 0x3cb1b7903d099bb6U, 0xbcf7f2d53d49a39fU,
  0xbbe6fe00bd74a550U, 0x3d81f9eb3cd4c34bU, 0xbda6f693bd401249U, 0xbda1cb603c9bab9eU,
  0xbcac5646bca6b9a2U, 0x3d13d1efbda3d615U, 0xbcc998b73d6534d2U, 0xbd65d7403d0be962U,
  0xbd442c543d200858U, 0xbd60e1cebd3749f8U, 0xbc56258fbcceafcaU, 0xbcce67ae3be05541U,
  0x3d2b3d32bd5cedd2U, 0x3c082b78bda0f030U, 0x3cc9e6f23c812192U, 0xbda247f13d898a49U,
  0x3d3fd1f13d4e674eU, 0xbdca79cf3ca9f8c3U, 0x3cf2b781bd6ed05dU, 0xbc2aea8abd7618bbU,
  0xbd81d52abcb864dcU, 0x3cb63c66bd0b3c45U, 0x3d51bf7cbbeb9828U, 0xbbab98883c0cf585U,
  0xbdbb2f17bd09b81bU, 0xbd3c6f44bc949777U, 0x3ce4171e3d14d986U, 0xbca701bebcca20ccU,
  0xbd20e9eebc3fd40cU, 0x3cf08f373c00c016U, 0x3c6afc883cf0ebbaU, 0x3d698f10bb7f6672U,
  0xbd4f49fc3c5d19fbU, 0x3d3ddc34bd00f322U, 0xbd7e25f8bd9c0b3eU, 0xbdccd3263d1900f5U,
  0x3d4e0a78bd596460U, 0x3d59852fbd88b15bU, 0xbcf40f8a3cd5fa00U, 0xbd917229bcc71e37U,
  0xbca5e99abd39483fU, 0xbd4e0f823d2c214cU, 0x3aee8fbe3c7a35bbU, 0x3c0fdf37bd0d1860U,
  0x3cc87b23bd050744U, 0x3d6f1533bd46daf4U, 0xbc9be89abd22d818U, 0xbc027b163d7377e5U,
  0xbcf2cbad3d6cabacU, 0xbd86c44f3d1dc97bU, 0xbc45f193bccaf4f2U, 0x3d1c1ffb3c9060c8U,
  0xbdbeb2f9bd943f90U, 0xbd85c2603d237db8U, 0xbc998039bc600a9dU, 0xbc47b5e4bd4f66ddU,
  0xbccf9e1dbd7b3b18U, 0x3cac337ebd26f419U, 0xbbf809a3bcb59e65U, 0x3d790b4a3c47f632U,
  0xbd561e9e3d4393b1U, 0x3d67ec453d12a451U, 0x3bdb8e40bb084c1bU, 0x3d42893e3d3602c1U,
  0x3d5cd424bd57b045U, 0x3d25e0a03c79c7beU, 0xbda5c42cbc0e3996U, 0xbc162af7bd34d749U,
  0xbb531180bd81f48eU, 0xbd7b0e52bcde4954U, 0x3d7060f1bd830dd3U, 0x3d5bfdbbbad17a36U,
  0x3d6a99f5bd5b68c2U, 0xbd360ebfbd88035eU, 0x3cd8cc6bbcaca70aU, 0x3c5af7b03b95c71eU,
  0xbd48c4a6bcc943adU, 0xbd6e2a343b9be3abU, 0xbd543597bcca57c4U, 0xbd67993e3d29c095U,
  0xbd2b78a53cee64acU, 0xbd570837bbb12948U, 0x3c5f85783cb6b130U, 0xbbc9b0c63c8cdd10U,
  0xbd8e2c56bd3f1169U, 0x3d1c520a3d1f78a6U, 0xbd05be86bd2dea2cU, 0x3d06d0463c9e8529U,
  0xbd399c93bcb2406eU, 0x3cf37a4bbd1fd517U, 0x3caf22c9bcf5983aU, 0xbd11ab02bbe715e2U,
  0x3d241b2a3d8063b3U, 0xbcc4bc3f3cea7a7bU, 0xbd69dadc3c23079eU, 0x3ce6ad50bbbe5c0aU,
  0xbd3c1532bd4d82d6U, 0xbce6a5c0bd138cddU, 0xbb873a5dbd2b396dU, 0xbdbe3b67bd4b216bU,
  0x3bf34f823ceaefbeU, 0xbdb668363c760f4fU, 0x3c848e2c3cbb192fU, 0xbd58e68d3bb7bda7U,
  0xbd5af9b6bcb0a321U, 0x3d18893abd3a6a71U, 0x3cc3c233bab3e678U, 0x3d6f4de43c850d99U,
  0xbd2bfb56bd80f5c3U, 0xbcdd5284bca6a40dU, 0xbcce58ccbd38ffc5U, 0xbdcdd9ab3cb6b9daU,
  0x3d4b7e053d849399U, 0xbd8ba9aebd3c8e1aU, 0xbc117ad83d6303b3U, 0xbce494acbd5db464U,
  0xbd312228bd6ded2aU, 0xbc687f13bd2fba18U, 0xbd3c3addbd45e697U, 0xbd832cfebd8aa245U,
  0xbbfb70f53d1ac42dU, 0xbd52e2f8bd4c818dU, 0x3c0d6cb2bcac6ac5U, 0x3c1e3a08bca77fa6U,
  0x3d2cec9c3bd06d10U, 0x3ca2a501bce7fa70U, 0x3cd187ec3d6b33a8U, 0xbd003505bd19f0b2U,
  0x3d168c2cbd4fc19eU, 0x3ce27630bd1e8fbdU, 0x3c4affdfbdb3e0f2U, 0xbd918cef3d1dcaecU,
  0xbd82de23bba38addU, 0x3cbc0bb7bd8281d2U, 0xbd75589d3c18bfc0U, 0x3d64337a3d4b425aU,
  0x3af1bb003bfdb8c5U, 0xbd21cc2a3bdf5c3bU, 0xbd2e14a7bdaed865U, 0xbceabe743bc7fb80U,
  0xbc7ada543caf1321U, 0xbd907874bd66de0aU, 0xbd470474bd383296U, 0xbd706d26bb8a8e63U,
  0x3ca047143c3ffac0U, 0x3c80d08dbd044242U, 0x3c7ea27b3cc547cfU, 0x3c95f34bbd270418U,
  0xbd7829593c6986b3U, 0xbc414ef13d087365U, 0x3cca71c8bcd68af2U, 0x3d4b16da3d1f6c05U,
  0xbc3522dd3ce040b9U, 0x3c22d78bbca5e0f3U, 0x3d3deb22bc89c7e7U, 0xbbe733c83cd6edf4U,
  0x3cfa3d4c3d2e0922U, 0x3d42fe873d80820bU, 0xbcca8b66bd3d1a4fU, 0xbcfa3278bd80d02fU,
  0x3d17eefabd814e64U, 0xbd5ad72d3d002876U, 0x3cdcdc753c2882a9U, 0xbbde32ebbd7b14eeU,
  0x3d5686c03c94ef2fU, 0xbcaa9b0cbcacdd07U, 0x3d34f1c0bd8f8bc4U, 0xbd5a00dcbc3b36c3U,
  0xbd5a4f9c3bd391cdU, 0xbd2b78153d2ca3efU, 0x3d18201abc85b174U, 0xbd1f1908bc9d31e5U,
  0xbbfe7a18bbcd0f40U, 0x3d727313bc3ee050U, 0xbc06270c3d1dfa64U, 0xbbbff4fc3d0ce81eU,
  0xbd3f371f3d11a22eU, 0xbcbb4db1bcb262abU, 0x3d680508ba431d80U, 0x3bfa7b113d54703aU,
  0xbca93c923ce95006U, 0x3c0ad2abbd23640bU, 0xbd31536d3d558dccU, 0xbd1e3c0bbda4daceU,
  0x3c34f5693cf46f77U, 0xbc416a783c5a0195U, 0xbd8e99ec3d6233d1U, 0xbd154f183d323870U,
  0x3caea788bd844b7dU, 0x3d491545bc66e5fbU, 0xbcbda6fc3b9c86a8U, 0x3cb34790bd72b427U,
  0xbd450e34bc3e1a2eU, 0xbb8471f8bd8c1b9bU, 0xbd59d224bd438002U, 0xbce45c253cf62003U,
  0x3b24bc47bc03a3b6U, 0xbc8f2d80bd09a93dU, 0x3d129932bce2cbceU, 0xbcafe883bb82d541U,
  0xbd20c89bbc667171U, 0xbbce0530bd70e8c0U, 0xbd2f9d80bdbb759dU, 0xbd2a65173ca9a40aU,
  0xbd72373b3c109918U, 0xbc597853bdc450f2U, 0x3d4f6a903d06c829U, 0xbd8d173a3cacc75cU,
  0xbb05d8bdbbb4a508U, 0x3d088123bd7553cbU, 0x3d78289e3d825c99U, 0x3d0b81ee3c8a945cU,
  0xbce649f63c16db4aU, 0xbd08cd743b4dba2aU, 0xbd2bd61b3d0e6fe8U, 0x3d73c67e3c819f7cU,
  0xbdc831cc3cd618bfU, 0x3c8bc6f03cd97411U, 0xbd5a8d80bcc9e28cU, 0x3d7a2826bbc6b2a8U,
  0x3d265b6ebd1c4983U, 0xbd527ebdbd4f0cc3U, 0xbc4f96a03d5b69b6U, 0x3d4e02fcbd777887U,
  0x3d26ba48bd7684a9U, 0x3bb73fd03d0225daU, 0xbcf4f9efbcc4640aU, 0xbdb6a7ac3d403584U,
  0xbc4583ff3c313d34U, 0x3b253278bd8ab324U, 0x3b985bc0b90835d7U, 0xbc08befa3cf6b690U,
  0x3c4289a8bd06d2c9U, 0xbc337ff83b194f09U, 0x3d25437ebd4d346dU, 0xbd1961e33cf078c0U,
  0xbd8b6d993c53c046U, 0xbd7930e2bbf91383U, 0xbd47bc4a3cbd7a53U, 0xbda0ec57bda77a45U,
  0xbd6cf49d3d2697b6U, 0x3cb729a6bcc1ec67U, 0xbcf6bb7fbcf79c82U, 0x3d56e264bd2839d0U,
  0xbdc50e4cbd7c9940U, 0xbcc7b4f4bd60ac65U, 0xbca5f3d23cb84de4U, 0xbd1aed963ce8dad6U,
  0xbdc1a9f6bd5c8604U, 0xbd4b12833d5771f5U, 0xbd70b98a3d185960U, 0x3c2abf80bd8ce011U,
  0xbcadbe623d41cc4aU, 0xbd3f7d14bd69f7a0U, 0xbd1687463cb6d8d5U, 0x3d2b8c66bd832e17U,
  0x3d6f1f6abd000fb0U, 0x3d398fe0bbad2cb5U, 0xbd5b1957bcc25878U, 0xb89a5fd43d185139U,
  0xbd1304733d2aeab5U, 0x3c68fea5bcea0d24U, 0x3d504f9dbd8619f8U, 0xbc1b087bbdcd57c0U,
  0xbd3e67203b6394b9U, 0xbbabff853d3f2c5dU, 0x3d540a33bdb1b466U, 0xbc73eec6bd918661U,
  0xbc8a856bbd140aeaU, 0x3c945e45bd3f403aU, 0xbcdc06263d5fe5b4U, 0x3b97354f3c3ec52cU,
  0xbdcc090ebcfc5028U, 0xbdbbd75dbc7a92faU, 0x3d0714d1bd0e7e93U, 0xbd56f8a6bc413af4U,
  0xbcd3d65d3bb4c46eU, 0xbc6ddfd9bd0e441eU, 0x3d5015243cd90784U, 0x3b125240bc025914U,
  0x3cfad8cebcbae42fU, 0x3c95de28bd78af48U, 0xbceb25113d1e794bU, 0xbd757d5ebc95cc2eU,
  0x3c82c830bd81bdebU, 0x3d28b09e3b81caf0U, 0x3c493ec0bc07c4c4U, 0xbc015f90bd571f47U,
  0xbc7a55d0bcd7e01bU, 0x3d84b565bd039fadU, 0xbd2b7a6ebcc7fc07U, 0xbd6c99cb3be7847cU,
  0x3d5c793e3d3dbe88U, 0x3b0469e73cc16d4cU, 0xbcb26d90bb816b26U, 0x3d1ad070bc8b71fcU,
  0xbda2eebbbd5e66eeU, 0xbc8453be3d090d19U, 0x3d459bb6bda0c905U, 0xbc595e44bd39b00bU,
  0xbd8b62563d30e2b3U, 0xbb9edc963cbda0e6U, 0x3c3e8168bd0b325aU, 0xbd40d5dfbd29ee84U,
  0x3d007ac3bd215636U, 0x3d05aa073a537759U, 0xbd6fc906bd014381U, 0x3b6a16cabd13160aU,
  0x3ccbe6df3b31cb97U, 0xbd6b6cabbd147774U, 0x3ccc5f4e3d1ffd9aU, 0xbd826cc5bcd3717eU,
  0x3a2be1843c056abcU, 0xbccc34a0bd59388eU, 0xbd999678bd3f08eeU, 0x3cea87083d549750U,
  0xbd3d98b03d819781U, 0x3c651f90bd70782fU, 0x3ca38268bd978a90U, 0xbc7eb034bd595348U,
  0x3d1ea2e0bb037fa7U, 0xbcac92a83d11033aU, 0xbbb11c09bd471d41U, 0xbbd6249a3ce0d9deU,
  0x3c31d8883d6a7ca4U, 0x3cc1deb83d0674c7U, 0xbc42863cbd4db3f7U, 0xbd38658dbc7bea0fU,
  0xbd2c639c3beb3210U, 0xbd466092ba2668faU, 0xbbb0ecc0bd9b1ceeU, 0xbcb96e96bbe82f96U,
  0x3d078c583d50156aU, 0xbd6f9d63bd5558a2U, 0x3c9db3a93cc02327U, 0xbc9e0937bd9baf66U,
  0x3c53613dbd66e812U, 0xbcf735f5bc3f0bb8U, 0x3d0e2c803d2d4feeU, 0x3d12410e3d7729eaU,
  0x3c98815abd8b12f9U, 0x3c4941e03c5fb11aU, 0xbd2043233d1f9bacU, 0xbc179720bc0b61a3U,
  0x3c80cf2c3abf5bddU, 0x3ae7df80bd914ae4U, 0xbd9c78e9bd4184eeU, 0x3ce9c35c3ca50e8cU,
  0x3d01da3cbd77b81eU, 0x3cb11bf83d80bedfU, 0x3c04c660bd6d151cU, 0xbd8dd20cbc7e6caaU,
  0xbd4bc1163c724528U, 0xbc22329cbd68877eU, 0xbbc5b5fabc92af8aU, 0x3c391fd8bd622e92U,
  0x3b89dfa0bd485177U, 0x3c5e6acbbc59ff47U, 0x3d20ebf43c271671U, 0xbc0fb3abbaceb843U,
  0x3b49f776bc444630U, 0xbcb45ff2bcfbe31eU, 0xbd720b27bbc8f19aU, 0xbb852cd03cb73944U,
  0xbd880828bbec9f54U, 0x3d0242b83d1a4457U, 0xba58edf7bd0c651bU, 0xbcadb10cbd0e5971U,
  0x3d04ab5bbcd10a20U, 0x3c2282a23d23b5a2U, 0x3bce5e00bd53990aU, 0xbc73a987bd66b756U,
  0x3c34b6d6bd8accdcU, 0xbd8211dcbd752dcaU, 0xbc179883bb713730U, 0xbd5a437b3c6dc5dcU,
  0xbdd7617abd9cdcceU, 0xbd6eca91bc828602U, 0xbd844c3f3a136680U, 0xbd03ba75bd6cc1f7U,
  0x3ca0d2a83cecee30U, 0xbd6868e4bb313280U, 0xbd1143b0bd95eb7fU, 0x3cc70ad4bd908ba4U,
  0xbcdd34a0bd79ba25U, 0x3d261c843c552a28U, 0xbdc016783d02e689U, 0xbd8f71b63cd64eb8U,
  0x3d853b5fbcfb9a74U, 0xbd80767ebd6ace8bU, 0xbd377f60bd1a415bU, 0x3c8ffbf6bd0b6726U,
  0xb88a59423d7770daU, 0x3ce734813b6c41ceU, 0xbd7d5e71bd932c28U, 0xbd0337483d2da55aU,
  0x3ca57e4f3d06f6eaU, 0xbd1b6ccabcd861d9U, 0xbd96eac63b3dbe80U, 0x3d10f5c6bc894bb3U,
  0x3d43d75bbcf5d944U, 0x3d00d5f43d46f7f7U, 0xbc865796bd26b8f8U, 0x3adea975bc2698f4U,
  0xbd9d5558bda8e86dU, 0xbd5f2f28bd4e0169U, 0xbdc3712f3ca6ebd8U, 0xbca80049bd6d2307U,
  0x3cf3014a3d4e4501U, 0xbac5b58cbd400e1dU, 0xbd253c323c65e948U, 0xbc988b0cbd840407U,
  0xbcd602bebd2d9104U, 0x3ce259583d4911d0U, 0x3d80cb8bbd809dd6U, 0xbc6bdaf03d1a2694U,
  0x3cbb2078bcbf5171U, 0x3d5ada3ebcaa052eU, 0xbdb26676bd311270U, 0x3b50e0a73ab3c7c0U,
  0x3d141d46bd2e8fdeU, 0xbd739d723b4680e7U, 0x3befea60bba63058U, 0xbbe937603be0b16aU,
  0xbd7a3ffbbbd97520U, 0x3d08fcf13cf608b6U, 0xbb9d1fd0bc87e932U, 0xbd34bf25bd447936U,
  0x3ca28255bcaf4f7eU, 0xbc5f58a9bd212c81U, 0x3c24f10b3d784bfeU, 0xbd0685f1bc8cc095U,
  0xbd4b47debd3cd6b6U, 0xbd96253fbd94ff63U, 0x3c042c303ba97090U, 0xbc5a10e2bd1a7b5dU,
  0x3c602b693c3e916bU, 0xbb8cd1973ac225b1U, 0xbd5331b23ce14824U, 0x3d09edd6bd6af731U,
  0xbdbceb4c3cfbfc35U, 0x3bd471a0bda26da3U, 0x3cb12b9f3bce50f0U, 0x3d5ac2783cbeec4cU,
  0xbb0ebe00bc9b00aaU, 0x3c83afa43c74dc58U, 0x3ac22880bd370fd4U, 0xbc87c34abca60132U,
  0xbd250e08bd91ace4U, 0xbd54fb5bbd4beafeU, 0xbd1ee3fabcfbd541U, 0xbbfb472b3af9cc00U,
  0x3bb1e7b8bd83c8b7U, 0xbd5a9b4f3c8056b1U, 0xbd75a8a6bd73d66fU, 0xbd7435f13d2d1377U,
  0xbccc63e4bd6755bdU, 0xbc7dfdd33d48a325U, 0xbd6981613c466bc5U, 0xbd5a296cbd7af669U,
  0xbb97c2f2bd322c23U, 0x3cd0997ebda20c4eU, 0x3b8cfd573d29bff4U, 0xbd1c53743cd6bac8U,
  0xbd9ffb55bd79e9ccU, 0xbb20c5403d2bda1fU, 0xbcb32d843cc8ac7cU, 0x3c9425cebd0533d2U,
  0xbd3a3b0cbd116ea3U, 0x3d29d0a6bcefaba0U, 0xbb870f98bbc96380U, 0xbd4f74ec3c9166d9U,
  0xbd3a27d0bac6f1b4U, 0x3d2b98c03d1e7c98U, 0xbdbe46ca3cc4d770U, 0xbcd20cc2bd081ec3U,
  0x3c2d1448bd5146b8U, 0xba233f00bd370337U, 0x3d80bb59bd8eaaf6U, 0x3ceb7464bcaa7446U,
  0xbd111cedbd64bb8dU, 0xbd2fe72bbd2786d4U, 0xbcb66ca63cac7b6fU, 0xbd424b4abd1e1b56U,
  0x3d013dfcbca1d740U, 0x3cab967ebd58cb18U, 0x3ceb33a8bca56559U, 0xbcfa4003bd8e8617U,
  0x3d4782883ce339b7U, 0xbcf16bc0bc876533U, 0xbc789620bd546774U, 0x3d49ef84bd3c7204U,
  0xbba740e13c2ebf88U, 0xbd1288ebbd3ccd2dU, 0x3c4235babd01bc5aU, 0x3d2fa1f2bbb4db28U,
  0xbd0322143c9419f4U, 0xbd9201bfbcbf5a73U, 0xbd0c24e6bccb24c6U, 0xbd938e3ebd1dce21U,
  0x3c80b47bbd0cd694U, 0xbb0fe0a0bd5536c2U, 0x3cb7ffc03d79d4deU, 0xbc62b308bd8dba53U,
  0xbd4eb73dba7ff20aU, 0x3d6f741cbd984eccU, 0xbdb9140a3d411756U, 0x3d33dc3cbce1380eU,
  0xbc281bfc3d2c5f44U, 0xbd537fa0bd1053f7U, 0x3d777866bd28eeb6U, 0x3bcc76a0bd90fe20U,
  0x3d770a9abc7462f6U, 0x3b1f6b003d0984faU, 0xbd2015c7bd9009deU, 0xbd1f2a2f3cbf1fc0U,
  0xbd846865bd43ebb6U, 0xbd9589c93d2cd4d6U, 0xbd6500b6bd7494d7U, 0xbc4b5d2abd2c4c0cU,
  0xbcc3501ebd935790U, 0xbd6b59eb395186b6U, 0xbd4b72213d260feeU, 0x3d2372983ce4a94aU,
  0x3ccccce8bd826a05U, 0x3cd908f23bcf1349U, 0xbd4fa4103d56e90cU, 0xbd93aaa7bc32356eU,
  0xbcec3788bd064d5aU, 0xbc410dfe3d14232eU, 0x3d2b68763ca313ecU, 0x3d13e3fabd4833b5U,
  0x3d12109fbdb14b17U, 0xbd306cd23c7d5ab7U, 0xbdc119a03d2b3182U, 0x3c21e50abd31bb3aU,
  0xbd7b4f61bd2dff43U, 0x3b2bf0fb3b89df75U, 0xbc3ed399bc947a56U, 0x3d2ae812bcb9fbe2U,
  0xbd6b0222bbc7e6a8U, 0xbd10eea5bd63e73fU, 0x3d14b822bd30813dU, 0xbd5fd1b83c949228U,
  0xbd17ae033d035e31U, 0x3d6d2b78bd276a80U, 0xbd9e50cbbd9df8b3U, 0xbc8debdabca9e6caU,
  0xbd6d9f793d828f4dU, 0xbd328c18bc277699U, 0x3d0148f0bc8d704aU, 0x3d6bf83cbd6e2c84U,
  0x3c72afd83c892f5eU, 0xbd18f3d23cf6a7bcU, 0x3d419cdebcbaf7d7U, 0x3d6e0b5c3c9930ccU,
  0xbd327f11bd06778aU, 0xbd13690ebd7bbf9eU, 0xbba76b33bca66d7eU, 0xbcc4e0a2bd3009b4U,
  0x3d00f71dbca4415aU, 0xbba5ce61bd271a98U, 0x3d20213abd5fa936U, 0xbc6cdaa4bbd9e118U,
  0x3b8130b83b5fa558U, 0xbd061fccbd2f8265U, 0x3d06ab29bd2e5805U, 0x3c2860783cfdaf90U,
  0x3c06e1a3bd7c272eU, 0x3c8717f0bd558095U, 0xbdc0653fbd5fd07eU, 0x3d57786eb8898c00U,
  0x3c45cd68bb2cc960U, 0xbd85b006bd6e6a82U, 0x3b68fea03d23d869U, 0xbd611ce13c1958f8U,
  0x3b500e00bd68e2d3U, 0xbd424792bb844fbbU, 0xbd9cbb0fbd596a99U, 0xbce468aabbfba300U,
  0xbcd892b8bd806463U, 0xbd2d18473d32c7a6U, 0xbd0c73fcbd816347U, 0xbd5f2265bd842e50U,
  0x3d7ead62bbc59309U, 0xbc65cd3e3cf40732U, 0x3cb4bf603d26bd84U, 0x3d04d86a3b3bf000U,
  0xbbc77fa3bd4937cdU, 0xbd2aedb3bd697c41U, 0x3d058c9a3d787926U, 0xbcbbfcfc3ce7e7fbU,
  0xbd88e5063bfea530U, 0x3d305d58bd256e6bU, 0x3d7b4f1abce55472U, 0x3c4265383d7f8cf2U,
  0x3c3e00b3bd98f358U, 0xbd9a266eb9153a00U, 0x3d08d2ccbd05f6baU, 0xbc9d1e62bbea1ec8U,
  0xbddb1c56bd261241U, 0xbd12412ebb5d4fb6U, 0x3d0dd730bb9b0dc0U, 0xbc956d123d3eb0a8U,
  0xbc2cedf4bca8fa38U, 0x3cf2aa08bc16f014U, 0xbd762954bccf7db5U, 0xbd12e1d1bce2092cU,
  0x3d1e49f63cba84eeU, 0xbd2b85b0bb0bcba6U, 0xbd7c89b93d11e4fdU, 0xbb6bc7903c4d4ea0U,
  0x3be0534abd124eaeU, 0xbd97c339bd377a21U, 0x3d1078eebcbd6d39U, 0x3d27a9223cb77901U,
  0xbafe43c03c597cd3U, 0xbd13e3e9bccf0484U, 0xbd60dbfabb543037U, 0xbcfa6ed2bcf31d92U,
  0x3cca162f3be47ac0U, 0x3d3b5f9b3cbba938U, 0xbd6836793c4cdcc8U, 0xbd8dfcd5bd9afe13U,
  0xbd8d16cb3d767cfaU, 0xbc3987483d5ac1faU, 0xbd6d169ebd309ac8U, 0xbd28ea3abd3769c9U,
  0xbd7e1bd9bce3d93aU, 0x3d33dd1a3d4da388U, 0x3cb0e0bcbd74bf07U, 0xbd618b983d0a2f04U,
  0xbdbb95e9bc01b2a5U, 0xbcad56763d16a2e1U, 0xbce6fb673c64ea50U, 0xbb8d29e0bcc85244U,
  0x3d2e57e8bc911f64U, 0xbcda31edbd0e04faU, 0xbc1ceda03d4b3c03U, 0x3d3b7c04bb923b58U,
  0x3d80c8cfbc914bdaU, 0xbd097a9abd44a961U, 0xbd8cc4a03bf010fbU, 0x3c19bceb39a424caU,
  0x3d1ebee5bcf7cd1aU, 0xbd8cfa47bd4d1dcbU, 0xbd42f936bd4053b3U, 0xbcc6dc2ebba3dd90U,
  0xbd6062d6bcb5a8bbU, 0x3d2a2f6dbc4aa146U, 0xbc16e20cbd0336d2U, 0xbd26b428bd6d06d1U,
  0xbd9d06f8bd4d1aacU, 0xbca2327c3d765a7eU, 0x3d39e4a53c79e480U, 0x3d21e492bda076f9U,
  0x3d287f45bd856421U, 0xbc975958bb468cb0U, 0xbd52b6c8bd13aff4U, 0xbb933023bd5a0f3aU,
  0xbd8aed6bbd2f4f8bU, 0x3d070f7b3d02c5ecU, 0xb942f800bd2e8dc2U, 0x3bf57b103ce3d906U,
  0xbd9371a83c644b30U, 0xbce07b343d3c2d80U, 0x3bed076fbd2b8067U, 0x3c8085983d54e2feU,
  0x3d2e8d343c898738U, 0xbc3c8939bd426f32U, 0xbcccf30c3ccdd7d3U, 0x3d12c04cbd84cc1aU,
  0xbd4247eabc514593U, 0x3d0d8d5abacd4d80U, 0x3d47b3e6bb0f1938U, 0xbd318cf1bd1b089eU,
  0xbd4a6796bd854615U, 0x3c916003bd9b9801U, 0x3d7cc772bda1742bU, 0x3d5635babd4cd553U,
  0x3c3148983d1697c2U, 0x3c0e82ef3d141bb7U, 0xbd05ae77bc677c1cU, 0xbce7d4df3be25ff0U,
  0x3b41cc20bd7ba32eU, 0xbc6782a0bc772f4cU, 0xbbabb9ecbccf5587U, 0x3d2a6f973b5b0387U,
  0xbd48e173bbf297d0U, 0xbc8eda55bd6bff0fU, 0xbccc79023d241612U, 0xbccb0630bcc69bc8U,
  0xbc5da009bd1cbb39U, 0x3bc1cbe0bd78bcf5U, 0x3d693f563d4b0678U, 0x3cbb39a8bcd74e20U,
  0x3bbe4b333d44f551U, 0xbca21556bd2f3efdU, 0xbd0e65a93bdbdb99U, 0x3d2a5b6e3cb14404U,
  0x3d7012cabc2cd858U, 0xbd21ea2a3cda3274U, 0x3d05918cbd4c8eefU, 0xbcbfabc43c9aa0c4U,
  0x3d583bd0bd28394cU, 0xbd58c9e43b492754U, 0xbc93398ebd3887d6U, 0xbd0401223cde2613U,
  0x3ca17ac13d8360ddU, 0x38a9cd5bbd9a3ddbU, 0xbd2411303d3636cdU, 0xbd42f4a5bd7838cdU,
  0x3d254611bd16d894U, 0xbbd8f5bdbd4842c0U, 0x3cc2e9983ca0e4f7U, 0x3d0896623c3b61a3U,
  0xbcd9b8a6bc9c1c35U, 0xbda0da44bc5d2e30U, 0xbd8668723c67807fU, 0x3cb6d2a13b8db12eU,
  0xbd9627af3bb1bb90U, 0x3cc468243d4fde28U, 0x3c06d9a03d6de84eU, 0xbc3031c13d201b36U,
  0xbd7ffe36bccf0289U, 0x3d03109ebda27615U, 0x3d7d63a2bcdbe12cU, 0xbc540fd03c8a14d9U,
  0xbddc2d0a3d4da494U, 0xbd664ff03b837512U, 0xbc955d09bd661512U, 0xbc7965ecbd5b9ea7U,
  0xbd81fbe6bc3f3258U, 0x3d3ce5b6bd2b8080U, 0x3bd8b850bcad56c5U, 0x3d6c601cbcf9be79U,
  0x3d6f1b12bc0e9ae2U, 0xbcc4eff2bd3f1ce8U, 0x3d638da239eef7dcU, 0xbd0414fbbd07ecb5U,
  0x3d7aa23a3d058602U, 0xbbb748e83cab97f2U, 0x3c47a1b8bd2b41b6U, 0x3c864108bd861640U,
  0xbc0530913cf293acU, 0x3ac37086bd677569U, 0x3ca73b48bc988dccU, 0x3c8f89b83d16e720U,
  0x3d0c2e053bbbae30U, 0xbca9d092bb4ebdacU, 0xbc52ecc3bcabdd70U, 0xbd83cffebd0e1e6bU,
  0xbd8cc9f1bd2fc6f4U, 0xbcc5cc583cdcf177U, 0xbd0dfffc3d5e555aU, 0xbd11ff0b3d04a6c8U,
  0xbc349bf3bd97c9b7U, 0x3c2c0aa8bd6f7c61U, 0xbd6c00543c9609d8U, 0xbd0f1333bbe677c3U,
  0xbc3dd0dabcf56919U, 0xbd44f38dbc7daf06U, 0xbd35848c39f7a700U, 0xbd144d783d75c48aU,
  0x3d63899e3bf9de20U, 0x3d5e9adc3c495da0U, 0xbc8606bc3d0b8cdaU, 0xbbd6bc983d1e0d4aU,
  0xbd6f71b23d23d7d5U, 0x3c70bdf03cfc8808U, 0x3c037ca8bd031659U, 0x3c95b0043d485251U,
  0x3c8939a0ba021a00U, 0xbd8d3f833c80669fU, 0xbc8be046bda1928fU, 0x3cdef29cbcb06107U,
  0xbc978c58bd523cd6U, 0x3d2b0aa1bc4b8e58U, 0xbd14a393bd5db397U, 0xbd19f85d3cd65277U,
  0x3c3dbb94bd6482e7U, 0xbd40a485bd292b00U, 0xbd9836513b8c0740U, 0xbcd619edbd5b025dU,
  0x3d0357843d6c578cU, 0xbd8eb448bb963cddU, 0x3d322d16bd0fbe76U, 0xbd13a875bc128894U,
  0x3d301b96bd798e30U, 0x3c463f50bd7a2c8fU, 0xbcfbe41ebc8bc3faU, 0x3d6e9fb23c88fd65U,
  0xbcdcd1a4bd8616bcU, 0x3d2b3bb23a9db953U, 0xbd7d72e23d7d5c1aU, 0xbc7c9d383cab9ebcU,
  0x3d274436bc735f70U, 0x3bf7ff703d218352U, 0x3d7741123d1aa0f3U, 0xba0f77803d195264U,
  0x3c44ff50bd8949f6U, 0x3c83ff80bcbfb5c2U, 0x3ca36c68bce89365U, 0xb8b46d443b8250cbU,
  0x3d1fbc86bd361e16U, 0xbd5cb5143d09b1abU, 0xbd5ceecf3d493720U, 0xbd50c322bd46ea93U,
  0x3cb8892dbd065424U, 0xbd86efa3bc3f2cd3U, 0xbd8414a8bd716ab0U, 0x3cb5753cbd6c3bccU,
  0xbcc71d443c9e12edU, 0xbc9e0b523c0a3018U, 0xbd8f8565bcec4e0eU, 0xbd997e7bbcf7831cU,
  0x3d27f7b3bbc20748U, 0xbd64c0593d03f55bU, 0x3cd886e0bd44e011U, 0x3d341080bd404dd2U,
  0xbc932927bcb9c09eU, 0x3c9e49e0bd8a6fa3U, 0x3c900aa4bd07cbcaU, 0x3cb43c083cdbd453U,
  0xbd12a193bc5d85c2U, 0xbd607c79bd9c012fU, 0x3d0d553a3c102540U, 0xbd2d77c9bd6310d6U,
  0xbbf9bd30bd5b9517U, 0xbd3a9fd0bd84a76cU, 0xbcb6518e3d1b796bU, 0xbac979c03d0d8ef4U,
  0x3c9d328cbc134768U, 0xbd6df6b03bff5180U, 0x3d83bd613d237776U, 0xbd7afa92bd46e778U,
  0x3d766aca3d42e3a0U, 0x3d4ac18ebd534ddaU, 0x3c0ac068bd3c0366U, 0xbd338fe8bd8ab25cU,
  0xbd44c27dbceec040U, 0x3d19736bbd986b8aU, 0xbd062000bcdb7597U, 0x3cec56c8bd65d9d9U,
  0x3d2d56c63ce76431U, 0xbd90eaf1bd0e415fU, 0x3d3e0d9fbc11debdU, 0xbcd986c4bc637f6cU,
  0xbca458f8bbe7bf18U, 0xbd9ba1c7bd915e85U, 0x3d1b8c68bd50d183U, 0x3d4cc4ce3d18df18U,
  0xbd4758ef39a1a048U, 0x3d163216bd20782cU, 0x3d0f64f2bb171800U, 0x3d7187c83d5ac89aU,
  0xbd987ab13cfb0415U, 0xbc236354bd2037c9U, 0xbcc1a6cabcfcf7baU, 0x3beca2203d59e5a0U,
  0xbd207ecfbc33c02cU, 0x3b659240bbbcce58U, 0xbbfd1f50bcf8bb46U, 0xbd47ee42bc2f184cU,
  0x3d7737323d241fe2U, 0xbd4f286ebcb00da6U, 0xbd826f483d301d65U, 0xbd46d301bd28fe47U,
  0xbb4e9750bcfd4132U, 0xbd8a26853cb9f134U, 0xbd0fb662bd05d0e0U, 0x3c8bdc28bd1cbf22U,
  0x3c2b8f69bc734e44U, 0x3d145adebd143745U, 0x3d650f12bd00277eU, 0xbd2fd0423c56349bU,
  0xbcad355e3cc8408dU, 0xbda1dcc8bd0de36eU, 0xbda03f753d29e57cU, 0xbd97763bba383580U,
  0xbd008ac0bd830d3dU, 0xbc8d61cfbcea8a0aU, 0x3cc697e83d098524U, 0xbcda7a99bc5af40cU,
  0xbc28d2053ce76a71U, 0xbc9092323c2bd152U, 0xbd02e842bbef4088U, 0x3d329710bd7b8413U,
  0xbdbf2bbabd12d987U, 0x3c7fa8b8bbf18116U, 0xbc6c2fe0bd21bc58U, 0xbd7443793b8f9bc0U,
  0xbd2e116c3d23c27aU, 0xbd16acf13d604b6aU, 0xbc8346f6bb2d2eb8U, 0x3d50912a3cf8d1f4U,
  0x3d5c1dc03cf19141U, 0x3d5a65223d6f86d4U, 0xbd4a70a7bcb1d96cU, 0xbd3510aabd22f97dU,
  0xbd7becc0bd24bb14U, 0x3d162919bd8dca70U, 0xbc419808bcb5d096U, 0xbd0bd978bccba90cU,
  0x3c9924db3a61f780U, 0xbd6b261abc908546U, 0x3c0ead803d4ed60cU, 0x3d2df894bcd7f50bU,
  0xbbc71cb0bce279f1U, 0x3cccf562bd2a33e0U, 0xbd127dfc3c504ce0U, 0xbcda63d13cb9369cU,
  0xbd918721bd7ed3caU, 0x3c177aed3d38ea63U, 0x3d6944823c5bbcb8U, 0x3cbcd19b3d80f661U,
  0xbceabcdfbd556396U, 0x3bb19b503d1d1741U, 0x3c9bfb703cc56b84U, 0x3c7fae303d83ffdfU,
  0xbda636663b5d1ffaU, 0x3d5bc02c3d286e5fU, 0xbd789b7c3a6c8900U, 0x3d806409bd4563d0U,
  0xbd657c5abd82a282U, 0xbd035bacbd347c0aU, 0xbd449ad2bd9b64bcU, 0x3ba8fbf03bc0db40U,
  0xbd8452f3bd81c852U, 0xbd2ce53cbd59bc63U, 0xbd0696f5bb6cf9bcU, 0xbd629b3bbcc45070U,
  0xbd25e8083d8160d3U, 0xbd739076bd46a64eU, 0x3d0eb680ba322d93U, 0x3cb0ae78bd5e77fcU,
  0xbc9b7f90bd15ca68U, 0x3d20e68cbbe551d9U, 0xbbd5a1d03d3013a7U, 0xbcfaa2ae3aed9c0bU,
  0xbd6295f73c8cd590U, 0xbd8ffcf7bc6cfde9U, 0xbceea7f63d7ffe36U, 0xbd703dbd3c70c5e8U,
  0xbd4c7cd6bd47511dU, 0xbd6355ab3a619fdaU, 0x3d3832603caae7c4U, 0xbd81d7623c1aa8c0U,
  0xbd5211e23cea5d1cU, 0xbc4b4b10bcf0bb25U, 0xbb41dc103d5f7ca4U, 0x3d09e93cbda22a14U,
  0xbbd96f8b3cf9d0a0U, 0xbd0d1732bd1aaef7U, 0xbbe8b5213d664402U, 0xbc85b00cbd6fd1f8U,
  0x3d03a58dbc354592U, 0x3d221412bd958e14U, 0x3d4aa6da3d05eeecU, 0xbd642d2b3d500b3eU,
  0x3d7abd26bd40b72dU, 0xbc8b42dabd53ba1fU, 0x3c9dacb3bc1ed625U, 0xbd0a81c63d1b2f5fU,
  0x3d0d168bbbb2bb2fU, 0xbd45cb8bbd4c4217U, 0xbcd74f7c3d46ad15U, 0x3cc876a33c98ddf1U,
  0xbca63e2f3d009cceU, 0xbcd15b7a3c49db58U, 0xbd77f082bd671a3fU, 0xbca4cb3db8b30f04U,
  0xbd826c0b3b4bca69U, 0xbd546f82bd21322fU, 0x3c2be7b8bd2dd477U, 0x3c23fd82bcb3e660U,
  0xbc9ebc843d30cafeU, 0xbc3ed3793d05d16eU, 0xbcda8a973d2b46ffU, 0xbd60242cbd3fb6f2U,
  0x3be8fbe3bdeecd7aU, 0xbc45fa223c8b9332U, 0x3d2edad0bd38a703U, 0xbcd5c4833d09c3c3U,
  0xbd9af6c9bc4fec60U, 0xbcdf45413c1f6e7cU, 0xbd3cdf71bc945146U, 0x3d83fd1f3c43269dU,
  0x39abcde5bc120d7eU, 0x3c24fda0bc9c99a8U, 0x3d21ed383d52607fU, 0xbc570135bd2b1d65U,
  0x3ca017403d63c661U, 0x3d2566d8bc0056c8U, 0xbd1e2ee1bb315b36U, 0x3c916bda3cbde6baU,
  0x3c57da0f3c495382U, 0x3d0ef4b43d694eebU, 0xbd69d0c4bd8aed28U, 0x3d449a673d3dd462U,
  0xbca52fa3bd7bf1c0U, 0xbd4f4d09bcc23030U, 0x3c5e354a3c0cbc5dU, 0xbd50064f3d0755c9U,
  0x3caf43da3d61331dU, 0x3d2a67ee3bd23ad7U, 0x3ca1072ebd1afceaU, 0x3d0407e63c9f7895U,
  0xbd565bab3d06437aU, 0xbcdbd465bd713b3cU, 0x3d45ef5d3d2c4289U, 0xbd107241bd4594f7U,
  0x3c3dd264be0ea9daU, 0x3d4aa1c03d2fb0fdU, 0xbb492758bd82f1ddU, 0xbd8714323cfeb81dU,
  0xbb69314f3bcd7915U, 0x3c01ecee3d258a7fU, 0xbd50f46b3cb805f3U, 0xbc2dfa803c73275eU,
  0xbd7bbe7bbc4e6c54U, 0x3d4b7b3b3d511c62U, 0x3d3aab6e3c3b26b2U, 0x3d3df4a6bcfc62e7U,
  0xbd38d54abc98c02aU, 0xbd8397e73d18f919U, 0xbd1db54f3bda4fc8U, 0x3cc029023caa0d20U,
  0x3c828531bd0209f1U, 0xbd0e7e37bd4c8e3dU, 0x3c391bf1bbcc97b5U, 0x3c9fb81e3bf1f188U,
  0xbd42691abd0942a3U, 0x3d2f77f9bca59832U, 0xbd9708c3bd35ee38U, 0x3c21192dbd799987U,
  0x3c2b9f24bd741d47U, 0xbd8fa659bdd17609U, 0x3c340ed2bcd95b03U, 0xbd2701ae3d22ed5aU,
  0x3d313ba0bd2076efU, 0xbb628c7f3a4a9a2cU, 0x3c489cb1bd0bdc49U, 0x3cff50a7bdc7b77dU,
  0xbdd2dc25be151781U, 0x3d252270bca16b0aU, 0xbcfb12abbb935689U, 0xbd156573bc3b78c4U,
