/**
  ******************************************************************************
  * @file    network_isd50_data_params.c
  * @author  AST Embedded Analytics Research Platform
  * @date    Fri Jan 19 12:20:56 2024
  * @brief   AI Tool Automatic Code Generator for Embedded NN computing
  ******************************************************************************
  * Copyright (c) 2024 STMicroelectronics.
  * All rights reserved.
  *
  * This software is licensed under terms that can be found in the LICENSE file
  * in the root directory of this software component.
  * If no LICENSE file comes with this software, it is provided AS-IS.
  ******************************************************************************
  */

#include "network_isd50_data_params.h"


/**  Activations Section  ****************************************************/
ai_handle g_network_isd50_activations_table[1 + 2] = {
  AI_HANDLE_PTR(AI_MAGIC_MARKER),
  AI_HANDLE_PTR(NULL),
  AI_HANDLE_PTR(AI_MAGIC_MARKER),
};




/**  Weights Section  ********************************************************/
AI_ALIGNED(32)
const ai_u64 s_network_isd50_weights_array_u64[23009] = {
  0x3d94b4263cddb393U, 0xbecef1843f15286cU, 0x3e0dd156bd825a09U, 0xbec393683f402e13U,
  0x3e24f24cbd827ce9U, 0xbea1f19a3f32668aU, 0xbc86ea10bcb9059bU, 0xbdf19a24be1b394dU,
  0xbe07bf69bc86b0d2U, 0x3de31453be1fc4d4U, 0x3d8986a0bdc724f4U, 0x3c05995d3c69a1eaU,
  0x3cb0284a3c913085U, 0x3b15b9d7bbc41c3bU, 0xbdbe77d83b799269U, 0x3dbe5934bd4627deU,
  0xbc43e6b4be789f8aU, 0xbdbbafbc3cfc0b38U, 0xbd1e5d1c3dbdc372U, 0x3dc1cb9dbde84aa6U,
  0xbd566c373d318e1bU, 0xbc8e421e3c205aadU, 0xbe3ad11ebe89873aU, 0xbd97b4dfbe5069efU,
  0x3d19cd0cbe22b64dU, 0x3df00c0e3d8f5273U, 0xbc8cd3ecbe11f7a4U, 0xbd81189cbd6796a9U,
  0xbe028468bddb8e12U, 0xbd5cd4293e13be10U, 0xc036757ec01517ccU, 0x3c3cd8f4bfc49c9fU,
  0xc02192bdc00a43e2U, 0x3e55cccabef1bdd9U, 0xc017e02cbff4cc23U, 0x3e9734f8bf50e705U,
  0xbf1a1448bf0a77fcU, 0xbdab0577bf16e052U, 0xbf0c6b73bf1909adU, 0x3d50c467bedf7eccU,
  0xbec2a6f2bedd5af7U, 0x3ce57b11bef6d3fbU, 0xbdffd2dbbe469224U, 0xbdb53f48bd815c7bU,
  0xbd8a02983d82cba3U, 0x3e4f41dbbd2fe8e2U, 0x3d858478be612cd9U, 0xbddd4778bd181040U,
  0x3d3c5faabdfeb427U, 0x3dbbf376be636e9aU, 0x3d543d93bd6e3bf6U, 0x3d86ca64be853564U,
  0xbd4e64bd3d5d960fU, 0xbe1827bdbea4463cU, 0xbe25d6933ed96ceaU, 0x3d94224e3fe3a76bU,
  0xbd131a763d136afdU, 0x3dde0e523f9193acU, 0x3e0e110dbecb602cU, 0x3ac115453fb74c41U,
  0xbf5c5a20beb9278cU, 0x3cc3e51f3f3e69dcU, 0xbf9c1c33bfaed81eU, 0x3e2ce16dbf7f2b98U,
  0xbfccd975bfb67652U, 0x3e42f6e1c00ba909U, 0xbe0cf51e3ccd270eU, 0xbd8f7cd53de8289cU,
  0xbbba8fcbbe0e63e3U, 0xbdc544fbbe01db16U, 0xbc06f6f6bcffb83aU, 0x3e29b2d83d27654bU,
  0xbe5228fb3d76d74eU, 0xbd4d9536be318b29U, 0xbd4b53183d4e5ef7U, 0x3ce62747be6a1115U,
  0xbde85ddfbcbf3b3fU, 0x3cede295be21b787U, 0x3e063cc5be0685c0U, 0xbddca0653cd34c90U,
  0xbccd51b7bde7ce68U, 0x3dd7f09cbdd482edU, 0xbe06a763bb0eb522U, 0x3b15ec7f3d3d3bfcU,
  0xbc2a6d3bbdb67ac2U, 0xbd7f72c4bdc55392U, 0x3e1bd638be2f62b9U, 0xbdc3e856bd1b72f1U,
  0xbe06e745be12a508U, 0x3e21fd4d3e011971U, 0x3c2aa62dbe5b6617U, 0xbde50fb4be1a61dfU,
  0xbe1b62653de25969U, 0xbd858a39be4f8328U, 0xbe2384f03c41d62dU, 0x3e36b988bd1e5e2cU,
  0x3d944575be1257bdU, 0x3dae0e183c13f855U, 0x3cdcbb06be133b4eU, 0xbdc677423d9a81ceU,
  0x3d0df61dbd5ef46fU, 0x3c1fce57be3634e3U, 0xbe84374f3c562723U, 0xbc4b336ebe472763U,
  0xbe6a11f3bcfa560aU, 0xbd3b9bcdbe7d93f6U, 0xbe7329a8bd1c42e6U, 0x3d878149bdb8d8f3U,
  0xbc1405fcbd827861U, 0xbd8a2c20bcfaf930U, 0x3d8456c7bd8c1ce2U, 0xbdbdf2fabc25f00dU,
  0xbd1f4185be3032d0U, 0x3e2611e03c19dd42U, 0xbecb6e2d3e6513f1U, 0x3e7711ffbea850a8U,
  0xbeb4937b3e6d5b6eU, 0x3ea9a728bea96045U, 0xbf0dfec43dcc20bbU, 0x3e90c958beaddd31U,
  0xbe900c50be331fe6U, 0x3d205c83bd976994U, 0xbe3d671cbe6318c3U, 0x3dc456fbbdf63b26U,
  0xbb8523b4bcd16970U, 0xbe01cc4ebe8e0d18U, 0xbdd21207bde85738U, 0xbc93ba133d0374e2U,
  0x3d060e84bd905879U, 0x3ba9cc26be25e530U, 0xbe85c229be6b0ab4U, 0x3c5e86edbe52ede3U,
  0x3b475db0bdde8bbcU, 0xbb48936a3ce3f2ebU, 0xbe5bb35bbea16f3cU, 0xbd1ef7cabcc0a9aaU,
  0xbe8fbc75becb56acU, 0x3d49a06cbe9aed03U, 0x3d252ab4be26ff49U, 0x3c9c3831bdf58e8bU,
  0xbde3c718be16a44aU, 0xbcc33dbb3e109eaaU, 0xbd899c90be5c95f2U, 0x3bada60ebdb20870U,
  0xbf5ea2a5bf6abcd7U, 0x3db0974dbf8688beU, 0x3ea07aa9bf33f022U, 0x3da3852fbedb0b15U,
  0x3df9197c3eb1490cU, 0x3d59b1363f2380e6U, 0xbda6d1a73d825acdU, 0x3db85638be362dc6U,
  0xbd509024bdfd0543U, 0xbdf5eceebeb8f7ccU, 0x3d20c4da3d4b4b47U, 0x3d164b6abee7d5f0U,
  0xbb06b1353f8b285fU, 0x3bbb9c82be89c433U, 0xbf177de03eff260cU, 0x3e4629bbbe4e3061U,
  0xbf48b5983e41e82cU, 0xbcced562bab4bb79U, 0xbe46d81abda2831cU, 0x3d5e7a8bbe343067U,
  0xbe846b6bbe8103d3U, 0xbdb355c93cf38148U, 0xbae8a524bd75afcaU, 0x3d05d20abe2c134eU,
  0xbea188fbbf90f8bbU, 0x3e68d7733e0af213U, 0x3d9506dfbf544edaU, 0x3e6b3cd33e47ff35U,
  0xbe5d1c7fbf85df36U, 0x3e66870b3e141d4dU, 0xbe4b7491bdde37afU, 0x3d624762be06d554U,
  0xbdc78380bb22af11U, 0x3dccf4533d6fec48U, 0xbe5959aebdf2c007U, 0xbe1ee111bae12301U,
  0xbc359866bd57b418U, 0xbd2486acbe84d9afU, 0xbc80640bbe24914cU, 0xbcfee691bc939c27U,
  0xbda392dcbe34c7a9U, 0x3d94969ebe0d105fU, 0xbe07d7ba3ca6562aU, 0xbd9dbee0bea1c287U,
  0x3df499a5be42edcbU, 0xbd86a7ddbdfc3ffbU, 0x3d99efc3bd437ac1U, 0x3e17d877be743852U,
  0x3d49a641bda5dc29U, 0x3e0598cf3cd42044U, 0x3e0e99e2be2c8aa7U, 0xbb432a3abe32f712U,
  0x3d03cd4cbe0fb14cU, 0xbe01a2b53d9a887dU, 0xbd99cbf1bd5f8a7eU, 0x3ce2ea983bf402d9U,
  0xbd340729bd9f8bb7U, 0xbd3946d8be54ecdaU, 0xbe7f0e18be8a6a5bU, 0x3cb9fb63bda56d35U,
  0x3cc0a722bda5b5ceU, 0xbcf68e71be485087U, 0x3d87c0d3bddf7ac3U, 0xbc9c1152bee340d9U,
  0xbca0adaf3d3d72eaU, 0x3d57d953be91745cU, 0xbe0396e43d9b6836U, 0x3dba9df2be07a417U,
  0xbd83915c3cdceb44U, 0x3baa240f3e04ddebU, 0x3df40ff1be29ee3dU, 0xbdbfac163d9b4ca5U,
  0xc0488584c027e6faU, 0x3e276981bfb2cc60U, 0xc052808fc0435106U, 0xbc24703ebf425bf9U,
  0xc02923fac006ee94U, 0x3e3897c1be043fb9U, 0xbe6ded8abdf66c77U, 0xbb55ff41be912bc4U,
  0xbe8e49e1be95cb6cU, 0x3cc1e2a6bd6fc3feU, 0xbde63062be86d1e5U, 0xbc96b3eebd985b87U,
  0x3d8f778b3dbf581eU, 0x3c59c24cbe9dd8d6U, 0xbe72714dbe2452e3U, 0xbde2adfabe935af5U,
  0x3d28c47dbceb3ca9U, 0x3dd9b2d1bec326f7U, 0xbf4805e9be890eceU, 0x3a886dc43f41a244U,
  0x3d140585bd8e5b7cU, 0xbe7ee4423f85d2e9U, 0xbec37b03bf5e35efU, 0x3ca3c5593eeb1d5bU,
  0xbeb9d2633ee6effaU, 0xbc954a623e9592efU, 0x3d3ae295be85d8c1U, 0xbb63de87bf20f962U,
  0xbee3a41a3f1031d1U, 0x3cb9f5233ecf41a6U, 0xbd5a1097bdc8b985U, 0x3dba3e2ebe0aa664U,
  0x3d7985da3d57a8feU, 0xbaae50b4be6a0ec5U, 0xbe3335bcbd4f6675U, 0xbdbb2686bda2dc6eU,
  0xbdde557ebe0d44e2U, 0xbd57243ebe4be4f0U, 0x3cae5316be2c52e9U, 0x3e063510bd66f57aU,
  0x3ae5ca55be0c37ebU, 0xbda0c194be24171eU, 0x3d3e939abdb5e327U, 0x3da2b3a2bdca77d1U,
  0x3c8c7520be23f803U, 0xbbf8f5e1be8e770cU, 0xbdc78372be780e7cU, 0xbd86dd23bd7f328dU,
  0xbd31b84c3e029a8bU, 0xbcee5723be86ad6bU, 0xbde09e1cbd730084U, 0x3d80a38cbead383dU,
  0xbe657fcdbe38a3f5U, 0xbc977135bd359771U, 0xbd12ba9f3de179dcU, 0x3bf10d88be8d5d75U,
  0xbc263947bc7f3c37U, 0xbcd043d4beb99ba4U, 0xbd76e856be1ef323U, 0x3ca33078be8d3c75U,
  0x3d8c68b8bd5151bcU, 0x3e054e883c183a22U, 0xbdd8058dbe11ea9bU, 0xbd0a8bc6be5212e7U,
  0xbdeb6a98bc1c9fdbU, 0xbdc8cd30be139941U, 0xbf427d66bef0886bU, 0xbdd8fab63fc8e0e7U,
  0xbeb83a3fbe48d024U, 0xbddb6f76bd7caddbU, 0xbfc9189fbfcd4017U, 0x3e4c962cbfe00831U,
  0xbe2111ab3d9c1444U, 0x3bd3d22e3d8d3297U, 0xbdaed0fabdbeac1cU, 0xbd9b536fbdc96659U,
  0xbdad9e733dade997U, 0x3d8b035f3dd7fae8U, 0xbd3dcc313d443d22U, 0xbd448075bf2fa181U,
  0x3d23e938bd9199e6U, 0x3d2459c4bf4b1ba6U, 0x3d874421be1f2140U, 0x3d1b3410bf180fe2U,
  0xbd2b30293d1479afU, 0xbe088257beb33fb9U, 0xbe8af715be7bfcbaU, 0x3d071bafbed39109U,
  0xbddcd72ebe78906aU, 0x3ddf99f6becffceaU, 0x3da4c0ccbe27bb95U, 0x3e30a22ebcb8bf2fU,
  0xbe2a9961bdc9eb8dU, 0xbd8415693b6913d9U, 0xbce8c0ee3d3689a6U, 0xbdd04cddbdf996fbU,
  0xbe555673bd2d5ff5U, 0xbdc00883bca87672U, 0xbe03f6babda02b62U, 0x3e0dd2913d9142a7U,
  0xbd7aad3fbe17b796U, 0xbd371baebd7c77acU, 0xbd8b966ebdd04866U, 0xbd6782ebbce29481U,
  0xbe682590bd731712U, 0x3d731e203d4fc923U, 0xbeb82e42bebde16fU, 0x3a4cdc0cbd179136U,
  0xbd3e1e65bf81fe1fU, 0x3e4c68143f0493bdU, 0x3e5eb7bdbf6733d5U, 0x3e926aa23edc69b0U,
  0xbe5ac7ddbf69baaeU, 0x3e834ff73e90e988U, 0x3b99409fbd9e24d5U, 0xbddad824be14650dU,
  0xbdd838e0be47c5f5U, 0x3dbf900c3cd4327eU, 0xbda412cbbe9198c0U, 0x3c87eeeabe418f0bU,
  0xbef285b4bfa9352dU, 0xbdc503ef40334de8U, 0xbe9e4a4b3c8a129dU, 0x3dc4f81b3f01d45eU,
  0xc084f8f9c09dbaa0U, 0xbd3b3b51c0bceea1U, 0x3deaf4c8bf39b723U, 0x3cdf38f1bf952000U,
  0x3eb78b1bbdb64fe0U, 0x3da9e1bfbf5ae40cU, 0x3f0412a73e7a2c52U, 0x3cdb066fbf6fe55fU,
  0xc027131cc009c71cU, 0x3df558c2bf5b7f89U, 0xc035087ec027a743U, 0xbd99b5bcbf257f4bU,
  0xc02cb4c3c01ffbf6U, 0x3dd7ed80bf3a8f72U, 0xbe65fc903da01dc5U, 0x3d4861813df135d7U,
  0xbd0a34753c9c69f9U, 0xbdbe5fec3de211abU, 0xbe546114bd5c4420U, 0x3d39b8fb3d885efeU,
  0xbe091bd2bde11555U, 0xbd887705be8c8b9aU, 0xbd91791fbdaa9a68U, 0x3e0a9fc3bdd62dc1U,
  0xbd64fd75be47aed1U, 0xbd8a8196be024343U, 0x3d7872bebd826547U, 0xbdab06d6be2d6d2cU,
  0xbc9c8385bc6a8196U, 0x3e08b9473dbf7943U, 0xbd4a5f993ceb95edU, 0xbd4a7399bc55cfe6U,
  0xbe15b489bd2622ebU, 0xbd23e4da3d64bd40U, 0xbe203724bd94c73fU, 0xbbf063c53ca22584U,
  0xbe84e8da3d384378U, 0x3d51df16bc4fc332U, 0x3de0e3febddaa99bU, 0x3e23c29f3dfc5e52U,
  0xbe4f7f813dd5e78dU, 0xbd93c208be1bd3dcU, 0x3dc714b5be52abb5U, 0xbdb053f6be15fd03U,
  0xbd5c7fa23f1ef7faU, 0xbe18e018bdcf1020U, 0xc00f6b40bc82cec8U, 0xbdf7953bbf2cb9c8U,
  0x404b5edfbe66a11fU, 0xbd0d9b1f3fe1a0caU, 0xbd7ff7c6be05bf59U, 0xbd5c61063886dbc7U,
  0xbe058747be0666b1U, 0xbe2eab40bd9789c8U, 0xbe1722eebe6b4f13U, 0xbab5c9c7be03b14cU,
  0xbea742c33f90a51aU, 0xbda4560f3dbdf377U, 0xbd6adfb53f31b3c5U, 0xbe1aceebbdd24a6cU,
  0xbe0de84cbdcc0d1cU, 0xbdd58623be947b67U, 0xbd8fbc33bedb1308U, 0x4005e1b6beb28d28U,
  0xbdc47cf53e0b8e01U, 0xbe3b9c64bcaa6483U, 0xbe8a3551be9b994fU, 0x3f96f09abdddaa96U,
  0xbf326be9bdd44ed0U, 0xbe6a07e8be5d78b3U, 0xbddc0b87bd46249cU, 0xbe2ad5193f034c01U,
  0xbfb4eeab3fff4d9aU, 0xbd88b1b93fc30220U, 0xbdd8c782be4f76abU, 0xbd807267be3f3c56U,
  0x3d5bb7413f09e5c6U, 0x3d3700ac3c133a3eU, 0x3de25c4f3da9782bU, 0xbc7064a5bcc5984fU,
  0xbc2f6645bd815393U, 0xbd1e0bcebfde0eebU, 0xbd11b52ab9f329c3U, 0x3d9161dd3c9f89d4U,
  0xbd07889f3d839853U, 0xbe990740bd2c01c7U, 0xbda744c8be229706U, 0x3d3efae63d809832U,
  0xbba12b6e3e99333cU, 0x3d0ab4bcbe880f11U, 0xbc6a0beb3d3d741aU, 0x3c16eafd3c0d91f2U,
  0x3ccfb0433dd7afdbU, 0xbc89b3b8bcfc970fU, 0xbcbb5da5bf1fe649U, 0xbeb1a592bda432fcU,
  0xbda2bc123e3ea05fU, 0xbc849ac23cb86d87U, 0xbd8196243c6b57acU, 0xbe519e1ebc9881f9U,
  0x3cc612583d8fef5eU, 0xbc9c786a3df3587bU, 0x3d5f14fb3d32ba96U, 0xbcad3c59bf2bd1faU,
  0xbe54b87abebeb0b7U, 0x3d5987bebfeec2e8U, 0xbd08a1673d494a6aU, 0x3ce53d53bce1267eU,
  0x3d986fbf3e353f11U, 0x3d6ef4babbcd828dU, 0x3dfc9749bd0ad33aU, 0xbd4f6bcd3d81119bU,
  0xbdfb8474bce0d353U, 0xbd24fa73bfaefb94U, 0x3d6b69e93ca46857U, 0x3dc107503d1c67fdU,
  0x3c5434ad3da7f8edU, 0xbea30acb3db13addU, 0x3d5a096bbc296f63U, 0x3d96ebcabd891a15U,
  0x3d10a7933fb62e7dU, 0xbc8641acbe0a814bU, 0x3d36b4dbbd004170U, 0x3d706ced3da044e2U,
  0xbda17f8b3d6f6d75U, 0x3c3cbbbc3c36a30fU, 0x3d78f421bf11b57dU, 0x3df256ca3dd82acdU,
  0x3cbe25ed3e1a7b91U, 0x3d6260683d1cfc0eU, 0xbaa857653d5e2c0aU, 0xbd0d2ef7bda7c3c6U,
  0x3daa6733bcacee4eU, 0x3d8f9978bd297afcU, 0xba3abb76bd16c592U, 0x3d27cf24bebedf67U,
  0xbd4876e5beb6c61cU, 0x3ca08229beb95393U, 0xbcea8b583cf3521dU, 0xbac381643cdd9e78U,
  0x3d3cc50f3e7c18b7U, 0xbd5374a13d50a1c4U, 0x3d83607cbd9e2c59U, 0x3c4b580f3d2309e4U,
  0xbde18ebb3db8a24eU, 0x3d3beb01bfe16779U, 0x3d950672bddfc67cU, 0xbd13b1ffbacaa511U,
  0x3ca99129bbec1db8U, 0xbe52d5b23d8fd17bU, 0x3cc31176bc239960U, 0x3d6bfcc93dac79a3U,
  0x3d24a1d83f47910dU, 0x3bd48aa8be3adb20U, 0xbd9d13aabd1ddfb1U, 0x3ca49a15bd9b66c9U,
  0x3b477ae4bd8bb16dU, 0x3b35fe2cbcb26f80U, 0x3dc453f3bec69128U, 0xbe18dee7bcd28991U,
  0x3d1374a73c0d4bc0U, 0x3d7900203d29c9daU, 0xbaf61b9ebd6cd903U, 0xbdb82a5c3d7b05ebU,
  0x3d83361fbd39b9e9U, 0xbd1bc22a3c9caadcU, 0xbd21fa933c5291f2U, 0x3d3e2d54bebd0ad9U,
  0xbdae1c50beb57251U, 0x3cef245cbf15c49eU, 0xbcf8264a3d5ddcebU, 0xbd74b1483d2cf6f4U,
  0x3cd13a003e745380U, 0x3d49a20fbd8259deU, 0x3c18f5aabd8fe722U, 0xbd24a19d3db639baU,
  0xbe1fe021bd6aa479U, 0xbcc9158bbfeeb985U, 0x3d8b15be3d03448bU, 0x3c0ac0d43d5e666fU,
  0x3d6e070b3d849605U, 0xbe26276abd88be3dU, 0x3db364583d188726U, 0x3d3fb518bd42f7d2U,
  0xbd9e00e13f8dbe3bU, 0xbd63771ebe0fa21bU, 0xbdb88bfbbe3bb7ddU, 0xbd7a84e4bc70a006U,
  0x3d68b55ebcfc62dcU, 0xbd9b4b56bd1d7d32U, 0xbd90ab54bd6b5bcfU, 0xbd46ca7bbb62786fU,
  0xbdb15e4e3d662eddU, 0xbd37704dbdb19951U, 0x3b545a2139b99d9aU, 0xbdfbb5b7bd9c02f5U,
  0xbd971168bd282adeU, 0xbd1778153da8ddc1U, 0xbca7685e3dcd38f0U, 0xbdb6a062bed02f8cU,
  0xbd9f9d09be975a2dU, 0x3d92dcc6bec8e7f9U, 0xbd831c84bcc23b73U, 0xbcaa3534bd6823e2U,
  0xbbbb64f03e81dd3bU, 0x3d800fcd3cad070aU, 0x3d72a4d33d91a473U, 0xbd831e6abcc3f168U,
  0xbda6ead6bd946cdbU, 0xbc808f00bfd87542U, 0x3d9686243a8c72efU, 0x3c52a4773cb84325U,
  0x3c72a956bdb93406U, 0x3a82efa53ca14649U, 0x3de7b4693cfddd52U, 0x3d10eebe3d8e32d2U,
  0x3d3ac17f3f3987c9U, 0xbc0c64fabe23f1c4U, 0xbde47a6f3e89431eU, 0xbcbf971e3b39d8abU,
  0xbc4ad6803d6d04a4U, 0xbcb6f3abbc90f544U, 0xbd9f4487be1aaf06U, 0xbd600e25bd7eacdbU,
  0x3ccc1dc63df4d949U, 0x3ab86da3bdbef480U, 0x3d19d0f0bdf70cfdU, 0xbdf939b4bcc9d0cbU,
  0x3d5614aebd44845bU, 0x3ba9e70a3d9799e5U, 0x3da9423ebd27c6a2U, 0x3c90f496be3e2971U,
  0xbdcaf3c5beba65e8U, 0x3da14c65bf6fffcbU, 0x3d083799bd02434bU, 0x3b1090d9bdc232d7U,
  0x3d343c6a3e966522U, 0xbbaeb304bd01f3d4U, 0xbcb9acd0bd522b41U, 0x3dbcc420bc9b0ff9U,
  0xbe0034b4bcf05a1bU, 0x3d49ccb8bfdd5a2aU, 0x3d181e8a3cf53871U, 0xbca9c67dbda5060fU,
  0x3cfeb818bd9ea954U, 0xbdbe42ed3d1503caU, 0x3e05a19bbd1a1ad2U, 0xbda008cb3da783c1U,
  0xbd77cc223f50be84U, 0x3c8da409be352ae0U, 0xbae050463eaf6456U, 0x3d00c431bd6b9b11U,
  0x3cdfd7cd3d3e7e93U, 0xbcc6c0cc3d0f3387U, 0xbd712d913a33612aU, 0xbd22fb983d3dbd3fU,
  0xbcd5463b3d8e3d0eU, 0x3c4cf5f83d2ea82aU, 0xbd96ce003ccddc15U, 0xbe31e0f7bd3f3e1bU,
  0x385751663cd8b766U, 0x3d611a38bc7a8f10U, 0x3d9c68a1bd026289U, 0x3d970529be683ad8U,
  0xbdbd8c2dbedb342bU, 0x3d37ad4dbf84e99aU, 0xbcc44ff0bd888aabU, 0x3d91d875bd954356U,
  0xbd8b3ba03e894fc2U, 0xbcf294b23ab0bafdU, 0xbda23527bd839f5fU, 0xbcc43add3da63982U,
  0xbe1e72843c8005baU, 0xbd9c328abfd9c5c0U, 0xbd2afc6ebc970c82U, 0x3cccb59a3d1d001bU,
  0x3db83e1d3b4faccbU, 0xbea1e178bc959c9aU, 0xbbe714d13d25c307U, 0x3cac3efe3cf0db37U,
  0x3d01dd9b3f38723cU, 0x3d006f59be349dc3U, 0x3ce9c06f3f0b7e05U, 0x3d77bd6a3d174750U,
  0x3d70a4153d39a9adU, 0x3d5d6c90bc71c776U, 0x3b65d33c3de98bdcU, 0xbd5035263d00e143U,
  0xbd9bc11d3d34f014U, 0x3c070b843c96feb2U, 0xbd7f3bc93d5d1019U, 0xbe2845bb3c9fe4d5U,
  0x3d2ef3423d293c86U, 0xbdbc4e893aa8d44dU, 0x3da53c42bd19e28dU, 0x3da5b2383d5c77d2U,
  0xbdc1d6d7befbdb8cU, 0xbd88d5f9bec012a0U, 0xbda19dd83d3c5b2cU, 0x3dc35ababd85554dU,
  0x3d0f90d53e90b536U, 0x3c56b5bcbc0797caU, 0x3cad1462bcbe5176U, 0x3cc113993e167010U,
  0xbdd63be63da0ebb3U, 0xbd704a62bfa41958U, 0x3d7e9f98bd068722U, 0x3c2df2ffbca34e60U,
  0xbd22c2f63d53b4e8U, 0xbd70673f3cb94dbfU, 0x3c20b4c5bc8a755aU, 0x3d243d893da4bc18U,
  0xbad1c6523f3dfaf2U, 0x3d57d0d4be1302c6U, 0x3d95e8193f0fb1a6U, 0xbdb6321cbaecb3d5U,
  0xbbaa09c33d9b6cedU, 0xbd7054983c39c7bbU, 0x3da5f45abca41e3aU, 0xbd1e4fc83bdec0a2U,
  0x3d916baa3d42c746U, 0x3b905b91bcb41f55U, 0x3d088d423cffbf68U, 0xbc89d033bd7b5482U,
  0x3cf0afa13d7e3c8aU, 0xbc2dc8893d9b5ee4U, 0x3d741a103d8a7222U, 0x3db1cc2d3e28867fU,
  0xbdf2cff8bece2965U, 0x3d78e4e4bf0d52f1U, 0xbd35c25d3db12742U, 0x3d839be2bd93d93fU,
  0xbd08f4ce3e516aefU, 0xbc1937a0bd974025U, 0x3ca460233d32344fU, 0x3d85ad99bc360811U,
  0xbd9aadc7bda5c940U, 0xbdb20f66bf760303U, 0x3d003a77bd7e1cf0U, 0x3aaf7fabbd7b4386U,
  0xbbdc3520bc41f1c6U, 0xbe7ca56ebd6d2547U, 0x3c79c164bdd40bdbU, 0x3d011b343c3543e8U,
  0xbdc3a0f03f22688aU, 0xbc37f866be38a5aeU, 0x3c9321793f5e9624U, 0xbb02d529bd9d7f4fU,
  0xbd1239e33d76c625U, 0x3d2004bbbdbd7d25U, 0xbc79d45a3d8f55efU, 0xbe0bd9553d3bb0a6U,
  0xbd940e413bacbdafU, 0x3b6580803d5a9676U, 0x3d3bdf9ebd5a019dU, 0xbe7371febd8782a8U,
  0x3ca1786fbcb593fcU, 0x3d2a850fbb3c5439U, 0x3a62ba55bd7878f9U, 0xbcc7f5b73e92ae5eU,
  0xbda4ad2abe9b7e2cU, 0x3caf0e6bbf5cc8c5U, 0xbda83f363ce56d1bU, 0x3d98ae26bdc1c9eaU,
  0x3cba1efb3e7c0c43U, 0x3c179ea83cf65631U, 0xbe2892403da929b2U, 0x3d0d92683d2455c1U,
  0xbd8c8c1f3d6d10ddU, 0x380e729ac0028a46U, 0xbd2b7637bcb66d94U, 0x3d6e3963bd9a98baU,
  0xbd7a28413d8eb4a1U, 0xbd6f624cbcdbac7fU, 0x3d27643cbd701292U, 0x3d5630153dadf40bU,
  0x3d25dd4f3f035f47U, 0x3d701730bdfe49d0U, 0x3d9aba063f2324d2U, 0xbd87fff13c808827U,
  0x3cebe1343c646678U, 0xbd9397ba3d50bb65U, 0x3d7c07f03c806873U, 0x3e200f69bbdd0d1cU,
  0x3a2aa3093e3af66eU, 0xbdb859d6bb22cf31U, 0x3cc6d575bb85826eU, 0x3e00ebd2bd44b0feU,
  0x3c4979d4bdc0f490U, 0xbdb5c29f3d6f8297U, 0xbab374b73dbbb84cU, 0xbb883827be7534dcU,
  0xbe61d1fdbea619deU, 0xbd5f1c38bf0fe27fU, 0x3d9b18333c4b9f35U, 0x3bd6e9e0bd9dcdb6U,
  0xbd9c30763f09e360U, 0xbd8ff190bd86ac68U, 0xbdd5b3f9bd5a5fa0U, 0x3dfec294bd7f9544U,
  0xbed3df72bd95be11U, 0x3b5ff70cc018f6c8U, 0x3cc44e2cbd434e58U, 0x3cb29c3c3d2534caU,
  0xbd05556cbde98affU, 0xbe0d8e63bd9ca2abU, 0xbd02e4103def3ca4U, 0xbd354d94bd28133eU,
  0xbd9309823f75643aU, 0xbd1ababfbe57bfb4U, 0x3ccba6ac3da9ff9fU, 0xbbe508b43cf7cc0fU,
  0xbe15e788bd0d2f17U, 0x3d12cf703ca06d23U, 0xbbc19e243a9fac43U, 0xbeb5d0353b13cc89U,
  0xbd609f8e3e00cb15U, 0x3c1eebd43d0b884aU, 0xbcd86f9abdb046abU, 0xbec044e03d3a8257U,
  0xbb289b4bbd3c2a41U, 0xbce8edd13dc14b8eU, 0xbd2ae70fbd3e0007U, 0xbdca4d9abf0c6877U,
  0xbdfa7412bee38280U, 0x3de3ab36bf844fc5U, 0x3dbf13433c8ca546U, 0x3cd2f531bd55ffecU,
  0x3d346156bd53fa1bU, 0x3cabe4c0bcfd161fU, 0x3d00bc1a3d921505U, 0xbd2352503c8dcc70U,
  0xbdcd1fdfbaa524ceU, 0xbd90726fbdc13eadU, 0x3c4c8df9bd437100U, 0xbd8b32ab3da19befU,
  0xbd82432ebc3a4fb0U, 0x3d2f69433cc4dbb5U, 0x3d064d57bd82c4e0U, 0x3d54972ebcd05ef9U,
  0xbd5771eabd9ed6e9U, 0x3c965c483d287662U, 0x3af20580bc5212e6U, 0xbd0098023aa2bf41U,
  0x3d14ad913c3e64ebU, 0xbd9f3c5a3caabd7eU, 0xbcda45203cd05586U, 0x3d2696d23d36d3d2U,
  0xbb2e3d60bb7771a9U, 0xbc9054e4bc5dee18U, 0x3d9dfb13bb623596U, 0xbd68201bbd69701dU,
  0xbdbc578bbd3fb288U, 0x3d82a0e43d7208e6U, 0xbccd2bb7bc437c80U, 0x3d8b8b97bd7a9f01U,
  0xbc89f84d3d3b486cU, 0xbd8e45a23d91b33bU, 0xbcef84703d28a2fbU, 0xbd1d4cf53be4b2ebU,
  0x3d304dd4bd8fa1dfU, 0x3d9c2c59bb7a169bU, 0x3da3cad93d560706U, 0xbd9a1290bca7276eU,
  0xbd891cfebd7c4d5eU, 0xbda5faf8bc88d6e9U, 0xbd7927583d6abe2cU, 0xbd9481413dac90adU,
  0x3c355a02bce120a6U, 0xbca502eebd9b727fU, 0xbd96baa13d0523e4U, 0x3d648d06bb89e2a2U,
  0xbc52698bbd211398U, 0xbcd0eb713c523798U, 0x3d2314223d471fe5U, 0xbd92d0f33b95c8b5U,
  0x3d1d85153da1f349U, 0xbcbd4a6ebd9f99d2U, 0x3d1c1b22bb7fa971U, 0x3d87068fbdafb5dcU,
  0xbcd1a7f8bd2a832eU, 0xbd4ec6213c0eedf0U, 0x3d333c1fbdc2f9feU, 0x3d8d9b113db0cc31U,
  0x3d4044713d781987U, 0xbdbbeb38bd12e8b6U, 0x3d1919f6bda731bfU, 0xbd12303cbd7bd30dU,
  0x3b8e764c3c81acc2U, 0x3d7de8f83c6e26b8U, 0xbd3cc5cfbd5c1a51U, 0x3d21d850bcd0cfc5U,
  0x3cd892f6bda391f1U, 0xbd896268bc0a1bf2U, 0xbb8a4cd038f38400U, 0xbd58aa76bd2c64a7U,
  0xbd23504e3d026fa9U, 0xbcfa19e1bcea8cffU, 0x3d95fab23cf3bacfU, 0xbd99a7203ccf5488U,
  0xbd9f55a2bce15fa0U, 0x3c905ea43c13ec11U, 0x3d902241bcbbec0cU, 0x3d20cc32bc89311aU,
  0xbdb26da63c87298eU, 0x3d2395c9bd6b1625U, 0xbbedd490bdb61d95U, 0xbc5544b7bd5eda6eU,
  0x3da64fe6bd2efbfbU, 0x3c5724cebd08c4caU, 0xbd658fb0bdbbdca6U, 0xbcd23bb43d272f09U,
  0x3c8718fcbda86b3dU, 0x3d82d2713c8b38a8U, 0xba9db146bd2c4f3bU, 0x3d4508d23d1f515eU,
  0xbb48b006bd982b28U, 0x3cda3fe1bd6ff47cU, 0xbd8ae8a93d165c56U, 0xbcd6a60a3d3d63aaU,
  0xbceb9db63d7dc242U, 0xbc36be34bcf86d96U, 0xbda85e243da42e49U, 0xbd80a1783d878568U,
  0x3d811cde3d271311U, 0x3daae8113d200d7dU, 0xbd41e7343c0d23c0U, 0x3d487e013ce4c515U,
  0x3d5333273d899ea3U, 0xbd25ae223c96f6c6U, 0x3da29f323d38ff36U, 0xbcdcd38ebb8646c0U,
  0x3d548176bd55745fU, 0xbc9aca653da1b412U, 0xbd9ab8643d1d5c7aU, 0xbd14f91ebdbfac64U,
  0x3d5ed34f3d83c007U, 0x3d4f6d2fbd4f140aU, 0x3db30fab3d4b9799U, 0xbc92f0aebc14dad3U,
  0x3cf532a13d60bd04U, 0x3bfca227bc9c3a40U, 0xbdb2b7fc3d2e4c2cU, 0x3bd43d603d2637feU,
  0xbc8f1f683d683f40U, 0xbd35dd933beb51d0U, 0xbd0c8daabd782630U, 0xbd968cee3ca996c4U,
  0x3c41ef94bd2659f6U, 0xbd199d5c3a95a180U, 0x3b86920a3d29b526U, 0xbd27757bbd91186cU,
  0x3d12e838bdb53653U, 0xbdb2445b3d8caf01U, 0x3d4ef8de3c719b76U, 0xbd1c03e63d3c3f06U,
  0xbcd90424bd5dc8b0U, 0x3d7fcf0a3cb3279aU, 0xbd8e2b123c93e188U, 0x3c9331a5bd32210aU,
  0xbd853e5abd9969d7U, 0xbd935e83bd68fa9cU, 0xbcc529dcbcfb5297U, 0x3d5c02823d1f5d1eU,
  0xbd6d3a9e3d000f42U, 0xbd9a7baa3cf57645U, 0x3d9aab5a3bf8b9e0U, 0xbd87e98ebcf93b5aU,
  0x3c29f824bd104105U, 0xbd161620bd92a398U, 0x3c3bc1c0bcbb91a2U, 0xbd7003fdbdbfe62aU,
  0xbd5d84b5bc86f0a9U, 0xbd216c09bdc979b8U, 0x3d24bef6bd2801ddU, 0x3d930915bcc02753U,
  0x3d1b4bfabd6448f9U, 0xbd16f868bd3fcbe7U, 0xbd80a5eabc46d5b6U, 0xbc96ddf43beb0650U,
  0x3ade55b83ca49a3bU, 0x3d7364703cc75060U, 0xbdd070913dac2895U, 0xbce6bb61bd82924eU,
  0x3b3eb6973beaabd0U, 0xbd969303bc14524aU, 0xbcbe1b4cbd0b6c7fU, 0x3c500b3bbcc1159cU,
  0xbd7073a03d82409dU, 0xbd4eac8f3d8520d5U, 0xbc8a0704bd9ac12cU, 0x3d6c2215bd083934U,
  0x3d525fccbce50b51U, 0xbdb918343d26b86cU, 0x3da86b4bbd816fe7U, 0x3cb14464bd68d8a9U,
  0xbcf0cb183d9581ffU, 0xbdb25073bd989d85U, 0xbc7b9c9abd515ad9U, 0xbd8cdcbebd5565e2U,
  0x3d2a2808bd9292a5U, 0xbd874ecf3c3c52acU, 0xbd17fd04bc404f2eU, 0xbdb41efbbd82b410U,
  0x3da421f53d65bc39U, 0x3cfd135a3d82370eU, 0xbd324ad0bdb74d31U, 0x3d49c966bdbe1de2U,
  0x3d73fe763d927528U, 0x3daa65ddbd98d944U, 0xbd971231bd51c2afU, 0x3cb31c4c3d811761U,
  0xbc62b6433c33e5a5U, 0x3c88cd523cb9042cU, 0xbd46613d3d83bb29U, 0x3d907710bd06a031U,
  0x3d1e1389bc5e1036U, 0xbd552b3c3cac2f32U, 0x3c7f70bbbc962257U, 0x3d9e80b5bd5ad78bU,
  0x3c862e083c8fd97aU, 0xbd475d55bdab9aafU, 0x3db3ae7d3da00985U, 0x3d4472d5ba9e2c4cU,
  0xbd4174c7bdb9d87eU, 0x3c952aa63cc01a33U, 0xbbfef544bcc1daf2U, 0xbd4cf5f93d6d8da2U,
  0x3d2b35ae3da25701U, 0x3c581158bd830a6dU, 0xbd65b400bd5691cdU, 0xbcfc3cdc3c365748U,
  0xbdb94ccbbd5ab203U, 0xbd9ad4b2bd4b61acU, 0x3d6dc4423cc167aaU, 0x3cad59f53d5a311cU,
  0xbda65cecbadb4972U, 0xbdcc31d8bd36f14fU, 0xbc0f96d8bd30f56aU, 0xbda5c65f3d25a91cU,
  0x3c09bb00bb0c3e27U, 0x3caf697bbd949773U, 0xbd8192f1bdc75264U, 0xbd93cd3dbdb00176U,
  0x3cb3276b3d8061baU, 0xbd5edf32bd580d41U, 0x3d231c703d88acd9U, 0x3ce7fcb9bdb73b8aU,
  0x3d201270bce9368dU, 0xba78f00b3d266af1U, 0xbd9dee48bc8d4347U, 0x3d4aa1c5bd7cb4e0U,
  0xbc98a5c8bd11ad86U, 0xbd8953953c085a36U, 0x3d1b36c2bdad9c1dU, 0x3d236183bc063666U,
  0xbdb5bee9bd03c7d1U, 0xbd7ebc093c073339U, 0xbd21020a3c5447f0U, 0x3d305eb6bd884b88U,
  0xbd3911c1bd0a1e7aU, 0xbd2f323abcdd7ec9U, 0x3d41816ebd44cc57U, 0xbd97ee7fbdb001cbU,
  0xbdaac70fbd07f8e0U, 0xbd36d3e8bd0980feU, 0xbd2753c7bdc3f5d0U, 0x3d9a521dbd19bbb2U,
  0xbc7c98dd3d218fc2U, 0xbdb9cda63c5dafd8U, 0x3ce3ca143b32e211U, 0x3d9d65a73d5f50a2U,
  0xbd0925e2bd55f5fdU, 0x3d04cf5cbd8cdef4U, 0x3d5521063bcd44beU, 0xbd5c1b813d61878eU,
  0xbdbad6253ca2a45cU, 0x3c27dfdb3da19ff2U, 0x3a22bb353c434120U, 0x3d1f8ef53cfb73bdU,
  0xbd2d5ab9bd10ca1fU, 0xbdc72f39bce28ebaU, 0xbda225f5bd8eeefbU, 0x3d3c02373d653ebfU,
  0xbd8dd0da3cd836d5U, 0x3c0819183d6ea33fU, 0xbca61b8c3d8c01ddU, 0xbb80978f3d24cc13U,
  0xbdb081e13d915386U, 0xbd9a5d22bdaa6139U, 0xba76bab1bd5777dfU, 0xbd4b04e6bd8939bdU,
  0xbcba0d6ebdb2a5e6U, 0x3d8943633d7174bfU, 0x3c29955a3cfa6bccU, 0x3d10635ebd4adfe0U,
  0xbc6587e13d96abf5U, 0x3d6baaecbd95aac2U, 0xbca52f483d218bfdU, 0x3d30de6a3d4d1bdfU,
  0xbdb2bfbb3c3d68d6U, 0xbdc02e3a3d99c894U, 0xbd7b03623d858283U, 0xbc51c278bc857e6dU,
  0xbcb74488bd6e2ab0U, 0x3d88ad0fbc12a4c0U, 0xbd3a6629bcca60b8U, 0xbc88d004bc6a32c8U,
  0x3cd4d0533c58cb89U, 0x3d0883673be10720U, 0xbde8dae83c4e0030U, 0x3d6f4dcfbc8ae1d4U,
  0x3cbbd559bdb9a879U, 0xbd2363afbd9595c4U, 0x3d75ba91bd7776d1U, 0xbca896253d76b503U,
  0xbcccfdbc3c7e68ccU, 0x3c107350bb6c4ad5U, 0x3d7150463d525cfeU, 0xbd4524a53d8c4490U,
  0x3d247de9bd4350cbU, 0x3cf3451b3c0e0654U, 0x3d887e9dbd8ad9b0U, 0x3ca596783d91d995U,
  0x3d0dd825bd820198U, 0xbde1564c3c7ac435U, 0x3cf186703d88c68bU, 0x3d8b51b7bc3db208U,
  0xbd1a528a3d54e780U, 0xbc71b17d3cc08597U, 0x3af35e80bb9ede89U, 0xbd1ebbb53d9112c5U,
  0xbd1cbc18bc1529c9U, 0xbd265847bd8c5329U, 0x3cdc0d29bd83ce9cU, 0xbd051d173d7f698bU,
  0x3d85f9e13daa4427U, 0xbd9dcf013d8458a5U, 0xbc6974023da27d43U, 0xbd90c7033db01a8bU,
  0x3b3c0612bd893484U, 0xbdb8d747bdaef855U, 0xbd940f53bcad314cU, 0x3d35aaf6bdad4e87U,
  0xbd83d06c3d98989eU, 0xbb252ed7bd168a23U, 0xbd952e9c3b81fec6U, 0x3c01da513caee8d2U,
  0xbd160dccbd826862U, 0xbdae663f3d8641baU, 0xbd3355cd3daf1f85U, 0xbcb3dbbe3d9c7f1eU,
  0xbd2c0e153d4006afU, 0xbd2bd4a1bdb26723U, 0x3ce02deabd513851U, 0xbaa5a6803d9a863dU,
  0x3d8b0a263d20cc8eU, 0x3cc2506e3d403fb7U, 0x3d8abe6fbdac1b29U, 0xbcc8587cba9a2ff5U,
  0xbd76821e3d717ab4U, 0xba59c4513b5a8623U, 0xbd9771bcbb908f16U, 0x3c9bbdddbb397417U,
  0xbbd2276bbd010165U, 0xbd667ff0bdd7b967U, 0xbd575e443d718e3aU, 0x3d8e746f3c6d7367U,
  0x3d80b4e73d70999dU, 0x3c83eafd3d04ce3aU, 0xbda314ee3d975c0aU, 0x3d28a6c6bda070c6U,
  0xbd1eb1443b8c482eU, 0xbd096177bda51d89U, 0xbcad35a63d05dfc4U, 0x3c9af8863d8ce21aU,
  0x3c86d6913b902334U, 0x3be6aefa3cc7893aU, 0xbdba27363d0e5fc2U, 0xbd937a41bd7980d7U,
  0x3d1177013ccaaddaU, 0xbc7d1353bcef7bb7U, 0xbd539bd4bd4a88e6U, 0x3d4a1e413dd6120dU,
  0xbe582ffb3a6493b3U, 0xbd200dfb3daea1b6U, 0xbdf0ca11bc526097U, 0x3d421304bd1a8bb9U,
  0x3def74df3d38357cU, 0xbb9f2a11bda8af82U, 0x3db62d6d3d3b1350U, 0xbe06b9a13d849258U,
  0xbd653bf93bb3a89eU, 0xbdef558dbcd67afcU, 0xbda995573d7ba688U, 0xbdbcab24bc441b19U,
  0xbd3d8a8bbd9df52dU, 0xbd07db28bbcd39deU, 0xbe97cec53db87532U, 0xbe0d44213d5692b7U,
  0x3c8190413d71db21U, 0xbdaea397bd3d1cf1U, 0xbd4cdf88bc19b510U, 0xbd42a413bc4541c9U,
  0xbd88a7533d8ab34eU, 0x3d54bea9bd09f7cdU, 0x3e24dd993d8cfc5fU, 0xbc7b9a88be702e57U,
  0xbe43abb7be3b061aU, 0x3d405305be806461U, 0xbdb51affbd3476d9U, 0x3c8c62dbbcc1e173U,
  0xbd36b98d3aa1894dU, 0xbd670e00bd80108fU, 0xbcad47573d98bc8dU, 0x3d439ea4bd1348b4U,
  0xbdd3a0b5bd93c6bbU, 0xbd4e2bc33de04759U, 0xbd810d013d0a1131U, 0xbd4375233d62187bU,
  0x3c61cf42bdab94b5U, 0x3ba49dc8bb0a26d7U, 0x3cfc8bef3d55e114U, 0xbe5514623cfc96c9U,
  0xbd13464bbd57f530U, 0xbd7f4e733bc24896U, 0xbe1511e03dacd5eaU, 0xbd5d05963be4a302U,
  0xbd057c8bbd6cf24cU, 0x3c13ee49bd272597U, 0xbe378d833db86eb9U, 0xbd9f0ded3cea639dU,
  0xbdb9ed3d3d3906c0U, 0x3d5f926abb48defeU, 0x3be1583a3d81488bU, 0x3c714c8cbd6a8d0cU,
  0x3cc20e77bd96d5f1U, 0x3d89540abd9cbc11U, 0x3d4047ed3d8511adU, 0xbd9375bdbca29857U,
  0xbe387f8f3da17731U, 0xbd7b5aa4bdba44b3U, 0x3da171f2bc38582dU, 0xbb9a2e993d48c99aU,
  0x3d55901ebdb1af5aU, 0xbdaee232bb66b0b2U, 0xbdb4d975bd3c6ed0U, 0xbd5be06e3cdf76e1U,
  0xbec822053da0620eU, 0xbd0a3d9a3e214579U, 0xbdd66c87bda33509U, 0xbd57bd143c833a41U,
  0xbd12240c3d10afddU, 0xbcda2f223d24dba6U, 0x3d67bdd63c9b4784U, 0xbdd520dabdb9d95cU,
  0xbdad7420bbe5407cU, 0xbddccfc7bd46a633U, 0xbcfc36053da14afbU, 0x3cd2b6b7bdb77cf3U,
  0x3d825f023ce184bcU, 0xbd3f8fdfbdc17ddaU, 0xbda760ba3e0c04b8U, 0x3d1fcb5c3d65853fU,
  0xbd86ad72bd96a3ffU, 0xbddf33423c009356U, 0x3d42757abd2a3131U, 0x3d2e05bbbc479729U,
  0xbd66ddc23cd73dedU, 0xbdabb5483d4aa3f6U, 0x3d8e81dabd02e220U, 0xbdc4d49bbdfe5fb8U,
  0xbccf3a78bdd60314U, 0xbb57a8f3be0e7dbcU, 0xbd643ec43d65c3d4U, 0xbd9c0ce0bd59f82aU,
  0x3db0fa5c3d4816ccU, 0x3b893134bbbb6cd4U, 0xbd2ada1f3c7b86e2U, 0x3cada05ebd18f81dU,
  0xbea6405e3b7d5088U, 0xbd75c0f93d611d76U, 0xbd01ea4abdc12a64U, 0x3d5f7d85bd90d5d7U,
  0x3cbe4403bdaef90aU, 0x3c92de643c79d7c7U, 0xbd782f86bda83797U, 0xbda45752bc5ac48aU,
  0xbdc8f442bc8312bcU, 0xbdf2dc61bc849856U, 0xbe0cc0d83e19fd24U, 0x3d8636dcbd4a5d37U,
  0x3c62a2b0bc6045deU, 0xbd8050843cfce4bdU, 0xbe1c6bc63dac3c4eU, 0xbda4179dbdb555adU,
  0x3c96d8a1bd136381U, 0x3ccbfb51bd0d4cc4U, 0xbd799a923d887ac3U, 0x3cdaea87bda52981U,
  0xbd65b346bd871793U, 0xbd55d2bdbd8dd368U, 0xbbfa51853ab98fabU, 0xbcbb4bbebd93f408U,
  0xbdfdc997be04a41eU, 0xbda56126bdd276a0U, 0xbd15e5e23d541b7dU, 0x3d22f8e8bd846243U,
  0xbd8dabf73cee272bU, 0x3d0f933cbd51852eU, 0x3c6e3088bd3c7048U, 0xbd7da1853d1209b9U,
  0xbdd4cb07bd8ccc0bU, 0xbdc40c1d3dc95d8bU, 0xbd628202bdb6b874U, 0x3c864411bdb1b96fU,
  0x3db682d43d6e20f8U, 0x3d6dc9a23d9e0842U, 0xbcdf2f50bd4d9b55U, 0xbb2447a9bd4f6b21U,
  0xbc09db53bca368aaU, 0xbe264d8d3b6dbc10U, 0xbbd6780fbb25cfd0U, 0xbae207ddbba7823bU,
  0x3d41d20a3d11ddc5U, 0xbd5a4f7cbd335313U, 0xbc7fa01cbb7bd2f2U, 0xbc3c920fbdc9925dU,
  0x3ce77c6e3d6b155bU, 0xbd39a341bd15917cU, 0x3d90a9a8bdb8434fU, 0x3d7685fbbd4b16c1U,
  0x3c574b9bba7b2bafU, 0xbd1cd3cc3d96a3d6U, 0x3db1aa0a3d984fdbU, 0x3d359321be293076U,
  0xbe0fd967bdd38931U, 0xbd18ec67bd8ede89U, 0xbd2b765abc4adb0bU, 0x3cbf8d483d420fd9U,
  0xbd8e3d17bcf1d71fU, 0x3d943a3f3bc8fa3bU, 0xbbe13190bd8c4b59U, 0xba1c830a3e0df52cU,
  0xbe19b2373cf8250bU, 0xbd58ec133d2845a5U, 0xbb1ba07d3d1c2e08U, 0x3dc66a6c3da42237U,
  0x3d78ea833cf9c0b1U, 0x3d14fb1e3b7f3ab5U, 0xbd4a3bf4bcc97fdfU, 0xbd802e5bbd91384aU,
  0xbd517604bd22f233U, 0xbddd3a583bd39843U, 0x3d9f3a483da97ac6U, 0xbd4147cfbd15187bU,
  0x3b2d1cda3d7320ffU, 0xbd5c7053bb58dbf9U, 0xbe0b567f3d8aa75eU, 0x3cfe9d59bda54b33U,
  0x3c5c5e123c19e123U, 0x3c8280e2bd0e323aU, 0x3d5d05273d0e2679U, 0x3d9eb636bd661499U,
  0xbdcbcd3d3d405fd4U, 0xbd871d00bd103778U, 0x3c8a18623d132582U, 0xbd409c32bdceaedfU,
  0xbcc010acbd1afa47U, 0xbdb5a4c8bdecd531U, 0xbb62088ebd1b75deU, 0x3ceb9626bcc70b4eU,
  0xbd85641b3be0785cU, 0x3cd239b7bcb3afb1U, 0xbd9920233c738c03U, 0x3d3f4f1cbb3467deU,
  0xbe9ee2433c3ccd4fU, 0x3a7c734b3e29d725U, 0xbd6a9e70bd84f7afU, 0x3d5a0a2bbd89a838U,
  0xbd1e59b8bc503861U, 0xbd5da30c3d0cae72U, 0x3cae77b73bdb7e5dU, 0x3c40aecebbcca06bU,
  0xbcbf2468bdc57d74U, 0xbd68ee0dbd1cbb09U, 0x3d106772bd99b663U, 0x3b51ca20bd9747bcU,
  0xbdaf23063b68c4f7U, 0xbdb3a1e5bd61d8aeU, 0xbd67a9433d2a872fU, 0xbc951fcc3cf4c28cU,
  0xbce574bdbd060afeU, 0xbd790172bded817cU, 0xbd0231c73d6a39dcU, 0xbd1249513d85ead0U,
  0x3d57ccc5bd1a9858U, 0x3da87da63ceffc04U, 0xbda8305bbc800ea9U, 0xbd46325bbdadc652U,
  0xbbdf29e1be4206d7U, 0x3d49262fbd522859U, 0x3d8cc035bca3fe04U, 0x3d2ce5153d17de48U,
  0x3d18439fbdd95429U, 0x3c98ae0bbd8adf87U, 0x3d27a5b63db00a92U, 0xbd8d833a3ba64827U,
  0xbe80d1223ccff29fU, 0xbd17e1723d0a48d6U, 0xbd2b51673d0521d5U, 0xbd3b3040bd784499U,
  0x3b6356b7bd2191d8U, 0x3c0ca7dc3c8388d6U, 0x3cd09e2bbc7d98adU, 0xbd0585bdbc92d0a7U,
  0xbc5f3ea5bdd982f5U, 0xbd93a39c3d2595f6U, 0x3d917d093cbc5994U, 0x3d54ace33da126a6U,
  0xbd30cf63bc2411efU, 0x3d6720f1bd2673b0U, 0x3d09cd12bd8c3cefU, 0xbcbbd50b3d23fab3U,
  0xbd4e94623c20eceeU, 0xbd71c0cdbdd1491aU, 0x3d21d0333d1eed5dU, 0xbcebc2d7bd51a0b6U,
  0xbd00cd2f3d15dcf8U, 0xbc98b4a6bc2fd3daU, 0x3d3586f43d9f35acU, 0x3d581979be352645U,
  0xbde4f52ebd984b12U, 0xbd393410bda40c03U, 0xbd84031abcbf2a93U, 0xbd52fec73d155c40U,
  0xbcac8a433d5321b0U, 0xbb2def28bd305cf0U, 0xbc8005c1bb5c2d3fU, 0xbd9b28373c8d0bfeU,
  0xbe943bff3ce85196U, 0xbc04d9ee3d5fe5d8U, 0xbd5bf298bd7c02abU, 0xbd29518a3db0433fU,
  0x3db3bf5aba54a818U, 0xbd793c1abd25fc1eU, 0xbc3a0b67bd8f7c78U, 0xbc952e1b3c43cf31U,
  0x3d3436e13d28bc7aU, 0xbd05c50ebd74b321U, 0xbd9e1458bd4d1a0cU, 0xbd8d111dbd69a2a5U,
  0xbd8ed8ff3d4ee7a7U, 0xbdd04b123c3933d5U, 0xbe1a9388bb5cff73U, 0xbc461fa9bd4d8d36U,
  0x3ce52ccdbd25149dU, 0xbda836ffbd9b72dbU, 0x3d60ea96bd869238U, 0x3d863f113d05d40bU,
  0xbd57c45ebd9f4f29U, 0x3d0c16513da40429U, 0x3d93ceaa3db4dcf0U, 0x3d7d0613be1a41e3U,
  0xbdadc186bd271190U, 0x3a27ff1dbc621ef7U, 0xbd3144fe3cad0c60U, 0xbc3f70a9bd9a29b9U,
  0xbd4693213d008456U, 0x3d607c85bd8d4cfdU, 0x3d68ce1a3d9d5f75U, 0xbd64cf503cce6d76U,
  0xbe37918ebcf95a82U, 0x3d3c6a9b3b9d8a51U, 0x3d071b81bc8a75b9U, 0xbd071ca4bc71605bU,
  0x3df0d7fe3d25fe0cU, 0x3d9123afbdb25c2fU, 0xbd8c06a6bcf6c3ddU, 0x3d1981183d20d09eU,
  0xbd0c61c4bc310c12U, 0xbcc7a04abb61d61cU, 0xbcc81311bda640bfU, 0xbdb721863d15b06fU,
  0xbdb80f2d3d2937acU, 0xbd13f2bfbd3b5abaU, 0x3db3b57c3bbacb3aU, 0xbb16a2ea3cfe09d7U,
  0xbc21ced5bd4e95e0U, 0x3d61f044bcdc6307U, 0xbd92d7993d8cc3b9U, 0xbd3a1f833d64a4ccU,
  0x3c8bec473cc293e0U, 0xbd02022abc84c9d6U, 0x3d6205753d93a7c2U, 0x3c10a6ebbd14b311U,
  0xbbfed5ff3df5204eU, 0x3d9d495fbda05d02U, 0x3d4f76bdbc8e061cU, 0x3d5ed4ea3d87caddU,
  0xbd05889ebdaa4140U, 0xbe0f67593d970f79U, 0x3d625200bca1c47fU, 0xbd6760913cae41b5U,
  0xbe29cbb83c8e0135U, 0x3db27b1e3d10f38cU, 0xbcc3f0b3bdc7e6fcU, 0x3d69b9d9bd8e907eU,
  0x3dd447e03c78eed3U, 0xbd2f18bfbd4fb543U, 0xbcae53273d87b7d0U, 0xbc06b07c3c54ed18U,
  0xbd14c83cbdaac0d0U, 0xbd5782b8bcd594b9U, 0x3cf5ffca3d83ff89U, 0xbdc15d69bd094dc5U,
  0xbd9a8fda3d8cff44U, 0x3d914ad23d955c22U, 0xbd435b1d3d8b5b25U, 0xbdfd1b67bc558561U,
  0x3c445c13bda5ecbdU, 0xbd9c68bcbd1b634bU, 0xba8315a8bcc711c8U, 0xbdb1cfebbd984cb2U,
  0xbd26f0de3cd8c98aU, 0x3b45c3013d377307U, 0x3d1cdf2d3d5f02b4U, 0x3cb26cdfbd88c2a6U,
  0xbc52dbc83de1342fU, 0xbdbd0f21bdd50c76U, 0xbd7668aabd958394U, 0x3d87a6f5bd8d5620U,
  0xbd197a6dbd79be9eU, 0xbd1418e3bc55e485U, 0xbcde8b86bd908256U, 0xbda5610d3cb14c17U,
  0xbdb335cdbda6b756U, 0xbd45af0abc8f1503U, 0xbd5149adbd999bceU, 0xbd84048ebd6f2800U,
  0xbc541546bba1cc2dU, 0xbd92d2913c1a68c3U, 0x3d51c9e53d5672f1U, 0x3d70ba933dadf47dU,
  0x3d493f63bdef5d1dU, 0xbcadba333c9eb157U, 0xbd313a8bbde74eb5U, 0x3cac6232bda4c687U,
  0xbd3ae5933dab480aU, 0xbcb466b6bd606c81U, 0xbd2457553bdba6cbU, 0xbcab9aad3d4ef210U,
  0xbdb6c8413c9db825U, 0xbd3c30053c0624c9U, 0xbd910cd6bacb3232U, 0xbd49f2c73c6aab90U,
  0xbda406aabc64bac2U, 0xbd26bc2ebda8b35fU, 0xbd1d4fe03da2c50cU, 0xbc89929d3d324a40U,
  0xbdb8c13abd2c0324U, 0x3cb0fb703d240d05U, 0xbd311239bdb05971U, 0xbd84d84cbdb328ceU,
  0x3c1419c0bde38972U, 0xbd80b20ebc529b24U, 0x3d24618f3da471fdU, 0x3d9cbd58bb4baae2U,
  0xbc80aeef3d0e0bbdU, 0xbdb74174bdc47dc1U, 0xbae022c93d1d8f34U, 0x3b8e4ee6bce5407eU,
  0x3d9c86a9bd299aceU, 0xbde1a10d3d861214U, 0xbcc13f683bbece58U, 0x3d72b3d33c9d3741U,
  0x3ceb7dc6bcbc6564U, 0x3c7d7522bdfb0af7U, 0x3be2c3973c87e8edU, 0xbd3927493d1bd86eU,
  0xbc5815663ca12082U, 0xbdbd65383d6ac61cU, 0xbc1f6d11bb7196f9U, 0xbd196afd3d67ffc0U,
  0x3d3ac3a5ba58466fU, 0x3d492017bd1f4a55U, 0xbd97fa1cbdbb843eU, 0xbdb3d7453d3ff776U,
  0x3cf81a2e3c939c69U, 0xbd81a7673d4d1186U, 0x3bac56453d48cab5U, 0xbd8017a4bd781f22U,
  0xbe059368bcd71e79U, 0xbd9c8631bc98ec0bU, 0xbcf0467bbd40d67eU, 0x3c4fb356bda0e05eU,
  0x3d1b1fcabd499260U, 0x3c1135d23cbb780fU, 0x3d7f26303d10f8a1U, 0xbdb8e47b3d19a254U,
  0xbd833635bdba15dbU, 0x3d91ae123c9dfa6dU, 0xbd5c3f0abd7c1600U, 0x3c9e8a96bbd93900U,
  0xbd8d9423bd06c041U, 0xbcac360bbda8192bU, 0xbccd6b313d8ff534U, 0xbd2337adbced5d78U,
  0xbd4a4d8d3c1bb238U, 0xbda15074be036fb3U, 0x3b7513e0bdf36ffcU, 0x3d9628a93d4a0de7U,
  0xbc762db8bcc345bcU, 0xbd2547e2bdbb8f66U, 0xbd94c5f3bdca4254U, 0xbc5ceebebd09268aU,
  0x3c859be5bda04434U, 0xbd6679c6bd920e41U, 0x3ca9ebc83d20d47cU, 0xbd920cf2bd15df78U,
  0xbc85c909bd34fc4dU, 0x3d96c2723d033993U, 0xbdb7622bbdb78ed0U, 0xbd5ab8ae3cc54a30U,
  0xbe1cd48bbdd03354U, 0xbc40ebb53d803decU, 0x3c54865d3d482484U, 0x3cafe5923d9cc6c9U,
  0x3d81b0c13d386b8fU, 0xbd94ff683d8d7eeeU, 0xbceeec243d5dc53dU, 0x3c6168443d072651U,
  0xbe4bf9913cd58601U, 0xbd88e4adbdb39a00U, 0xbd910a193d4bf1f9U, 0xbc82a958bc94d584U,
  0x3d1af895bb30812eU, 0xbd9613a7bce41e13U, 0x3cc7b637bcbc2f5aU, 0x3da5fcdfbce9e2c1U,
  0xbd56dbab3c273f8bU, 0x3dacbfb23c8b11f4U, 0xbbaaa8c0bdd9109fU, 0xbc8bdb5e3d0c1be8U,
  0x3cdd05b2bbd5058bU, 0x3cb62ccabd20298fU, 0xbd7e7f67bd3d1a16U, 0xbd60f3e03cf729f4U,
  0x3d4d40dbbdd9f923U, 0xbdb0677ebd5a6b93U, 0xbda9d3fbbdae52b1U, 0x3cf02e633d2e52d6U,
  0xbd86b0673cc897f7U, 0xbd4a0e31bd9b40d0U, 0xbd2d41ebbd9cd17dU, 0x3d90db11bc75d15eU,
  0xbdf3774bbdabce45U, 0xbdaf681fbcf237f3U, 0x3d21710d3d1691bbU, 0x3d4c51823d94b2e6U,
  0xbcf3a360bc64b3efU, 0x3c0622353d82d6b8U, 0x3d8fe3633da17cb2U, 0xbcb5ec0cbd6df313U,
  0xbdcb6d13bd7957e4U, 0x3d79fd493cd5d713U, 0xbba327833ca3aa4cU, 0x3d5c8351bd5a7b05U,
  0xbd038c0abc03439dU, 0x3cb896bbbca28ef0U, 0x3d8696af3d3e6d35U, 0xbd92fd133d05bcffU,
  0x3c3f3baabdabf985U, 0x3d584cf53dee3a49U, 0x3d018c2c3a8bda2bU, 0xbce4018abd34238aU,
  0x3d88fea0bd9b58efU, 0x3c1fc554bd624bc3U, 0xbd3cc759bddf942dU, 0x3a916c883dafb8a6U,
  0x3d61f98bbdb4328bU, 0xbdc9ea48bc8a0780U, 0xbd303b3ebd9c5759U, 0x3d889a24bda7f66eU,
  0xbd793d34bce00efbU, 0x3d746a70bd63b2ceU, 0xbdf59ea53bb29870U, 0xbdb6879bbd369ed1U,
  0xbd8c5fd03c073fafU, 0xbd5ffab6bd92ff7eU, 0x3c1be7e53d5b12ddU, 0xbd5e3f87bd4c4211U,
  0xbb686f0bbdb68e76U, 0xbd64a3f73c86e3f0U, 0x3d8d68323a51b8c9U, 0x3d93c47fbd8d8deaU,
  0x3d4092943d62ad50U, 0xbd97c46fbda9ab24U, 0x3cfaaf2ebce3fdeaU, 0x3d83056ebd20be2bU,
  0xbd90a737bd946f5aU, 0x3d4121b73d2bfab2U, 0xbda6745bbdc87f09U, 0xbd78bd70bdae3673U,
  0x3d93e417bce56134U, 0x3c35ff9b3d8146a1U, 0x3d4c13f23d8080e3U, 0x3ce5da54bd8c6704U,
  0xbceaeaa3bd2b5894U, 0x3d81cbb73c502eb6U, 0x3d9975a4bd942f84U, 0x3c96becf3db8e413U,
  0x3cba7bdbbdac27caU, 0xbd803f113c6c9de0U, 0xbd820f6fbdaffcbcU, 0xbc4698c4bd6f361fU,
  0xbca1f8283d9a9053U, 0xbcb0222ebbd14996U, 0xbd7a9f5d3ceb1494U, 0x3c922215bd907bffU,
  0xbd498d79b93961d7U, 0x3bf2f941bce07a4aU, 0xbc5910653d1ca85bU, 0x3d35c1e83c7ee3dbU,
  0x3cd5c7633d233113U, 0xbd80222abc5cc13cU, 0x3d59ed18bd0c2980U, 0xbda389643d2b344eU,
  0xbd09d2223d8fd122U, 0x3d34fea73caf9b0aU, 0xbd11b0863d5e6b7bU, 0x3d9000dbbd56c4f4U,
  0xbd388e67bdaa3856U, 0xbc7a7f04bd238807U, 0x3da08762bcafc344U, 0x3d7c1825bb84ea8aU,
  0xbbe0762cbce9ef49U, 0xbd3103b2bc1421eeU, 0xbb846f50bdab4f97U, 0xbc63407d3d1725d3U,
  0xbc01ad923d70a606U, 0x3ce1e18ebd1bef23U, 0x3d8519b6bdbaec65U, 0xbd38316a3d0736a9U,
  0x3d9dd85f3cbf3248U, 0x3d07b6d93d4dd066U, 0x3d46c22bbd835190U, 0x3d3498643cc1b9e2U,
  0x3d452808bd91fd73U, 0x3d7ac86dbd76626fU, 0x3d5a1aa23d7ad76eU, 0x3d46f44d3d88e8c8U,
  0xbdcd2653bc860b18U, 0x3d5c04783dc1def8U, 0xbcfc5c63bda375b4U, 0x3d9c4dce3cb9536aU,
  0xbd6d7b0ebb65624aU, 0xbc8d79dabd558628U, 0x3d9a06ad3d609fa7U, 0xbd8f608b3ae15096U,
  0xbcd775ad3cf610cbU, 0x3bac0f74bdb781e3U, 0x3d6902c4bd29f5c8U, 0x3c5f9176bcb7b90fU,
  0x3d94f1323d0c2664U, 0xbbd4a6f3bcd02579U, 0xbd2dc2843ce88272U, 0x3d3ef8d6bc14327bU,
  0xbd834e8dbd389550U, 0x3cbaf94abb99d96bU, 0x3d9c088dbda1b21eU, 0x3cf390b0bd647aedU,
  0x3cac65b83d975325U, 0x3d6b448ebc8084d1U, 0xbd6d62b0bc7c1e67U, 0xbcf49dc73d62b0ecU,
  0xbd500df5b93a26c8U, 0x3c8c0d1cbda80c00U, 0xbd889647bd22a51fU, 0xbdae09b0bd83a6d8U,
  0x3da705df3d1c630aU, 0xbb4adbc8bd927424U, 0xbc5236c43db2c563U, 0xbd733ae1bccd8f1bU,
  0x3cc84e1abd24b776U, 0xbc557a713d794109U, 0x3d525d3b3c994c3eU, 0x3da249bfbda74237U,
  0x3d304c273b5f4536U, 0xbca6d7c33d49ffbeU, 0xbc0764393b84ca15U, 0x3d3d0f71baf5e760U,
  0x3cc6112d3d9968c3U, 0x3d0f6a74bd2e5f97U, 0x3bbbaf3abd9ed912U, 0xbd4d97e63d24b51aU,
  0xbc33dbd03d6a7aaeU, 0x3d2977353d37f6a1U, 0xbc388021392417daU, 0x3caf117c3cd66de6U,
  0xbd90a7a8bdf3bcb9U, 0x3da64072bad42ceeU, 0x3d99a531bd551bb0U, 0xbd630bd13d488dd8U,
  0xbd93eb09bda61efaU, 0xbd2bfcd4bc3dda4fU, 0xbd548cb63cb9de57U, 0xbd0a34b03d4770e2U,
  0x3d65f2353d40cb7eU, 0xbcd4f392bd87cd5eU, 0xbd6073a93d06cffdU, 0xbb4dbbe13d683d74U,
  0xbcae1f5ebd1df297U, 0x3d8c83a53d072d3cU, 0xbda218603d7da136U, 0x3cade0b73bbc1a94U,
  0x3d2fff05b8e559a5U, 0xbd149f48bd196c63U, 0x3d9247b6bd04c41eU, 0x3ca230cbbd9ead00U,
  0xbd464be4bc0d6d09U, 0xbd3a1f7a3ceefa2aU, 0xbd6088b63da7a991U, 0xbcb3eeb6bdcde1b4U,
  0x3dedb9bf3da81ed1U, 0xbd0bff17bd94e08bU, 0x3d9b01403ccfaf58U, 0x3d2c177bbda479aeU,
  0xbdb2cfd93d68b53dU, 0x3c40ce73bd9a0c4bU, 0x3d55c97ebd9e53a9U, 0xb90a9e003ccbd509U,
  0x3d702c83bd0e2282U, 0x3d4825323b73def1U, 0xbd3e04c5bc6a09bcU, 0x3da21941bbc8d0ffU,
  0x3d2cae0ebd669b44U, 0xbd7f563a3da30c52U, 0x3d8b2fa93cbe2c7cU, 0x3cfccaaebca2f227U,
  0x3cf19bbfbd956705U, 0x3d8eaf6d3c06a2c8U, 0xbcbd9693bc3ccebaU, 0xbdbac79f3d538a39U,
  0xbbbf20b4bd4b1102U, 0x3da9a2953c575844U, 0x3d123abfbcd42b4eU, 0xbb26a0ca3d38b9e1U,
  0x3d737574bda80e8cU, 0xbd0f27eabc3b1e7dU, 0x3d110557bca0969eU, 0x3d5ca4133c9954eaU,
  0x3c9310e4bc7807deU, 0xbd5eb83e3d84cf86U, 0xbb9689e03d78ae55U, 0xbc360efeba8d50c5U,
  0xbcc1813cbd09e931U, 0x3cf17f33bd4a78ccU, 0xbd8c126c3d26b41fU, 0x3da6d2b13d3646a2U,
  0xbda6fafe3ba94999U, 0xbdb460793be20e88U, 0x3d98fe873c4ac3acU, 0x3da21d53bd6c2599U,
  0x3d2ba09b3cce3a0dU, 0x3d7a7d3cbce06c06U, 0x3d073ffebbb40441U, 0x3cf969de3cd97231U,
  0x3cc04731bd4cae37U, 0xbbf0c88bbd7e7833U, 0x3b8e30fdbd348638U, 0xbd54ca21bd3625acU,
  0x3da7cd19bde4948cU, 0x3bff14d33d4839f2U, 0xbd5d3e893ca45aa5U, 0x3d424a6f3cef5e65U,
  0x3d8cc86b3d93e212U, 0x3d0e28063ba87687U, 0x3ce519b23d367aeaU, 0x3c9c001a3d98101aU,
  0x3cb5b3ac3d0b493bU, 0xbdd1ea423d305137U, 0x3cc8be1ebd9ad8d6U, 0x3d39c682bd1be655U,
  0xbd763a01bd87a1f0U, 0x3d64df56bd79119fU, 0x3cf24b68bd0a477dU, 0xbc9b9bc13cd5c540U,
  0xbcb607fdbc909f68U, 0xbda033f8bda1f59dU, 0x3d337da2bd53cf33U, 0xbd7fcf0a3aee7300U,
  0x3bf7a2c0bcb942ccU, 0x3ca12daebcdee83aU, 0x3d2ecbfabc3e7648U, 0xbd8790d23c22184fU,
  0xbd9625563d1211ccU, 0xbc5bf3003cdea720U, 0x3d82de35bd6f9dccU, 0x3d29781ebd49ed69U,
  0xbcd0acf33c48c3a4U, 0xbddad3e2bd8a1765U, 0xbd86bde83d0651ceU, 0xbd225b5cbd63884eU,
  0x3da34e71bd8c95faU, 0xbdadb7fdbda46093U, 0xbc4302b8bb097a20U, 0xbd1e7c27bc0dc3b8U,
  0xbd8d7747bd2d01f7U, 0x3d1e28723d43a26eU, 0x3d94ee4dbd473cf6U, 0xbd83146f3d84709dU,
  0xbdabed12bd8fe731U, 0x3db0d2a53d988c21U, 0x3cfe592bbc148014U, 0x3b92aa9ebd7958aeU,
  0x3b8db5f4bd227811U, 0x3b8aea003b0923d7U, 0xbc3a1aa83cada7e4U, 0xbd31e0bf3d9c996dU,
  0xbd8b5f50bc4c9c28U, 0x3bd0e2e9bc047238U, 0xbdd24f743b681980U, 0xbc7c8b60bd8e6f5aU,
  0x3d733246bcfeea88U, 0xbd9ea345bd22263dU, 0x3cdf90bc3dac58b1U, 0x3d46d9eabca77594U,
  0xbd9744233d91439fU, 0x3c70ccf03d49b5b6U, 0xbcfa6592bd2832efU, 0x3bb1eeb1bd67f392U,
  0xbdce0844bd181ae2U, 0x3d1532663cd20a82U, 0x3d32a30e3d7d2956U, 0x3b8f74203d4809feU,
  0xbd8fe9e33d2f0d46U, 0x3a4fe506bd2717f0U, 0xbdaa7a9cbd9dfb75U, 0x3cbe4484bd03f283U,
  0xbdca0f2d3d0838f6U, 0x3d847c7fbd54d496U, 0xbc84180dbd9d0e77U, 0xbd171ff93ce0cc48U,
  0xbcb5fc5a3d3315eaU, 0xbd41a94abd22812bU, 0xbd0472c6bdb7e7c8U, 0x3d47ed623cf44c38U,
  0xbd23917e3d48162eU, 0xbd31c9483d4c1d55U, 0xbd82dddebd8e5f11U, 0x3d0e2e0e3d9a9d9bU,
  0xbd182c093b594180U, 0xbddf97f5bd460154U, 0xbd4e825e3d3b7e36U, 0xbc8121d0bd6a2bc8U,
  0xbd553ea23d518b7aU, 0xbb3196e4bd8432b7U, 0xbc805534bd9b0c80U, 0x3cbdc92c3d792de8U,
  0xbda7634a3cd1f53bU, 0xbba5cec0bbc9d940U, 0x3d985597bd43ed3aU, 0xbba9d6f8bd451381U,
  0x3d6c8ac13c51cc22U, 0x3c0106de3d661584U, 0x3d35e21ebd217810U, 0x3d5a4a563cfacfcbU,
  0xbd369230bd022756U, 0xbd9f9d053d0ac4bcU, 0xbd1d75af3ca4a888U, 0x3d3ae4f6bd478e47U,
  0x3cf814cfbca6ed40U, 0xbda0afdf3d6a0e4aU, 0x3c3f4319bd8180abU, 0x3d123c1ebd7480d9U,
  0x3cd4bad3bc3ac648U, 0x3d97c0ddbd5927b8U, 0xbd8ca4eabd9e2b09U, 0xbd64634b3d7634b7U,
  0xbda66c1abdc0db19U, 0x3d834901bcdb457dU, 0x3d90cf753d5596b6U, 0xbd1458cebcf81532U,
  0x3c131de8bd288205U, 0xbd8b0996bbd08b0cU, 0x3ce974a4bdb89492U, 0x3c88f2203da787c3U,
  0xbdad7530bd313d57U, 0xbd8f32453d8c715dU, 0xbcddd50abda10e61U, 0xbc043ec8bdde9d23U,
  0x3d26f885bccdcbc8U, 0xbd0944173c66da20U, 0xbd0e4d4d3ca418deU, 0x3c8f9ee4bca1b4d7U,
  0xbcb5f0a83d209d22U, 0x3cef358bbd0c5ebbU, 0x3d7291f2bda233e8U, 0x3ca9d694bd9e20deU,
  0x3b9ce620bdac2112U, 0xbdc69e8abd419cdfU, 0x3ba03050bca48228U, 0x3cdf1948bc606b60U,
  0x3cc77b6a3d9394e5U, 0xbdb6f6583c057900U, 0x3d077cf8bc67bd30U, 0x3d2800d2bdb1b031U,
  0x3c0ec32bbd8282a9U, 0x3d616ab23d25cd46U, 0xbc50804b3b6e1324U, 0xbd1b5a21bdcd0163U,
  0xbc04a3ccbd58fdbcU, 0x3d2f25e23cbc7d08U, 0x3d94c427bd7ab108U, 0xbd04d6bb3cdbaad4U,
  0xbd7cfb293d29b2f6U, 0xbd83480c3cfa3702U, 0xbd3f92eabda01673U, 0xbd3e916bbc6d8478U,
  0x3d937fabbc45dcd0U, 0x3cbbbe1ebd3fb3f9U, 0xbd5d5022bda87c27U, 0x3d8ecc19bc7151a6U,
  0xbdc9045fbdb2cba7U, 0xbd36a21f3da18dbfU, 0x3d311b6abd4f332cU, 0x3c42cdbc3b9607b6U,
  0xbdbb1980bd992866U, 0xbd1db3b4bd539749U, 0xbd8035eebdc37acdU, 0xbbca42a03d61e518U,
  0xbca8a5543c6a3090U, 0xbd6017553d8e7581U, 0xbc4efc90bd72bf32U, 0x3b029da0bd9a9a48U,
  0xbcf57f41bd8cfffdU, 0xbd61db4bbda72b8aU, 0x3af588443aa47d80U, 0x3d2fc389bd13ed15U,
  0xbd9d7f193bdb221aU, 0x3d1bc78a3d3a7dfaU, 0xbd65eafe3d8523f3U, 0xbddab1f9bcc78001U,
  0xbdad8cc7bb025100U, 0xbdabe5c93d20dcd1U, 0xbd4e4968bd58a85aU, 0x3c90c9133d51ac46U,
  0xbdcf0ad5bd8da683U, 0x3d46bddbbd9d6108U, 0xbd727450bdbb8360U, 0xbd13dd4e3cdf8d8cU,
  0xbc9ca024bdae89b3U, 0xbdc779e93d65ac6eU, 0xbda7c77d3da00e9dU, 0x3d8c3eb1bdbf924eU,
  0xbcf37654bc6efce8U, 0x3db2a477bc31c110U, 0xbc7c56483cddf301U, 0x3c7e1dd1bdc85db9U,
  0x3d6b12e13d46877fU, 0xbcad0d563d2a40a6U, 0xbd571bc63cd00cf3U, 0x3d8ff7e53d87003aU,
  0xbb2804a0bba24980U, 0xbdb6c141bd45977bU, 0x3d8ef9fb3d1ade4eU, 0x3da8f655bd5c3a27U,
  0x3c23d7b03c9953acU, 0xbca3ca2cbd8e368aU, 0xbd4890e73c904430U, 0xbca374e83d987b93U,
  0xbd4fc8cbbd09c450U, 0x3d0eeba03d1aafaaU, 0xbdb28176bb8efaebU, 0x3d38273abb1ca992U,
  0xbdae9ab73ca42f24U, 0xbc62c6e0bdd11522U, 0xbd351892bdb3ae80U, 0xbd5ae0773cb814f4U,
  0x3c0034aa3c6943c8U, 0x3d2bc0f2bdae7d16U, 0xbd2c45e4bd336f76U, 0xbd96dc65bb1bef00U,
  0xbd810e783a503d00U, 0x3c75bb68bcffe506U, 0xbda450563cc62c38U, 0x3ae3ba00bdad6cd8U,
  0xbc9eaf80bd41810dU, 0xbae05940bd876662U, 0xbc2ed0a0baeb714cU, 0x3d2d8a723cd78ac4U,
  0xbdadb598bde1f184U, 0xbb43ad21bd063272U, 0xbc66c970bd1a6c6aU, 0x3dac9eafbd8a6b4dU,
  0x3c9e300c3da84387U, 0x3d5581863cb2506cU, 0xbd0a10a5bd7aa311U, 0x3c8355783bfda6b0U,
  0xbdd13d43bd58d69fU, 0x3cd9c8733d66b47aU, 0xbd94967d3d97aa6bU, 0xbca13e66bc1edd9eU,
  0x3c9eafd43caf4abcU, 0xbd567f7b3cac269cU, 0x3d48f71bbdac7691U, 0xbd0515443d396d20U,
  0x3d4bc2c6bd4b32c6U, 0x3d89f355bc2acb73U, 0xbd9881f0bcba77f0U, 0xbc526b50bdb4597aU,
  0x3d0b97c5bced068eU, 0xbc8853813d44ea3cU, 0x3d7bc307bdcbaf3dU, 0x3d8ef1e93b2f2f80U,
  0xbda01b3f3d43a762U, 0xbda5aa163a503480U, 0x3d94e855bd3cc8ceU, 0x3d84ad0b3cc9066eU,
  0xbda04c09bda0e9bbU, 0x3d473cdebcfaf6f8U, 0xbc3e33183c93ae77U, 0xbd002c36bd0eaaaaU,
  0xbd29bff9bd9607f6U, 0xbda632313d6ef333U, 0xbd0af088bc4da7b2U, 0x3d1e87623d021342U,
  0xbc1308403cd31cecU, 0x3cba38533d29867aU, 0xbca30434bd919990U, 0x3cdcf5943d7fd9c6U,
  0xbd553f4abd8bb6b3U, 0xbdb10fcebbb1c510U, 0xbd904fc43d5b9a1aU, 0xbdab934fbd81e4bdU,
  0xbd996197bd86fdfbU, 0xbda8dfbc3d33eec6U, 0xbcbcd18dbd9acde8U, 0x3d269f323d75017dU,
  0xbcda316abc9f02e8U, 0xbd859406bd928f67U, 0x3bd8d0303d9dc60fU, 0xbdd117f5bdc57bf1U,
  0xbd2482953d854123U, 0xbd7db63cbc1b0b4dU, 0xbd0ef603bd9a74b5U, 0x3d09549ebd9fea28U,
  0xbc357e90bd6a2b5dU, 0xbd6c51b5bd8fa360U, 0xbd707c953d1f11baU, 0x3c460490bc5b3886U,
  0xbd5bc1f93d0bd202U, 0x3c9b500c3d83103bU, 0xbd76960dbda64753U, 0xbdd6a76fb996e7acU,
  0xbd964eb8bd80fa7dU, 0xbd77bf21bd8577c2U, 0xbd3bd27dbdba7a2cU, 0x3c8ede14bddab224U,
  0x3cca92f0bda1ba35U, 0xbce4d0a23d0046f2U, 0xbd9a8e9dbceb7b98U, 0x3d39083a3d9e40ddU,
  0x3d585c7b3d94fbdfU, 0xbc40e786bd90357eU, 0xbdd1a37e3c32d750U, 0xbda01082bd74761eU,
  0xbd486ac2bd118c88U, 0x3d82905abd03c7f4U, 0x3b95436bbdac7a67U, 0xbd222df3bd45124eU,
  0xbdad45133d9d7b21U, 0xbd35d20ebaf7d6b1U, 0x3daf8f87bd3586e1U, 0x3c88d1193d1a774aU,
  0xbdca60f3bd93b6fdU, 0xbd7ad4503bb507e0U, 0xbd95d8b7bdb4464bU, 0xbda643ed3d94e005U,
  0x3d9bdc7b3da4339bU, 0x3d5867a33d39cc0aU, 0x3ae460403d38a102U, 0x3cfefee8bd551a12U,
  0x3d6fff76bcd389a4U, 0x3d2b087e3c127120U, 0xbd095f50bc271e1cU, 0x3cd66970bd7154d6U,
  0xbd0572023cede974U, 0x3ce7dda4bd9cb875U, 0xbcf72cbcbc94de70U, 0x3b2004e0bd1e0d8fU,
  0xbd7974073da2de85U, 0x3d30e4b33d6e435eU, 0x3d81ba1f3d16ad5aU, 0x3d7410e2bc74d298U,
  0xbd4836efbd8c638aU, 0xbdd1c2223c8e3d58U, 0xbcea6449bcc83dd8U, 0xbcd7b4663bb7a8adU,
  0xbc7d22b83d1a50ebU, 0x3ca6a5b43cd7fc2cU, 0xbda5d2aa3d1bdac5U, 0xbcbfb9d43bc78beeU,
  0xbd91b29a3d1236f0U, 0x3bee49903ce6c8beU, 0x3d9b04fdbce76e5aU, 0xbc28f7393d36160eU,
  0xbd4472843c7e5e18U, 0xbdc21fa1bd35d7dcU, 0xbd829227bd29eeb6U, 0x3d3c80fe3c090a78U,
  0x3d5d0f0abc8e03d0U, 0x3b8386d73a969540U, 0x3d8cb8233d12e0ccU, 0xbd0dabcb3d50b719U,
  0x3db3ee75bda5336aU, 0xbd695a1a3d3bffb2U, 0xbc94ecacbcc0f257U, 0x3d531543bd3f5ba1U,
  0xbd49b4a23c648005U, 0xbcfa7632bda1c820U, 0x3d56e27ebca88693U, 0xbdab20ec3d83b4b0U,
  0x3daa5601bd690c96U, 0x3cfbc8d3bd859968U, 0x3d36c562bd08af83U, 0x3d67dad6bd161741U,
  0x3c82270c3d9d4155U, 0xbdcc8d6dbd1489c5U, 0x3d4122633c80ce8cU, 0x3c880404bd0fe361U,
  0xbdc4675ebd4012cfU, 0xbd745fecbd1cd2b7U, 0xbd7e0321bc80ad11U, 0xbc966668bd218c17U,
  0x3b6188fcbcf6a24eU, 0xbd88dd02bd858412U, 0x3b88c293bda3ff1bU, 0x3ce2e3c3bd54d2f0U,
  0xbdf94093bdc910cdU, 0xbd70f3b13d8633bbU, 0x3d79966e3d805830U, 0xbb93a75f3d135f13U,
  0xbde2829b3c1f5f21U, 0x3c4dd3083c7ebcc0U, 0xbcfb8f9c3d9efd00U, 0x3d0ec39e3d03545dU,
  0xbda434a4bdb2ecdeU, 0xbd2b2b26bd1e0cecU, 0xbd718957bdd7e697U, 0x3c28ddd4bd5f6c89U,
  0x3d92c6b3bcd17055U, 0x3bcf386dbd5faae1U, 0x3d7693763cf211b1U, 0x3cfedf083d292f95U,
  0x3cc6cc7ebddce431U, 0xbd4d1dee3c443a6fU, 0x3cf6d21ebda26cbfU, 0xbd4bb45abd27c340U,
  0x3d394b853d4f31bcU, 0x3d98144bbd895498U, 0xbd552ec13d23d7b6U, 0x3d2944013d53e160U,
  0x3c2ba729bd6a6fbcU, 0xbd996c1fbd8a6e75U, 0xbc62f6b8bd89074eU, 0xbd902932bc2f128fU,
  0x3d20b1fe3c19f1a5U, 0x3d794b393cec9d5dU, 0xbac259d5bd806e13U, 0xbda90d513d1410bdU,
  0xbc4f83483cf23368U, 0xbdbb4c38bd267d3eU, 0x3b2ddd4bbba9bf4cU, 0xbd5fce6dbdb2accaU,
  0xbcaa2d3c3d922bb2U, 0x39d503b5bdabf684U, 0xbc57a3ae3da3469cU, 0xbd2484b2bad7805aU,
  0x3b2ea08c3cb0e7d3U, 0xbda051ed38b314dfU, 0x3c0245c63d067556U, 0x3cda869abb4ac821U,
  0xbdbc117a3d92782dU, 0x3d92dccebd77310fU, 0xbd6e912abd9fa4f3U, 0x3d325181bc39707eU,
  0x3cf75f4dbd5870eeU, 0x3d30fcc3bda9bbeaU, 0x3d486afe3d6801f9U, 0xbd117405bc6b51eeU,
  0xbd7140233ace2741U, 0xbd4a595abd33ad1cU, 0x3d5f84fdbd79f502U, 0xbd0c1cb8bcac534bU,
  0xbdcd3692bb7e9889U, 0x3c5b25a43c17de4cU, 0xbcfb981e3cbd870fU, 0x3c0aebdf3d017fdeU,
  0xbd273f233d60045fU, 0x3d70b4c4bd62bafcU, 0xbda43b41bd7193ecU, 0x3d187b89bdd28e6cU,
  0xbdb7570cbcc70601U, 0xba51b5e0bcefc151U, 0xbc02ce8fbc8489f4U, 0xbd9625993d4eef1eU,
  0xbcd8d2a0bd0f806cU, 0xbc07d499bda42304U, 0xbd42b74cbd09aa04U, 0xbbee1a8b3b2fd3e3U,
  0x3d2f7ce63d7257faU, 0xbd182920bd7310b6U, 0xbdb4bb373cd24b2fU, 0x3d16c5f13c5118e1U,
  0x3ade0049bd8f9f5eU, 0x3d67b28ebd1c73faU, 0xbd003507bdb00b3aU, 0x3d8c2be83d07efc4U,
  0x3c7aeb97bdce8c5aU, 0xbd28695fbb9fb6f7U, 0xbd745e26bdc4a37eU, 0xbc17233abd888713U,
  0x3ce5ed22bd11c106U, 0xb95e7c2abd854740U, 0xbc90f6623b750e20U, 0xbcef9a0b3b0fbf82U,
  0xbba620d2bd0d6070U, 0x3d1dd1b7bc47e2d8U, 0x3cbdfdb73d03d6e9U, 0x3d19bd63bcc28127U,
  0x3d326979bcbe6ca8U, 0x3d482b3dbcc4ec74U, 0xbd3fb4fb3d86e5fbU, 0xbca7cb00bb631947U,
  0xbde0c90abd3f7cb9U, 0xbca6b6513cd2c5b1U, 0xbdb81e7f3c37ec94U, 0x3cd2626fbcdd9157U,
  0xbcbf6c5e3d2b107bU, 0xbd1f36f9bc8b4db0U, 0xbd374b42bcf5e64eU, 0xbdaa171dbc287897U,
  0xbc806daebbe93fd7U, 0xbdcba4e7bd857dd1U, 0xbdc4dac33cac45e7U, 0xbd2e1d1a3bce0665U,
  0x3d3d30a4bd360e57U, 0xb9e6de0dbdbadf58U, 0xba3a239a3d770625U, 0xbda909863cb99892U,
  0xba59b0bcbb92beb6U, 0xbdbed399bd185999U, 0xbd2ae5333d609aaaU, 0x3d1ee320bdc13831U,
  0xbcf9eea8bd7634fdU, 0xbdbe898e3d94c0aeU, 0x3d027b633d95efd3U, 0x3d95a65fbbf4ffd6U,
  0xbdfca1afbdce022bU, 0xbd0899fbbd9d6094U, 0x3cc5548dbd37dd0fU, 0x3d4b39fbbcb5e5d0U,
  0xbd1cf1023d16ac32U, 0x3c631444bd36b8acU, 0x3d8599403bdf64bbU, 0xbdb782dfbdb7d66cU,
  0xbdb8894f3cfacd04U, 0x3c2dd3e83d09f74aU, 0xbdcd3e84bdd40a80U, 0xbd9e8f7a3d60c1f2U,
  0xbcfe758a3d962ce1U, 0x3d3d6b513cf327aeU, 0x3d6be3b4bd326525U, 0xbdde5f873d842274U,
  0xbcfc36463d64e255U, 0xbda3de47bc7588f1U, 0x3b9c9c1abcf7923aU, 0xbda691d9bd92a536U,
  0x3d3dd9763d271924U, 0x3cd562be3cbe5116U, 0xbc99398cbdb37db9U, 0xbda3f74a3d0edfebU,
  0x3d26a23cbbc0e8b4U, 0x3bee45183b87fd27U, 0x3d86374dbcdac5eeU, 0xbda2aa13bd00a8d0U,
  0xbd0f17d4bdb2a160U, 0xbc9307363d41cab0U, 0xbda56c323cbb172cU, 0x3cbe2d21bdb7816cU,
  0x3b74228dbcfea620U, 0xbd8ab7e8bda28513U, 0x3d26ca953d99dd02U, 0x3a4694363d0fd2eeU,
  0xbdc32e2bbdc42e95U, 0xbc655140bc92434bU, 0xba3a448b3c84b297U, 0xbd12e24c3d941856U,
  0xbded5d8fbdd38fb4U, 0xbd96c7ff3d8e209cU, 0xbd774574bdad268bU, 0x3bee439ebcc73940U,
  0xbda98fe3bd418b39U, 0xbd180cc8bd67720cU, 0x3d4f44193cd6178aU, 0xbd16c2a9bd44fb27U,
  0xbddaabe73d951748U, 0xbb5b5f0bbcb4e39fU, 0xbb8c34f93c7d7c38U, 0xbdacaeb43cf0d8f9U,
  0x3d8abbdabc702979U, 0xbdba21f6bbefc2cdU, 0xbcc459b6bc992a66U, 0xbcd6dc9f3d5d8ef6U,
  0x3c3e646bbdafc6ebU, 0xbd97db02bd9a286cU, 0x3d9bf3ea3c54bd5dU, 0xbb31647a3c72347aU,
  0x3bbcc2053ca32d8dU, 0xbc1650dfbcfe5ae8U, 0xbda96e8f3c6bd838U, 0x3c417b8ebdb4f063U,
  0xbd935beb3d3a8a99U, 0xbd9564a33d64a6b1U, 0x3cc5facbbdc4afeeU, 0xbc9746553c1b052eU,
  0xbcc8ceb43c3fa0d7U, 0xbd808782bda17764U, 0xbd8779dbbd91f3bbU, 0x3d688ded3bafdc75U,
  0xbd3990bebd17d8ffU, 0x3d120d77bd9fd92cU, 0x3cef0adbbc85b89fU, 0xbc8bedf03da00efaU,
  0x3d443b7cbbed5995U, 0xbdc94584bce384c6U, 0xbd829224bc4f1231U, 0xbdd23f2d3cf43c53U,
  0xbdc336a83d31f47aU, 0x3c3d58853cf11c2bU, 0xbd249fe4bd7e466cU, 0xbc77e68dbd8ff017U,
  0xbcdacc923d9b6dabU, 0xbd7d2fee3c552ae4U, 0x39b0b10d3c2a3677U, 0xbcbe874bbda09f36U,
  0xbd1dbddfbcae1e56U, 0xbd1e4f1c3d047436U, 0xbd65d142bdb4ed04U, 0x3baae6dc3d5a6144U,
  0xbcaa82333d94755eU, 0xbd81ab0c3ca463b8U, 0x3d143ea4bd870c8aU, 0x3d2e8c2e3c93a202U,
  0xbd80b862bbc82116U, 0xbdd12be6bca1aba2U, 0xbd31b407bd5ea08fU, 0x3d801f22bc2d1ae3U,
  0xbd569aadbb13dcb8U, 0x3c2e60903b0fee03U, 0x3d76f82fbd3e6e1eU, 0xbdab49dfbddf9725U,
  0xbd0bf0493cb1aab1U, 0xbb9d69083c7bd1a6U, 0x3c172b313d0ac41fU, 0x3d48de5f3d3d1870U,
  0xbd8a2460bd04874cU, 0x3d6db43c3d96a6f5U, 0x3d60db673d938267U, 0xbb3e27433d202dfeU,
  0xbcbaa0e03cac2314U, 0x3cb4ba113da11620U, 0xbc7df9f53d8e10c7U, 0x3d0170303d1a18c4U,
  0x3c57eb88bd41628dU, 0xbdb5c6c53ce56067U, 0xbddb6ce3bdca945bU, 0xbd8430eabd967184U,
  0xbcbd30e1bdabd4d3U, 0xbce7f48ebc8cd553U, 0x3c20bc803d5e672aU, 0x3b012cce3d1ee095U,
  0xbdcc1ccfbd3825f3U, 0xbd99f48dbcf687f9U, 0xbd48216bbcb709ccU, 0xbb8659c23d498f22U,
  0x3bbbc5f9bcb69bfaU, 0x3d438e84bb706bdbU, 0xbd504c463d5d566bU, 0xbd6f6c2dbd28c0acU,
  0x3d7878efbd001459U, 0x3cc73756bc69431eU, 0xbdba1fabbdb7ff1bU, 0xbd1f8d76bdccf3caU,
  0xbdfc92f7bc4637d4U, 0x3d4099bcbd173a01U, 0xbdbc6e4dbd381614U, 0xbd9bea5cbd996bafU,
  0xbcc555b4bd49fa51U, 0xbc48e9d0bc56eb13U, 0xbd8b3d9e3d1b1cbcU, 0xbda1ff263d4ddef5U,
  0xbdbc2d76bdbd0428U, 0x3d1353bdbc0fdac3U, 0xbc0cb05dbdaaf3eaU, 0x3bc2055fbd702f90U,
  0xbdbea219bd4e6e34U, 0xbd93fce3bd9fee5eU, 0x3d1030253d56e140U, 0xbd60addebd57ae64U,
  0x3ca14718bde7c38bU, 0xbce2cc0fbc9b350dU, 0x3d8df5423d96eb20U, 0x3cd0c55c3ce1896aU,
  0xbd9371743c97e0a6U, 0xbd3fbabbbd255d08U, 0xbd7302073d83fdffU, 0x3d884ca5bc0c019dU,
  0xbda9f3c3bd01d3abU, 0x3d1f9fa53ce63003U, 0xbcde454cbd5dfb06U, 0xbca22e4b3d8c6139U,
  0x3d9002f03cb27235U, 0xbcb8f4ecbd169eb1U, 0xbd80b213bdc155f2U, 0xbda3b13cbdbca1d6U,
  0xbdba06f5bd7eee3cU, 0x3c9f9f393c76a192U, 0x3d3a528dbc9f35fdU, 0xbca9be3e3b825572U,
  0xbbbf6921bc894ecbU, 0x3d8147753d7d9ea4U, 0xbc7fe42c3d5d674aU, 0xbc2bb4923d2ce40aU,
  0xbbd1861ebd31556dU, 0xbd9dea98bdb8da98U, 0xbd870dd63c8679fbU, 0xbd189a17bc21ebefU,
  0x3d314be4bd9b28b3U, 0xbd96617e3cec6f0fU, 0x3caaa279bd8339e1U, 0xbdd4d9d53c591766U,
  0xbd927e3abda59b33U, 0x3c92ba1e3d707d6bU, 0xbdc7f83cbdc5eecbU, 0x3d663f143d28c6d9U,
  0xbd47ca8bbd9fd47aU, 0x3d7b37653c80edf9U, 0x3d754336bd5019c1U, 0xbcc2a3b4bd4a97c6U,
  0xbcb9e28ebdbf727aU, 0xbd45c1043d2093a9U, 0xbc2d6062bd95e0b8U, 0x3c823ee8bdaf8268U,
  0x3c8646e3bd0bc6f8U, 0xbd63c7ef3cb217aeU, 0xbd3b10533d77efa3U, 0x3c190af53cea1fa1U,
  0xbe1a8ae9bdeb922fU, 0xbd8f1780bd035292U, 0x3b0d4928bd5c3590U, 0xbd41411f3d80c49dU,
  0x3cacac08bd9a0843U, 0xbd4b4be1bcadc831U, 0x3d8c72a8bc2e8b35U, 0xbd8f1ef1393cc9ebU,
  0xbd768ab5bd44ba41U, 0xbc8fa44bbd26d54fU, 0x3d6ee5a53d7535eeU, 0xbd2b418bbd523b49U,
  0x3d4e6e793c619ac3U, 0x3d75304b3d0d919cU, 0xbc45ee46bbd4ab79U, 0x3daf5140bdd03513U,
  0xbda8d6323c150d37U, 0xbda03f88bcc81e34U, 0x3d86e83dbcd7f6b6U, 0x3d959ea93d2a90b0U,
  0xbda4e690bcc9fcb7U, 0x3cdcbd51bdbdbae6U, 0xbdae4dbcbdda4d78U, 0xbcafb6723ca2143eU,
  0xbd80c88ebdaaa689U, 0xbdc0e2cfbc1a8868U, 0xbd0fe7263d2b7526U, 0x3d308844bda7a315U,
  0xbd751a013c849dcaU, 0x3b4293203da5c946U, 0xbceb73603c1c6016U, 0xbc73b0c9bc762a10U,
  0xbd422773bd673273U, 0xbd6d6d60bba89c70U, 0xbdbd90303ca1633cU, 0x3cefb3663d86e021U,
  0xbdb38141bc69cc8bU, 0xbdba150dbd59de39U, 0xbd3e27d63d1280cdU, 0xbda848f2bcb0d5c9U,
  0x3c0983903a821de2U, 0x3d32d712bd932ee1U, 0xbc102258bd90fcc1U, 0xbcf2ccce3cecf6e1U,
  0x3da0d69abc46d9ceU, 0xbd932f7ebda9bad0U, 0x3cf5d93c3ca9e7b0U, 0xbd78df12ba98e680U,
  0xbdab01b5bd8b7594U, 0x3c1c6c663bc4cc50U, 0xbd74469dbd1a0db7U, 0xbd3172723baee0b3U,
  0x3d0920a6bd883a6dU, 0x3d97051dbdadb396U, 0xbd5cddfc3cfaea10U, 0x3da3451a3d67ad66U,
  0xbd91e42ebdafea00U, 0x3d84ee993ca60a18U, 0xbd56b3ed3d923d1aU, 0xbd99aba03d00753dU,
  0x3d1b431fbd484f88U, 0xbdbdbe703caf36c8U, 0xbcf364d73d48336dU, 0xbcf5342a3d5226c6U,
  0xbcc3f7cb3d41e456U, 0x3c8cd3293c9440b8U, 0xbd47ef6bbd8c1877U, 0x3d999e283d81d602U,
  0xbcd801b2bb9fddebU, 0xbd86dc8abc281cf7U, 0xbd3d218fbb05553bU, 0xbd7382bc3d9c9321U,
  0xbd6064343da01924U, 0xbd00615abd963deaU, 0xbb9941503b707300U, 0xbb09ce9f3d969718U,
  0xbd483e933cb63dbdU, 0xbd551837bd951c8fU, 0xbd9b4ff93d531974U, 0xbc7ae7a0bdae373eU,
  0x3caa1c513c6ebf56U, 0x3d30f4c23c756bf0U, 0xb9899fa53c3eda97U, 0x3d500cfabdb6da63U,
  0x3c6ed84ebc90153fU, 0xbd971cd4bc5a69bcU, 0xbcfa8f85bd88069aU, 0x3d166f763d948393U,
  0xbd947eb4bdb2e246U, 0xbd4e1a563d8b41d7U, 0x3c5b02763cf91b87U, 0x3c02e408bd211623U,
  0x3ce82b43bdb53679U, 0x3d9d0f81bccee4adU, 0xbcffaca2bd242225U, 0x3d21a132bcf33517U,
  0xbdb8a769bd0ebc13U, 0xbb25f9333cc3643eU, 0xbd86968a3cdcc7d4U, 0xbc34e626bd877cdfU,
  0x3c4f3bc0bd12a3e8U, 0xbc88a61cbcf8c7bbU, 0x3d8f3d71bd7a8db2U, 0xbcb89058bd64f570U,
  0x3cbd2fc13da2e22cU, 0x3d2c2356bd49bf34U, 0x3daab92dbd07dd1dU, 0x3d93dd6f3d8eeb24U,
  0xbc7712b3bc6b9922U, 0x3d8ecc75bd3eeb9fU, 0x3d7b5d423d712debU, 0xbd549c6bbdd92e20U,
  0x3da8930bbde0607eU, 0xbcce2ec63d20842aU, 0xbd028a28bce2888cU, 0x3d8f54cbbd960568U,
  0xbd1f1dc3bd87d142U, 0x3d24b312bbfb2cdcU, 0x3cc093523d1dc5a6U, 0x3d580fbabd401af7U,
  0xbe10efe1bd15e31cU, 0x3cbc84203cc837bcU, 0xbdaef169bd18dc44U, 0xbc0eb3a63d5e601eU,
  0xbc3a52703caf088aU, 0x3d93d6cc3d8a8bd1U, 0x3d8702593d59ace5U, 0x3d1848d0bd13e690U,
  0x3d3196193cd52050U, 0xbd532c27bd96697dU, 0xbda07000bd120af3U, 0xbb865dd13cbe0016U,
  0x3b8c80103d2de204U, 0xbd9a31a9bbbf19a7U, 0x3d8000cf3cfe3297U, 0xbc38b8903cd85b41U,
  0xbd4c8134bcbe7a44U, 0x3d9c0c773d3b56c3U, 0xbd118c49bcd05de4U, 0x3d875042bd26506fU,
  0xbcc0d78fbd281f49U, 0x3c16a74f3da054cbU, 0x3cb93504bce90890U, 0x3d0207f63ce25fdeU,
  0xbd060eddbd97179fU, 0xbd82d413bb28e1e0U, 0xbd76d3bebd488adfU, 0x3b264b9e3ce31798U,
  0x3d825061bd827429U, 0xbdb792d5bd33e719U, 0xbdefa3853c9ddcecU, 0x3d33da1cbd8b5addU,
  0xbd0fc00ebd92a9a6U, 0x3d8b697bbd9fdc20U, 0xbd1cd0c93c14f9ebU, 0x3b55dcb0b9ae3cf6U,
  0xbd9a883c3d3ca53aU, 0x3cae9dccbd8a3baaU, 0xbac6a3173cac9cfbU, 0x3d8b729e3d0db8aeU,
  0xbd20ef8ebd2fc334U, 0x3cc5de393d6aed9eU, 0xbc8e19b4bd14ba4aU, 0xbd1e8b0dbaa90dfaU,
  0x3d2d176a3d011a31U, 0x3d44a4363bce9104U, 0xbd24600dbd6997eaU, 0xbc3d2a483cd4ca0eU,
  0xbd842715bd8497a2U, 0xbd759d15bd7cdd2bU, 0xbd45867d3ceac364U, 0x3cd4d64ebd59d4cfU,
  0xbd2148b2bceb08e2U, 0x3c265b96bd24d1cfU, 0x3d2e185ebd984c4aU, 0x3d233e8ebd34898cU,
  0x3d510a4d3c901619U, 0xbd4e64a0bc80c6b0U, 0x3d5abbd5bdb4fbf6U, 0x3d86117abd43213aU,
  0xbd0a8721bd77e8f2U, 0xbdbdb7713d1fff0cU, 0xbd308f5b3d53a32eU, 0xbd0ab75fbd7b2883U,
  0xbdf36155bd0bfb1bU, 0xbd0d7c813d75e85eU, 0x3d2fbb7cba48b7c0U, 0xbdbbc06f3d01e20fU,
  0x3ca21f72bd94b435U, 0xbcaeb7ffbc48b8d9U, 0xbd7305e8bd585cb8U, 0xbdab9436bc4a3e5eU,
  0xbdcd6ec93d0186a6U, 0xbc0a768f3c65d371U, 0xbde7553ebda5113eU, 0xbd0bf8173da2dd34U,
  0xbdb1cec3bcfaaf13U, 0xb8a9af2e3d9195e9U, 0x3d35c117bd3d0aa1U, 0xbbe63dc03d685c42U,
  0xbdac88e2bcc9d6c2U, 0x3d73d542bca8ede4U, 0xbd70a1d1bdc34789U, 0xbda543e83d2c8a22U,
  0x3d86f4093c987da9U, 0xbd7947b7bc4eb58aU, 0x3d7a895ab9d6ccccU, 0x3d0192de3d8189e5U,
  0x3da11ae7bd932eddU, 0x3bbfa256bd7a2692U, 0xbdb0c2283d733e42U, 0xbd2f44053b5fbf5eU,
  0xbdb142d6bd3987dfU, 0x3ca958d4bdb69e4cU, 0x3b7946023d666bb6U, 0xbbc73357bc9ef4beU,
  0xbd76aa403cddd9b1U, 0xbd66058e3a8f4180U, 0xbd5122a63d1c634fU, 0xbdbb1aec3c4ca32fU,
  0xbd8c948cbd9981f2U, 0xbc99ae02bd87c3d3U, 0xbd9416b83d283311U, 0x3d8166a2bd32dd49U,
  0xbcd35f73bd303eafU, 0x3d8e042e3cbfe811U, 0xbd237ac1bd942886U, 0x3c100bc33c0c8eecU,
  0xbd46d4d6bd523730U, 0x3d8f83c0bd65026dU, 0xbd266e783d052ff9U, 0xbdaec7a13d828d03U,
  0xbd462537bca1fb7eU, 0x3d9c72edbcb86dd9U, 0xbd472f70bd3a3cc8U, 0xbb7e42e13d75112fU,
  0x3d03f6ebbccca594U, 0xbdbbbc9ebda4ab98U, 0x3da9fe97bda7f4ccU, 0xbd00123ebd41ea3cU,
  0xbd15345abcdef028U, 0xbdba06523d053056U, 0xbdad59d4bdc03c12U, 0x3d4900d1bd1787bdU,
  0xbda101e2bd1b881dU, 0x3c730047bd88c3b2U, 0xbd8a99eabc8ff234U, 0x3d62dc333cc586ccU,
  0xbd9c8f793bb70e7aU, 0xbd7b25d6bd05ffd4U, 0xbc9bebf9bdb4c3baU, 0x3c759a1abc2dce16U,
  0xbd4636e4bc2b1071U, 0xbdab32ca3a982cd3U, 0xbc2941eb3c276205U, 0xbd26383cbde05d01U,
  0xbc5700463d8389a0U, 0xbd01e4a7bdd50095U, 0xbdedcac6bdabe430U, 0x3cc44387bd6cb6b7U,
  0xbc83082c3d564078U, 0xbdddf218bc4868abU, 0xbcd022ecbdb1f184U, 0x3cbf31d8bd847ddaU,
  0xbd8cc0273d953b10U, 0x3d1298423c6177abU, 0x3cf513103cfa0108U, 0xbcc0d7a9bd9088ddU,
  0x3b25aec13d374e96U, 0xbcf207b8bda13277U, 0x3c9b6d843d6cdd62U, 0xbb38e6c03bdaade0U,
  0xbdba6798bdd12e70U, 0xbd842ba2bd9b7274U, 0x3bdfd3d03d059e13U, 0xbd88fca93c60a98fU,
  0x3d3d244ebd06e2c5U, 0x3d859a35bd740a6aU, 0x3d6061293d8e268dU, 0xbd3fc06fbdabdd58U,
  0xbd2767de3d807383U, 0x3dad6581bbf015e0U, 0xbdb71513bb3d751aU, 0x3c71ada1bc3866a4U,
  0xbd4ed4cbbd133d64U, 0xbcf7581f3d882fafU, 0x3d950bde3d0051b5U, 0x3c89d4943da2bf67U,
  0xbdab40183d4fa61dU, 0x3d74fd6f3d100984U, 0x3dae04533d68017cU, 0x3d048219bd7a0c9fU,
  0xbc915af83d2fe000U, 0x3c7219b23cbc09e0U, 0x3d9f251d3c262581U, 0xbd50c7053d970e47U,
  0xbda57224bd0915f1U, 0x3cde7a24bc7bb6d1U, 0x3d1a3a0e3d7c8c42U, 0xbbc929f8bd80eb3dU,
  0xbd33446f3c1d7638U, 0x3d3cbb973cf258c3U, 0x3cf954c4bd183df5U, 0xbdacd8303d925626U,
  0xbcae6e68bc3ddb23U, 0xbccbdd8fbd51e834U, 0xbcdb921d3d255b24U, 0x3d3a683cbd6c85cdU,
  0x3d351b8cbd6c86e6U, 0xbbf5280f3d8c82faU, 0x3c9d0f293cc3dfa4U, 0x3d6451043bb95820U,
  0xbd86463a3d6d13dcU, 0xbd84bee6bb9b4000U, 0xbcb4d53cbd875518U, 0x3c86a9bf3d7566c1U,
  0xbcaec154bd859f86U, 0x3c3922393d45d0e6U, 0x3bf85059bd0c7a6aU, 0xbdada5a33d40fd32U,
  0xbe090d08bd60e377U, 0x3cec30283d83d7d1U, 0xbcdfd0c93d80775bU, 0x3cc743233c55c895U,
  0xbc135760bd8dcb10U, 0x3d89b9f5bcd93ef7U, 0x3c079f263d9588d8U, 0xbc90d6b0bc87a7a6U,
  0x3d159fd2bcdd0212U, 0xbd8ee5edba855dcaU, 0x3d87c7a5bdaf0542U, 0xbabc1133bc04aeccU,
  0xbd7b9c583d9bd822U, 0x3d05ec63bd894ba4U, 0xbdb4e5953d0b802aU, 0xbcf2ecc2bc38db85U,
  0xbd6f35dfbd80e655U, 0xbdb4ae52bcb8de9cU, 0xbd83475c3d7733e4U, 0xbd5f3d253d3cb1a8U,
  0x3d94ad353c94e7b9U, 0x3d66c4e63da3d6c0U, 0xbd6ca3fcbd049b06U, 0x3cad40853cf158a4U,
  0x3d4e44263d11bffaU, 0x3d879057bd2b17bdU, 0x3cfaefa2bdaa36b0U, 0xbdc15810bd27406dU,
  0xbd0d56ddbd06c7afU, 0x3d2e7fd9bd734ed5U, 0xbdb2ae3dbd9be066U, 0xbcb92e0fbd188fa6U,
  0xbd71fdd43bd7eff1U, 0xbd266016bcde292cU, 0xbdce35c3bd86dbf8U, 0x3c326c5cbb4e0160U,
  0xbce7beb43be1ec78U, 0xbc8d0f14bd189e3fU, 0x3d01432cbda95699U, 0x3d3e3db6bd4f4fd3U,
  0xbdc19efe3bc151cdU, 0xbce0c63abc192f94U, 0x3ba4cf80bd9d0c00U, 0x3d80edeb3d328d07U,
  0x3cb9c05bbd5a9caeU, 0xbd72ac41bd9d5fcbU, 0xbdaa4ef23d5622b2U, 0x3dc7a9053d3735b2U,
  0xbbd17ead3d8b26b1U, 0x3d7241033c26a510U, 0xbd3034bdbd64f55fU, 0xbda872633ca630c8U,
  0x3c3d75a63d4bc383U, 0xbda661a13a7ef09bU, 0xbd8a5f693b96a5f0U, 0x3cfd2e293d8fe5a7U,
  0xbccd0fbebc7dad72U, 0xbd563d0f3bc792c0U, 0x3d51fb1f3d8925aaU, 0x3d8887d23d0d348cU,
  0x3c7818b4bd0683adU, 0x3d046296bd3df9c1U, 0x3d818a6f3d93cc7bU, 0x3c4de21e3d97ea2bU,
  0xbe2a300abb831940U, 0xbc62029e3daf9051U, 0xbcd9fd2cbd6d298eU, 0x3d1787f2bd9c885fU,
  0xbd821a983cf6b2d1U, 0xbdbf68f73d295380U, 0x3d85bed9bdb11363U, 0xbd9900f4bdba0994U,
  0x3d9802e1bd33c417U, 0x3d47358e3d5dfe79U, 0x3d84eb69bce61207U, 0xbd84271ebd93e5edU,
  0x3bacc90ebd64f1b9U, 0x3c420a023d6fea4eU, 0xbcec3c26bd928735U, 0xbcd603cebdad5271U,
  0xbc1232e8bd91e898U, 0xbda504f5bc33ac98U, 0x3cdd77f7bd173ed1U, 0x3c0981613d80ef6bU,
  0x3c8ee4ffbd2d0240U, 0x3b5bbfe0bd98f1f9U, 0x3cf2d4933c32d028U, 0x3ca0aa6ebd552bb7U,
  0xbca73f5c3d44ef1aU, 0xbd2e9a3b3ce71104U, 0xbd3bc494bd30e0e3U, 0xbd8d0820bd035a5dU,
  0x3d92a2e0bade9891U, 0x3cf63274bdb0ddf2U, 0xbc4a3430bd83f27bU, 0x3d8248043d95814dU,
  0xbdccc3a9bc3bd208U, 0xbd7fc93a3d013400U, 0x3ccbb7d0bc18f7a8U, 0xbd9411c3bcdf35e0U,
  0xbc25d8083d962225U, 0x3ba3355fbcf06050U, 0xbdc13001bd9cecdbU, 0xbdaaae78bd9fba3bU,
  0xbda06515bdb86904U, 0xbce0dc3cbd809697U, 0x3d26c17ebde46bc0U, 0x3c2adbd23bf36b93U,
  0xbdc42d6dbc7e3e8cU, 0xbd0ec832bb1e8201U, 0xbd1aef36bd8bf1d2U, 0xbda30e143b97de80U,
  0x3d222522bdd25c5eU, 0x3ca52ac83d3351feU, 0x3d6748fa3ccd1d8cU, 0x3b8dedea3ccc75ffU,
  0xbcc42494bc3c5136U, 0xbb72a0193d9778dfU, 0x3c993b20bd838e5cU, 0xbdbb196fbdb01757U,
  0xbd4aaf7f3d7ad00eU, 0xbd8445d23cd1f818U, 0x3b7111d23d48718aU, 0xbcaa05bfbd27fbb8U,
  0x3d9d2b323cce3a52U, 0x3d3ea7dcbcd0ef34U, 0xbc6d4408bd8b30b6U, 0x3c01c6e2bca69954U,
  0xbd6dfe5f3d114418U, 0x3d0e825bbd98e185U, 0xbd8efee53d125fe8U, 0x3d36cf32bd85f26dU,
  0x3dabfaff3c8ca82aU, 0x3d0963813c04647dU, 0xbd3c3f86bd35ff71U, 0xbdac0dab3c0fbc1dU,
  0xbcf5227ebd678948U, 0xbcd53132bcc7bc7bU, 0xbcfaa82cbd722e22U, 0xbda6125b3d48b824U,
  0x3d12355e3d9be6fcU, 0xbc91794cbca5f3d8U, 0xbc901bb43b2cd620U, 0xbcb053ae3c88567cU,
  0x3cde3cbebd772f00U, 0x3c0b8728bcdfdcaaU, 0x3d582eb0bd9362ccU, 0x3ce0c6703d7e54c9U,
  0xbd744ea1bd41fccbU, 0xbbde99f23d89de21U, 0x3d00044cbd82c949U, 0xbc51a0493cfc0e5cU,
  0x3c9bd47b3c283710U, 0xbd0b26293da3f009U, 0xbcba9f96bda85468U, 0x3cfc741bbd977dacU,
  0xbd92f302bdc0564eU, 0x3d421bf0bcad0e0eU, 0x3c893c10bdabbe46U, 0xbdaee2493c69cce0U,
  0x3cb7cd99bd33ee1dU, 0xbd4e598a39c3488eU, 0xbca5bbbc3d9506edU, 0x3cb2ec78bce44eb4U,
  0xbbd511b03cadb190U, 0xbd9c3155bdaa130dU, 0x3d3bfefb3d847f87U, 0x3d2615e2bcda3c60U,
  0xbdb29d3fbd9b5e47U, 0xbcc60c7cbdde9c94U, 0x3c3132683d5e4a87U, 0xbcda92d9bdc32950U,
  0xbd0a8b983cc2c3c8U, 0xbd6b8e01bd83a086U, 0x3d564206bc9ae928U, 0x3c06a725bcb4588dU,
  0x3d9cdad73d165163U, 0xbd82099fbd94bff1U, 0x3c861d4ebdb41b00U, 0x3c4e4f56bcdb7f7aU,
  0xbd47cc94bcd900e5U, 0xbcbbb035bdbab2b1U, 0x3c09296cbcc8ca40U, 0x3da4e4883d4296e2U,
  0xbdfd0a773cdda5bcU, 0x3ccb0e54bd7aedaaU, 0x3d06e281bcbab408U, 0x3ca0792d3d93aff8U,
  0xbcd621febca2decfU, 0x3cbf2eaebd751003U, 0x3d82f08bbd34ef29U, 0xbc5047edbcf60251U,
  0xbdac70ddbd886468U, 0x3d5952dbbd0b2cf6U, 0xbc9970f0bba1426dU, 0xbc0625003ceb06b4U,
  0x3d4108debdac494bU, 0xbdbcce303d87ac31U, 0x3cb76b84bda57613U, 0x3d49b296bd59d4dfU,
  0xbc176d85bc1a0667U, 0xbbff7520bdc3c7abU, 0x3b5669e0bde6747aU, 0x3c181bb2bdb5c59dU,
  0xbdb6198b3d1302b9U, 0xbd9bac6abd921082U, 0xbd0f79b0bd920a56U, 0xbd9d8f70bc81ba46U,
  0xbd7f830abd9c5ae7U, 0xbd990c94bc197558U, 0xbd62d12b3d1f8fe8U, 0xbd54f122bae3f46aU,
  0x3d070d24bd378212U, 0xb954ede3bafecf9fU, 0xbd54bff2bda6fd7dU, 0x3d1545b13bc10e30U,
  0xbe098404bd48c19aU, 0x3d564f723d203852U, 0xbd449a0f3be7d173U, 0xbd8190d6bd6fda3cU,
  0xbc316e253d17c861U, 0x3d05b9183d8f3847U, 0xbb2ea760bd6cf13cU, 0xbd052e0a3d812f50U,
  0xbc960134bd8a080dU, 0xbd9ab6aebd0cb8dcU, 0x3db18f9f3daa5607U, 0x3d54a022bd06aebaU,
  0xbd70518abd52ff48U, 0x3ccd5b79bda132f7U, 0xbd3d34bb3b23771bU, 0xbd37e495bd95c1e1U,
  0xbc2fbedebd414026U, 0xbd3203323c1c3502U, 0xbd3299a23d86bc91U, 0xbc2a7d153c4786fbU,
  0x3bcaeceb3ccab67eU, 0x3d25c31ebda72b4fU, 0xbd3ae2a53d6f32c2U, 0x3d89012b3d389850U,
  0xbdb36a75bd5ee44bU, 0xbd49a52e3cf18c38U, 0xbd3a7d543cfa07aeU, 0x3d14aa5ebd399cb0U,
  0x3c8144833d16bee2U, 0x3cad82a53d67634eU, 0xbd42c1263d54fe2eU, 0x3d2c2959bd255ac5U,
  0xbdc4adbc3da32a4fU, 0x3d3981c2bcbb800cU, 0x3cfb7a833cb1b949U, 0x3d5edb9bbd246dc1U,
  0xbdaa67123d627e12U, 0xbc854be83d9ea0c3U, 0x3d88c8453d9302d5U, 0xbd1e5fe3393d2c00U,
  0xbd01d3f2bdb15cf2U, 0xbd1ef5bfbc226108U, 0x3cfd05dc3d23efc4U, 0x3d6277763cfac988U,
  0x3d34a23a3ca12daeU, 0x3c82c8e6bdac3b13U, 0x3d201f493c7bec08U, 0x3cd07f403d4a7611U,
  0xbd82c657bcb0ad2fU, 0xbd0382423d298abeU, 0xbc5e18f0bd1b56bcU, 0x3d4f2b573ca32b14U,
  0x3d9cb090bd5c2d2fU, 0x3d818b803c490d93U, 0x3c6eee68bd5e5c54U, 0x3c1700b6baa442daU,
  0x3cc342d4bdb709bbU, 0xbdb22187bd552768U, 0xbcfa36d03cb20bcaU, 0xbd725230bd40fd16U,
  0xbce250fdbceedcf5U, 0x3c8869b4bccce048U, 0x3cbf8690bce1cd24U, 0x3da5b7b3bd646676U,
  0xbd035b84bd71c6d3U, 0x3ce9b7ccbd0f004fU, 0xbd6054573d5ff9bbU, 0x3d2a9e743cb2b9d3U,
  0xbac353923cb3f233U, 0x3b7e86203c8755e5U, 0xbbce9c50bd56f50fU, 0xbd370868bd36b038U,
  0xbdc1e3083daa3f5bU, 0xbd36bcdebc084cf8U, 0x3d6674e4bd935ad1U, 0xbc2ad3e83d40e3c2U,
  0x3d90b30f3bcb5250U, 0xbc047e88bd3d9a90U, 0xbd8ce4643cf2efacU, 0x3d6454ea3d8fe8bfU,
  0xbb8a1c633d2b90d0U, 0x3c92a818bd001a0bU, 0xbd6904eb3cd043f0U, 0x3ce13648bd4d4994U,
  0x3da25e373d65e158U, 0xbc8abf843d943562U, 0xb7ea40003d5a73baU, 0xbdf5edfcbc42eabeU,
  0xbc98bdc43d6449a2U, 0x3c97954dbc566900U, 0x3c842b2bbceaadcfU, 0xbaf03c00bc3e4f38U,
  0x3d79302c3d781c74U, 0x3be8a6c8bad895c0U, 0xbd76d0c43d1fbeeeU, 0x3d26cf043d343366U,
  0xbd87585a3d076e70U, 0x3d5fa70a3d3777b2U, 0xbdb8d8ea3d8bd716U, 0xbd1072b3bcc1e190U,
  0x3d6acea3bdd0ba5bU, 0xbc353a103c979e40U, 0xbd817d413c959a0cU, 0x3d78f72abd28d028U,
  0xbd1799adbd2d6ac2U, 0x3d86133e3cf1b54eU, 0x3d7c8b443d877d6dU, 0x3d100168bcb7cb98U,
  0xbda37278bdac21a2U, 0x3d008990bcf9eebeU, 0xbcb51dc53daecefdU, 0xbd84fdeebca2520dU,
  0xbd3223123d175c78U, 0xbd23b78bbd9de7c5U, 0xbbf66cb03d93ca63U, 0x3bb379cbbda6bf85U,
  0xbd929c733cb2b0beU, 0x3d50a154bc98a577U, 0xbd61ce66bc6c4d10U, 0xbdc201743d7b4af3U,
  0xbc222c28bb076c45U, 0x3cc68f3d3daef0a7U, 0xbd88f9c2bd69e683U, 0xbdb0163c3d8a317bU,
  0xbc2a8406bd235d46U, 0x3d0b0a623d618b90U, 0xbd98c6d83b280aa0U, 0xbd94d157bd2255e7U,
  0x3bcb88a7bd4c4a97U, 0xbd0cfe1c3cee5cccU, 0xbc2b3ee5bb531fd0U, 0xbc846cd9bd2cfd8aU,
  0x3bb5ab1fbdd24c97U, 0xbd2658ed3d84ac78U, 0xbd2e7beabcde4658U, 0x3a65aa4ebcd65db8U,
  0xbdb052463cf3ec19U, 0x3d257d663d195b74U, 0xbd380080bda7da71U, 0x3d1f2efabb2709e0U,
  0x3d12a7263c12cd50U, 0x3d23abb83d94920dU, 0xbd988496bc362f40U, 0xbcda3ff43dc63fecU,
  0x3d7dcdabbd981080U, 0xbcceee24bcff6f9aU, 0x3d38f5babcf61578U, 0x3c03edaabc9060e8U,
  0x3ce1503a3d33b348U, 0x3da25535bdadaa1cU, 0x3d06c6a83c05a680U, 0x3d1323353d006e94U,
  0xbd15d6a0bd858a12U, 0xbbd0ec203d999ddbU, 0x3c948d273cfafc07U, 0xbcb14bc4bcf3aa44U,
  0x3cb8c0813cf0b3c1U, 0xbd6515f9bdbdd334U, 0xbda642123dabac55U, 0xbda912313d01115aU,
  0xbc1537553b0d8fa0U, 0x3b389b20bb830810U, 0x3d59fee9bd71975aU, 0xbd82ac703cb85eb6U,
  0xbdb321883d29e651U, 0xbd909523bd419aa7U, 0x3d927d933cc1daa8U, 0xbda814f83d7e797aU,
  0xbddf579bbbe44ebfU, 0xbdabf0eebdaf9f4cU, 0x3db4aed1bb7d83a2U, 0x3cbe5e6c3d8185c9U,
  0x3d881b79bc03fdb2U, 0x3ccc8dc0bccdb660U, 0xbd939ff43d95d531U, 0x3b984180bd8db51cU,
  0xbd32876abd9deafdU, 0xbd7f30b63d2283ddU, 0xbcc3f6003b928610U, 0x3d9984f7bbda15ccU,
  0xbda1b8fbbdb61088U, 0xbdb30de03d59698aU, 0xbc5afd78bd2bd47eU, 0xbd201080bc61084dU,
  0x3d0a5feb3ce84d57U, 0xbc70d9d83d3817aaU, 0x3ce7195fbd9406a0U, 0xbd8e1d54bbcb32b0U,
  0xbd908e0b3d237883U, 0xbd92ff24bdabeac4U, 0x3cf82a24bd442128U, 0xbd4c481a3c9641a4U,
  0xbdf3d8583dae09b9U, 0xbcf315f23c09a888U, 0x3da4ee7d3c4815e2U, 0xbc83f2b2bcce3cbaU,
  0xbd8130983d57301cU, 0xbd88144a3d3798d9U, 0xbd08a9c23d3de3b6U, 0x3cfce6e63d76a222U,
  0xbda62f8dbd3842d3U, 0xbd7fe2bfbdba4bceU, 0x3c887426bd8fa11dU, 0xbdb5db4ebda489b7U,
  0x3d8e15093cfc598cU, 0xbcec2bb93c92f8f3U, 0x3d833e8a3c91fcd7U, 0xbd17797b3d044e79U,
  0xbcbb8fef3d2aa5d0U, 0xbc734a103cfd9acfU, 0xbdbae1c63ce501e3U, 0x3c65c1443c0c61afU,
  0xbc4a567fbb5874c9U, 0x3d579251bd9ea2e8U, 0x3da96b993d131a51U, 0x3c809fd93cc9c2ffU,
  0x3d33f960bcd808cfU, 0xbbd5dee3bd84d50fU, 0x3d5a9ed03d51f8bcU, 0x3da4e5c33ca0de16U,
  0x3ce6ec573d357a71U, 0xbd4a9e4cbcf40368U, 0xbdb5024b3da8a203U, 0xbcd1f26c3d6d7d03U,
  0xbdabad0f3d8c8ee2U, 0xbd412c3ebc4dfc6cU, 0x3d0bd0eebcce8edcU, 0x3d0479503d946db6U,
  0xbd25cb9cbce3b0c1U, 0x3da14500bc6f110dU, 0x3d42c5ec3d03cf4eU, 0xbd536e25bda62f8aU,
  0xbd36cef8bbcc7895U, 0x3d6caf1d3da5d7acU, 0x3d1387c73d59731eU, 0x3d5637bb3d517e66U,
  0x3d538c773c815a1bU, 0xbd976d9c3cdfd5a2U, 0xbd9d6d64bca09991U, 0xbd8f8c45bdabda34U,
  0xbd101db4bcbf3117U, 0xbc9298b03d3a00f6U, 0x3d98e0293c8697e8U, 0x3c1fdda3bd3d99e9U,
  0xbdb452efbd506b51U, 0x3d8459e1bb9335d0U, 0xbd14f67d3c51efc2U, 0x3c1c3613bc8e3998U,
  0xbd2044a2bd591435U, 0x3d3bf4f3bdaef8f1U, 0xbcfca0f5bdbcaf99U, 0x3ac77834bcd75479U,
  0x3d8fde53bd4d000fU, 0x3c8b2ad93a1e4756U, 0xbdb604233d89d227U, 0xbd9e27bc3a9696f2U,
  0x3d04cf083c34240fU, 0x3c0d595c3d16a079U, 0xbd5f69c83d2354c8U, 0xbd4f81cd3c516b31U,
  0x3ceb5c743c744ddfU, 0xbb57549dbda15911U, 0x3cf98c443d01a34eU, 0x3bb47e473d9bd4dcU,
  0xbd4e7f6ebd97f76eU, 0xbc07e48dbb654e6fU, 0xbd8a40a8bd8fca92U, 0xbc06a73fbd6346feU,
  0xbbc4d74fbd80fbc6U, 0x3c267df93d29a756U, 0x3c9cfed9bd9ae5d2U, 0x3c092cc9bdb0f2bcU,
  0xbcb2a7e03b189170U, 0xbda04641bdafa3e8U, 0xbd2e379dbdb7f0d0U, 0xbcbb5eabbda472dbU,
  0xbc4658f1bb9c34a6U, 0xba84ae903d0eb32aU, 0x3d289e83bcbc5b68U, 0x3c1785c0bd43f1faU,
  0x3d07341fbd071ba3U, 0x3d44f1a5bd08656aU, 0x3d31818539a157c0U, 0x3d16832cbd255a78U,
  0x3c284ef3bdb58158U, 0x3d022c1e3da37e0aU, 0xbda794cebc9f1f54U, 0xbd80b777bc9b73b3U,
  0x3d07d6b8bdad6d8bU, 0x3d593e74bb3a5f09U, 0x3cbe1245bd604821U, 0xbc01810ebd3bcca2U,
  0xbc9e59cabc0f9ce7U, 0xbdac7fedbd9c4678U, 0x3caa5e143d1e418fU, 0xbb8a8ddebbf0b731U,
  0xbc7449573d4ddeb2U, 0xbdba41e7bd93a4ddU, 0xbd55d8323c30fcc4U, 0x3d8baf59bc0880f8U,
  0x3d5a27cd3d9e0c80U, 0xbd1f9912bd6259baU, 0x3d5eb6573bb5d917U, 0x3d94f360bdb05d46U,
  0x3d021c973d990ae4U, 0x3da074193d29f2b9U, 0xbd1ff5a9bd9d532dU, 0xbd8c8426bca2d7d8U,
  0xbc9019febb2ff321U, 0xbca0b772bd84b18fU, 0xbd3d6d60bccc01a3U, 0xbda0fca33d4d9a96U,
  0x3c03f9aabdb0234eU, 0x3cece21f3d09603dU, 0xbd98e7c73d2f9136U, 0x3bf4bbd8bd0034cfU,
  0x3d8abeefbd409e7aU, 0x3d667f84bd6512d0U, 0x3cce97d13d0d813bU, 0x3da467e93c894b49U,
  0xbd4d543bbd424cf5U, 0xbb87f7edbc819e5cU, 0xbd9d53133d0759c3U, 0x3d54d3463d5a86d3U,
  0x3abf3965bd989dd9U, 0xbdba2e503d9c8d72U, 0x3d40efcfbd556d07U, 0xbcbb4d1c3d2a9912U,
  0xbd39f2543d987e70U, 0x3cbb0908bc39b0b1U, 0xbbd27b4d3ccefdabU, 0x3cba5585bdbc3bafU,
  0x3d11c99c3d8a8dc6U, 0x3d4c05ccbc94248dU, 0xbd5d3e23ba7ddcf2U, 0xbd8da0f23d5c2857U,
  0x3cf5923abd6e9835U, 0xbd6c98abbd2f582bU, 0x3da0fcbcbcc4abc1U, 0xbc4f905bbd31279aU,
  0x3a873b3f3d9c1669U, 0xbd8c17973b4ed029U, 0x3d343f7fbd9b2d44U, 0xbc784eb0bd89c188U,
  0x3d8b6a033d916ffeU, 0xbda22215bcb49711U, 0x3ce0e1423c8a5720U, 0xbc09f3dcbda707e3U,
  0x3d6f02fbbd908abdU, 0xbdc0bdb73d5d7ec7U, 0xbda86b683d76e20bU, 0xbd8e3d45bda57bbfU,
  0xbcf1b853bd8c9dc8U, 0xbc59d4b23d4cce91U, 0xbd23e5d4bdab8a23U, 0xbd707ec5bcb617f9U,
  0x3d2dfc44bcb36807U, 0x3d86cfed3b2415a9U, 0x3ca9ea90bd318c2aU, 0xbdb6f7d2bc08c2aeU,
  0xbd13286dbd61ea9bU, 0xbd917c003d6807c5U, 0x3d1108d43ce532aaU, 0xbd9669e1bd343d1fU,
  0x3c6844d4bdb64b0cU, 0x3d8eebd23c87ab02U, 0x3d5c3fd7bda5fde1U, 0x3d98d2613d6a5593U,
  0xbd81725c3cb1bca8U, 0x3d9d55123d5aad7eU, 0x3d93e412bd3d5ca7U, 0x3c46fcfdbd62236eU,
  0x3c0623843c98290bU, 0x3d3768983d015ecaU, 0xbbcf263fbd0e00efU, 0xbcb792803cd2e2c1U,
  0x3d3f0c0fbd62ab55U, 0xbd251d20bcd33998U, 0xbd11791bb9b04bb1U, 0xbd80a7f0bb97699cU,
  0xbda05ad7bdbf5b12U, 0xbd2cd07e3d9cca3fU, 0xbc21d06d3c3b0691U, 0xbdbcf317bd170ba1U,
  0xbd3381bf3d8162ceU, 0x3cea2e2abd46c33cU, 0x3ab997bb3d4424c6U, 0x3d4ecf5e3c1397d4U,
  0x3d97529fbc7a60f9U, 0x3d9e60383d48c284U, 0x3d092b74bd866d7bU, 0xbc7167313d93de9aU,
  0xbd71ddaebdc047bbU, 0x3d818016bd1388e3U, 0xbd999923bb7d207bU, 0x3cf1df4fbb33a068U,
  0x3d2542d1bd91e67cU, 0xbd93723a3c90060fU, 0xbcbc3edf3d4e4725U, 0x3c8ce118bd6590d7U,
  0xbd8a774d3c5df67dU, 0x3c9f6986bc3ffd3cU, 0xbd3585553d8f2386U, 0xbd9cee12bd0dea73U,
  0x3d17be16bc8450cfU, 0xbca7f52d3b95ef4aU, 0x3d91dba23d72fb56U, 0xbd519d62bd8abcc8U,
  0x3ca5a26e3c594bafU, 0x3d296a5f3d7d4421U, 0xbdc24cce3c92e661U, 0x3d2c0367bd8400a0U,
  0xbd7b3098b6105503U, 0x3c30e07e3d5264baU, 0xbdcb93c2bc9d1100U, 0x3d84bf19bd83bc0bU,
  0x3cb33daebbad2e07U, 0xbd9f2823bb231dceU, 0x3cf0700dbcf8279bU, 0xbd9bc8e23cada102U,
  0xbc13e0f83a74adb0U, 0x3c34ec3ebc9f8d81U, 0xbd0445113cb2b7e2U, 0x3d9d2c3f3cf52994U,
  0xbd77e304bce3bce0U, 0x3cd0acb0bdb5b187U, 0x3d0059a63d3c4466U, 0x3c4ae7393c7a4631U,
  0xbcf65e98bd85cb12U, 0xbd5dfaf6bdaad2ebU, 0xbd20a1223d9708cdU, 0x3c9099a83d183a1dU,
  0x3d26590b3d6e3c2dU, 0xbd820ac1bd042852U, 0xbd680043bcbd1839U, 0x3d7bb4f2bd186d16U,
  0xbdc0f52c3d79b36eU, 0x3d520046bc448a4eU, 0x3d9955d4bd4d1b92U, 0xbc7e3da8bc4a7762U,
  0xbd632b9a3c6b9f9cU, 0x3cac812a3d1b361aU, 0x3c2d6bd33ce8d938U, 0xbd58ecd83d2d1174U,
  0xbc063740bd80e9bbU, 0xbcc5afdcbd874226U, 0xbd5821c13d6ddf26U, 0x3b6093b3bd61decaU,
  0xbd579555bd8ec344U, 0x3d5076e43cafb457U, 0xbc7e7ecc3c2c1ceaU, 0x3c854c3f3d3e4fd0U,
  0x3d8405533d3e7f76U, 0x3ca713343d085072U, 0xbd4d4b49bd4cb8cbU, 0xbcf22ccfbdb0f290U,
  0x3b38b5adbba25052U, 0xbdb352283d8fa4e3U, 0x3d1aabfc3d866171U, 0xbd30773e3c475090U,
  0x3d8a4b553d9388aaU, 0x3d1e8b0d3d215d35U, 0x3d9b2d42bd935726U, 0x3d1568b0ba6e58ffU,
  0x3ceb0bf4bd84c7b4U, 0xbcf5b8c8bbfc2a73U, 0x3da11f433da38577U, 0xbd821d163d825956U,
  0x3d1c78af3a51109fU, 0xbc8368a1bdb47389U, 0x3d8b6fff3d04da7fU, 0x3d8da5dd3d82f40cU,
  0xbd3389abbd53c612U, 0xbd55f60cbb601be0U, 0xbd6e7e6bbd850557U, 0xbd5df81a3cb96d17U,
  0x3d8f78b7bcdfe005U, 0x3d97d09d3d381013U, 0x3d80fc94bcfbeb8aU, 0xbd8752cfbc8b80beU,
  0xbd09af943d81a6b2U, 0x3d87faf53d8e22b4U, 0x3c682f51bd666c5bU, 0xbd1c1cd7bc30d40fU,
  0xbd012fcfbdb90467U, 0xbb5d74c1bcac149aU, 0x3c3974f63b833f55U, 0x3c4e3f623d502e5eU,
  0xbd085c8e3bb50702U, 0x3b4730bdbbcf8286U, 0x3c62c837bd3a4b8eU, 0xbd8eac5b3d79d753U,
  0xbdb0ff8e3d8b025dU, 0x3b0a77e93d00313eU, 0xbdbcb68e3ccd0a7bU, 0xbc232e26bbf07810U,
  0xbd6b709cbd4bd060U, 0x3d0ee0413d0731eaU, 0xbd19b3aa3d25a03bU, 0xbae5108b3d91df36U,
  0x3da5e76d3d8da77eU, 0x3d7da39ebd492745U, 0x3c9bbc143d9980a7U, 0xbd582e053caa2732U,
  0x3d2d28dc3cc1d737U, 0x3c7be0e33d9a2643U, 0x3b8335a83c8b2e02U, 0xbd21ce03bc37eac7U,
  0x3d7bccdc3c9094adU, 0xbd18a1e9bcee8bf4U, 0xbd452bb23d76ef5eU, 0xbc89d21a3d38b8d8U,
  0xbd6f81a5bca5a9c4U, 0xbd5a14063d8aac79U, 0x3d1c6ad43da47bd7U, 0x3d1c51a1bd0edd12U,
  0xbdc236e93d691ebaU, 0xbd6c23edbc1d594aU, 0xbced3216bd22343bU, 0xbcf960c63bab35e3U,
  0x3d6586a23d4ca4ecU, 0x3cc599053d9b12a7U, 0x3d573a4a3da0c8e8U, 0xbd9fafd4bb474260U,
  0x3d7489543d7801b8U, 0xbd920d8ebcb7257dU, 0xbc44a42c3d389418U, 0x3d6fafc93da47c99U,
  0xbdafafbdbd538a15U, 0xbcc5b4ebbbcb74a2U, 0x3db1d6573cb1c0ddU, 0x3cf582523c9ed5b4U,
  0xbd94e0e63d99e1d5U, 0x3d612400ba9e313fU, 0x3da783eabc2e754aU, 0xbccfc1643d0d33baU,
  0x3ba597843ccbb880U, 0xbdc1a08fbd43e275U, 0x3d710b133bea30d3U, 0xbda805773c91e28aU,
  0xbcc88b2cbd924d36U, 0x3d40007dbcf3fcb9U, 0x3d104c9f3cdbbe5cU, 0x3ceea7883d6da091U,
  0x3b96b12b3b24e0efU, 0x3d8171883c228430U, 0xbdb5905c3d0c4115U, 0x3d85de06bd668f32U,
  0xbd21780a3c9346fdU, 0xbd2d98753d99821aU, 0x3c9c6ffbbcda6500U, 0xbd0e4778bdb941edU,
  0xbd3822dd3d790d2dU, 0xbaa616943c647b20U, 0x3d4a5fe83c516dbaU, 0xbc698d023d05fbedU,
  0x3d344e633d870119U, 0xbd1180bc3be3d392U, 0xbccfb5243c667ae5U, 0x3c9db151bdbb3277U,
  0x3d3f291e3cfa1201U, 0xbda119febdbc2ab6U, 0xbd76fba2bd1b198bU, 0xbd2c98d4bcaa0485U,
  0x3c7a2a7bbda02e2fU, 0xbc80e0ef3d89400cU, 0x3b9549e0bdc500f1U, 0x3cf970083b8299f4U,
  0x3daab6263d240b8bU, 0x3bdc6a6a3cb98843U, 0xbd068bac3d48290bU, 0x3d89e8513d5913eeU,
  0x3d591565bcd852d6U, 0xbca4ad05bd8a97c0U, 0xbc4cadb2bd46a7d9U, 0x3d3edbfcbd6bf7e4U,
  0x3c142a24bda41e32U, 0xbbee47fcbdb9f48eU, 0x3d757c8cbc4fd3d0U, 0xbc8793d9bd2958d6U,
  0xbd824306bd52f381U, 0xbd2046bebcb11963U, 0xbca6bcd43c5a074fU, 0x3d593e3c3d637406U,
  0x39ca8ffbbdc00678U, 0x3ca00ea73bc3cd38U, 0xbdb1e52abd9d04bcU, 0xbd46f2aebd8b6ba8U,
  0xbd534b183d495977U, 0xbd263d2dbd81bf10U, 0x3d9659debd990dafU, 0xbd72cc5ebc1ff2a2U,
  0x3d800bc6bdc143bcU, 0xbd9374553c749308U, 0x3c308e40bc83dd8bU, 0x3cc631303d9240e2U,
  0x3a111ea43c9b3125U, 0xbdb53b89bd79105bU, 0x3d097b20bd98e45eU, 0x3c64b2b03ce2f9c2U,
  0xbbcbeababdae0f1cU, 0x3d6a3486bc520000U, 0xbb2266113d6004dbU, 0x3c0706ad3ba12f57U,
  0xbd9dce303d29ae1aU, 0xbc9683c4bdab3318U, 0xbd781e14bd9587b3U, 0xbcae75893cda132fU,
  0xbc483a193d76e63dU, 0xbd0209393c1b5342U, 0x3d117dfebdb86e55U, 0x3d0eed4b3c307ddcU,
  0x3cbeb21c3b89f0ecU, 0xbc8243fa3c12d7f8U, 0x3d5e4d7b3d89c7d2U, 0x3cc03680bd9d03c0U,
  0x3d8dc22f3d2e06deU, 0xbd1e74e9bdba27feU, 0xbd9121eb3c7b4acaU, 0x3c2a26833c2ce546U,
  0xbda8e27bbd9982b3U, 0xbc97a891bd101448U, 0x3d96180c3d923ac1U, 0xbd799a25bd2d5a49U,
  0x3d44aa593cae5638U, 0x3d11b8593b0d80e0U, 0x3c2886e0bdad0e96U, 0xbd2b04ab3a57b0f7U,
  0xbc17263e3bf103acU, 0xbd85a54bbc09a585U, 0xbd3d43b8bbc992c1U, 0xbd431a6c3cd723b6U,
  0x3bca822eba9fd552U, 0x3d1648aabceb7e56U, 0xbda08cab3d83840eU, 0x3c33427ebd31ee38U,
  0xbada3b6e3d0b4cf4U, 0x3b6220533c2cf83cU, 0x3d747c203d49e8feU, 0xbcccb13bbd8daa98U,
  0xbc0cd45b3d8adfadU, 0x3c4063113cfb1ff1U, 0x3d2f36ce3da0c980U, 0xbd6cf0babda3e395U,
  0xbd97b641bd437489U, 0xbcf4efc6bdb899feU, 0xbc882c1cbd9c251bU, 0x3bfb8d9d3d3a641aU,
  0x3d0451f43d9738f7U, 0x3d842148bcb00eceU, 0xbdad424ebd74138cU, 0xbd32ce47bd815a16U,
  0x3d3a95663bdf6729U, 0x3b04a0debc54844aU, 0x3d9fde64bb337781U, 0xbcbabf0cbdafdf78U,
  0xbd867fc8bd5f4995U, 0xbd5a2af4bce7188cU, 0xbd6d8bf4bdb17309U, 0x3d7c44a9bd1b8fdfU,
  0xbd4eb4883cc4c2f5U, 0x3c41cad93ca4b372U, 0xbd7276623d7f86ebU, 0xbd453b7dbd744ef4U,
  0xbdaf2435bda6db1bU, 0x3cf32bb0bd12ed9eU, 0xbd9804b3bcd341f8U, 0xbb0e74133cdc0313U,
  0x3c280189bda657beU, 0xbd8f000ebd03bf78U, 0xbb0eddc63d8e68bfU, 0xbd0cb813bc2c1a1bU,
  0xbdb0b202bd75e364U, 0x3bf713f63cafd50fU, 0x3d7687af3d297902U, 0xbd38659bbd528ef0U,
  0x3cae18ef3d2b876cU, 0x3d9ae4b6bcf11d55U, 0xbc92884bbd92bf86U, 0x3ccf63bebad5ee6bU,
  0xbd13414c3d9dffecU, 0xbcee8bb03d7be147U, 0x3d2ffabfbda010a4U, 0x3d2213f13d622af6U,
  0xbd6e767ebd8f3e7cU, 0x3d1934663c0ed947U, 0x3c3e15493d9d875dU, 0x3d9cc995bd95a9cbU,
  0x3cc3a0dbbdb399f6U, 0xbd8a957c3ce43c99U, 0xbd1a573f3d94b9f7U, 0xbda35baa3d014a25U,
  0xbcac1424bcf30dcbU, 0xbd6e4e003d3c3292U, 0x3d2656833d84db52U, 0xbcd99716bb481db3U,
  0x3d914ccdbd143cbcU, 0x3c012a243c98a8f4U, 0xbd4a6880bd199f4fU, 0xbda17177bdb9b575U,
  0xba4a9f24bd5973aeU, 0xba1bc2acbc7be09cU, 0x3cae751b3d9d35e9U, 0x3cf3e0303da08b15U,
  0x3c037be23d6a60e0U, 0xbdc0168abd2244c7U, 0xbc8556563d62d80cU, 0xbda1e8e3bd69a0cfU,
  0x3d98d4f3bdacbbe2U, 0xbd9d9e423d9cc4afU, 0x3d22ec9cbd32f781U, 0xbc7f39cbbb4616c6U,
  0xbdc3f56cbca864f6U, 0xbc3457bd3d7d801eU, 0xbda3c94f3d22e9aeU, 0x3d5fe5943d6b0da7U,
  0xbcc29a74bd4091d0U, 0xbd3339a3ba0aefeeU, 0x3d098fcf3ac13a26U, 0xbc7418a0bd0d6533U,
  0xbd94819abcec5705U, 0x3d4aec153d17d5f4U, 0xbda690463c874fd2U, 0xbcf6b49d3da2fac9U,
  0xbd215014bd8a4cb9U, 0x3d902deb3d96d7e3U, 0xbd91d0eb3c0a9832U, 0xbd22e6d13d976c04U,
  0x3d642e43bdd9783cU, 0xbd8f7811bce96012U, 0x3d0fc4f73d7417dbU, 0x3da036fdbc947bbaU,
  0x3d4ab0f3bd11ac60U, 0x3da06cf33d9d7b91U, 0xbdb6787539b38700U, 0xbd745d313bba7f8bU,
  0x3ce20b513d8384feU, 0x3d616f62bdb601d4U, 0xbc78279c3c2b9687U, 0xbdac51903d1d35dbU,
  0xbd0deec4bdaa4a90U, 0xbd588418bcef75ddU, 0xbd410be7bcf4d856U, 0xbd4d43e6bcfa56edU,
  0xbd79e786bc715b4cU, 0x3c0209333d27af3fU, 0xbdd0189fbda6590aU, 0x3dbf96e9bb91a07cU,
  0xbc9de55d3c108e55U, 0x3d1f5d6bbcc891e8U, 0x3c20ad65bdab0d9cU, 0xbcd08dc8bcdd5828U,
  0xbd242af9bceceed1U, 0xbdb04dffbd5679b1U, 0x3c4e1b28bdc9ca43U, 0xbdb9d758bc9f7b5aU,
  0x3cbdcc97bdbaeea3U, 0x3bd6d967bd657130U, 0xbca251943d0eaa1dU, 0x3c9985083d488d27U,
  0x3c427e8ebc6f2cc1U, 0x3cffe929bd48d019U, 0xbc9f2cc33d09b858U, 0xbda31ef53d3a15e4U,
  0xbdb069f8bca0a188U, 0x3c2ff1b43d827924U, 0xbdaa1b223cc5e64cU, 0x3d1842193c959db0U,
  0xbddf5f28bdaa1f41U, 0xbc46307d3d87293fU, 0x3bd7c26b3d9b17f6U, 0x3d90adf5bcd49d77U,
  0x3d2bd62fbdc6b6c5U, 0x3d27f2fa3ccfb68dU, 0xbccec74f3cf15cd2U, 0x3c12823cbcdaf7bdU,
  0x3afd78bdbc841b95U, 0x3cea58b93c7d3119U, 0x3d931059bd9fed44U, 0xbd276c61bd669c7cU,
  0xbd9761013c308253U, 0xbdade8d9bb620553U, 0x3cb850743db1df7fU, 0x3d98b82d3d1d20bcU,
  0x3d929db13b05b901U, 0xbbb556283d3ef78bU, 0xbc206cc03d125640U, 0xbd439060bd80b4ddU,
  0xbdbc05b3bdb35c8fU, 0x3d17ad18bcb8b2a6U, 0x3d9fafafbd951a96U, 0x3dab2ef33c9c6ac4U,
  0xba706cd53cdec5bdU, 0xbd10bf6fbd9af582U, 0xbda2cdb8bcbff3f3U, 0x3cfd9b4fbbb34e83U,
  0xbda5b760bd2cd335U, 0xbd878f10bd6c1784U, 0xbc57ccc1bdac2b6fU, 0x3b9288663d4d02bdU,
  0xbd2efdd0bdadec43U, 0xbd412b28bda3794dU, 0xbdb94d333d91f344U, 0x3cbcb8683cc388e6U,
  0xbb83a54ebdd02dd4U, 0x3d0698513c538cc2U, 0x3cae86633d025a85U, 0xbd14ea943cf6ca7cU,
  0x3a3cee063d9a041cU, 0xbd8d86883d6644bdU, 0xbc04ce1e3d6eff20U, 0xbda3cffcbdaa7352U,
  0xbd81518dbdab2f83U, 0xbce8ad5ebdacf8d2U, 0x3c85b525bd59baf9U, 0x3bb9f1903d22ccddU,
  0x3d65b76c3d0c8e9bU, 0x3d0a5a0c3d97d47fU, 0xbd013cff3cb8845dU, 0x3ca7e823bd8af93eU,
  0xbdb1ea6e3ce72c74U, 0x3c94d6163badcc54U, 0x3b8c18cd3d61a20dU, 0x3d30d5dabcfc20e1U,
  0xbb912657bc821c2eU, 0xbd752c2abbe4c480U, 0xbda531f2bdaad4e8U, 0xbc49361bbd51f6eeU,
  0xbd8a95f83bc28990U, 0x3d948c79bd9ff94bU, 0xbd81f94c3da28acbU, 0x3d41d727bdc20ae4U,
  0xbd18c9e73c5a5351U, 0x3d31b6ce3d983e88U, 0xbd4fd6cd3c3aedbeU, 0xbda9a1a9bd73d386U,
  0x3d9e1d50bddb6eccU, 0x3d1bb7c5ba50e6a9U, 0xbb981003bd3b49f4U, 0x3c338157bd5e1cadU,
  0xbd7d58ce3b302a3fU, 0xbd90bab9bc9f6072U, 0x3d52dfb7bd5fd988U, 0xbc88fac2bd7857aeU,
  0x3c99ecdbbd6138d1U, 0xbb94e1b0bdb54f0eU, 0xbdb40049bc1e7d04U, 0x3d9dd453bc431bfcU,
  0x3d6734303b6f7bb5U, 0xbc546879bcdaca46U, 0xba5aba80bb966e62U, 0xbdafc839bc2b0e3bU,
  0x3d912a933d634f67U, 0x3d3964ddbca88916U, 0xbdadad0e3d702649U, 0xbd62f9f83d77fb19U,
  0xbd694a1b3d4198d3U, 0x3d1c5ba73d9ed830U, 0x3d138bda3d6a7df0U, 0x3c71bb1dbdbaecaeU,
  0x3d0a3056bbb882a5U, 0x3b80fd1cbd3ca760U, 0xbdcc9c22bd4a3c2eU, 0xbd8a87c83d8fe6eaU,
  0x3c2f6a473d3ea37dU, 0xbd8d94b6bd76890bU, 0x3d2617dfbcaa3135U, 0x3d87d5803d17602cU,
  0xbd9a4f4f3c4b9b8fU, 0x3d2fef533ce155cdU, 0xbc6b69b9bd5c77bfU, 0x3d44e1b83d46162cU,
  0x3c38b8963d51a0bbU, 0xbd74231fbd5d057fU, 0xbc1f51f53d314a69U, 0xbd729a45bdbb3a7bU,
  0x3c82a6e43d60bac3U, 0x3c3de9d7bdab743cU, 0xbd808ae5bda6915eU, 0x3d9fdb82bd2b222dU,
  0x3d4a5e24bdcfce38U, 0x3c69f56a3da432fcU, 0x3d45831a3c059ecdU, 0xbcab02b23d4335eeU,
  0x3cff2cb53da5786dU, 0xbd2de89bbd8ab80eU, 0xbc70f94bbdb40f4bU, 0x3dab43d33cd5a4a6U,
  0xbd2b72f33cbebc4bU, 0xbd746295bd567ca1U, 0xbc40f19cbd9d2e96U, 0xbce341c9bdb4af52U,
  0x3bfe4f423d1d44a1U, 0xbd2bd3cc3ccaa031U, 0x3c2e9dcb3d44407eU, 0x3d49133abdb45848U,
  0xbd4becfe3ce2d047U, 0x3d84f2cdbcfe2bc6U, 0x3d937f243d927d44U, 0x3d70b4613d440acdU,
  0x3c186afc3e032cd9U, 0x3da37e17bc32f780U, 0xbd2456d63dba133aU, 0x3dbdddc4bcd6854dU,
  0xbea050633c3b1755U, 0xbd85c8c1bd12f67dU, 0xbc168449bc0dd972U, 0xbda23de43bea4cd9U,
  0x3d8a28e73d32840cU, 0x3ecf5c923c3e060dU, 0xbb8db316bdaf53fcU, 0xbdd545a9bc4db793U,
  0xbd94113abe5cfbaeU, 0xbc8e7e62beb9ab04U, 0x3cfe18f9bed06fa8U, 0x3d73d4a2bc989090U,
  0x3d2afbcd3da97f37U, 0xbd0e24283d1df28dU, 0xbe0fe7ab3d8301d4U, 0xbe8bcbb23d235412U,
  0x3d2c887abd463e9dU, 0xbd65c4093b3b2ba0U, 0x3cd1070a3dbb5313U, 0xbda8172abdc0c936U,
  0xbcca8c9c3c6b0becU, 0x3c8e227dbd8ad7e1U, 0xbd0fcf593dcd7199U, 0x3ab1dd9fbe6d0052U,
  0xbe047b65be8944b8U, 0x3b04285e3d85f6a6U, 0x3cb22dd5bd0e8e19U, 0x3ce1bdb6bd8d2575U,
  0xbc5b8144bd939530U, 0x3ce573a3bdebca1bU, 0x3cc3d8b43d906c16U, 0xbd1d9ebb3dc4235bU,
  0xbe88eb32bd8cb483U, 0x3d227f8c3e96cb4aU, 0x3d284308bcf00d85U, 0xbd2d5ee13cdf09b8U,
  0xbc95b150bb4076aaU, 0x3e6ce8963d652d8fU, 0x3c9d99d6be1ce2a0U, 0x3caa47f1bdd9ba23U,
  0xbd96af2dbd5320daU, 0xbd931c34bde79be1U, 0xbd330c94be910e56U, 0xbd7837873d53389fU,
  0x3aef4216bc82be08U, 0xbd88b9f8bcb5ad1cU, 0xbe1ea4073cf0933aU, 0xbc41fd4bbc8740ffU,
  0x3d89ba35be05ea07U, 0xbd24e1a53cdba5f8U, 0xbcc020c03d04eedaU, 0x3e23421bbd8fde8cU,
  0x3c57cbdcbd5fdbacU, 0x3cb210c33c7b5f37U, 0x3d3f2c803d8b2514U, 0xbcc5797bbda32e32U,
  0x3c54838f3e4a7fd0U, 0x3c9502a63d9615d1U, 0xbd9ffbef3b6c8345U, 0x3d82863fbd86ec0eU,
  0x3cfdf1ff3cd1a1cbU, 0x3d2cd20dbd12e033U, 0xbd4e089abd16be9dU, 0x3de789463d124417U,
  0xbe930e80bd7b4788U, 0x3cb7d5f43e002f3bU, 0xbd5dde703d2323e3U, 0x3d49e5a4bd9dadb5U,
  0xbd4659d1bd913128U, 0x3e49786dbd8a3fc3U, 0x3d7e4837bd7b6a64U, 0xbdbc2d513d734517U,
  0x3ce3ed54bd973fabU, 0xbc18dec9bdf8098cU, 0xbd31113bbd81ac56U, 0xbd5e74edba0e72cbU,
  0xbd6b5415bd9ce2efU, 0xbb5dd27e3d6c5b1eU, 0x3bc1c8ec3e050a23U, 0xbcd0016fba6aaae9U,
  0x3d5be5e0be0dfe1fU, 0x3d2038693d76c322U, 0xbc0386c1bcca610eU, 0x3cabca0c3d9146fdU,
  0xbcf5d4583dba13b5U, 0x3d01fb21bc9c39aeU, 0x3e01ee39bd3cde77U, 0x3cd966313d133e6fU,
  0xbd29b6b63d96f686U, 0xbcb0f588bd0a1c9eU, 0x3d9c3759bccd4e3fU, 0x3d017dd83d5fffb8U,
  0x3c6b8867bcb9fc3bU, 0xbc00868bbdd43cb8U, 0xbd99e37e3da3a522U, 0xbd39450dbdbfea15U,
  0xbeec8fefbcc5cdb8U, 0x3cbc5b653d8991d4U, 0x3d029cac3d050feeU, 0xbd8cfb44bd5fc777U,
  0x3d70b4c73ce336c5U, 0x3e8a2e91bc493059U, 0x3d334929bc9aef8cU, 0x3ca6cae0bcb9a81aU,
  0x3daf3d05bd3a20cfU, 0xbdac55a9be564e8fU, 0xbdcf1dcfbd682b0eU, 0x3db945743d5ef286U,
  0x3c6799cc3cece9cbU, 0xbd335dedbd66047aU, 0xbda082f6bd946287U, 0xbcf178a83c1405b3U,
  0xbd25f5d7bd022ab4U, 0x3d8b20d0bd37c3b4U, 0x3d820e003c12bb0fU, 0x3da1668f3a69e08bU,
  0x3d98d704bd86c550U, 0x3d9252843d1477f4U, 0x3db37d95bd3b1b86U, 0xbdd6d4cfbe388cceU,
  0x3c8cb381bc401c7aU, 0xbc5a84dabc54321dU, 0xbcbdc811bd0388dfU, 0xbc90b0ccbd98e710U,
  0x3db3be3cbcc1366dU, 0xbd33f5ddbde64095U, 0xbdbef06e3dafb8b8U, 0xbbd4ee5dbd94ba52U,
  0xbe9554f83c94b4cbU, 0xbd894b6f3e20eebbU, 0xbd3f4690bd07ee87U, 0x3c5c7ecdbcbbc8b4U,
  0xbc87cfa63c869c9cU, 0x3e3ca9aebd62055eU, 0x3b988f613cc4c29bU, 0xbacb02d7bc6f8c46U,
  0x3c0b608bbdbdb24fU, 0xbc32361abe537d34U, 0xb89eeed2be5abe42U, 0xbbbd3e83bd48b15bU,
  0xbc045f683af15290U, 0x3ccaef49bd2b836fU, 0x3cd2f2dcbe291cf4U, 0xbe1cdaea3db42668U,
  0xbc9f5f09bddc3738U, 0x3c8498483d2cf05eU, 0xbc4152d1bdc1d990U, 0xbe0c9c883d85a4e2U,
  0xbbb89da33d174aebU, 0xbd342a603b97d88eU, 0x3d351a1b3d33fae4U, 0xbaa7f7d7be01024eU,
  0xbe01ff3ebdbd0168U, 0x3deff2ef3e1a58dfU, 0xbd6a9e7f3d268af5U, 0xbd82fd563cebbd5aU,
  0xbd7a4609bda7794bU, 0xbd71586a3b66a3a8U, 0x3dc6198cbd4f7767U, 0x3dcc06973daedb9aU,
  0xbe826ae1bd05673bU, 0xbc542abb3bc397c7U, 0x3c6788a3bdb715f8U, 0x3d52c3cd3cb09bc3U,
  0xbb8feea03d1325dbU, 0x3e2743423d94978fU, 0x3d5cd78fbd308f43U, 0xbda39bf9bd9e5cb1U,
  0x3d7e4758bdf646a4U, 0xbd192dcabe8905afU, 0xbd044092be860f7dU, 0xbd45c7603d833ddeU,
  0xbda798263bc85c3cU, 0x3a972b48bcf46eaeU, 0x3cc6f7003d88ad22U, 0xbe2ce1023d168a6bU,
  0xbc44309fbd17cd13U, 0xbcc80bf7bd8d8f99U, 0xbd91647c3d730183U, 0xbdf1c3c93c749c1dU,
  0xbd70ac71bdae0195U, 0x3d5b871fbda569baU, 0xbc71b332bc0b438cU, 0xbb9959f4be2f450dU,
  0xbd845bf0bd1269f3U, 0x3d8dd88abd0a3593U, 0xbcc1137bbc123e82U, 0xbd87c9c8bd88cc83U,
  0x3d065bf8bc7ee788U, 0x3d38577dbde9cd8fU, 0x3c6642603d67c870U, 0x3de78df13de7ea29U,
  0xbe2d1041bd30fb1aU, 0x3d22f9e73e45ac61U, 0xbdb5e95dbc4c517eU, 0x3d8d1b163d67f946U,
  0x3df62fa9bceddbe9U, 0x3e8133aabd102b43U, 0x3df98ec4bad28a2eU, 0xbd6eca753dae6a52U,
  0xbd1600eebda66f06U, 0xbd93d273be60661aU, 0xbad96b49bed590acU, 0xbd4bc888bd24baf6U,
  0xbc1642e43c819534U, 0xbd5dde3fbdc80ceaU, 0xbcd4fdb3bc8437e7U, 0xbde0a6143dae27bdU,
  0x3d4c2f14bcae2d05U, 0x3dac416f3dac5dedU, 0x3d868ddc3ce35c78U, 0xbb1858f73d863e91U,
  0xbdb1102d3d818f46U, 0xbd3c58a13d6dd311U, 0xbe20f67d3dc9adb5U, 0x3d8ab60ebe8c37d4U,
  0x3c0f6b8bbd2c3b7dU, 0xbd4109f13da18e09U, 0xbd21df69bd88c2b6U, 0xbd8d77e33d649a01U,
  0x3c93ffc8bdf29a05U, 0xbca0e8763d86594dU, 0xbce73ef3bd85a10fU, 0x3be4a67ebc99d920U,
  0xbea6f686bd9a0919U, 0x3ccac21c3dffa9e1U, 0xbd0f5a23bbcd8a5aU, 0x3b796e033d4a02f1U,
  0xbc3ab2e3bd71d8f7U, 0x3dbb4528bd4d893fU, 0xbdabbdca3bcdbab7U, 0xbd882d493cc49f20U,
  0xbdb04b05bd656f5fU, 0x3d9f7988be833ec9U, 0xbc4c234cbe8829cbU, 0x3d852a13bcf5f124U,
  0xbce6d7b3bd5e1a04U, 0x3d5597e93d2ead92U, 0xbde262fbbd0e4f6bU, 0xbe04cbefbc82bd16U,
  0x3d6eac4cbe2e1cd9U, 0xbce44750bd8f70aaU, 0xbd9356ac3dd0541aU, 0x3e1448e3bc2e5dd4U,
  0xbd4a578c3d168929U, 0xbd19f8d23ce50fbbU, 0xbd827bf33b0f7a68U, 0x3d78052bbe8d671bU,
  0xbc6b8f8a3d167183U, 0xbba94b4e3e04f43dU, 0x3c3e6a083d979683U, 0x3d8f2830bd209c35U,
  0x3c592a8a3d4e1f45U, 0xbd1885aabc4146dbU, 0xbe010d8abbf260d6U, 0x3d839a763d52bc63U,
  0xbeba5c0b3db95e1cU, 0x3d5caf0fbcadafd6U, 0xbd5715ff3d56e92eU, 0xbaa3a1d1bc6c68b1U,
  0x3df3875bbc9cdc45U, 0x3d8b88bebcf7993cU, 0xbcdd2e133a1f9304U, 0xbd921242be1105ddU,
  0x3d4005bdbdc74208U, 0x3db96e43be2e7511U, 0xbc5a39c8be5de848U, 0x3d5c2642bd48e1e6U,
  0x3caab3a43d309a96U, 0xbd93c5f5bc00c895U, 0x3c0daab3bc974a6cU, 0xbe499a003da0d343U,
  0x3c11cfe1bd8157e6U, 0xbd70eaa6bceabb2cU, 0x3da022ec3d5e54feU, 0x3d040c5c3d46db11U,
  0xbcd37b1ebc13a19cU, 0xbcd6a865bb4f5746U, 0x3c7912223dc291c2U, 0xbd3a1b33be8c0dc7U,
  0xbcd78f4abd174804U, 0x3a8fdf913de8faabU, 0x3d892e783c3e2570U, 0x3d8d14a4bd17a08aU,
  0xbcd2d2943c7d4fd1U, 0x3d8eb2043d0731f7U, 0x3b93a7153d96e022U, 0x3db2dc9d3dbdc8e4U,
  0xbe68ed9ebd773e16U, 0xbcd2db37bd4940e1U, 0xbdc83dfb3d876ea9U, 0x3d508595bcb11c37U,
  0xbc4895ce3cf60221U, 0x3a0dcec5bd5633f4U, 0xbcaa3746bd8afc12U, 0xbd98ce6cbda38123U,
  0x3d3f51e0bda12cd0U, 0x3d5c89d6bdc2eae9U, 0x3e031ed0bd0cc992U, 0xbdc057353d42be34U,
  0xbd1f5ce53cc00300U, 0xbcea03703d27c5f3U, 0xbccd03a8bd631fbeU, 0x3e00ad653d99c720U,
  0x3cdcdfcdbe0d73eaU, 0xbcd8be593c4ba290U, 0x3dc34b103d1811d3U, 0x3e41fb33b98530b1U,
  0x3d46aa7bbb0acfc1U, 0x3d9250043d8bcf77U, 0x3e2e1a173de24ec6U, 0x3d61e10cbdd66732U,
  0xbe3bd4553e0c498bU, 0x3c431ffd3e5f22e4U, 0xbda7e4d63d5be160U, 0x3cf8074abde43b77U,
  0xbcd8175abb0bc7f7U, 0xbe1646d0bd8a6e60U, 0xbd761dc43d0fdc79U, 0xbd07e4e6bcf217eeU,
  0xbf2be21abd33b6ddU, 0xbdad7057bddb946cU, 0xbda426673c1b4080U, 0x3da724273d0f0356U,
  0xbd55f1673d0515b4U, 0x3e1409c2bd424f1aU, 0xbd0f8cfe3cd189a6U, 0x3cba5284b97dfc70U,
  0x3c779d4fbd1a98ffU, 0x3c2af6ffbef6bcc3U, 0x3de61915be2a2975U, 0xbd8b7fb33d3e30f3U,
  0xbd8ca6d3bd67d318U, 0xbd875723bca7115fU, 0x3d12fbfdbc858a0bU, 0xbe4adc6ebd2ccf27U,
  0xbcbcfe79be31869eU, 0xbd9269313dab81afU, 0xbd4ac18cbd08a3c3U, 0xbd4f692dbe02db89U,
  0xbd77b24bbd355c0dU, 0x3d0259d8bd0fed5dU, 0xbc05667f3dce1ffbU, 0xbd28b1fabe182340U,
  0xbdaa7fcebe64b1a3U, 0x3d4995593e859ffcU, 0x3d55648cbd8ae3bdU, 0x3d10367e3c882ea9U,
  0xbba3139d3c649370U, 0x3c8dc3603d9ecfc8U, 0xbc0b4505bd102d5cU, 0xbd4b0ca5bd87534eU,
  0xbdc748203c6ded09U, 0xbda448033d5069d9U, 0xbdab8caabacd5ee1U, 0x3d8b107b3db41b7bU,
  0x3d2643c2bd734828U, 0xbdb92def3c1945b7U, 0x3c23d5be3cf00addU, 0x3dafb8ed3cbe92ceU,
  0xbda2a0c7bda2582fU, 0x3ccd594fbcd2c22aU, 0xba0f0ee9bd9cf5deU, 0x3cfd209abd10f6c6U,
  0xbd411baa3be40402U, 0xbbf729c3bd409df8U, 0xbd67e34f3d451768U, 0xbdb171c1bdea0edeU,
  0x3d7cedc6bc3cc52eU, 0xbcd0d88ebd4de1feU, 0x3d8d549d3cdfed1dU, 0x3d6480623ce055ebU,
  0x3cbd7e54bd67d74dU, 0xbd9c5e16bd27b87bU, 0xbdc695973d819dafU, 0xbd8606c83d2cbd7aU,
  0xbbdfe948bdee4ec8U, 0xbc9a2194bca10079U, 0x3d15f52abd917dc6U, 0xbd872a2f3d35ead2U,
  0x3d562d6f3cd0e371U, 0x3d6c129cbd0cc675U, 0x3c042e17bd88c7f6U, 0xbd3101be3d5bef3eU,
  0x3d4460d7bdcb4231U, 0x3d1d2c08bd23c03cU, 0xbd27d75b3da319deU, 0xbd112fe03bde5cf0U,
  0xbcb5ace4bd87e23fU, 0xbd07638a3d0c6450U, 0x3d979efdbd447f88U, 0xbcaaa2ccbbdfd3b7U,
  0x3d662e0abce519aaU, 0xbdd0da283c9ae8f7U, 0x3d439c7f3bf2868fU, 0xbda883533d716369U,
  0x3c907cff3cea4b96U, 0x3cd1cb803d90effaU, 0x3b1129b1bda70bcaU, 0xbd38b972bd86631eU,
  0x3cb49b2c3cd8c4ebU, 0x3d459ef03d84f0d1U, 0x3d4029cb3d0b758bU, 0x3cd09b0cbd90b304U,
  0xbd175808bd0b3088U, 0xbbed40cabd57cd11U, 0x3b166087bd0a4d7aU, 0xbd2b808e3d29baa2U,
  0xbdce06723d498172U, 0xbba2a410bdd0378aU, 0x3c970e733d45e0bfU, 0xbdba1414bdb1d183U,
  0xbdb82ec83c4bf57bU, 0x3d8b33cebc91b792U, 0x3c16048dbd14d0a9U, 0xbd2e445b3d376fdaU,
  0x3d3586be3b5dcf30U, 0x3d106218bcbc5512U, 0xbdc32f9abb1b8569U, 0xbd075b5a3a070380U,
  0xbda8184cbd2551ecU, 0xbd72f8cfbd70dfabU, 0x3d90991f3ce730eaU, 0xbd5f63813c75d5a2U,
  0x3ce08cf0bde17c37U, 0xbcdcfdebbd1e0ad2U, 0xbd6657b5bda726e2U, 0xbdb604b3bd6e96deU,
  0x3ca649eebd98f468U, 0xbd68674fbd602e43U, 0xbd2b6483bc92f1a1U, 0xbd8ae7d0bc857508U,
  0x3d44613abdea13d8U, 0xbdfef5153d62a2d6U, 0xbd4fe1843d497167U, 0xbd31355dbceb7589U,
  0xbd425d98bd4f531bU, 0x3d3ac0e7bd149d58U, 0xbccac3a1bcd4e1b0U, 0x3cb1573bbdee419bU,
  0xbd1fe8c5bd158e9bU, 0xbd949ff5bc11cd9bU, 0x3d6c54aebd57e280U, 0x3d97c1f1bd81b2d1U,
  0xbd895ba5bd39e8a5U, 0x3d99bd5abd71b4eeU, 0xbde46b0fbd63936fU, 0xbca5873cbd42957eU,
  0xbd9af4ab3d1f905aU, 0xbca553f5bd618e22U, 0xbdb3a2683b842f8fU, 0x3d8eb4793cc8aac8U,
  0x3d834a33bbff1930U, 0xbd95098abdb5ee86U, 0x3d82df3bbd5cb27bU, 0xbd6fc9ef3d15d907U,
  0x3a9b35cabdef21cfU, 0xbb9686823c33f56aU, 0xbdc0c778bd36b26eU, 0x3b66ad42bd87d543U,
  0xbd896ccabb979832U, 0xbd92156bbcf3fb20U, 0xbdc57552bdaed13dU, 0xbd34964cbd9a02deU,
  0x3d00464ebc8bc574U, 0xbda4d69dbd6295b7U, 0xbda3e0a13cb665c8U, 0xbd29d20fbd8ca13bU,
  0x3b2d24da3c4ccf15U, 0xbced781c3d4d2f55U, 0xbcbd2ecb3d83e9cbU, 0xbdaac7a5bc42f8b3U,
  0x39ba3b4e3d2b9c5eU, 0x3d90292fbdd43d21U, 0xbd340d8fbcd25409U, 0xbdbb035fbd84a1a7U,
  0xbd8a7c143d377fbcU, 0x3cbf7722bda27ae6U, 0xbbd995f7bd2698c5U, 0x3ca71fcebd814432U,
  0xbdd545443d52025bU, 0xbdae60483afd0e79U, 0xbdd48953bd3d18c3U, 0x3d91a11d3d89b0ddU,
  0xbcea231a3cd40edcU, 0xbdb85de73d8dac43U, 0xbcf3f97bbd268436U, 0xbcb377653d45bdd6U,
  0xbcb50b9a3d3e6c6fU, 0xbdbe13dbbc9fc2acU, 0xbd680c95bd7391daU, 0xbd0f7f5a3cb080ffU,
  0x3cf287423cced254U, 0xbc4e5c46bcd2bbe1U, 0xbdea63723cccf12fU, 0x3c9443703cebb119U,
  0xbd530442bdc148f1U, 0xbdca4179bd0a229cU, 0x3d446db93be5467dU, 0x3d9c29f1bd842e7bU,
  0xbc3a52da3c802d04U, 0xbce9c5583d9c6056U, 0xbcfe8ce93c935d84U, 0xbd1c1e8fbc9e57d0U,
  0xbc8737ff3d4669feU, 0xbd7a0e22bdd844f3U, 0x3d12f4423d5c5a1bU, 0x3a80e151bda5f1f0U,
  0xbd49ee5abd4ee207U, 0xbdab09f23d7b9fd5U, 0x3d5aff603d8a837fU, 0xbdb62729bca74e78U,
  0xbd736504bbc75ec2U, 0x3c97600c3c49466fU, 0x3be032c03b76a71cU, 0xbd0084103d2e2436U,
  0xbdaf8634bd91289cU, 0x3d0e65fe3d8abf9aU, 0xbd861c1ebde1a9a1U, 0xbc2d4350bc0fcb96U,
  0xbd0a086bbda186dbU, 0xbd33b86b3d8d3508U, 0x3d2203e83c464321U, 0xbd7e81953c9311deU,
  0xbc9a5b893d6af8caU, 0xbd830b833cb5f245U, 0x3d668bca3d0ac86aU, 0x3cf4967c3d62e7ddU,
  0xbc37df04bd0ff981U, 0xbd767d5c3d43991aU, 0x3ceebbc0bcd47d08U, 0xbcb20937bd6006f8U,
  0xbd328451bbfac7e5U, 0xbd88602bbd90f3ebU, 0x3d062100bd481451U, 0x3cd56ec83c04f4d7U,
  0xbdbbb11b3da30e78U, 0x3b089e40bd75228fU, 0xbcf7001dbbd23bdbU, 0x3a0645313ccb82a7U,
  0xbcceb445bd5b0fc3U, 0xbd5cdcc5bd8de55eU, 0xbd8104f23d956543U, 0x3d193244bbfb4c60U,
  0xbd4460b83d09b361U, 0xbdaa856bbc657af0U, 0xbc88d1693cb3a821U, 0x3d494d423cca78b0U,
  0xbda12096bce934aeU, 0x3ced0d3fbd793e0dU, 0xbc07bbff3d5cc4feU, 0xbd492066bd36a731U,
  0xbd917baebd98ac06U, 0xbcbff1903dd5bf53U, 0xbcfc7be93cd76a10U, 0xbd7b27eebc11839dU,
  0x3c831113bd23f55aU, 0xbd5856973c68ac12U, 0x3c8f38fcbac26e20U, 0x3b01cd60bc603301U,
  0x3d48be66bbceb9c0U, 0xbd7389073d11bf2cU, 0xbd396d41bc92c1c0U, 0xbd687fb63d5ad45fU,
  0x3d2c1f093cd52ca9U, 0x3d8b5b4f3cf55819U, 0x3d67266fbd3086afU, 0x3c10045fbdee7915U,
  0xbccb97053dc69545U, 0xbbe354203d351071U, 0x3d54311abd3dc5deU, 0x3c4e81f33d1c1a89U,
  0xbd43ca9bbc89d2b7U, 0xbdbbe109bc91e8c0U, 0xbd79f045bd978361U, 0x3d73331ebd8c6f49U,
  0xbca7d949bd2d59e3U, 0xbcde3efcbce8428bU, 0xbd9f4501bd026f17U, 0xbca1db0cbbe5b270U,
  0xbda1476fbc50249aU, 0xbd6095db3c492bbeU, 0x3d9c66f4bce435ebU, 0x3cbd47bc3cbf27acU,
  0xbd5bb3a3bdde22abU, 0xbdcf855cbcfa6e5aU, 0x3cb9267a3d44358bU, 0x3cc5709f3d196ac1U,
  0xbd93236ebd9be880U, 0x3bd693f8bd8bd2baU, 0xbd636f973c04fea0U, 0xbd142579bd1ecc53U,
  0x3d3aa4dabd49c41fU, 0xbcb53f76bd4840d8U, 0xbca933e03ca88d88U, 0xbd933ff7bd86cbb7U,
  0xbd2f750f3b4e5f86U, 0xbd92b50c3d9e5bf4U, 0xbd319df7bcf3b396U, 0x3d87df74bc8d7ff3U,
