/**
  ******************************************************************************
  * @file    network_isd110_data_params.c
  * @author  AST Embedded Analytics Research Platform
  * @date    Fri Jan 19 12:48:47 2024
  * @brief   AI Tool Automatic Code Generator for Embedded NN computing
  ******************************************************************************
  * Copyright (c) 2024 STMicroelectronics.
  * All rights reserved.
  *
  * This software is licensed under terms that can be found in the LICENSE file
  * in the root directory of this software component.
  * If no LICENSE file comes with this software, it is provided AS-IS.
  ******************************************************************************
  */

#include "network_isd110_data_params.h"


/**  Activations Section  ****************************************************/
ai_handle g_network_isd110_activations_table[1 + 2] = {
  AI_HANDLE_PTR(AI_MAGIC_MARKER),
  AI_HANDLE_PTR(NULL),
  AI_HANDLE_PTR(AI_MAGIC_MARKER),
};




/**  Weights Section  ********************************************************/
AI_ALIGNED(32)
const ai_u64 s_network_isd110_weights_array_u64[53729] = {
  0xbd7d1ee93dde8fddU, 0x3d981d18be901cf6U, 0xbd640cdb3d99e7e6U, 0x3d66b95abd46ce80U,
  0xbe568433be2bf219U, 0xbe0140f9be576e2cU, 0xbe82776bbe7e4b79U, 0xbdb8a445be7da692U,
  0xbe93559bbdce4706U, 0x3d5f4da3be4e9c6bU, 0xbea62a73be040be9U, 0x3d0dccf5be22b186U,
  0xbd6490b3be3d844aU, 0x3c5f87e0be421342U, 0x3ddbeec8be2433d2U, 0xbd87b9f8be009b19U,
  0xbd812e8a3dd69229U, 0x3d820a35beb23c7dU, 0xbdf8154ebcad4bd7U, 0x3cbb2ddbbe3dd8b0U,
  0xbd3ca805be258c0bU, 0xbda76a27be046bc4U, 0x3dd711cdbd374fdfU, 0x3d8d4685be365309U,
  0x3d92dc75bde0f3dcU, 0xbe1f91c13d1def03U, 0x3d06f00abd09997eU, 0x3d8494dabdd81e87U,
  0xbcd9f112bd449f74U, 0x3dbafd12bda012c1U, 0x3cf42371be4cb592U, 0xbda8181abe07af74U,
  0xbd6ddb5fbe3efedcU, 0xbdb6fe56bd1df675U, 0xbdfa6db9bd5f1e73U, 0x3e2cc7b8bd37617aU,
  0xbe526df5bd7860a0U, 0xbe04501a3f49e725U, 0x3ea722f4be7036dcU, 0xbe869f6b3f22f95dU,
  0x3edc324fbd28e369U, 0xbe951ae03f2a778bU, 0xbe036c40be3b96e6U, 0xbd8b28adb9d6a161U,
  0x3e17c45cbdb1b73eU, 0x3c3b609cbd472231U, 0x3d6b99c8be267b5bU, 0x3d691ce23d9712b4U,
  0xbdb17e73bd326e82U, 0xbd2fe0b93e1211b6U, 0x3dd78dfcbdec0dd8U, 0x3bcbcaf03c47a024U,
  0xbe521ce4be02c2e9U, 0x3d16724bbddb0c2eU, 0xbcead7273d4012ddU, 0x3e018acb3dce4198U,
  0x3db92e95be213148U, 0xbd6d3c483d72eb91U, 0xbe0887013d32e3d1U, 0xbd85ee5cbd872b43U,
  0xbe599572bd4e15fbU, 0xbc6a5e70bdac735dU, 0x3d0a9b30be59d17aU, 0x3c89f473be50b1f2U,
  0xbd6cac43bdc0afe9U, 0xbb98ac74bd2709b0U, 0xbe3405a6be41f679U, 0xbc9452383c04a584U,
  0xbdae8b093df91c3fU, 0x3dc3138db86c5652U, 0xbe0bfeeebdff7211U, 0xbd9aee26bca9b74fU,
  0x3d53e2af3c1e184cU, 0xbd8f4c6bbe178c9bU, 0x3cae9b403bffb96aU, 0x3b9fbdebbdcddda6U,
  0xbe97048fbd3b549eU, 0x3d8e2409bdf06a04U, 0xbdec20003b94156eU, 0x3d8b7d6ebbdddc0dU,
  0x3d2a5d693c910ea4U, 0xbde9ba3bbe191e90U, 0xbe2c18a7bd8fdf61U, 0x3d43accd3b79e130U,
  0xbd02e7adbd1b68bbU, 0xbdeb4875be41d1adU, 0xbe2dc967be3794d3U, 0xbb8944fd3d1967f8U,
  0x3cb85d62bcd974cfU, 0x3df7b30cbda4a2fbU, 0x3d702812bd874dd1U, 0xbd3d55cc3bed8a02U,
  0xbd904214bd8a5da7U, 0x3d9bf4f53c989585U, 0x3b5df59fbd4a86c4U, 0xbd04a112bdcfde83U,
  0xbd9c1caabd57c24dU, 0xbda3ef01be07b14aU, 0xbe5aae22be76420cU, 0x3d838495be318280U,
  0xbc7a46cdbc9dfb0eU, 0x3caa7b3cbc24c140U, 0x3c5ac2fbbdfbd0bbU, 0x3d0e69e0bdb8ed16U,
  0x3d497f0c3c8d8c88U, 0x3d37ead6be3d0f5bU, 0x3d169089be0b0e41U, 0xbda6966fbd9aec31U,
  0xbf5a52fcbf690a7bU, 0x3da62f66bf054d0dU, 0xbf428f40bf2739c3U, 0xbe1ba2b7bf29a4b4U,
  0xbf618ab1bf28630aU, 0x3d9b3b88bf2721a7U, 0xbe074e03bc1fe7daU, 0xbceef9d53d6f9e75U,
  0x3dd67c6dbde37b1fU, 0x3b864a45bd03465eU, 0x3d9d6da7bd9909b1U, 0x3ce8de6dbe3467c3U,
  0xbca63b64bd6fb95dU, 0xbe0ee8a2bdca3a8aU, 0xbd1674b5bd0a3230U, 0xbcd5de9b3cf3a189U,
  0x3e168c83be1acd4eU, 0x3e29ab83be66d600U, 0xbe591ecabdd2a621U, 0xbdd09cf5be6caacbU,
  0xbe6eb514be4e9a55U, 0x3d3ad724bec27629U, 0xbc2d0ed4be0159a5U, 0x3d73341dbe80855bU,
  0xbd62a77cbe5af0c2U, 0x3d2a92e5bf7c8725U, 0xbe15aadabe33b087U, 0x3d933470bf88d90bU,
  0xbdf96fbbbe67d402U, 0xbd8ae513bf4d694cU, 0x3d56a655bde91ebcU, 0x3dd2d4ddbdb6a7b0U,
  0x3cacae75bcfa0ce5U, 0xbd8a04213da29453U, 0xbde263a4bc5e0a39U, 0xbd19907b3d9d2342U,
  0x3dd74ad5be218859U, 0xbc2750e93cc2cc0aU, 0xbdd98160be034337U, 0x3deb21523dca1ec8U,
  0xbe3f5f3dbde59108U, 0xbdd40a523d9ee687U, 0xbd811bbcbd454428U, 0xbd5dcf12bd5e5888U,
  0x3d0e6d073d3cfb16U, 0x3e0ea7253d5ea917U, 0x3ca96965bdade489U, 0xbda911d0bb95409cU,
  0xbca761debe12c613U, 0x3b096136bd57ca0bU, 0x3d93f6383dc7f1a3U, 0xbda7389cbdcb0ecaU,
  0xbd4cdd66bd8f9c4cU, 0x3da807acbdba6090U, 0x3d71057abcb1bd15U, 0x3e0d0d83bdc58a62U,
  0x3d040befbdfc7ba7U, 0xbe0e6c47bcdb9e3cU, 0xbe00f720be6e4510U, 0xb9885cecbe133377U,
  0xbee891b2bffe6835U, 0xbd1ab4e5409c013aU, 0xbf0b9956bf838043U, 0x3b645b51401ee5a0U,
  0xc0349324c07a4f9eU, 0x3dabc062c0c03901U, 0x3e30347fbf6bc13aU, 0x3e1e8b79bf5234feU,
  0x3eb93a6c3e5fde03U, 0x3e13fe17bf46d8caU, 0x3e49566e3ec8d7cbU, 0x3d8755babfb04216U,
  0x3da07972bc52320aU, 0x3d84ca1cbd63e810U, 0xbe4d20eebe4cde74U, 0xbd084b4c3b8c2fe3U,
  0xbe0dedb2bd181cd4U, 0xbce69babbcf81a2aU, 0xbdc785a1be08a4acU, 0x3d59aa483db30273U,
  0xbdc74742bd3a97f8U, 0xbcee8b57bd649c5eU, 0x3d617e5bbd6da594U, 0xbca84be8bd282b23U,
  0xbe330705bda6bd37U, 0x3d974556be2c5c1dU, 0xbec72651beb09202U, 0xbe2e1395be0e37b9U,
  0xbdf28eaabe8cf2d6U, 0x3dcfee96be0dbaeeU, 0x3d8d6161be261198U, 0xbbd636d3bde9a319U,
  0xbe2f754cbe11aaedU, 0x3e06b01f3deed3cbU, 0xbe231356be138097U, 0xbdfe948fb78aa000U,
  0xbd88682b3dd5ea29U, 0xbc1deb21be804ac2U, 0xbc9911b1be6ffea1U, 0x3e0c4c5fbde24205U,
  0xbda4d675bd4aa15eU, 0xbdfc9ec1be0b998bU, 0xbdb9049cbc542d0fU, 0x3cc17c4fbd89505aU,
  0xbe049ae73d910438U, 0xbc8a4c653d00c002U, 0xbe0ebcc4bd9951a2U, 0xbb2892813cfbe3b0U,
  0xbf99c2a13f482b6aU, 0x3c0618be3f8dd962U, 0xbe87d6d03e3b880fU, 0xbc6e12783f5e867cU,
  0xbee1e540bf8463feU, 0xbdc902443d8b6fcaU, 0x3c217afdbe9183fcU, 0xbbfe7325bd83db2cU,
  0xbe90526dbd1ba290U, 0x3c3a9d49bdda1cb4U, 0xbda613d939c5c7c4U, 0x3b4438f3bc658360U,
  0x3a9abced3ca93782U, 0xbdbbdcf9bdbd07f1U, 0xbdd205cebe0f6a87U, 0x3e0947ddbbb44696U,
  0x3d811408be7323e8U, 0xbd0ec268bda4486cU, 0xbdd08c33bd22993fU, 0x3cd1118cbe90c1c2U,
  0x3d1553f0bc937204U, 0xbdc1cb8abe77eb5cU, 0x3d18120fbbafe847U, 0x3d9de02ebe52bc71U,
  0xbdfd78adbdfcb769U, 0x3d8e8225bddd514fU, 0xbe29f20bbe6afa5fU, 0xbd938e63be3cdb49U,
  0x3d59d5c0baaea220U, 0x3b8115c8be653c21U, 0xbd0a0a58bc1aa4daU, 0xbe29f0f33ca54a56U,
  0xbe321b7cbde5a0faU, 0x3d809855be0bda7bU, 0xbe4d985c3d549cadU, 0x3dd3ce413d83a32dU,
  0x3d42f357bd89f58aU, 0xbdd3c806be6c55d8U, 0x3cf59480be455c44U, 0x3d17ec74be74adb7U,
  0xbe313b14bd8d7be1U, 0x3d8641a9be4f900dU, 0xbe5f96e6bd9ea8d8U, 0xbc9c6070bd946ccdU,
  0xbe0c56fabe7adc48U, 0x3dae0f07be410162U, 0xbdb2bea5bd56f0b2U, 0xbd7c6cc7be0ff3b0U,
  0x3e428204bf6eea62U, 0x3d30d1873fc0a935U, 0x3d68fc5fbf14a044U, 0xbdb21c1a3f9e20b7U,
  0x3e4957e23f392480U, 0x3e3e31063f95e81aU, 0xbe3137fc3d14cdfbU, 0xbc922a3bbdba64feU,
  0x3d46f06e3d81d792U, 0xbc303ff8bd733596U, 0xbdcafb1b3bfb8d1bU, 0x3cf070e0be529dcfU,
  0xbce78c72bd5fa490U, 0xbb9a2a3ebdb43361U, 0xbe47f0833cc80318U, 0xbd741e8fbd814948U,
  0xbe3686d63d6cc376U, 0x3d8888823d27d414U, 0xbe9ed7f2bcd62683U, 0xbcce8a28be341784U,
  0xbcd9a8f0bd24080bU, 0xba3ed38fbe574e4bU, 0xbc16b49cbe2adacbU, 0x3d09aa98bd8b0439U,
  0xbf156519bed9e7e3U, 0x3e27bc463eb98e7cU, 0xbed05735bec4149bU, 0x3e99e1da3f5c5fc9U,
  0xbef7d277bf05b4faU, 0x3e7e88ae3f4635feU, 0xbf9c2eee3f4004e6U, 0x3d0e2a0b40c98e27U,
  0xbfad1d10bff0e327U, 0x3b0afa6440904144U, 0xc05d75d4c08739d7U, 0x3ce2c326c09c8b3cU,
  0x3d8988cfbdc20c3aU, 0xbdd702e0be8d463aU, 0x3de8af6abd1ddc4cU, 0x3d25ee07be10542dU,
  0xbd3a7c45be5ea66eU, 0x3d92bc68be9e3e4fU, 0xbdaecb533cccb14aU, 0x3d0b3575be1d5bcfU,
  0xbc1d9c343cda7495U, 0xbde2f63bbcb47d7fU, 0x3d92bde4be05acf6U, 0x3d9f4dfd3c0984eaU,
  0xbecee067beaff0b3U, 0x3dd1c6f5beea817aU, 0xbec095c2bedfa994U, 0x3db63091bf015c14U,
  0xbeeb2aadbf0024bcU, 0xbe47818bbe942640U, 0x3b28850a3d1fe8caU, 0xbcf502c3bdd84970U,
  0xbccbd4ca3b6fc266U, 0x3d2e49db3d1fa64bU, 0xbe38bc173c8676b5U, 0xbbe482f3be0a9af7U,
  0xbe6769ffbe1620ebU, 0xbd39e0a8bf0dcba8U, 0xbe4dc6b1bea7d715U, 0x3c0dfdcabf343731U,
  0xbd9fd524be87464dU, 0x3d7bdd2fbf361469U, 0x3d143b40bd328766U, 0x3c2bf3633d861726U,
  0xbdf1e5cebc1d598eU, 0x3defc303bdbcd5baU, 0xbd9be04b3dcadb51U, 0xbe00ab223d3b2deeU,
  0x3d31e896be06894cU, 0xbd861191be1e0847U, 0xbd44e25cbe375291U, 0xbb91b182be1b53c4U,
  0xbe37f0303d0ec235U, 0x3d8f2d81bdaa7fceU, 0xbe480a6dbda5ce5aU, 0xbe14ff3abd6b7f9cU,
  0xbd3cb017bd9104c9U, 0x3da54f91be70bcb5U, 0xba64e3b1bc829f62U, 0x3d88532fbd8f9767U,
  0xbe4136f23dc04605U, 0xbbb19c553e129020U, 0x3d8bbd18be0b38e6U, 0xbd797fc2bb6e32bfU,
  0xbe3ed9593ceafd33U, 0x3d879f523a8ce395U, 0x3dca81fabde08d03U, 0x3c46ebeabe2c2cb7U,
  0x3d7acdbdbe1de5ceU, 0x3d5a0564be12bcdeU, 0x3da1e5b0be05f4a5U, 0xbd80df6e3ba8a805U,
  0xbe0803693d905106U, 0x3ce10b23bd8cdde3U, 0xba83a134bdd39499U, 0xbc83817b3c85de5bU,
  0x3d6e6653bd3d6467U, 0xbc4049cc3dfd7dacU, 0xbc706056be3f306aU, 0xbde789a3be24e1c4U,
  0x3d125a5d3d089a1bU, 0x3e0b2acebe7d156aU, 0xbd8011373d5182c4U, 0xbc5526bdbe701cccU,
  0xbea108e8be2f22f7U, 0xbe22d6dcbecdf3a7U, 0xbe837db3bcd18e0bU, 0xbe138487bd36de15U,
  0x3eb18641be080bbcU, 0xbe0030cbbe79b490U, 0xbc179b713d1d4433U, 0xbddac83dbec958e1U,
  0x3cd24083be1f9bf4U, 0x3d988cd6bf05964cU, 0xbbc74bb2be2e04f1U, 0x3d2e489fbeb42e39U,
  0xbd3e1ac5be94b6feU, 0xbe54957abe67ad37U, 0xbe027b60bd23be25U, 0xbd0c131c3f336bb3U,
  0xbdefec5fbd09eb3dU, 0xbd840997bdd2abfdU, 0xbd576268be6f15caU, 0xbe0ebd0bbd499899U,
  0xbdbc7360be06a857U, 0xbda3b70abd5e05cdU, 0xbd30e35ebdbb6d08U, 0xbde5ccf9bf766ea1U,
  0xbde429bbbcb8daa9U, 0xbddea16dbd9708b6U, 0xbeefd8b9402ae4e3U, 0xbd8fd51fbe16d4caU,
  0xbbcdfd18bda69628U, 0xbe097166bdf25d1eU, 0xbe031d403faebe66U, 0xbe302cb1be13b5c9U,
  0xbd01315dbd2f70a8U, 0xbdbea01cbdaa76e2U, 0xbd7336d74002fc42U, 0xbe291206bd184bc1U,
  0x3f78bb0abf87a9a7U, 0xbcba9f16be866d11U, 0xbdf2f558be365515U, 0xbd547194befc625dU,
  0xbd86e4c8bda5fa0aU, 0xbdb141f4bce502b0U, 0xbe587d60bde50135U, 0xbeba3d483da6a479U,
  0x3ce466e7bcd128a9U, 0xbd1e321a3d37da89U, 0xbd5ca5453baabef9U, 0x3cbc5889bd9d7625U,
  0x3c58f422bc009790U, 0xbc69d304bc1c9e70U, 0xbd44265dba587237U, 0x3d0f95c7bd2b4bdeU,
  0xbd18bd013d06b925U, 0xbca62f00bc4495bfU, 0x3d1195ce3c25384dU, 0x3ccb31e53c4bfb60U,
  0xbc3f66ed3d1dba4aU, 0x3d142f87bd4e56fdU, 0xbbe8dcb3bca21c19U, 0xbda5f4a9bcac407dU,
  0x3b75ea30bc0c03a5U, 0x3cc95aa1bc10c588U, 0x3d5408363caa17f5U, 0xbd19b8043cce0b3dU,
  0xbc80cc39bd49f1eaU, 0xbcd919b6bd176d56U, 0xbd82e495baa94033U, 0x3c93ae54bd71d633U,
  0xbcd460eab8dc06cbU, 0xbd5fed54bd72c78bU, 0xba0c13a6bd4982e8U, 0x3d42d9743c7f7ff8U,
  0xbd51a4873cd267e9U, 0x3c25abc93cd99067U, 0xbc22a8563c5f0285U, 0x3d232352bda5d016U,
  0x3c4b45193d53024bU, 0x3d08b8553d608fd5U, 0x3cb86e4dbcc8d9b9U, 0xbd5fdc6a3ccee57bU,
  0xbcaf0d0d3d4bd948U, 0x3ce459763d17f6b6U, 0x3c49abcebc8eb614U, 0xbcac35cbbd27a9f3U,
  0xbd14332abd098c86U, 0xbd1687d4bc7f5c57U, 0xbccb1ab9bd3fc134U, 0xbd358794bd8bc77bU,
  0x3cc3c717bbf2f058U, 0x3a7566563cace455U, 0xbcb53b3d3c5d5402U, 0xbc6a4d98bd552466U,
  0x3d65184b3d062e5bU, 0x3d3041773d3f2ef2U, 0xbbd1b5273ccbef0aU, 0x3c060fad3cba8935U,
  0xbd626dfcbcfb7907U, 0xbc2026f0bbd8a340U, 0xbd3b53563b940bfaU, 0xbce9bc033b842f0eU,
  0x3d1dc7193d3d14fdU, 0xbd80a3dc3d15575aU, 0xbd665c483d2c2b83U, 0xbd29ee163d6af6aeU,
  0xbb845d3abd600e62U, 0xbd0f7cb13cf02324U, 0xbb4fdb20bd09e3abU, 0x3d1d7c41bcf38c58U,
  0x3c4d5a71bcfe8539U, 0x3d05e096bbdb9aa5U, 0x3d35b799bd496221U, 0x3c71a3a9bd5faffcU,
  0xbd2f5ff73d6ad684U, 0x3cd913a8bd1ef154U, 0xbd21246fbcf58144U, 0xbd3a4b20bd5d6271U,
  0x3d3c03f9bd6d47b8U, 0x3c5148c8bcb60ccbU, 0x3d3ce0ef3ca997eeU, 0xbc59b5db3c022414U,
  0x3d4e2e49bc9d36a5U, 0x3c873af9bb173982U, 0xbd8026e83d64d709U, 0xbd4af5133d4186fdU,
  0x3cc7116ebd4765b9U, 0x3d37fb8fbcde00a1U, 0x3d3b2846bd4d5423U, 0x3ca2f0e8bc8f17cbU,
  0x3d72873f3d2ea3ffU, 0x3d4ffecd3d283afbU, 0xbc557717bda598bfU, 0x3c94881fbc54da34U,
  0x3d248555bbddd451U, 0xbc322643bc9d7facU, 0xbd6e1a203cea0a98U, 0x3d2f1e5bbb844b5cU,
  0x3cfb0d5bbd243e7dU, 0xbc1fcc143c26a2b5U, 0xbc2ec83b3cd0cb85U, 0x3d35662bbd952641U,
  0xbca8f882bcd6a366U, 0xbb91ca2fbca0290eU, 0xbd7cce303d31afd6U, 0xbcdd6161bccdbb25U,
  0xbcca900bbcdfa94bU, 0x3d800baabd04f483U, 0x3d20fd47bd34f654U, 0xbd405f80bd4e62dcU,
  0x3ca8579dba8e7483U, 0x3cf554a4bd259569U, 0x3d08fe7b3cf3f389U, 0x3d53df9fbb47d9c9U,
  0x3c0a9ddc3d674310U, 0xbcf5dae1bbfc6fe0U, 0x3ba9474d3a8df69fU, 0x3c4cd923bc626086U,
  0xbcdafd823d0ba31cU, 0x3cc10161bc9f675bU, 0xb93c88413cdf699bU, 0x3c39d491bd0f4394U,
  0xbb63a7f73d25b20fU, 0x3cb7d987bbac5ce6U, 0x3d0cf149bdc9323eU, 0x3cc941523d51161eU,
  0x3d3e857fbc7a510aU, 0xbcbbce49bd52c377U, 0xbba288c63cdeb26aU, 0x3cc7a5c7bcd37625U,
  0xbd715aa03cea6e60U, 0xbd0197fc3d0b2787U, 0xbcbf61adbd402dacU, 0xbd7a3b90bd203b0cU,
  0xbd1639f9bd176a3aU, 0xbcb0db213d2b7c5eU, 0xbc1f6c603ce7ff2aU, 0xbd11ef88bccb6055U,
  0xbd54b6a6bcfb26adU, 0xbd4740e03c857718U, 0xbcd763233cd343e3U, 0xbd2b0b00bc552f59U,
  0xbd0c840e3d0300b3U, 0x3c11c2e63b70ad1bU, 0x3d7a73583a5227afU, 0xbc00bc403cc997d0U,
  0xbd80a7e43d34b6c9U, 0xbcf8e4ae3d0b54f4U, 0xbda044653d9d0fe0U, 0x3cc3d50bbd7e550aU,
  0x3d761e33bbe9a6d2U, 0x3c1f4bb83b7c642eU, 0xb8dcbfc63cc87404U, 0x3c9219883d1a696fU,
  0x3d2fab153cd76223U, 0xbc3b10a1bd0c2029U, 0xbb75aadbbce6f6f0U, 0xbcfcff8dbceed0b4U,
  0x3b101b8bbd5de6f7U, 0x3c083c753d26c501U, 0x3d37bdef3ce636eaU, 0xbcb2f3b73c8e29c9U,
  0x3c989123bcd5c509U, 0x3d1874853c1e0420U, 0xbd3453debcd09758U, 0x3d4168dbbd5bb249U,
  0xbc8a8c6dbdadb210U, 0xbcc6aa37bbb4681bU, 0xbd5939f23cd54025U, 0xbd33c238bc5f484dU,
  0x3ce23ddabcbe9507U, 0x3d0df3c93ce649afU, 0x3d3a58d5bd73dfabU, 0xbd342fa83d4c2944U,
  0xbd5860b0bcf4d67eU, 0xbc9346e03c569202U, 0xbaed7ce9bc2f6b65U, 0x39430d173d1cbf20U,
  0x3d451a6c3cfe5fe0U, 0x3d3089c03d437339U, 0xbd2b8ce33d0081b7U, 0xbd8adbfbbd331025U,
  0xbd671b363c0e82fbU, 0xbc1711d83d2a89a3U, 0x3cad8c37bd09df4eU, 0xbd1676503c91c6c1U,
  0xbbceae1e3cfc19deU, 0x3c2350823d2afbbfU, 0xbd140985bd6eb4fdU, 0x3d2ff2a93ce9ebd0U,
  0x3d4ce110bcee7042U, 0xbd380083bd0e8dd9U, 0x3d486a073c22be12U, 0xbd253561bc25aa67U,
  0x3d35af183d4041a0U, 0x3cb798d9bba57fb8U, 0xbd2895593d11d60dU, 0xbd429ff5bc300069U,
  0xbb8682d7bd4e2f0dU, 0x3d3e3fe6bd886b7bU, 0x3d33b64fbc4bf67fU, 0x3c7fd36ebca1666aU,
  0x3d338efd3c8a46e9U, 0xbc0aa5b73bb1e002U, 0x3d2c2d8c3a87381eU, 0xbccd0211bd21f111U,
  0x3d1937813d4353deU, 0x3d163cbbbd171914U, 0xbc3758733d46b7fdU, 0xbc67931f3c55ab84U,
  0x3b71470f3d161827U, 0x3b80f0f3bcf83904U, 0x3d2fd99cbd646951U, 0xbd0e8d01bcd01d3dU,
  0x3c82bb8abd0e974fU, 0xbd744bc5bd32cb50U, 0x3d090c6abd3ca921U, 0x3d414c193c806e01U,
  0x3c8ee05bbc0454b2U, 0xbbe661503b6b653aU, 0xbd772cf13c1932e5U, 0x3c2463abbb9137b9U,
  0x3c8be970bd6997d1U, 0x3d27a6b2bd489e0cU, 0x3cffb649bb76806eU, 0x3cd6e7cf3d196aa3U,
  0x3c1733f53bb938edU, 0xbc2724623c57cd40U, 0x3cfca544bd43d4d9U, 0xbd34a3d1bcc62637U,
  0xbd667307bc7b3266U, 0x3c9c6f94bb6e38a3U, 0x3cb3e3153cd6b3a5U, 0xbd837391bd1a9dedU,
  0x3d1a7fa23d6d591eU, 0x3d6e33073d0d5315U, 0xbd72849b3cef45aaU, 0x3d33be1dbcb193ceU,
  0x3c20b5b83ce71e20U, 0xbbe123b53c6c1cc7U, 0xbd2774f43c2be30cU, 0xbd6da52cbdad80eaU,
  0xbc71bf89bd27b76cU, 0xbcf121bd3cd8956cU, 0x3d3f0b593c7b23bfU, 0xbd51411dbc9fa504U,
  0x3cce20eebcd27199U, 0x3cdb65c0bb01ff22U, 0x3ca21fbe3c7f4f23U, 0x3c02bd89bc78dc9fU,
  0x3d5e86563c3a73acU, 0xbd6e9d9a3d366c87U, 0x3d35215dbc6e2d97U, 0x3ca262213c179a92U,
  0xbceacad53b690664U, 0x3c2bb8fd3d4bc375U, 0x3cf930333c8e117eU, 0x3d28a6ba3cb53857U,
  0xbd21edaebc1b676bU, 0xbc5860b13d58ca03U, 0xbc1badffbc2408afU, 0x3d0ca34cbd713973U,
  0x3d343fabbca8d535U, 0xbd389e003c89d223U, 0xbd1d7bc9bd60ef0eU, 0x3ca07735bd711251U,
  0x3d2050f5bca15a73U, 0x3d2c003bbc0253c5U, 0xbb06b19fbcb79885U, 0x3d0cde9f3d5d660fU,
  0xbd598a96bd6396efU, 0x3d0c110c3c97d314U, 0xbcf6898fbbbfb9b8U, 0xbc78a018bd925374U,
  0x3991bd7cbcd98d43U, 0x3d0a1e73bd836f3fU, 0x3d0b7c31bbde0247U, 0xbd6a69d33b15f2b8U,
  0xbc90be2a3bac7906U, 0x3c9d9951bc0181efU, 0x3b205f9a3cad8361U, 0x3cd4d23a3cf2ac23U,
  0xbd2ec2f73c06a545U, 0x3cdac83abd216618U, 0xbd3096c1bdbbcff8U, 0xbc41657bbb0d9c13U,
  0x3c4c80ff3d2f2060U, 0x3d3fea2bbcbbaf6fU, 0xbd56e9733d69c989U, 0xbd092c193cc27aacU,
  0x3cc3f783bd570fc8U, 0x3cbd70353d2d6daeU, 0xbd405db8bd4a8f11U, 0x3b367809bd8b57b6U,
  0xbba457973c265f53U, 0xbca16cd7bcadf01dU, 0x3c1fefe8bd41426cU, 0xbd5f2b49bd9308c2U,
  0x3d255659bc971802U, 0x3c43196bbcc75b69U, 0x3d05b30c3bc4ff28U, 0x3bcf8bfd3cf62dceU,
  0x3c667c21bd6e4867U, 0x3d39773dbd58db44U, 0x3cbf9b49bd6c34faU, 0x3ccc9079b99437cdU,
  0xbcdcf34c3c4f688cU, 0x3cb30aec3d25c787U, 0xbca1ef03bd3aa8c9U, 0xbb75da74bd2e241cU,
  0xbd560f7e3c94ea02U, 0xbd7753bebd80b0eaU, 0x3c9b47e4bbe339ebU, 0xbd17f837bd5af3c7U,
  0x3ba0131c3bf4b858U, 0xbce49f9dbbc84ccdU, 0x3cf2021fbca3881dU, 0xbd12f972bce53923U,
  0x3d82ba823addd785U, 0xbd4bde19bd14f22aU, 0xbc7fb23b3b5b0330U, 0xbd0380adbd47ecbeU,
  0xbd4069093c94fceeU, 0x3cdcdd6b3be528d7U, 0xbd1f1437bd67bb42U, 0x3d55942d3bc05d29U,
  0x3d0d0d2fbcb9c868U, 0xbc832b0a3cb047b2U, 0x3b3175f93c40f4d1U, 0xbcefa071bc4016e9U,
  0xbc6fc3563d63094bU, 0x3d61b3573c14c4d5U, 0xbc86457a3caa02c6U, 0xbc977c75bd80cbccU,
  0xbd19e6903c7139ebU, 0xbcfec628bda255c3U, 0xbd48ed2d3c3bb65dU, 0x3c5b396abdbb8a1fU,
  0x3d3f8fb83d48e16fU, 0xbce98a8bbcb342d0U, 0x3caaa04a3d4b6730U, 0xbc02b308bb67af3bU,
  0xbc00d3383c69693bU, 0xbcd0010b3c82da9aU, 0xbd4768c8bd815c29U, 0x3cfc2e363bc7b2d9U,
  0xbd45f2613d0ae66fU, 0x3cd97148b9a16259U, 0xbc969be5bdbbd8dfU, 0xbcee36ef3d200ce1U,
  0xbdc99f2ebdbb9df3U, 0x3c921d8dbc6aa8a8U, 0xb8cfa931bc2bf482U, 0xbc8575e8bbeb83d2U,
  0x3d2db394bd6c47dbU, 0xbd0b62d93d0eb933U, 0xbcaaeac8bd175bacU, 0xbd34eab6bcf5545dU,
  0x3cd149b5bd3d2e4bU, 0xbd5eac2e3cca8f40U, 0x3d042c69bd51ab34U, 0x3c4d6e31bce16a53U,
  0xbd2725463d196b54U, 0xbd31076a3c57c09eU, 0xbcb43707bd24089aU, 0xbd2d786ebd8837f6U,
  0xbcca433bbd2e82b8U, 0xbd62decc3c8e8192U, 0x3d2b0682bc99092eU, 0x3bb806d7bd62e156U,
  0xbd71a137bbd5c866U, 0x3d31daf13ce860dfU, 0x3cd116bd3d63417dU, 0xbd338272bd3b2633U,
  0xb89c6400bbaca929U, 0x3a379258bbf42515U, 0x3d45cb6dbd4330a1U, 0xbca8742fbb16378aU,
  0x3d2bdf123d35d219U, 0x3c6bb7d8bd59ab3eU, 0xbd41da7bbda4dd7cU, 0xbd55b07b3c9ed5dcU,
  0xbc13e679bca56ecaU, 0xbc4c9d983b8c1231U, 0x3d255aebbcfb0674U, 0x3c3550c0bb8fea85U,
  0xbd2405ee3d06eb40U, 0xbd25e1603cc29c45U, 0xbd0e2ea5bcb52a25U, 0xbd158805bc855b17U,
  0xbb950cae3d886de5U, 0xbb18e1debcc78403U, 0xbcdd901bbb903e8fU, 0xbd27f24ebc29df02U,
  0xbd43544cbc9288a5U, 0xbadd04ff3a2058edU, 0xbd5109d43d0e7379U, 0x3c01d3f6bd18097eU,
  0x3d15b5453db61f10U, 0x3caea46e3ce19f59U, 0x3cbc79ee3d2db5dbU, 0xbcdb843bbd0ab872U,
  0xbc2ea745baa67b7dU, 0x3d2427f5bd7d00efU, 0x3c80f5b63b2c9555U, 0xba8068fbbd811841U,
  0xbd2b84ae3b236bb7U, 0x3c752142bcbed2bfU, 0xbd28562bbc812ac7U, 0xbd77ecd8bd42998cU,
  0x3c26ba03b9da9813U, 0x3d0502f8bb6ab88bU, 0x3ad6176bbc649e9eU, 0xbd2e25083d24e5a3U,
  0x3cd5a53a3c37ec9bU, 0xbd05e5d2bd7687abU, 0xbd37c1d8bc3d3e3dU, 0x3c8d5b073d1b2ad3U,
  0xbd0078dabd41effdU, 0x3ce32610bc74e444U, 0xbccbd592bd0c8990U, 0xbd4f3225bda3bcb0U,
  0xbd156e06bb89ecf0U, 0xbd384a0f3c267965U, 0x3d2a2ac2bc812a3bU, 0xbca7746cbd51c837U,
  0xbd2c7552bd0eb7a3U, 0xbcd784e8bbc1f23aU, 0xbca097fabd116f79U, 0xbd54775d3d600a15U,
  0x3cd645693d95783dU, 0xbc8d12a13d621b49U, 0x3ca9b6533cc13cbcU, 0xbd8147423c825d07U,
  0xbcae5c6cbc431f2eU, 0x3d35aeb3bd6c7fa1U, 0xbc22548e3d8e8d11U, 0xbd3798fb3b504cb8U,
  0xbd340b7dbc76d24dU, 0xbd337ca4bd7948e0U, 0xbcd76b123ce202e0U, 0xbbf0d8d33d3d92b9U,
  0x3d7620d9bd143b84U, 0x3be98a383c830d49U, 0x3ca3a0f1bd88026eU, 0xbccaa76fbd5da9cbU,
  0x3d129cbd3d9980fbU, 0xbc84cc963d39d93eU, 0xbca5abe6b9ae8641U, 0xbc9b13b5bc0856e5U,
  0x3cdcff423c213216U, 0xbc52c0a8bae7d974U, 0xbcdb650d3d1f9ff9U, 0x3cc99accbc076a9eU,
  0xbd0e26e9bd50133aU, 0x3d00f98dbbed242fU, 0x3cbe96bdbd46943aU, 0xbd4508a4bd76713cU,
  0x3d39731bbcea96c6U, 0xbbdd98323c4dbb82U, 0x3cf1872c3d2f3613U, 0x3b95d8dabd49b676U,
  0x3c57aef93989574cU, 0x3d2710a73ab2ba49U, 0x3d496f973b089395U, 0x3c5799c1bbf22134U,
  0xbcc122743bd128f2U, 0x3d30e469bc24d44aU, 0xbd8d80d93cc54519U, 0xbd7207edbc3bd324U,
  0x3d5419c53d433465U, 0x3c0cada83cd33305U, 0xbce08e0cbbcaf251U, 0xbd4617383cbeaee5U,
  0x3c4e79c73d5241e9U, 0x3d7550f3bce94c85U, 0xbc968d3fbdcb62cfU, 0xbd4ed17fbd74759fU,
  0x3a5f6fd4bcaacfb7U, 0x3ca7bca3bd48bf46U, 0x3d445f8fbcfa23e1U, 0xbd66bcd9bb221bffU,
  0x3cb3e8583d47a0dcU, 0xbd185fd83d691792U, 0xbc75a3ea3bdb4bb7U, 0x3c0e2beebcc462eaU,
  0x3bc2bf5abda2147fU, 0xbc8369d3b8cbe95fU, 0x3d3a345a3c21c792U, 0xbcfe79d9bd042c9bU,
  0x3c7cdda73c12768fU, 0x3d4cd3fdbd434bbbU, 0xbd2c1978bd17aca5U, 0xbd0f4502bd82f0d2U,
  0x3c8cb291ba97b6d7U, 0xbc729a0fbca49118U, 0xbd22c5e43cdbe759U, 0xbd70e46c3d44159bU,
  0x3c3dd66f3c1b3874U, 0xbd2cf0ccbbbe1c63U, 0xbda6316dbd4595d6U, 0xbd7f88fa3d258cc5U,
  0x3d22beb1bd274500U, 0x3cb8a9d1bb8c29fdU, 0xbbb2b0a6bb971373U, 0x3ca928dcbc95a71dU,
  0xbd34d0743d6b3d05U, 0xbd5b61443c2a3458U, 0xbd839eae3c69b1e1U, 0x3ccb63b63bea77eeU,
  0x3d1a2c013a60151aU, 0x3d4192023cee5eb6U, 0x3d2c0d17bc2528e8U, 0xbb1e28d23d4c0aa6U,
  0xbca495e1bbe56ee5U, 0x3d0c51a73baf6f7cU, 0xbc936202b9e2b8baU, 0xbd4a1ca3bcd677f9U,
  0x3ceae778bc88c954U, 0x3c1a14a4bd0a08d2U, 0x3d408c433c8e5611U, 0xbd4a9ed6bc55420dU,
  0x3d086f733d033767U, 0xbc3067c0bc44fff0U, 0x3d541bcebd50786bU, 0xbd41605c3c96596aU,
  0xbc3ec7c03bf9a1ddU, 0x3abe0db3bc79e05fU, 0x3c2c0f91bb905ee1U, 0xbb027f873bed0a19U,
  0xbb9b80a0bc91e1cbU, 0x3c82f9fb3b8e1727U, 0xbd8cf7a0bd16df04U, 0xbd32a1983d3aec79U,
  0x3d395c953cf813d3U, 0x3ccfc7e5bca90013U, 0x3af9263e3ac93a7eU, 0x3d0ff11c3d25b484U,
  0xbd4bdcdcbd52a8cdU, 0xbd5bc94e3c97a599U, 0x3aa63f30bd60f10fU, 0xbc9bd99dbbce2bfdU,
  0x3c497d963dbad903U, 0xbc52a7b93d4e412fU, 0x3d118d17bd6ee83bU, 0x3cd19da63d1d31d2U,
  0x3ca773efbc97cae3U, 0x3d55df61bd14f25eU, 0xbcac09903c8da6d9U, 0x3d1c51c7bda86c8dU,
  0x3c5ccdaa3bb036c8U, 0x3bb090bd3d0e0cb2U, 0x3d00e1e53ca496f2U, 0xbd16632fbc8c63a8U,
  0xbb98d05dbd1a51f1U, 0x3a859c803bc1e413U, 0xbd2fb8edbd102581U, 0xb8a185a93cb3c3d6U,
  0xbd3d8afebd304fb0U, 0x3d5d742a3c8b0c4eU, 0xbca7be7dbd394644U, 0x3c62ae61bb4194d9U,
  0xbcf707c8bcfd8097U, 0xbd488c36bc8fdafeU, 0xbc62b0763b42a007U, 0x3bd29125bc9a5d43U,
  0xbb8e0f183ccddf85U, 0x3d4982653c7b8c1cU, 0x3dace82c3ca69071U, 0xbd2d53fcbcc4bd1bU,
  0x3d58ab4c3b75b699U, 0xbd6df0b3bd3fc260U, 0x3d4957a9bd48fce4U, 0xbd56a8f9bcbb1754U,
  0x3d45bcc13d573d35U, 0x3bdedb9cbcd32af2U, 0xbc4a31183d1f1cd0U, 0x3ce27d6a3c7c468fU,
  0x3cf4998d3d0be923U, 0x3c8dafddbcdcb30bU, 0xbc20b212bcbf80ddU, 0xbd5478c3bd147c85U,
  0x3d14f209bd6d2bf5U, 0xbc82547bbc2c8394U, 0x3b49b7193d4a3dddU, 0x3ca2c1b9bdb15e3fU,
  0xbd69ee3bbc640468U, 0x3d38efbc3d4ec5b1U, 0xbd3849533c93ffafU, 0xbcebe341bc80f13cU,
  0x3d2fe7f5bba83113U, 0xbc9929e83b4ea0f5U, 0x3c89f9c53adfc84eU, 0xbcc637693bd4757aU,
  0x3c0f6d1cbc1843d2U, 0x3cc1f1e23b835ff7U, 0xbd18661c3bee737eU, 0xbd8a38eb3c3b69d9U,
  0xbc2790c0bd45657bU, 0xbce517afbd572199U, 0x3cdf8996bc8bb215U, 0x3ccba87b3c29bb00U,
  0x3b3197ee3cbd6ab6U, 0xbccc41e63d1a1b17U, 0xbd1409e0bd94d9adU, 0xbc6ea4ad3d0f43f1U,
  0xbcafe9ecbd1492a6U, 0x3d02e20bbc33f171U, 0x3ce3e75a3d603e47U, 0xbcd5ba173cf03eedU,
  0xbc25a9b6bc87b8d3U, 0xbd2a146a3cd28ff2U, 0xbbd41b64bd464592U, 0x3d3e5259bd9fe3e5U,
  0xbd535c58bd63bfabU, 0x3b47db8abc86f9d1U, 0xbc9c91f4bd754a05U, 0x3bdb699bbd92980aU,
  0xbcf4b67dbceb1687U, 0xbcb2cb1ebbcb42ebU, 0xbce3ab00bd275b29U, 0x3cf382cebcd7b54cU,
  0x3cfeae97bcb42b4aU, 0x3bf3583ebd5558dcU, 0xbd2d9f4a3d437b8bU, 0xbd5df1e8bc625ea7U,
  0xbba1bf613d7191a7U, 0x3d315965bd2a0392U, 0xbdfddc743bd2f72aU, 0xbcaa5c6abc855c9aU,
  0x3cacdde63ce109b7U, 0xbd399dfe3cd12049U, 0x3d32d3d9bd4869fdU, 0xbce99f8b3bb60508U,
  0xbd3af4b1bd4efc8dU, 0xbd5738103d580f30U, 0x3a8f6aae3b5c1463U, 0x3d536716bb553eb3U,
  0x3c264fbcbc4ec87bU, 0x3cdac8e8bb71a474U, 0x3d3878d5bc8b580bU, 0xbc867291bc912a70U,
  0x3c6131903cab1955U, 0xbc47af853d6eadb3U, 0xbd408c17bd7f27efU, 0xbd6fb733bcd28a41U,
  0x3ac03f70bd99285cU, 0xbcac68e03d178e95U, 0xbd5a51dabcf3f3e7U, 0x3d4e7f1cbdd0fa84U,
  0xbd1f76fc3ce3cd8dU, 0x3c18104bbc08dfaeU, 0xbcffbbd13caf5417U, 0x3afe69263cbd7322U,
  0x3cbe9d19bc0af7d0U, 0xbd721713bd1d6080U, 0x3c8f132dbd35be7aU, 0xbd3326af3c451321U,
  0xbcb641043c253928U, 0x3cad920dbd0ac42aU, 0xbdb3aae03cac856cU, 0xbd98a6d7bc88fcf9U,
  0xbcfe55fb3cf8195cU, 0x3d0f33e73a54d0deU, 0xbd94887cbcc9e0d0U, 0x3d4fa4b3bd4a2c91U,
  0x3d4657b7bd21ba39U, 0x3d3d8e68bb032d87U, 0x3c4873d9bd402248U, 0xbc829789bb5f5997U,
  0x3cd854eebcd679baU, 0xbd704700bc7663acU, 0x3d18d54b3c8f935eU, 0x3cd199efbd471c6aU,
  0xbc946e85bd69922cU, 0xbd54ff5abc757558U, 0xbcdbafb9bbd3d625U, 0xbd1429723c4719eeU,
  0xbc32c297bc8d60c5U, 0xbd4befe0bd2cf905U, 0xba3e50b03d4a2aa8U, 0xbbb9c01dbdac8de8U,
  0x3d32a0e73bda13aaU, 0x3d2f97413d079d05U, 0x3d11e2c2bd59a3f9U, 0x3cad1959bcb81a7dU,
  0x3c9d0c05bd85c582U, 0xbbfa45b83be9c843U, 0xbc2d953bbce7ff8fU, 0xbc9b15b33bdbb9e8U,
  0xbc9d3dd4bcd72e1cU, 0xbc2143d63cefd7daU, 0xbdd24491bdb55623U, 0xbc06e91cbd16cd29U,
  0x3d42df9fbcb1b893U, 0x3cdbea883d23b4b7U, 0xbbf44bfbbd051970U, 0x3c10a455bc138b94U,
  0xbcb032523d572149U, 0xbd121e3fbccfa781U, 0x3caacba5bd9cc1a2U, 0xbbcbe687bd149ee2U,
  0xbdaae371bc1e802bU, 0xbc6d4c2f3cf04a3fU, 0xbd4afd1e3d66ed94U, 0xbd451b423d1169ddU,
  0xbca58fc6bd27e8faU, 0x3cef90733c9ae206U, 0x3d0797a4bd05e771U, 0x3c0597fdbd17f265U,
  0xbca6658abb3f3c9eU, 0x3cb40c04bd804a4bU, 0x3c3a96113d26b0acU, 0x3c14ed12bc811ab0U,
  0xbbd2eed5bc955434U, 0xbcd497ac3d498854U, 0x3befbf3e3b1990ffU, 0xbcb6622f3ce8c422U,
  0xbd2a3ac6bd77c8baU, 0xbcd52fb3bd39ae1eU, 0x3c3e0d9abba751c1U, 0x3c849aa9bd4ba88dU,
  0xbc6d31073c9659ffU, 0xbd39a7febcd227beU, 0xbd5f6ed6bc4c90f2U, 0xbcf0da65bb36568aU,
  0x3ce256ce3d0f356fU, 0xbc6d51243d5548bdU, 0x3cd2c29d3bdb8ac1U, 0xbcb804343d467ffdU,
  0x3b35878abcf47515U, 0xbd2a4c70bd138e6dU, 0x3d441f61bc7115a5U, 0xbd630849bd573246U,
  0x3d6c82db3c0c35a6U, 0x3c9a065dbc29d05dU, 0xbc9667cd3ccf82f4U, 0xbd36daaebd45e693U,
  0x3d1bed09bd4a7434U, 0xbb2fceecbc96835eU, 0xbcb4bba0bd72f13eU, 0xbd7319d9bd6f029cU,
  0xbd0c6eae3cc18475U, 0xbd4a02bdbd43b43cU, 0x3ce25074bcc35a48U, 0x3c164ff1bcf83a7dU,
  0x3cbdb601bbebe553U, 0xbd3c73253cbe6bc0U, 0xbd4183243cc401fdU, 0x3b8880dbbd5a9d03U,
  0xbbe2ee05bbedf83dU, 0xbbb44d2cbd475a57U, 0x3c851e61bcca6484U, 0x3c8303ed3d0d1f52U,
  0x3d18bc033c9112a1U, 0x3c8baca53c28cc04U, 0xbd090955bd579dacU, 0xbdcc56393d203e7dU,
  0xbd210f93bd670653U, 0xbd516292bd171b88U, 0xbb9445183baf8631U, 0xbd17076b3ce99610U,
  0xbcb08424bc23914aU, 0x3ccda2b6bd3fda20U, 0x3d00d2c83c318710U, 0x3c9a7c3c3d2b41a0U,
  0xbd4b582a3d19bb29U, 0xbcb8c7cc3d4c7b03U, 0xbd842e19bcdf4405U, 0xbd79aab8bbba8b1bU,
  0xbc04dea2bd5319a8U, 0xbd640ee53d329d50U, 0xbd83a995bc7ad9c7U, 0xbca0bfecbc91e111U,
  0x3d1fa3d33cf13e23U, 0x3d139c53bd745eb7U, 0xbcf6732b3d39f749U, 0xbace4c0abda2e9dfU,
  0xbcfb3c073d24b530U, 0xbcab39b63c8b8e84U, 0xbc30a14bbd50a712U, 0xbcf0bde73cd05f92U,
  0xbcebd9f1bcfae453U, 0xbd07e158bc47354aU, 0x3ca01079bd672ed1U, 0x3c9e7dfd3d43f042U,
  0xbd5c569bbc0ec0c3U, 0xbd5b5bb73cb98a42U, 0x3c8cd3cfbcc4fa4cU, 0x3c049dfb3cbe93adU,
  0xbd523883bca098e5U, 0xbce26faf3d36380dU, 0xbc40a8f7bd072f56U, 0xbce454e2bd67430cU,
  0xbc38195a3cba062eU, 0xbd36cab5bb2ccb7aU, 0x3ceb4604bd44031fU, 0x3c56086abc52b16dU,
  0x3cd8672e3b648adcU, 0xbcb040073d5048beU, 0xbd5921453d5cc180U, 0xbcc78f373c81d0a3U,
  0xbcedfe8dbbe187fbU, 0x3d32207d3d59b20bU, 0x3d377723bc90542aU, 0x3c269c803c738dd9U,
  0xbb82467fbd3a0d39U, 0x3d1256c0bcf2e452U, 0x3ca5f31dbce06f92U, 0xbc8c9fa5bd597d06U,
  0xbceb9c29bbeedf5eU, 0xbca08a4c3c6d29b3U, 0x3c9178893ba48c92U, 0x3c57a23f3d32c69fU,
  0x3ce529bf3c417664U, 0xbd4553433d9510e1U, 0xbc88db8fbd2016b6U, 0xbcdc95f13c958fc7U,
  0xbd7597ffbd55f187U, 0xbcb9ae8f3c3daa0aU, 0xbd745dad3c91a873U, 0xbce9f6d8ba658332U,
  0xbc6890ecbc28a689U, 0x3d102729bcc29343U, 0xbd368a0b3d3d4376U, 0xbd3d79fbbcc2ec63U,
  0x3d14d965bd379b63U, 0xbbd29ca8bd67650cU, 0x3ca62a2dbdbe133cU, 0x3c7068bd3d6cdabeU,
  0x3c8d09363c428f42U, 0x3c029bda3d3aeab2U, 0xbd6b03633d16acb5U, 0x3c7ccb95bd819290U,
  0x3c66a92fbcba4963U, 0x3c17d0e03c782cdbU, 0xba9e09853d50b483U, 0xbd429f2c3c418f90U,
  0x3d35fef5bd9982b9U, 0x3c0df510bd844d48U, 0xbcbd2c713d4a1e92U, 0xbb43a7753c62a3aaU,
  0xbd7074833cdfbd1bU, 0x3c966c2e3d26da3fU, 0xbd4e5b0ebbbe75d1U, 0xbd414881bd5612b0U,
  0x3d4a520cbd9f511aU, 0x3c9eb0efbdc2924cU, 0x3be33618bc844fc1U, 0xbd58c5cb3b6bdea9U,
  0xbd64a9543ccd0c51U, 0xbd1934f0bc03f83dU, 0xbcd8de6bbd5111acU, 0x3d258d853c7fca90U,
  0x3d35bfe1bcbfe5cfU, 0x3cddc393bcfec6faU, 0xbd068a313cbf31abU, 0xbbd9b4363d3aa36bU,
  0x3d3f97ef3c670b6bU, 0x3d2951e13d539405U, 0xbd7d6492bd23f296U, 0xbbcfcc79bd4f37a3U,
  0x3d14b455bc7eb4d0U, 0xbd180bdb3c59e563U, 0xbc3a65bb3d5f0b9bU, 0xbba84b9dbb98fbacU,
  0xbd7089263cadb826U, 0xbd781fa43d256493U, 0x3c116b32bc8c64a7U, 0xbc8314a63c929aaeU,
  0x3d11efbdbcdbd828U, 0xbd12c61f3d670888U, 0xbcc569853d36dfb8U, 0xbd85dceebd17ff34U,
  0xbd71ce4b3d84db4eU, 0x3d16214d3d680e35U, 0x3c8579a63d4a7690U, 0xbcf26822bd00cd1cU,
  0x3d167a9bbd0dcac3U, 0x3cb248d63c86b6f8U, 0xbcaf592fbce27a87U, 0xbd1c6238bb496a84U,
  0xbc3ecb353c188788U, 0x3b7f80a23c2111dcU, 0xbd3907fcbc45c5baU, 0xbc293e32bd171e3fU,
  0x3c93f29ebcdd1badU, 0xbaeca4b43d24bebfU, 0x3aa99148bc8182dbU, 0xbd71d482bd293e36U,
  0x3d383a5dbc1dcb74U, 0x3c304c84bd440a62U, 0x3cb81710bbd6edbfU, 0xbc9ec574bb319088U,
  0xb9eb8d0dbd37c4f3U, 0xbcb84d47bcf5188cU, 0x3b5a9b90bd09b419U, 0x3cfba827bce7a792U,
  0xbd093fc1bc50402aU, 0xbcf91bf23d7c88b3U, 0x3c93582fbc31a674U, 0xbd047e8bbd0ea22eU,
  0x3c0cde02bd2198c2U, 0xbd10d82fbd5fe7c5U, 0x3bdfb7873c7e9495U, 0x3c587b3abda57e46U,
  0x3d1f570d3ca2f6d6U, 0x3b8ca41c3bc0b444U, 0xbd15bf113c524ddaU, 0xbd4c9e1cbcc998caU,
  0xbd03670abd517e8bU, 0xbd5384b9ba89f2dfU, 0x3d1a999dbce3bf8cU, 0xbb5b5f67bd8a9030U,
  0xbc4977f03cc35a53U, 0x3cf859813cbd1773U, 0xbcfaa3e8bd47bfe3U, 0xbcf992adbb9ed71eU,
  0xbd0f22be3d7dcd6cU, 0xbd28cef63d13c0e6U, 0xbdc212ad3b343641U, 0x3cd0906abcb8388eU,
  0xbc0c2f6c3d08a8a9U, 0x3c9b6f06bd13cdeeU, 0xbcb4106a3c4b850fU, 0xbd1324923d3bc27dU,
  0x3c57e1843cf7e8bbU, 0x3d5388d5bc5c8142U, 0x3ca4a0d5bca8b8b5U, 0xbd042899bda1837fU,
  0xbbd26891bd8d4a71U, 0x3c78e76f3d477618U, 0x3d26b9813d395408U, 0xbc44fd033d816f31U,
  0xbd79b60ebc71a682U, 0x3b8d34ae3cf3f41bU, 0xbd2bf881bd372761U, 0xbd7d6365bced3260U,
  0xbd183eb8bcb12786U, 0x3cec6c0e3d3b50a2U, 0xbcc2c27b3d4b854dU, 0x3ce8d1af3cc3d554U,
  0x3d101360bc120bc1U, 0xbd50e4efbcfe07b2U, 0xbd41a655bd50de8eU, 0xbc905992bceeb322U,
  0x3cf819a6bc894121U, 0x3d351ff33d17e8f5U, 0xbce5f7b7bd01ab4eU, 0xbcdbb7be3bc76e55U,
  0x3c895157bc004bdbU, 0xbb5807b33c87d187U, 0xbdae07273d78b105U, 0x3bd5cfb43d16a7aeU,
  0xbc409cb9bd382cedU, 0xbcabc80dbc60d0e3U, 0xbc80f2b5bd6bb19eU, 0xbc7e3333bc29deaaU,
  0x3bcaae9b3cf65482U, 0xbd868bed3d355bfaU, 0xbd3c07ccbb607f4bU, 0xbd7ddf663c78f7c7U,
  0x3c90ae3bbcc6197aU, 0x3cb11abb3d651223U, 0x3cac96383d45b01aU, 0xbd7cd795bd5a8b51U,
  0xbd14c8cabdab2386U, 0xbbf69fbfbc8923b7U, 0x3b8559023ca92dacU, 0x3ce75d243b985f78U,
  0xbc8364553cd635c5U, 0x3d3cd268bc8c5e38U, 0xbd1cf1d23c5f0eb2U, 0x3cb0370dbd39b474U,
  0x3c8a968ebd7176d1U, 0xbbe54e48bd0c5de3U, 0xbc885680bd6f7aaaU, 0xbd6575b0bc4544c5U,
  0x3cfaa7083d864c95U, 0xbd4b8d5bbb1079e6U, 0xbc6c544a3d807f9aU, 0xbb4f27d2bcd78a8dU,
  0xbd08dad83c2753ffU, 0xbcaaf3f93d53093fU, 0xbdac8a493d3ea8beU, 0xbcd0a20f3cb4e138U,
  0x3cf1eb82bc55a947U, 0xb9cbb03ebb812002U, 0x3cce9956bb333b9cU, 0x3d2cf2bdbc6e726aU,
  0xbd9678963bcfc4a1U, 0xbc66d592bc9efe92U, 0x3bc29ba2bd1019fcU, 0x3d0fcf27bda016a2U,
  0xbd2e70c83ca4ea4eU, 0xbb7979db3a035231U, 0x3c36f5b4bc6085c7U, 0xbd565f21bc833d38U,
  0x3c7bf339bc95e624U, 0xbd68341a3d45fe07U, 0x3c465b8abc91144aU, 0xbccbdcd2bc76fab2U,
  0xbca8437e3ce0052cU, 0xbcdaab323d679411U, 0xbd1439babc72c754U, 0x3d099738bcfb7470U,
  0xbba7ba02bd65a059U, 0xbd0b02623b296786U, 0x3ce2d27b3d3b9466U, 0xbce73ed3bd38b668U,
  0xbd1dd49a3d8011bbU, 0xbb96ea64bced2519U, 0xbd5ecd36bcbcecdcU, 0x3bb32ae13b2ab70aU,
  0x3c994c323d86b1deU, 0x3d0c1358bd4ef95bU, 0xbda7ce07bc970810U, 0x3d30c973bcaca64aU,
  0xbd182c833d4d2255U, 0x3d54e5ffbd8691ebU, 0x3c5ff2293cb496feU, 0xbceebb083d0b67faU,
  0xbcd8899d3c990950U, 0xbcb21aafbd19c64dU, 0x3b8ad8acbd412d1aU, 0xbd29e3dfbd3851beU,
  0xbce66334bd3ab5a0U, 0xbd4559ffbc9ea122U, 0xbd70ddd2bc571829U, 0xbd58f9e63cafbebaU,
  0x3c9b9e36bcaa4cf7U, 0xbd6aeb17bd732ec8U, 0xbcd11c68bd832a2fU, 0x3cbe4fc53bcdab65U,
  0x3d3ac785bb83cbddU, 0x3c8965c2bce9f664U, 0xbad512553cdb40e9U, 0x3c35915cbc88384cU,
  0x3d481cf63c878f40U, 0xbcc896f8bd0c612fU, 0x3d287a75bd1e5de3U, 0x3d4dec74bbcfa70bU,
  0x3cca54dd3d15eec5U, 0xbbce254a3d274a16U, 0x3d87825cbc3730aaU, 0x3c20c5793d2a3e9cU,
  0x3d5c7957bd323b46U, 0x3d50e1a73d056dd9U, 0x3c97d48d3c0dfc54U, 0x3c0d092e3cacae25U,
  0xbc8d7023bc95531bU, 0x3d03a551bac75743U, 0x3cdd3d8cbd1e807eU, 0xbd75bc32bb665390U,
  0xbd8642ce3d1362fbU, 0xbd8079f0bd03560aU, 0xbd370eeb3d3fe1d4U, 0xbcf67d04bd6ec178U,
  0xbc5cbdfabd80e9e9U, 0xbc9f86c4bc9fae90U, 0xbc41693b3cc380d8U, 0xbc89607fbdb82062U,
  0x3d06f6403cbb7498U, 0x3cf6786c3d754757U, 0xbd779a34bcaa4d9bU, 0xbc42ee07bb935df8U,
  0x3a26983abc99c954U, 0x3c9f3d06bcba0ce2U, 0xbc993b73bd382845U, 0xbd165df3bd533564U,
  0xbd6cf2c8bdb08387U, 0xbd82f5593bb15683U, 0xbc2e31c9bbc9836cU, 0x3d13e325bd2a8203U,
  0x3d10ae7d3d066cccU, 0x3d237865bce9fc6bU, 0xbc10cbe03c32eb3cU, 0xbd4d2c583b71c89cU,
  0xbd2e24babc9e8515U, 0x3d4646623d13be8fU, 0xbd8fe64bbd50ed84U, 0x3d191d11bd3a2f59U,
  0x3cb6edeb3c81107dU, 0xbd442197bcd6df77U, 0xbd7667d5bd1d697dU, 0x3b66ff5c3c636dfcU,
  0xbd0bdd7abc69333cU, 0xbd0d45c53b333671U, 0xbcc9fe933ce1379dU, 0x3d227f02bb2ba997U,
  0xbce00c4abd249644U, 0xbd5b0f73bcff9111U, 0xbd74f1903c5a721cU, 0x3d4166d4bd9e3b71U,
  0xbc885cb13cb98a98U, 0xbcba5c61bd83b041U, 0xbcd61cccbccca6f9U, 0x3ce2bf75bd18aa87U,
  0xbd4a9b0e3ca062edU, 0xbafb99603d3d2fa1U, 0xbc06a831bc65db60U, 0x3d050cfcbd4258e6U,
  0x3d13fe8c3caf9393U, 0xbca67274bb5af0cfU, 0xbd358b32bcfa85cfU, 0x3d2c9443bd630730U,
  0xbd314e58bd5347f9U, 0xbd2f89023c655b92U, 0xbdd740ac3c99945eU, 0xbd12dfdcbc94c92aU,
  0xbc9b34d43d7f677aU, 0xbd31e39dbd3b3468U, 0xbd85e79a3d912830U, 0xbd4cd15dbc6a4542U,
  0xbd1fc00dbce3e5feU, 0xbca17cca3c4f5832U, 0x3cb3c6d13c8c2322U, 0x3c92a03cbc54bae4U,
  0xbd4bb29cbc7e9213U, 0x3d0cfc8a3d09f76eU, 0x3d3fa26ebd424ed0U, 0x3d30bf51bbf3244eU,
  0xbc6e1e2cbc3c9a3fU, 0x3d1992bebc371c33U, 0xbc67967abc449026U, 0xbd7b403dbd40481fU,
  0xbd3f391abd83fa6aU, 0x3cc11a753ca2c575U, 0xbcfab70d3c04ed54U, 0xbd501cc2bcb3bb83U,
  0x3d2d7d083c606650U, 0xbcc3011e3b9cd4b8U, 0xbc8155c5bc84f17dU, 0xbd7426fa3ca64552U,
  0x3c64d00ebbd56e83U, 0xbd764837bd9aa978U, 0xbd0d3827bcb27a78U, 0x3cb6e862bdc08cf7U,
  0x3caf1e0d3bfa1130U, 0xbd638e5cbcb54e08U, 0xbd052c983cf084d3U, 0x3d097d1dbc5ceaf4U,
  0xbcaf1f303d7a9100U, 0xbc0c5ccb3cf72822U, 0xbba40cbfbccc284aU, 0xbd1ff03c3c98ec88U,
  0x3c375bb93d166ae3U, 0x3bccf598bd0cbcfaU, 0xbd1ca123bcfe6eb9U, 0xbca05261bbc532a0U,
  0x3cf4dd71bceea059U, 0x3bfd00653c104dd0U, 0xbd819205bc995b74U, 0xbd378285bbb65552U,
  0xbcf30fc4bd3bf6dcU, 0x3c1bb82d3d10db17U, 0x3cf44d77bd58f7f3U, 0x3ca459b7bd3c079dU,
  0xbd7861f2bda1ef5eU, 0xbd7320ac3d4ef727U, 0xbd66ddcfbcc1e216U, 0xbd3844963c7b1767U,
  0xbc356ad6bc44f3ccU, 0xbc87e54cbc09d5a0U, 0x3b91c0233c91211cU, 0xbc1057ca3d2d4899U,
  0xba3d5a0fbdbcb5c6U, 0xbabd14d6bb50c3d1U, 0x3bd1e566bc402729U, 0x3c31ff6ebd2c128bU,
  0xbd05f4343c691f0fU, 0xbd1af3c0bc7ac0c9U, 0xbdb9d25dbcba5033U, 0xb93088febc626493U,
  0x3ca4ca5a3d85b610U, 0xbd02c21abc50f49bU, 0xbda2a97bbd7f3000U, 0xbd26c21e3c4e6178U,
  0x3d46afe3bbc4d9a2U, 0x3d252aadbd164d02U, 0xbbf3c1083c045380U, 0xbd65844cbaae4babU,
  0xb9eab769bd77127aU, 0xbcbe80693d47dd28U, 0x3c8d715a3c6c6a3eU, 0x3c152afebda6b025U,
  0xbd08e81f3d2cdec0U, 0x3cc070433c8f9c4eU, 0xbcf55f0ebd3d2d08U, 0x3d189932bd74bb40U,
  0x3d36613fbd7ec5b1U, 0xbce0be7b3c25a74cU, 0xbd4c6a023c16270dU, 0xbcbf38f5bd8bad57U,
  0xbbad9982bd109da7U, 0xbd0aacfabc300a74U, 0xbcdf7dd9bccb615aU, 0x3ab5d9483c5804c4U,
  0xbd82cfd4bc38141dU, 0xbced830fba87a66dU, 0x3d41e6253c8c6f38U, 0x3d3d3eb1bc24a285U,
  0xbd5838f43d094b6cU, 0xbd5ae8043d342054U, 0xbd2adbebbc7dc2d5U, 0xbd5617b93c8de914U,
  0x3d705a29bd4675c6U, 0xbc874166bd340d5dU, 0xbdc03823bd2d80aeU, 0xbd5612403c93be25U,
  0x3c8c5811bcc661b0U, 0x3d2949d3bc3c672fU, 0xbb5a4bce3c503a6bU, 0xbd594fb0bca03ef1U,
  0xbbee5a5ebb929464U, 0x3d1cc861bbe78079U, 0x3ccc60ecbd352907U, 0xbd299141bd838686U,
  0x3b91ef24bd251472U, 0xbd142bc2bcf11e38U, 0xbd260154bd35eacdU, 0xbc4f6ccabdada147U,
  0x3cdc08e43cfd18d9U, 0xbd2dd7a3bd39de02U, 0x3c973c6ebd7e16cfU, 0x3d24912a3c87d2cfU,
  0xbc8fb50abcb93ef1U, 0xbd49b0a1bc4e9494U, 0x3c46e51fbc0eecc0U, 0x3d0d5a653d4d1539U,
  0x3c464db5bda04687U, 0xbd55c6bfbdc0b4e8U, 0x3cb46001bcec5787U, 0x3cedbc24bd3f96d6U,
  0xbd69510d3d853b5dU, 0xbcc5a8333ca78752U, 0x3c69f83e3d58a272U, 0x3ccefd52bc8c6b30U,
  0x3c4ee8243ca84d1dU, 0xbd7fb9e13d18e870U, 0x3ca29af9bca70e4eU, 0x3c2de3873c97a289U,
  0xbd479ef63d22fb22U, 0xbca41fd0bd43eae4U, 0xbd6826c4bd0abdeaU, 0xbd4180de3c75b935U,
  0xbcaec925bd2e5595U, 0xbd856a00bd841e79U, 0x3c8e538e3c2765dcU, 0x3c2bf0fbbcfb666cU,
  0x3ad13dc53c1e142fU, 0x3d2d3a85bd49b1c5U, 0xbcb5fb2ebc1b95b4U, 0xbd3b76c63c9984b8U,
  0x3d07b718bd6374f5U, 0xbd1e46cd3c849641U, 0x3cfb34edbbcd1547U, 0xbd7e48c93c9906f5U,
  0xbd7ae5f9bd3b80e8U, 0xbafb48603d4908ddU, 0xbd2728bc3cfe1b2cU, 0xbd3930883d25ad49U,
  0xbc7953003c90d102U, 0xbd4935c2bbe5042aU, 0xbd6f0c31bc9f65b7U, 0xbd4ac114bd3eca5fU,
  0xbd4f64f0bd30a6caU, 0xbd2c59f73ce027f7U, 0xbd5466eabd008567U, 0xbd63621d3cf7f247U,
  0xbc9d11c63d45afddU, 0x3c443a74bd6a8825U, 0xbd17b7c13d0bf3d9U, 0x3bb766dabd0384f5U,
  0xbd3138243cccb11dU, 0x3d44e955bd03fc2cU, 0x3d070c42be03ce0eU, 0xbd85afe4bc89707bU,
  0x3cc494be3c8e93edU, 0x3d471956badbd4fdU, 0x3a903404bacb9e48U, 0xbd1f7c2a3d56d6f0U,
  0xbc919e843c1e31dbU, 0xbcee78023d12d180U, 0xbd56206fbd31b0f5U, 0x3c0fdf83bb0ebefbU,
  0x3cdb63f8bd30e52bU, 0xbd666fb9bd0acc0dU, 0x3ba76e9a3d1036f2U, 0xbce7f67fbd255d78U,
  0x3ca4ffe0bcbb332cU, 0xbd50d681bd409598U, 0x3d50c4bd3b905c0aU, 0x3d0f79cbbca43cc0U,
  0xbd5dfdc7bcd49e66U, 0x3d4159c7bcc9ba8bU, 0x3d07772cbd1f8297U, 0xbb9eb0b7bc740438U,
  0xbce7fb31bca5b524U, 0xbb7e067cbc1d86c8U, 0xbcc58888bc993a8cU, 0x3bbbc17b3ca3c868U,
  0xbc087f38bc84d66cU, 0xbc9024373bfa6b70U, 0xbcb8b5963db24b99U, 0x3c76a3e43c1c900aU,
  0xbd3ee4cf3caad112U, 0x3c03b004bc6d25f4U, 0xbd084d04bd4695bfU, 0x3c18b11a3cdc812aU,
  0xbd72adb13ccd7549U, 0xbbbb07983d2797d4U, 0x3d3171fb3d2acb7dU, 0x3d02f0c03d610aeaU,
  0x3c0f34b3bce48ae0U, 0xbd1e61b63d4785fcU, 0xbba696fb3d3d7116U, 0xba58ec083c9b5b40U,
  0x3d2aca1bbd65fc28U, 0x3cd58f07bd42ef1aU, 0x3c60bd39bd7475e3U, 0x3d30bf88bd990e28U,
  0xbc8cf97bbad2b168U, 0x3d3cf32f3cdd08faU, 0xbcc1905e3cfe947aU, 0xbc23b8d03d3e7949U,
  0xbcf0d16d3c6ac950U, 0x3cf36fb8bd8e3865U, 0x3c9289953ced369fU, 0xbcec41093c0374e7U,
  0xbae09a303d807291U, 0x3c390defbd064c81U, 0xbdc20031bcfe2d3eU, 0xbd5a3a943c61731cU,
  0xbb55e840bd2934a7U, 0x3d1aebb93c38a2edU, 0xbd131d03bc8bddc0U, 0x3c491e593d2d405cU,
  0x3d6b0de23d869635U, 0x3c56072c3d177f1aU, 0x3d45f505bd8257d5U, 0x3c120b9f3c69aeb4U,
  0xbd062f4a3c5ada70U, 0x3d0db0793c863844U, 0x3d1d93d3bca28146U, 0x3d2e7c163cc19702U,
  0x3d052827bd842410U, 0x3d1763a03ca6ae3aU, 0xbd1ee6723d3f6c5eU, 0xbd1c4d48bd830637U,
  0xbd5a53e0bc6e0d43U, 0xbc7f0bc5bd38cf68U, 0xbd7be55a3c4ec526U, 0xbd1b949abd78b52dU,
  0x3cd7cf8cbd230d1aU, 0x3cb9adba3cd859aaU, 0xbd3a1a153b878b3dU, 0x3cb75397bb1dc670U,
  0xbcba6e753c9f06c7U, 0x3c22e4a6bd6f5f02U, 0x3bcc5e243b51a353U, 0x3c587be4bc148520U,
  0xbd72ff7e3d6e6c09U, 0x3d0c2eb6bb13c8ffU, 0x3c8a5ad0bbe1f025U, 0x3c74cb1ebc887764U,
  0x3d05b01dbd1824a7U, 0x3d21d08d3d178d1cU, 0x3a40191f3d6fad5fU, 0xbc18a64dbc43b907U,
  0xbd13e5793d6f4b07U, 0xbd1b808dbd24626fU, 0xbd450bdabc30c1d8U, 0xbb4c35ba3d2bc11bU,
  0xbd9a5d93bd4686d5U, 0x3c31fb713ccfe044U, 0xbbec979cbcee9910U, 0xbd85c9e6bdb0eb97U,
  0xbd3d5f18bd74e78bU, 0xbd104cdc3d035cbbU, 0xbccf8cf5bd021849U, 0x3cbf4d66bd9f6fbaU,
  0x3cde90df3d166c7fU, 0x3cc7578e3d20b5ccU, 0xbd85dd8fbb404ab6U, 0x3cae5c82bbe4e3c9U,
  0xbc17a5173a7ba374U, 0xbd486eb0bd3456dbU, 0xbd48746dbd5c1a87U, 0xba88c4fe3d3a4b1dU,
  0x3d2869b3bd923b2eU, 0x3d47ee33bdc3a96aU, 0x3b5de4b23c2ffe2fU, 0xbb31e05139e69837U,
  0xbab066373d326b0aU, 0xbd4c8554bd7ec865U, 0xbd927339bd0b7ad8U, 0x3d00b9e9bd11dadaU,
  0x3c847a32bcb13965U, 0x3d0cc9813d543621U, 0x3c6b097aba93b6fcU, 0xbd221d1fbc96f6e9U,
  0x3bc4e1323d4b3d1bU, 0xbc1fbc743d4a83d9U, 0xbb6fc103bd158cc6U, 0x3b885722bd1834aaU,
  0xbc0725f0bd92a359U, 0x3b173f463c0802d9U, 0xbcc94afebc14bf00U, 0x3d375a70bd7f65e8U,
  0xbcde346c3cad3f6dU, 0x3cff3f71bca30121U, 0x3d4e98e73d33cbddU, 0x3bbbb46cbd0fc654U,
  0x3ceacfd4bd3adae6U, 0x3d1af8bf3c74065bU, 0x3b4e1b40bd1c21a7U, 0xbd5a317bbd42c6baU,
  0x3d3e3696bd464a3bU, 0xbd12c5fe3d1fb74dU, 0x3cfe97863cbd7cfbU, 0xbcff72da3ca452daU,
  0x3d1ea9f1bda633cfU, 0xbcf95f65bd842b2aU, 0xbd303ba2bd80598aU, 0xbb5c5de0bdb06890U,
  0x3d1f6d513c168a7cU, 0xbd515b8fbd50abc6U, 0xbca584a7bcdd17d7U, 0x3c2253afbcf64e2bU,
  0x3d00a7e33c2d840bU, 0x3c491b3abbc4c37cU, 0xbda0fd8f3d34345cU, 0x3c813d803c5d6f07U,
  0x3d5e4af6bd43dbe1U, 0xbaba7140bcd171a9U, 0x3bc8059c3cadaab4U, 0xbc183be13cf0752aU,
  0x3c6f5bf7bd1f1337U, 0xbc350526bd47c6e7U, 0x3d09b6a1bcdfb1f4U, 0x3a22b55abc74f1f6U,
  0xbbf826edbd8c0343U, 0x3d23c3383d559554U, 0x39bc584abc25188eU, 0x3c6c1ad53c9e5b43U,
  0xba1c07a1bda3ee9dU, 0xbca6af6d3d4c5f93U, 0xbce827493d46e4eaU, 0x3c5cf3443c5156eaU,
  0x3b9259eabd4ce22cU, 0xbc65272c3c7676e4U, 0xbcb628b73cdeef26U, 0xbd20a7453d4b7487U,
  0x3d49e4cabd8b6fe0U, 0x3d596685bd3ab309U, 0x3c41b1733cc23bedU, 0xbd835472bd5cf6bbU,
  0x3cf3d28fbd6ac989U, 0xbd28c0c6bc098179U, 0xbce1445d3d49323bU, 0xbbd10907bd7617a5U,
  0xbd48c998bc6bdd28U, 0x3a1e9a4cbd72fc02U, 0xbd43b6d6bda47489U, 0xbb9915db3d2f4e78U,
  0xbd39c89abcfca40eU, 0xbd1fa7f4bc3d1584U, 0xbd588525bd66594fU, 0x3d2a72e4bc8165c7U,
  0x3b5e1c543bc671ebU, 0xbca65fc5bc070186U, 0xbcc161d8bd3dd764U, 0xbb0acbd6bc751b1bU,
  0xbd4e4eeb3c98a888U, 0xbd1718513bcfeafaU, 0x3b2377e5bd4cb829U, 0xbc9620ec3bd308fdU,
  0xbd578cce3cf2283eU, 0xbd58f5b73d251615U, 0xbbc367783d12c91eU, 0xbd83c3d7bd2eaf42U,
  0xbce49fc2bc75a6cdU, 0xbca6f456bcf6e828U, 0xbd7494febbbaa37bU, 0x3ce0f4fbbb934e20U,
  0x3c13b28ebce09cd3U, 0xbd4386d6bd9cf552U, 0x3b0a93893ce87b94U, 0x3ce3b1233c3f3acbU,
  0x3c8eb9f6bd0efd0eU, 0xbd13e3fe3d365f50U, 0xbcdb623fbd50c435U, 0x3d4d8dbebd55705cU,
  0x3ccde1be3bae7948U, 0xbcac51d0bc48695fU, 0xbd8deac8bd7e4ec8U, 0xbcd4752abd392220U,
  0x3c0e83e33cc958caU, 0xbae9a080bd8659e6U, 0xbcace177bd95e99aU, 0xbd6bbf09bd0ead09U,
  0x3d0e2a30bd846ecbU, 0xbca3a3d03ccb2f16U, 0xbcd305753bfeece8U, 0xbd199b4fbbe3ddb3U,
  0xbd5bddd23b0b1bc8U, 0xbd502b2b3d4602bfU, 0x3bb6bef5bc367424U, 0x3c520c04bdbf067aU,
  0xbd093eefbce90c9cU, 0x3cec3c583c069c6cU, 0x3d455d943ce2821eU, 0xbcfe4104bda3ca7dU,
  0xbd03db383d41ba33U, 0xbd329f903d07d2c1U, 0xbbe4158fbc17dc41U, 0xbc66c2e7bbee9d10U,
  0x3d14cf21bbf318dbU, 0x3d3236b53c5785ccU, 0x3ba63c6fbd80d91aU, 0xbc45be8a3c3b1de4U,
  0x3ca9c8613d2f228fU, 0x3c81c82c3d52871aU, 0xbd26d8493c9049eeU, 0xbcf28b263b53231dU,
  0xbd3969eebd1c3d9aU, 0xbcd4f5f4bc23b178U, 0xbb9a3a4c3c504356U, 0x3d0203ce3c003abaU,
  0xbd12115c3be4884fU, 0x3d34ee4b3cac6144U, 0xbd52e89cbd3001a3U, 0xbd6304eebc9bf1e4U,
  0xbccf2fde3c9c589bU, 0x3d0bcc7c3d407c7fU, 0xbd7263cfbc3d0b54U, 0xbd2723283c60ca84U,
  0x3cf04615bd89270bU, 0xbc2bb3cb3a745162U, 0xbc6c7d0a3cc4892eU, 0x3d10de80bc3aabd6U,
  0x3d13df08bb105d38U, 0x3c910bda3c83caddU, 0x3cfd55b23cc5af3dU, 0xbd1a7b28bcc2b79aU,
  0xbd4499dbbc6144caU, 0xbd0b27063bccbef8U, 0xbd33b45c3cb94a74U, 0xbd288851bd052892U,
  0x3c1abe65bd62cabbU, 0xbb042479bdb06a39U, 0xb850c8553d058e26U, 0x3c6af632bc3b1498U,
  0xbaedbd0b3caf825eU, 0xbd7eec0ebd7417c2U, 0xbd962341bccae7c6U, 0x3ab0a2323c86482fU,
  0xbd03da683d044f38U, 0xbd190aefbb17b4adU, 0x3c5a97afbc52df81U, 0x3d078c27bd8015f8U,
  0x3ca942163d7c5850U, 0xbc9c9e76bd6c856aU, 0xbce1b4433bd355b4U, 0x3d50bd283c76f94cU,
  0xbd205634bd712e8fU, 0xbcc51ab4bd155af6U, 0xbb51def3bd0f67c0U, 0xbd0288c4bd888435U,
  0xbc97f8723ccc91edU, 0xbd14ea273c21645cU, 0x3d1ae1acbd251989U, 0x3c050626bc55e952U,
  0x3d324dbbbc59f4f0U, 0x3b701f373d24c33cU, 0xbcd821ce3c968d33U, 0x3d4fa446bd1917e8U,
  0x3cafef9fbd33948aU, 0x3d4e3c193d2dec4bU, 0x3c89da9abc540bb3U, 0x3c67b96c3860fc00U,
  0xbb361d16bc2bb79eU, 0xbcd64dedbd1ddd03U, 0xbc6ea3753cc4f6ffU, 0xbd623b3fbda7bc31U,
  0xbc991ae8bb7db660U, 0xbd63c2953cfe22c8U, 0x3bd10165bbe271efU, 0xbc12d19b3c44a563U,
  0x3bc46838bb0336d4U, 0xbb897320bd29f648U, 0xbc2574293da078d8U, 0xbd7f94a7bd81884fU,
  0xb9f59280bc9bb51fU, 0x3d5321d7bd2ea4e7U, 0x3c9145d23d1b0198U, 0x3c57bdcc3d16d48dU,
  0xbd110a2dbcce2a25U, 0x3ca097adbcd8eae9U, 0x3d3f5971bcdbbe13U, 0x3cec9d4bbdbecd5cU,
  0xbd051100bd38aca5U, 0x3ca662643cc0eb03U, 0xbce2e745bccf4f62U, 0xbc8843cf3d61e81dU,
  0x3cf83647bdb26f79U, 0x3a21b03d3c88b541U, 0xbcb6f2e23d498648U, 0x3cca503bbd9043afU,
  0x3cd45b13bc9d0c34U, 0xbd01e4fabd0bb256U, 0xbd1045ec3d022eceU, 0xbce84d31bc62ccd4U,
  0xbd412d0f3bc07387U, 0xbaa04b66bb37069aU, 0x3c963289bd8ea24dU, 0xbcb836ee3bc503c7U,
  0x3cc7825cbd58badeU, 0x3d4e49963d242041U, 0xbd445cfbbdaacbc5U, 0xbd2d5d5d3b9b1a11U,
  0xbd1172aabd373ab1U, 0xbd6e3799bd377d58U, 0xbd556021bc75998aU, 0x3cd8cde1bd822ecfU,
  0xbd172f21bc789c4cU, 0x3d48b7f7bc355e4cU, 0xba1ff0bfbd17e91cU, 0x3cc8e936bd61c89eU,
  0x3b76503bbd970e67U, 0xbd7394a7bd78ca8eU, 0x3cf71358bd7d3a73U, 0xbcca96a33cb7dcadU,
  0xbd2808d6bd190f59U, 0xbd47dbe73d0d1adeU, 0x3ca1aed6bd0fe290U, 0xbc9f0bbbbb8c180cU,
  0x3d2e6356bccddec2U, 0x3cb9b5813ce22708U, 0x3d19b4703c3b662bU, 0xbc15ca73bd888ea6U,
  0xbc3b27e03d678e6cU, 0x3c0af6d43c8cd3feU, 0x3d21429abd54b92dU, 0xbce083103bb1340aU,
  0x3cfbd3f9bd02dd8dU, 0xbd3529adbdb13385U, 0xbd039d4a3d14de17U, 0x3d3bb81ebdc2b8faU,
  0x3d0df78f3d1cd6faU, 0x3d362976bcfc4f46U, 0xbe0165edbad9cc71U, 0x3c90f9aebd0e7d4fU,
  0x3d2d1bdf3d02b5bdU, 0xbd03af5cbd60b0c7U, 0xbcb29e2ebcbaf185U, 0xbd2510943d09adb1U,
  0x3d1024573b13fd0cU, 0x3c1487e4bd065a8aU, 0xbd0f7c05bd23a5baU, 0x3d38d67bbc9c7d0fU,
  0x3c1b8208ba605e6eU, 0xbccd5cd43d1973e7U, 0xbccafde83c7c0923U, 0x3c9bdb53bd3e44f5U,
  0x38f62017bd8a7f52U, 0x3b90933cbd4a052eU, 0xbbdaa2653d3f4049U, 0xbd5c5fa9bcfc2588U,
  0x3d03fe8b3d0ff30fU, 0xbc98daa1bc23bad9U, 0xbd51e44f3cf3f53cU, 0x3caa572abd33b15fU,
  0x3d4985e5bd0c8fb1U, 0xbbb8f968bc85c4a1U, 0xbbb369103c7b6d10U, 0xbd5eff8abd5eb4d7U,
  0xbd55dc413ca66df9U, 0x3b9ad655bc623cbcU, 0x3d49be853c8fc5e9U, 0xbd65edf43cf9396eU,
  0x3bdd8a73bc941ad1U, 0xbca57accbcf9a2e8U, 0xbd97ae713d317dcaU, 0xbd8b647abbb5a1f0U,
  0x3c6819a43cd97bc7U, 0x3c681b8c3cdec889U, 0xbcf86458bd237dbaU, 0x3cb9f20f3ca1d140U,
  0xbd0c2c5b3c907a09U, 0x3d24ce57bca0d4d4U, 0x3c1a1f99bd5aa944U, 0x3cc46a34bd324566U,
  0xbc97edd9bcb9caf7U, 0x3bb80d3c3d3ef74aU, 0x3c8432edbd3c02d4U, 0xbd118a603be93b46U,
  0xbcfc5d85bd7f81daU, 0x3b904bb93cab885eU, 0xbd71a48f3cf2bb66U, 0x3d5200f3bcccfafbU,
  0xbc7b8c643cf74a23U, 0x3ce3cd33bc45e126U, 0x3d15b6a9bca12a38U, 0x3c2f080c3c85207cU,
  0xbc630ec53c9b3f52U, 0xbccf21e0bd2319fcU, 0x3d357f8bbd3adcbfU, 0xbd58b79d3d052b31U,
  0x3ce108223ce5d03eU, 0xbc52655abd7794afU, 0x3c9e9c66bcc418f9U, 0xbc73d3f83d23148fU,
  0xbd073e4ebd40a2e1U, 0x3d14a96dbcdf870bU, 0x3b26a6d4bd20c327U, 0xbcfd5c06bc93f62eU,
  0xbccb51203ce0b438U, 0xbd4b37563b01369fU, 0xba7a2a9a3c17525cU, 0xbd3643f03d419525U,
  0xbc58248ebd58ae77U, 0x3d54e4bb3d3040f1U, 0xbcd2014fbdc27f4eU, 0x3c3da4c8bd357c7bU,
  0x3c9fa5b33c348d58U, 0xbca621203d329248U, 0x3c84331cbd7cdc73U, 0x3d0e90f0bd283d22U,
  0xbd6c1c323c480324U, 0xbd7f8c373be4bf20U, 0x3d3811b03d412dbdU, 0x3d118de5bd1f6a4eU,
  0x3cf2f222bc12a93bU, 0x3d0f8639bd2656f0U, 0xb9351400bcd97347U, 0x3cbe799ebcb97189U,
  0x3cefde033d19ea6eU, 0xbd54d5893c42a1cdU, 0xbd6bd87d3ce76054U, 0x3d2d7d22bcc5bc99U,
  0xbcb28413bd80a04aU, 0xbc7dc3c0bd0f56dbU, 0x3d13aa233ce12085U, 0x3c18c13cbbd8e5e7U,
  0x3d0b29b2bb603487U, 0x3c69a397bb5234f4U, 0xbdb2a8a7bc9d0286U, 0xbda51744bb8afac8U,
  0xbca5af6fbd2c3ab7U, 0xbd0db4a4bd778e17U, 0x3d2f11703c74f78cU, 0xbc4e37a03d4ee3f8U,
  0xbd2894ef3ce94c5aU, 0x3d09500a3d6bebffU, 0xbc1e86ecbd73846eU, 0x3cef4745bd70d824U,
  0xbc1ca472bceb5732U, 0x3d04cf003c2c78a7U, 0x3cd5eca6bb9bf23bU, 0x3c53f3323ca18426U,
  0xbb9cf610bd28b9bcU, 0x3aa7f23e3d4147d2U, 0xbcc56b6dbd066e89U, 0x3c3c3814bcc806b7U,
  0x3c4c3b8cbb3cdcdaU, 0x3c1f85a63d1b7d2dU, 0xbd24527abd82c881U, 0x3d5c2c37bd36dc77U,
  0x3d37e5f0b8a2af21U, 0xbd390d933d1a58a2U, 0x3d55de6f3ca9d561U, 0xbd68024e3d146a74U,
  0x3c8a62babd013e33U, 0x3c458ea1bcc9f0f5U, 0x3c563adc3c1817eaU, 0xbcbb7b1c3c3f6f0cU,
  0xbd1765953a6b352bU, 0xbd64dff33d073edfU, 0xbbbffdf93bb7acf3U, 0xbcf6a4823d1b2305U,
  0xbd69f735bd357473U, 0xbcdb1666bd2ead25U, 0x3d08ce0abc7320c8U, 0xbb3c92e6bcd670b0U,
  0x3ccfec44bc2350f8U, 0x3d3cfa153c2ca24cU, 0xbd682729bca15a01U, 0xbd38a59a3cf64985U,
  0x3cab2f1a3c7b2d84U, 0x3bec767ebc4aa7b8U, 0x3c5657f63d3b538eU, 0xbce58aa83d0755f5U,
  0x3c921192bd782973U, 0xbd23c234bccb6945U, 0x3d0fd6763d18a643U, 0xbd193d77bccdd287U,
  0x3bec5428bc98093bU, 0xbb0fcb40bc6ddbd0U, 0xbd2e87b43cd94df8U, 0xbca47db6bcf88ba7U,
  0xbc4bc39d3cd4ecd8U, 0xbb27454e3cc58785U, 0x3d39ceadbb768fc2U, 0x3d049e3abca60c6fU,
  0x3d46d20fbd74727fU, 0xbc34df8b3c8d234aU, 0x3b03d1c03d58f4b5U, 0x3d4b4641bb00b2c0U,
  0xbcce25253d2d1104U, 0xbc746c263ccabecdU, 0xbd3e8665bd7c955cU, 0xbc28bd3dbbdde040U,
  0xbd71f40cbce52aa1U, 0xbcb9bd313d14ae15U, 0x3c3b44aabd6e1311U, 0xbd7f892c3cf66091U,
  0xbd35d39dbd3c9afcU, 0xbd36081bbcc9d954U, 0x3d3714d5bd15bd24U, 0xbc871980bd693fe8U,
  0xbc947141ba8e7899U, 0xb9063800bd415b4bU, 0xbd7d7e3dbcbf5129U, 0xbcf8119d3c4122a3U,
  0x3d48fd6bbb882493U, 0xbc70c050bd7e2d53U, 0xbd6b7ca73d47be67U, 0xbd273970bc8d879aU,
  0xbd488d363c20d5c2U, 0xbc179df73d50ec67U, 0xbcd59882bb7afa23U, 0xbd35c9b4bda7ba01U,
  0xbc5dad2839d297e6U, 0xb9e7c6803d34cfb7U, 0x3cd22f4abd3fd474U, 0x3d37dd24bd5fec4bU,
  0x3c53f13cbd19bc69U, 0x3d4b839f3d4d5312U, 0x3ce0a7ca3d134d3cU, 0xbd6380283ce55dc8U,
  0x3cd2db39bcdec67bU, 0x3a385a403ce35d23U, 0xbd43cd17bd046a37U, 0x3c6b668abbac13b0U,
  0x3d4887f3bc878bf5U, 0x3d130537bc989f3cU, 0xbc860e7c3c97e00eU, 0xbb9c04d23c4223bdU,
  0x3d033a0fbd789bf3U, 0x3cabba9abc5dc098U, 0x3c494a4cbd1eac51U, 0xbc0b89a1bd5dcf34U,
  0xbb36c2763d125786U, 0xbd7d8444bcdaa30eU, 0xbcb209ea3d14d13cU, 0xbd68c6aa3d031779U,
  0xbaef17c93c506dbcU, 0xbc5f2218bc841c7fU, 0xbd133a773d4e981cU, 0xbd2684eebdaae6f8U,
  0x3b3fa9b0bbf96636U, 0x3cfc575a3c9d06e9U, 0xbcaff4003b227903U, 0xbd5198933c8826d6U,
  0xbd1a2d58bd5942d7U, 0x3d3e14b13c887d4cU, 0x3c86f426bccd839aU, 0x3bb55d56bbfd0248U,
  0xbd038fe13b150808U, 0x3d41c827ba7deeceU, 0x3d3948793cf9c3c5U, 0x3c75afacbd8111a6U,
  0x3d25dba1bd5fa42bU, 0x3cd541be3c825e16U, 0x3c02a0d1bd6bdcf7U, 0x3c86d46fbad032e0U,
  0xbd17974abd2b194cU, 0x3ccdb3023cbaa2b6U, 0xbc2ea265bd1717baU, 0x3cf0c5253c9fb228U,
  0xbcd117ca3d1dd553U, 0xbd56fa7d3d2a5527U, 0xbd3ae5683d3d3a06U, 0xbceadae23cd461cbU,
  0x3d1b14f43d0d6a3aU, 0x3b64e100bd666264U, 0xbd7e4895bc51ae0fU, 0x3d2e1305bccdbeb5U,
  0xbd76ec43bc0f2391U, 0x3d29979f3c77f355U, 0xbc73b31e3cfa3ddcU, 0x3bc9473dbdad74ffU,
  0x3d2071cdbca0376eU, 0x3ce5fb643c481ddcU, 0x3cfa10963d22cb34U, 0x3d596037bdb78643U,
  0x3ce6da7bbb8c74beU, 0xbcbc1b90bd607ffeU, 0x3c47ba233c56e34cU, 0xbbba54dcbb90dfc0U,
  0x3c4319443d276a84U, 0xbc13fefabcc6cdc5U, 0xbcfc609dbd73964cU, 0x3cd3a332bd7343a5U,
  0x3d2df21f3a7da6adU, 0x3d2d569ebd4998c7U, 0xbd35fe87bd3351b9U, 0xbd994db9bd205b61U,
  0xbb0692b0bc26782bU, 0xbd37faefbd786b85U, 0x3cda35493b1adc30U, 0xbd59bec63d514799U,
  0xbd5ee97c3cafdf90U, 0x3d1eef173cb6879eU, 0xbc808d1abd2703f2U, 0xbd29c383bbe54f0aU,
  0xbd840667bd3bb569U, 0xbce06deabaa1da19U, 0xbcf40f083c773202U, 0xbd3198c73c99ebabU,
  0xbc8ac632bd525c52U, 0x3cda102abd61215aU, 0xbacae04e3bdd15f5U, 0x3c9c82e5bd989903U,
  0x3d1f7b89bd0644dcU, 0x3d52d987bb7013c1U, 0xbd499dab3d12f223U, 0x3ca2e1babcee7dbfU,
  0x3cc63846bc0697fbU, 0x3bef7ef83d357b37U, 0xbd7cdc57bd744af4U, 0xbced2c8a3d01ccabU,
  0xbcd015e43d02477eU, 0xbd4d65ee3c717710U, 0xbd1c0c25ba0e9872U, 0x3cfb6572bd18b167U,
  0xbd4309943ce9360bU, 0x3d52362f3ce5dcdaU, 0xbd747ba4bb8306b2U, 0xbd8cc603bcc28414U,
  0xbd114add3d439bf0U, 0xbcbe30093d3ce057U, 0x3d1fc781bd258d4cU, 0x3d3acf4ebd65e963U,
  0x3c1484a53d423be7U, 0xbcacee28bb8769c8U, 0xbd52fabf3d1f354aU, 0xbd713f34bbdf5d1fU,
  0xbc962641bd25a5b0U, 0x3d23c360bd2e2d54U, 0x3ca2e4ecbbd750cbU, 0x3d2998593c6ba0bdU,
  0xbca1b408bd0c37faU, 0xbcb7d18cbc959b64U, 0xbcfcc597bbcd0aacU, 0x3b3d20b8bca6aca3U,
  0x3cbc71c6bc92ce2cU, 0xbd0e15553d1f4226U, 0x3d134641bcfcf676U, 0xbbe82948bd8fd01fU,
  0x3c27d4ec3b89c994U, 0xbd12d8dcbd73ea3dU, 0xbd4d0121bd5b925dU, 0xbd8026d7bcd4783eU,
  0xbd1833073d55ffd9U, 0x3c7905f13d176280U, 0xbc88a6d8bd44de36U, 0x3c22e4bc3d0ccd8eU,
  0x3c1a61a03bbcd8baU, 0xbc9dcac43c798f3eU, 0xbce633b33d181e35U, 0xbcac95b8bd0be95cU,
  0x3d404c673bec363dU, 0xbcf28fe33c8fe333U, 0xbc14f7d3bbbda7d8U, 0x3c8b42433c2b0b05U,
  0xbd4a138c3d1a175eU, 0xbb4b0d903bf45658U, 0xbd07272ebd848d02U, 0xbd679bc03ccc6129U,
  0xbd1f8cbb3b0b5c3bU, 0x3d430112bd0d0148U, 0xbbac0972bbf59dbdU, 0xbd2c2f473d52ac4bU,
  0xbc9b8b02bd507ed1U, 0x3c0eb1bcbc426157U, 0x3d245916bd6890f3U, 0x3d0d0261bd8d8088U,
  0xbd6455743c8ebf42U, 0xbd34928c3c675b5fU, 0x3ccc49fabcc44567U, 0xbd118856bcdcfbe9U,
  0x3c6ef8a4bc6c99bcU, 0xbcd9d00e3d50b341U, 0x3a1ff99abd3b9a30U, 0xbd7e8e67bd1b0cf4U,
  0x3be04f68bd017047U, 0x3d4ec7793d1d7581U, 0x3c85bbdebc8c6fc2U, 0x3d523729bd764705U,
  0x3d2f044b3d52748cU, 0xbd282836bd18ad22U, 0x3c76e71abca0177aU, 0xbd4962f8bc0b3cc8U,
  0xbd3eb857bd6bf637U, 0xbcc36d34bd7706bcU, 0x3ca02cc63ce85d9aU, 0x3ce279b63ca58b29U,
  0xbd1cc5633c8dae96U, 0x3affbf00bd12fdc7U, 0xbc95cd063d46ff00U, 0x3b2c2b923c2f2037U,
  0xbd3ecb67bbe149c3U, 0xbd4796693bd453a9U, 0x3d2651babd162537U, 0x3b964e48bba2b66cU,
  0xbd42faf33d21314cU, 0x3d35a84fbca8e77bU, 0xbb8e2ac73d32cd08U, 0x3d00abe53cda3d3eU,
  0xbd5888263cc507a5U, 0x3d00d427bc3537b6U, 0xbb1cece0bca06fc7U, 0xbad09d60bd86ce80U,
  0x3caaf0d9bca7d1b0U, 0x3c0b0254bc0d0d93U, 0x3cc171dc3c4450e2U, 0xbd75b9803c7758b4U,
  0xbca960c2bcfa6775U, 0x3cad3a333c252abdU, 0x3d11d2193d072f8aU, 0x3d05febd3c9c481dU,
  0xbd59175ebaab08e6U, 0x3ccccef33d4005e9U, 0xbd5599d33d3457e9U, 0xbdb00aa5bcaa1bf8U,
  0xbd3e8c25bcf9f3d2U, 0xbca00a083c4fb648U, 0xbd01913dba4a6340U, 0x3cdee5bdbc3f5f9eU,
  0xbd3c16aebd52226eU, 0x3ca1653abcf0678aU, 0x3cd91bae3d141748U, 0xbd649ff6bbcefd35U,
  0xbd6aee1f3cec6274U, 0x3d24a5cf3c413375U, 0xbd7ccb45bc78fa4aU, 0xbcf57aa33d18c131U,
  0x3d5f43293d592dd5U, 0xbced3adebd28ab42U, 0x3ceae935bc0b860bU, 0x3d393e37bd8878f5U,
  0xbd6b33a1bd29678fU, 0x3b9e5fb8bd040bf0U, 0x3c726054bc96f213U, 0xbd265b74bd09ea00U,
  0xbbe5e4d8bcb42e0bU, 0x3c8526c2badc09edU, 0x3d142bfbbb6cb715U, 0x3d2e08b93b38f580U,
  0x3bf68948bd533a0bU, 0xbc5c8b543d464d1bU, 0xbaff8c203d0ead12U, 0x3d6269f53c8950b9U,
  0xbd55d9403ce49d9aU, 0xbd548febbccfcf4aU, 0x3c4b9414bd843844U, 0x3b829576bd2a2848U,
  0xbcfa5eb1bcad31b5U, 0x3cb449d6bd6ec34cU, 0xbce8957e3ccbac6eU, 0xbd74d14238af81a1U,
  0xbd505f45bd296497U, 0xbcca1bcc3d0bed8fU, 0x3a806a60bd656f5cU, 0xbd743f423d47783bU,
  0x3c33bc06bcab4bebU, 0x3d09c75bbb919d76U, 0xbd14478ebd6aebc1U, 0xbd6cf3d13cf41f85U,
  0xbc229e903c9b559eU, 0xbc90ca7a3c747e6bU, 0xbd68af6d3c8b913aU, 0x3cc0cb41bd4f68c6U,
  0xbbf258d83d0a31e4U, 0x3cdaecb2bc1d8362U, 0xbc3e769cbd1e8fdcU, 0x3d66e95dbd221d08U,
  0x3d00a4293d3afc86U, 0xbb6373703d43ef22U, 0xbd22306c3d4bf349U, 0xbc502752bd027bd4U,
  0xbd5ce5d2bccf1b42U, 0x3cbb39acbd7adb8eU, 0x3d539b95bd52be28U, 0xbd0bc78dbb545150U,
  0xbac72000bd112863U, 0x3c31b610bd780c05U, 0xbcd0a4dabc78738fU, 0xbd85234ebc9d0340U,
  0x3d40b1273d4ed177U, 0xbd11db243d423b3cU, 0xbd428d30bceddb25U, 0x3d0c838e3d473ad3U,
  0x3d408e62bc4a8ce8U, 0xbce92d83b9d8c580U, 0x3c8245a23d0ec593U, 0x3c24a14c3c0dba3dU,
  0xbc9514de3c101638U, 0x3d65ee3d3d4c8f60U, 0xbc77d38cbd606e56U, 0xbb929a2f3ca58344U,
  0x3c7455ccbc933268U, 0xbd1c393fbc260f8aU, 0x3bd2a4b23d367e30U, 0x3d4e4689bd605284U,
  0x3c638dd43d1e970dU, 0x3cdc8c263d42010dU, 0x3d3b3b353d049137U, 0xbc2a7c28bdb8b595U,
  0xbd33029e3cc2becaU, 0x3d62de55ba268600U, 0xbccaf160b6dbd5c5U, 0xbd3b0ecc3cdb390eU,
  0xbcad6190bd32b6a3U, 0xbc514ae3bd46aef5U, 0xbb314710bd3da656U, 0xbd4cc420bcb45adcU,
  0xbb60c39d3cffff10U, 0xbd848580bc103349U, 0xbdb0eea93c8292edU, 0xbdbea4293c90ba12U,
  0xbcbea07abc4c6cf1U, 0x3b9498e8bd26f1aaU, 0x39c822293d650d77U, 0x3c5e00a3bd0af797U,
  0x3d4c353cbca69fc3U, 0xbd054d3ab9e4fa00U, 0x3d2be6dd3d357b40U, 0x3d36c8df3d2118fdU,
  0xbcc4e8c6bb15ac2aU, 0xbd342c9bbd21672aU, 0xbc2d9bf83b977961U, 0x3d4301b5bcba70cfU,
  0x3d5b1a2f3cbd2cdaU, 0x3d13f37abd46e22bU, 0xba2584cbbd1f0ee9U, 0x3cd164b9bd47d6a8U,
  0x3cb6909abd11d54aU, 0xbd6c220b3d427bd0U, 0xbd263920bba00f04U, 0x3ca14beabd3d44eaU,
  0xbd3d1baf3be99a1cU, 0xbd4718febcea67e1U, 0x3ca66ebeb98fbbb9U, 0x3aa7b700bd572664U,
  0xbcf83f483d404d4eU, 0xbd7132943d1b56d8U, 0xbd3b1e06bd0556c6U, 0x3d2e04ddbd814aabU,
  0x3cb0ef553d03fef7U, 0xbcd79dddbd5df7b1U, 0xbda14176bb34b645U, 0xbcaa73de3d0d29dbU,
  0x3d37aa2fbc112452U, 0xbaeeb3c0bc8b796dU, 0xbd1ed2533a9ea380U, 0x3d1417ee3b3a85deU,
  0xbc3dfb7ebc8e22b6U, 0x3d363367bd2ac8eaU, 0x3c87fb023d32c7d1U, 0x3cc724eebcd8aadeU,
  0x3cc787583c4db182U, 0xbd014ce83d0647a5U, 0x3d2ad565bd726902U, 0xbc2a512a3d1d8998U,
  0x3c67a0743d6a3c37U, 0xbd11191abcc108d2U, 0xbcb6ff003ba068abU, 0xbd253e813b90c313U,
  0xbaa391e0bcc14242U, 0xbb87ef98bcb4afd2U, 0xbd021782bc696261U, 0xba446700bd166b20U,
  0x3cc9270ebd7f1ce1U, 0xbd2738ca3bc3f998U, 0xbcc219c0bd682cd8U, 0xbd24b2803d2ebbbdU,
  0xbd68b3babd23bc37U, 0x3cb6b54dbd79f575U, 0x3d351df33b98e78bU, 0x3cdb9e5a3c0a55f0U,
  0x3c82bcb4bb2470c0U, 0x3c1f85c43d21f73fU, 0xbc07755cbd2d1c4aU, 0xbd91912d3d62fb47U,
  0x3d5ad3413bf2de98U, 0x3d18b633ba95b72cU, 0xbd591879bd4a2a88U, 0xbb701d73bd283efeU,
  0xbb1b25ce3d4b85afU, 0xbd36fee63c9811daU, 0xbd69d7d3bd600a38U, 0xbc40452bbcee3537U,
  0x3d3fe7a13c4c2dc8U, 0x3c05846abc29b318U, 0x3bd2e2a8bbb745f6U, 0xbd2c0dedbcf5b8f0U,
  0x3cfdd37ebc96c3e7U, 0xbbd0c7bf3d4f3eb4U, 0x3ae6dd28bc52db03U, 0xbd461c1abd51a5c6U,
  0xbd3e0ed3bd3589d4U, 0xbcd78c36bc069f53U, 0xbc5c16b0bca784beU, 0xbadf67c0bd62de19U,
  0xbd57ca52bcbc6136U, 0xbcd31010bd4b3c72U, 0xbc0f1f283d095a0aU, 0x3d306882bd463656U,
  0xbd44fc41bd1c755fU, 0xbd2cf417bd007bc1U, 0x3ccbb53ebd602e6bU, 0xbd5fca003c319cb3U,
  0x3c8970f13d079b99U, 0x3d275f35bd12577cU, 0xbc518ff33d0c93c5U, 0xbcc6bfafbcfcb643U,
  0x3d23fd91bd73a9f6U, 0xbd7861043d2624bcU, 0x3caa1b5d3b65b520U, 0xbb6e2ad1bcfda5ecU,
  0x3b9a81483d4f41fbU, 0xbcc13a8abd15594fU, 0x3cfcd00abd82c04fU, 0xbd488cb13d6968e1U,
  0xbcd115efbd72e743U, 0x3d34c56f3d46639dU, 0xbd3e00553ceb3563U, 0xbd440d1c3cdd24bdU,
  0xbd140312bd822f99U, 0xbd66a781bd7bb7b6U, 0xbc8605933cf037b0U, 0xbb97e637bd722a9eU,
  0x3d1da1abbcf403b3U, 0xbd081a5cbd7d7f12U, 0xbc99ec06bd5e5b1fU, 0x3cc8754e3c99a76cU,
  0x3c476f743d519726U, 0xbb007f103d6bfee9U, 0xbd49f15c3d4bfd77U, 0x3d176074bc59b7a0U,
  0xbd30c0dcbd0d64b1U, 0xbd2321d3bb40e4aeU, 0xbd22741e3d0295c1U, 0xbc09dd4cbd196a0fU,
  0xbd2e9864bca58feeU, 0x3d46de16bcdd9666U, 0xbcbe032abb91964bU, 0xbbcd85e83c557cdcU,
  0xbc8fcbf43d56a1e1U, 0xbd30fe553d22372eU, 0x3d4764d83d07f69dU, 0x3d41700f3c205141U,
  0xbc3349f8bd7030daU, 0x3c7940f43d26c041U, 0xbd4ae714bce857bbU, 0xbd39b3fdbd0adb0dU,
  0xbd59de00bd68c310U, 0xbd7c10643cbb132dU, 0xbd5a8e0ebc725b45U, 0x3cc4bf87bc1e46b6U,
  0xbccaa728bd84a85bU, 0x3cf155633c26c428U, 0xbc754a713d24c233U, 0xbd59d128bd9f8b32U,
  0xbd152aa03d086fd2U, 0x3d61aa89bca4f159U, 0x3ce051623d3cb06cU, 0xbd3b0fcabceea8f1U,
  0x3d4d76bbbcf1bb59U, 0xbd3c27c3bc836c14U, 0x3ce143313c49149eU, 0xbb206c173ce3cd5eU,
  0xbd574128bd52add1U, 0x3ce8299e3c774a9cU, 0x3cc54faebc4c8d8cU, 0xba6396c03b9046bcU,
  0x3d1b6c11bd03cf60U, 0xbd4665453d42cf76U, 0xbd888797bd491bdeU, 0xbcfcde69bcf9ad63U,
  0x3a84da003d175756U, 0x3d3b07a43d37aa9eU, 0x3c515cccbd5fa821U, 0x3bba0900bc299483U,
  0xbc76fa7abd7d8a3cU, 0x3d4e0e8d3b9460d8U, 0xbc4a391cbd365eccU, 0xbd400b513d4767a4U,
  0x3b431a593d1a8ac6U, 0x3c6336303d1c08eeU, 0x3c4fb678bd27e668U, 0xbd230243bc65fb7bU,
  0x3d0248cdbd14a55bU, 0x3c8eaa4ebbfa54b2U, 0x3d311f11bc8db94bU, 0xbd7ae8c03cb340dfU,
  0xbd15928abce9d895U, 0xbb92bf8c3d0a1e20U, 0xbb4cec40bd5105d9U, 0xbc9c2d0e3aef83f0U,
  0x3cc1d832bb96c802U, 0xbd5e78fdbd02ecdcU, 0x3cf52e363d568847U, 0x3aeefd4a3c2312fcU,
  0x3c181704bcf23a78U, 0x3cbbf9133bb56d6cU, 0xbd21d6503c0828edU, 0x3bc7d858bd27c4c5U,
  0xbd1625c1bd4a2a93U, 0xbb9002d7bc294ecdU, 0x3bda8f83bd801471U, 0xbd5770e93d00c7ddU,
  0x3d2213c33bb8aa7fU, 0x3d19cceabd47d60bU, 0x3cfb54b53a642e80U, 0x3c9e87cb3c1b9bacU,
  0xbc2434243d22f4c1U, 0xbcaf064a3c385c14U, 0x3cb5f22ebcbb59d1U, 0x3b81ff6a3d1cca88U,
  0xbd4d64eb3c4feb82U, 0x3d1c2b8abc296e95U, 0xbc9b2e84bcbfbfb5U, 0x3cf87e70bd5395fbU,
  0xbcaf6e10bd826f6bU, 0xbd5fad1cbd7289faU, 0xbce3d436bc9ce0c1U, 0xbc8f6ec1bd19ffc7U,
  0x3d10dca93cf74e60U, 0xbd0edf093cd21aabU, 0x3d203bb5bbb7cc2fU, 0xbc80e156bd163564U,
  0xbd0e7c1ebd468a9cU, 0xbc9944543c30dcc4U, 0x3c7b4accbc157876U, 0xbcebb6fabd435177U,
  0xbccb828a3d4b4decU, 0x3b45dbc9bcaa9886U, 0xbd296974bd830f2eU, 0xbc4c7e3cbcfc7b14U,
  0xbd81b62abce09c88U, 0x3c9ac3fcbd4849bcU, 0xbd3b0fe73b1b6df0U, 0xbdaedf333d0d7afbU,
  0xbc1c24ec3c5217b9U, 0xbd6a4941bc44ef75U, 0x3d476df7bd64c4e9U, 0x3cd4fd01bcb40ac9U,
  0xbc8968393c1c546dU, 0xbceee9523c7d4984U, 0xbcbd1dce3c76f14cU, 0xbb17511a3cd8ca34U,
  0xbb0a51703c09cbf1U, 0xbd3c96393c79208cU, 0x3cf23cfcbcecb97dU, 0x3cf7a01cbd832aacU,
  0x3a87d4a03d476a4fU, 0x3b9b01c8bcd1ef4eU, 0xbc7b38bbbcf6fa8fU, 0xbce1a0e6bd160a58U,
  0xbcdf5d483d31c8eeU, 0xbcd42c9cbca341dbU, 0xbc0444b03d40660dU, 0x3a96f640bc5e676fU,
  0x3b8400b53c8b6b3eU, 0xbd152cfbbd5b075dU, 0x3d39e7f53d03035eU, 0xbcad9131bc9b0ec4U,
  0xbd012bbb3d0b7b35U, 0xbd7339a03caeaa55U, 0xbcb98e3abd017e3bU, 0xb5d50000bccae623U,
  0xbcf476a0bc6d53c6U, 0xbd6849c9bd1a45f4U, 0xbd537da53d50be76U, 0xbcbae8a9bd360a18U,
  0x3d0d4a8fbb8e8aa7U, 0x3d58d2473aafe902U, 0x3d2ce6e6bd5cb03eU, 0xbd6ae6343d2f9df7U,
  0xbd1a0cc33af1d66dU, 0xbcb2519c3d2fc247U, 0xbc82072cbd708337U, 0x3d1770bbbc4f483dU,
  0xbc572cc3bc5ee908U, 0x3ca24a253d4e8a2fU, 0xbd475474bd65845fU, 0xbc9487283c5f838aU,
  0xbcf58a243d222795U, 0xbcff11a63cce9ac0U, 0x3d4af3f1bd133b8fU, 0xbd11d2dfbc858287U,
  0x3b5711003ce4b58eU, 0xbce0c1383caeefa0U, 0xbc937aa43d462fabU, 0x3cf1446ebd75d1dbU,
  0x3c514a773d33f8a2U, 0xbd6937133cc5f691U, 0xbcdd4a75bcc89b3fU, 0xbd4365503c294b4cU,
  0xbd178dc938824d0fU, 0xbc6ca23fbc97e113U, 0x3d546c17bb8735ccU, 0xbc11ec28bc69995aU,
  0x3d3a7165bc81a376U, 0xbd548a993c14c3acU, 0xbd4402923971fdabU, 0xbdc27681bca24240U,
  0xbb317760bd48d008U, 0x3cead4aabd44df02U, 0xbb57871f3d0dc18fU, 0xbd6c9395bd660ce4U,
  0xbc4e5c863d05ab2fU, 0x3d205ff9bcae9282U, 0x3b1e10b0bd22c6a7U, 0x39aaf88ebd28b13fU,
  0xbd548dd43bedc696U, 0x39fbfaf5bc647f7eU, 0xbd5209d8bd766628U, 0x3b9253d5bd785701U,
  0xbd0356b53d4acb91U, 0xbd3a258f39731160U, 0xbd27cab23c1484aaU, 0x3c7f8aef3b2c6a4bU,
  0xbd532559bb7b6ddcU, 0xbd22dc6139f9bb2aU, 0xbbf194d8bccaa461U, 0x3c7012b43c66f163U,
  0xbc9436343d4e2b34U, 0x3cd21aeebd7b0c9eU, 0xbc99e614bd5e8392U, 0xbc94d568bc7a3508U,
  0x3d62ccbf3b3fe342U, 0xbbc9204c3b3ad072U, 0x3d70917fbc6d82aaU, 0x3d47787fbd5a8202U,
  0xbc50f801bd4d7b6aU, 0xbcda4c0bbd6d3ea8U, 0x3c82b208bba34124U, 0xbd25894c3d497123U,
  0x3d22f76bbd8240f9U, 0x3d1da62f3b90819bU, 0xbc4d76a5bc2dc890U, 0xbd0c7c4a3cfda79eU,
  0x3d2179483a6cda9dU, 0xbd18d8a4bd1d7012U, 0x3ceb3972bae5ba90U, 0xbd75fa87bd817193U,
  0x3d2e50203d49f2b9U, 0x3c7593a43cff52a0U, 0x3c6de610bd004a4aU, 0x3d18e35d3d43374bU,
  0xbc78acc4b6e561c4U, 0x3d23fe9d3d0a0496U, 0xbc9f4428bc666a7bU, 0xbd815b9cbc3709d6U,
  0xbd1a7090bd674696U, 0x3d5ae6b73c05b24fU, 0xbc7acf103c38a8daU, 0xbd11e1a73c80e389U,
  0xbd46c7b5bbbfbffdU, 0xbd2092f63d178627U, 0x3d0ce34f3d017cd5U, 0x3d191f39bd008d48U,
  0xbcf4c9a93d500621U, 0x3b4659cf3c980c9dU, 0x3d5d6359bd7fe3b8U, 0x3d30a889bd3af410U,
  0xbd7ed796bb111f7aU, 0xbd65e37d3ce985ebU, 0xbcc7e073bd26affcU, 0xbd0627573bd08f68U,
  0x3d5017993c4b5f31U, 0xbd72c8dabd2039f4U, 0xbd4d52393c660a84U, 0xbd5e51483d07de6dU,
  0x3d2c4eb7bd73c89dU, 0x3d30e9593ba473b8U, 0x3cf12f36bc97ea6fU, 0xbce810dcbd54e8b7U,
  0xbcdcbf41bd3b3621U, 0xbd3048083c0071bcU, 0xbb8d727a3c8a7195U, 0x3c90a39c3d3f75f7U,
  0xbc9262a0bc70c1ddU, 0x3d2ba739bd24fcc5U, 0xbc81455fbd01febaU, 0xbd43e906bda1d1d6U,
  0x3c39638b3d3a658aU, 0xbc99d971bce17eb8U, 0xbb7ee06e3d4c3726U, 0x390ff3c9bd04e4cfU,
  0xbd115bbfbba2979cU, 0x39b89b003d0a87d9U, 0xbc3bb852b9f91c08U, 0xbd4735bb3ba12d87U,
  0xbd2cc5513c34a107U, 0x3d1779b13d0139ecU, 0x3c398e39bd0d0c53U, 0xbd59fb753bc46b9fU,
  0xbd13c7a4bce6726cU, 0xbd5cee1a3c6005faU, 0x3cc975903d685707U, 0x3d121713bd0c5ffdU,
  0x3d46eeefbc903043U, 0xbd5fd8a73cdea9b6U, 0x3c95b18fbae29756U, 0xbcce9411bbf8abfaU,
  0x3d200adcbb902798U, 0xbc23bdc43c5b1851U, 0x3d5321bcbc4fb00aU, 0xbd4f9fb6bd367575U,
  0xbd29b34bbd069972U, 0xbcd8c4293ca70cb0U, 0xbd71f25a3c29b3eaU, 0x3d053a1d3cd1ef2cU,
  0xbcbd27d1bc96faeeU, 0xbd2655973d825bc6U, 0xbd19980abd411627U, 0x3d0226de3c064102U,
  0x3c935ca4bd406bc0U, 0x3cdf357c3c04a508U, 0x3d2b9e3fbd3ba8bcU, 0x39de5e0cbd1918ccU,
  0x3ca2a6173c22052eU, 0xbccbb5f4bc71a710U, 0x3c9012cdbcee7fe9U, 0xbc2f7716ba334240U,
  0x3d0b56563d3a4eb5U, 0xbd03e3043d385579U, 0x3d2568b73c2d495bU, 0x3d10ae343cedd000U,
  0xbd486f46bb3af382U, 0x3c788c4dba85f569U, 0xbd2f178a3d138930U, 0xbd1b94423ccbf731U,
  0xbd4301633c90461eU, 0x3ccd67c43c3314c2U, 0xbd9c16643d4e11e5U, 0xbd85d99a3cf6ddf3U,
  0xbc904afbbd35b2bdU, 0x3c4bf094bc83b11bU, 0x3c84d33f3b270307U, 0x3d30bec7bcf67e26U,
  0x3c04f9aebd48ce09U, 0xbd330e92bd6e25d5U, 0xbc89c9dfbd29afc1U, 0x3cc92ccb3d033d7bU,
  0xbc6a96213bd87fcfU, 0xbc96bfd3ba8babc5U, 0xbd299f04bb969edeU, 0xbd81ce93bcd8d32bU,
  0x3d2136d0bd2143c9U, 0x3ac708163cb000e7U, 0xbd65d393bc6a0359U, 0xbd05b1de3cae0a5eU,
  0x3c891d21bd3072f4U, 0xbd2d63393d811d32U, 0xbd259b8d3c8bca52U, 0x3c8979023c7e0c20U,
  0xbcae024cbd1fbc1dU, 0xba68708abc86bca3U, 0xbc6910aebb60469fU, 0x3cf570d4bcf65b2fU,
  0x3d3b698bbd22b7cbU, 0x3be7098a3d0445a9U, 0x3c29ac4a3d00a39bU, 0x3c0202e9bd4e00b7U,
  0x3d380c43bcc6bde2U, 0x3d13e15abc0f7f30U, 0xbd2f0d593c8d3b4dU, 0xbd85e529bc8abeccU,
  0x3cef54703c5e3bd3U, 0xbd467428bd85dc6bU, 0x3c5f89523c389104U, 0xbca006563d003179U,
  0xbc192f0f3cf7f169U, 0x3c38f12fbd0a490dU, 0xbca94a983d0f05b0U, 0xbc0e44253c013cdeU,
  0x3d392b7d3d30d208U, 0xbd08c4713d67e05fU, 0x3cb665d73d3ab67dU, 0x3b285e05bcf71f4eU,
  0x3caf37043d00f943U, 0x3c8a8319bd1f9794U, 0x3cd072c5bd0ecf0eU, 0xbd2d8b7bbd716eb6U,
  0x3c9f05c23d071a72U, 0x3ce64db73c52c281U, 0xbd6abdccbd3a2c2bU, 0xbd1a52d53c44705eU,
  0xbd7cde813d4f0eb3U, 0x3c85c621bd507f0cU, 0xbbdae897bab73bc2U, 0x3d431b86bc1caf1eU,
  0x3cb650c23d74808cU, 0xbc71cd383caaaed3U, 0xbbc63d823d3dd205U, 0x3d49ebfb3d206c9dU,
  0x3d5745273d624216U, 0x3d2976fdbd161bcdU, 0xbc017b91bd481519U, 0xbd857d533c48b6c6U,
  0x3d47f5a03bac3a9eU, 0xbc7db962bcf2223bU, 0xbc16e75a3cd125c3U, 0xbc3911b0bca4553aU,
  0xbd0e42e93d89f9e5U, 0xbc875a563c5de4efU, 0x3ca27e843cf86d66U, 0x3d4c9cccbd013964U,
  0xbc8c782d3cdc2a74U, 0xbd1ed191bd19350fU, 0xbc4e2e0abcd9164cU, 0xbc96cef43d02ee09U,
  0x3b2d8ad3bd0e6687U, 0x3d4c73b43cc74bc8U, 0x3c97c2a23d0d8a34U, 0xbc3b96673d12c355U,
  0xbca8ebcabc8b0c99U, 0xbd565818b9daf661U, 0xbc635a113c0b7036U, 0xbd47a8173c928c60U,
  0x3d2f4921bd392e81U, 0x3d276977bd6da073U, 0xbc9cff613ca48060U, 0x3d0d0400bd5e7537U,
  0x3c61d6c5bd0ff6e3U, 0xbc8a7b4d3c5565c5U, 0xbbb2f1303cf059f6U, 0xbcae44043d3f9188U,
  0xbd21ed33bccb4217U, 0x3cd0c5ed3cfcd714U, 0xbd816b90bac04950U, 0xbb8f1c74bd328ef5U,
  0x3d7a9e5d39eb0186U, 0xbc439d7f3a2f07a7U, 0xbc6b7eefbd1a2d5fU, 0xbd1f0db63bc01cf5U,
  0x3c8261803a905f0eU, 0x3b8a34263d065d26U, 0x3c9601453d3b72fdU, 0xbd50c954bd10c4f8U,
  0xbbe4e8b33c2a0230U, 0x3d46718fbd02073aU, 0xbcd1f5acbd575849U, 0xbd175c1fbcad80aeU,
  0xbaead5d03cbe0d9fU, 0x3c8ea462bc8967ebU, 0x3d5246dbbd134b9bU, 0xbb4d86383cfa8a42U,
  0xbbe3f1ae3ccf45f4U, 0x3d0352413bf09114U, 0x3bb021b83d413345U, 0x3bc320a83d12ee9bU,
  0xbd1ae215bcf03da9U, 0x3b4036683d1e7a54U, 0x3d3d2139bd2ef57aU, 0xbd3e29ecbc8343a4U,
  0xbcab357dbcdeab95U, 0x3d1abbc63d2d41d0U, 0xbd3a3b38bbd5e084U, 0xbc39bdf3bced8d8bU,
  0xbc5895f43cb5fc9dU, 0x3c947da3bd0a51a4U, 0x3c0e6ad13d3cdb98U, 0xbb0d6051bd33760aU,
  0xbd2190893d5b655bU, 0xbd562e76bc12c998U, 0x3d13d4813cd6cb08U, 0xbd563d573c8a5682U,
  0x3d447e48bd0dafa3U, 0xbd103f593d075491U, 0xbd724ba43d45e993U, 0xbd5fbbbc3c1f805cU,
  0xbc887a3d3cfa52caU, 0x3c3e150a3d7c948fU, 0x3d2be943bd1a3d20U, 0xbc86c7c2bd13ae42U,
  0x3b1e4e6e3c840f42U, 0xbd0ce42cbd553ed2U, 0xbcb364e9bd62ddeeU, 0x3cff4b363d36266cU,
  0xbcc65d403d3eb357U, 0xbcbfc3fa3d55c575U, 0xbd09753ebd089f11U, 0xbd74c30c3b8b9bc8U,
  0x3d25de0fbd5d5de0U, 0xbc36a5debcb9d642U, 0x3d3a659d3b2a8af3U, 0x3cfdd7c2bd20ecffU,
  0x3b481767bd025b8dU, 0x3d52d041bd4bd9e6U, 0xbb86ed15bd19ba48U, 0x3d4acd4abcb6333fU,
  0x3d497df33ccd8351U, 0x3d2c7461bd254b88U, 0x3d1aef6ebc27a50fU, 0x3d4c42aebc5a977aU,
  0x3c9842623cd8f453U, 0x3cf2a6aebc0358ebU, 0xbd7a367ebbb40537U, 0x3d006d02bd4fbfe0U,
  0xbce7889d3ad1ed6eU, 0x3ce66f2a3c5fc28cU, 0xbc8c6794bd5a249dU, 0x3c80f775bca50b24U,
  0x3d08ccafbd68a761U, 0xbd426cd93bd25be2U, 0x3d024eb53afdf170U, 0x3d49eba4bc1770d2U,
  0xbd3f5e1e3d52abb1U, 0xbac9bb693c267614U, 0x3c55f76d3d476726U, 0x3d45185fbbda2664U,
  0x3c37b6c53d078dd2U, 0x3d303d45bc2bf7e0U, 0xbc84ba903d0ba65dU, 0x3d4754b4bd2911b2U,
  0x3d190628bbb1406eU, 0xbade4da13d053a75U, 0x3d15f6b7bd27f74cU, 0xbd3f8c153c73ad45U,
  0xbc8adf93bc9ba516U, 0xbb5d44b73c8a928eU, 0xbd6e6c8ebc2b1670U, 0x3d05bd573cbad78aU,
  0xbc84650a3d65299bU, 0xbd118cf03cb9cc5bU, 0xbd7b4a0ebcacfe05U, 0xbd49b856bca2d6c8U,
  0xb9e51a803d53870aU, 0xbce2a3e23cac80a6U, 0x3cd5e5d7bd0ee4f3U, 0xbb942a96bb420b70U,
  0xbc70391fbb212535U, 0x3d23687c3d0fcd7bU, 0x3d2f1dc6bd61b117U, 0xbd39a4e03c8ca63fU,
  0xbb2ba37a3cdbb4b5U, 0x3cf801883cc2fd97U, 0x3c9be53a3cdfa456U, 0xbd28cf6abc9ebf5eU,
  0x3ccdd7ebbd0f768fU, 0xbc1331483b3b305fU, 0x3c8c8fd2bd6d3bebU, 0x3caa22fabd0f7f0bU,
  0xba22aad23c4a4096U, 0xbd17364cbd5e7bf7U, 0x3d07c667bb819c51U, 0xbc628094bc45f2d1U,
  0x3d196487bc9db67bU, 0xbc7b3caebd799f09U, 0xbca0f031bc9fbd12U, 0x3beab1aa3cb62c50U,
  0x3d2e6fd23d63e2f7U, 0xbc5398003ca82e57U, 0xbdb8f28f3b921198U, 0x3d49c5afbc297d20U,
  0x3b3004e03c005838U, 0xbd1f07e8bc84898fU, 0xbd8fb2763d285df0U, 0xbd7aac333ce457acU,
  0xbd5046d0bccbeaa2U, 0xbd46a264bd2613baU, 0x3cff17cfbbab4ca4U, 0xbd0f5f683b9e6588U,
  0xbb0b6b0abb972b74U, 0xbc924f30bcc98674U, 0xbbf2366cbae23f20U, 0x3c033ab1bc1e6c77U,
  0xbd79e9c4bd16bc56U, 0xbd5e4f203caae85eU, 0x3d4f054cbd1053b5U, 0xbb556a2bbc4fca20U,
  0xbce2fba7bc53e2d3U, 0x3d31b1143cc70a89U, 0xbcaba2f839905209U, 0x3d097691bbb6f48eU,
  0xbcd7f9723c934ea8U, 0x3d5454773d0e3fcbU, 0xbcedb68b3baa8be7U, 0x3d112d80bd36bd03U,
  0xbba68688bd1bfb59U, 0x3d556ecabd61ebc6U, 0x3d1519c93d520c11U, 0xbcbbfd68bd8afbd4U,
  0x3d138d2e3cfcf7dfU, 0xbc6291c0bd33beedU, 0xbded838abb99371dU, 0x3b7d0695bbe210e7U,
  0x3d4b49753cdcc353U, 0x3c1e5e6d3d149c9dU, 0xbc6a125dbd4883f2U, 0xbb5237ecbc3a5b64U,
  0xbc62a44bbd1aa6b7U, 0x3c29a04c3d0f86a5U, 0xbc21f7d4bc4019e0U, 0x3d047a9b3d17cf1dU,
  0x3d1607a9bcc7732dU, 0xbcb8a72e3ce64815U, 0x3d50f762bcb8a52cU, 0x3b89e790bd76deb2U,
  0x3ce830b73d0e3d57U, 0xbcb42c6cbadb0751U, 0xbd1b3a84bd47d4b6U, 0x3c3bc1d1bd6f85c3U,
  0xbcc987a53d54ce92U, 0x3d238b863cab7f9bU, 0x3ccba5163c6dc8e1U, 0x3d4ce5c3bd0941cfU,
  0xbd5d264d3d1f2ac4U, 0x3c7488c4bbcb8148U, 0x3d4aceca3d29a8d4U, 0xbcc6c0143c7a65b1U,
  0x3c7e14d9bd366555U, 0xbd767f063aaaa19bU, 0x3c946683bc4d7076U, 0xbd7178a4bd0446d5U,
  0x3b7aadce3d8036bcU, 0x3c2fc3a3bd27256dU, 0x3c7d2c673d80da15U, 0x3d25a5b63b0d2c31U,
  0xbd5950bf3d2df8c4U, 0x3d1b25393c758c9dU, 0x3d0fd97b3bb5fbb9U, 0xbd6495e8bd04f3f3U,
  0x3ca6a0613d805972U, 0xbd405198bd6524eaU, 0xbd3bac45bd2b2d41U, 0x3d1b3bb3ba7d9809U,
  0xbd58baa4bc67d7e3U, 0xbc8e77783caa1a2bU, 0xbd6142c4bce57501U, 0x3cbe7e77bd439dc3U,
  0xbd1e7f3abcfd3cebU, 0xbba16f473ca8f9b1U, 0xbccbfd4f3d1d04f3U, 0xbc826218bc542f2eU,
  0x3cf0ba743cc9c110U, 0xbd5b852cbd2f4780U, 0x3d50b9833d15cc74U, 0xbd375c793d01e6f5U,
  0x3d53a2923d1d9e34U, 0x3d0205813c069c7cU, 0xbccec5c83c8bf150U, 0x3ce159733ca58ccfU,
  0xbc14a2ff3c97b376U, 0xbcc774573d3033e2U, 0xbc99dc843cf74709U, 0x3c9ac4c8bd17d2aeU,
  0xbcbcf770bd22dc8aU, 0x3ce727debd064834U, 0x3d41ecd13d3c4e5aU, 0x3cd5fd683d1aaa8bU,
  0x3d44a4e53ceb91b3U, 0xbd1950d3bd19bc0fU, 0x3c2eec1d3ca149b6U, 0xbcf36baabd64b6ddU,
  0xbced770cbc4fe5a4U, 0x3d480e493d2809dbU, 0xbd5dfd503d3c4781U, 0xbc8b6399bd554c95U,
  0xbcd968c7bd0a1caaU, 0xbd32c996bd75167bU, 0x3bfd5a5dbba6c900U, 0x3d325fdebd828008U,
  0xbd2a6d653baef777U, 0x3d13140b3cbf5f93U, 0xbd71615abcb00476U, 0xbd6f04d0bd0c78a8U,
  0xbd038cd13c3ebc2fU, 0x3ca0b50ebb301ffeU, 0xbc2ad847bd1c5135U, 0x39af7b8abce01d61U,
  0x3c8c1ce2bbc9c961U, 0xbd3d4436bbbb5d88U, 0xbc1f92bbbbe1de61U, 0x3c85f9903a14f980U,
  0x3caa4d2a3d3d1475U, 0xbd77e6b0bd04a5fdU, 0x3cea89193d26491bU, 0xbd4d79253c5bccb1U,
  0x3ce4a5b2bc67360eU, 0xbd5a40d43bd69a32U, 0x3cc84e3ebb812acdU, 0x39acedba3cfeed4eU,
  0xbca39f4c3c93f266U, 0x3cd420c53c402285U, 0x3b5a9a323d36d4c2U, 0xbca5e365bd3d8f65U,
  0xbcc3ba493ce30a4eU, 0x3d147649bd294907U, 0x3cf8c4213d03ef22U, 0xbd5b212dbce2c4ffU,
  0x3bab3a11bd2851e7U, 0x3c96fe50bb914de6U, 0x3d0c452d3caea8faU, 0x3d308e5fbc87b9d5U,
  0x3d0480cb3d5599fbU, 0xbd2615d3bcf4a96eU, 0xbd003900bb64a723U, 0xbd070430bd2fe964U,
  0xbcc0a94dbd2291a0U, 0xbc28c0cc3cbfebd6U, 0x3c95925abcb5a5f1U, 0x3cf72e1fbd44dc85U,
  0x3c96ed47bc0088e1U, 0x3d6da615bd6857acU, 0x3d1c6119ba8485d0U, 0x3c902788bc9061adU,
  0xbcfc5743bd8d4b39U, 0xbc85bd83bd80f024U, 0x3cf8c836bcdd7371U, 0xbd192b643c90baa3U,
  0x3ce40be8bd38d46dU, 0x3cd302883ade33ecU, 0xbd74620e3d01a41aU, 0x3b8a433d3cd6db74U,
  0x3c98d222bd176e9dU, 0x3d377d733ce1626fU, 0xbd948682bd775f1fU, 0x3d2be5373d0cb2b1U,
  0x3bc57d01bca4f94cU, 0x3cb623aebcf92557U, 0xbc59cfdbbd81d3b4U, 0x3d4528953ce0810eU,
  0x3c8d206c3c338e62U, 0xbcaecc14bd44a1c4U, 0x3c4812bebd53f697U, 0x3cf740babd5c51d7U,
  0xbbab510c3bd02433U, 0x3cd03a143b88684fU, 0xbc0be4a0bd20ae3cU, 0xbd179de73d0cd301U,
  0xbd338d23bd201e27U, 0xbd6bc873bd3b1898U, 0xbd1445e4bd5fbbe0U, 0x3cca1a7abd83abbcU,
  0xbd4423483d506d3dU, 0xbc7c674c3c4a7ae4U, 0xbd48eb05bbb68772U, 0x3d290cdb3c6f9e23U,
  0x3cbe0df838ec6f75U, 0x3bf1ae61bcb69270U, 0xbc101f74bca13694U, 0xbd1a02a4bd50201cU,
  0x3d26e51a3c21e3c6U, 0x3ccbdfde3d142197U, 0xbd606b8dbc22d941U, 0xbd82dddd3cda1d35U,
  0x3cfb81fe3d1b6fddU, 0x3c2852a03cdd49d8U, 0xba8cfd50bb5d1968U, 0xbd7dfeef3cf138ecU,
  0x3c7a0647bd512007U, 0xbd586c1a3d4a9b92U, 0x3c935569bc040008U, 0xbd82b436bcb48cb6U,
  0xbc268f2dba3c780aU, 0x3cef2e5dbaf79a69U, 0x3d22e5903d051a4dU, 0x3cf840d2bcb19e15U,
  0x3c3b0106bcc6f521U, 0xbc1ff9563c4668dbU, 0x3ba756d3bd6c45daU, 0x3ba094be3cb82fd1U,
  0xbd595aaa3c2a934fU, 0xbd577c31bd169e78U, 0x3cedb428bcc3d9abU, 0xbd5ba643bc5430b7U,
  0x3bc368783cd9bbd9U, 0x3d3404efbd334ce9U, 0xbc825e003d159551U, 0x3d0fbe06bd36bb38U,
  0x3c0f31593d1f7ebbU, 0xbd281eaebd140f9aU, 0x3c5547783ccf96ecU, 0x38a1a11e3d015addU,
  0x3d306b0a3bd96918U, 0x3d49977d3c7ee3cfU, 0x3c0d7a643d1b8c55U, 0xbd4af2a7ba826975U,
  0xbc7557a4bcf832f8U, 0x3c9e63f73cdd5de6U, 0xb99043143cfdf1ccU, 0xbd164b0fbd44df09U,
  0x3ce9788abd1fce4cU, 0xbca4d0dcbc51b0b5U, 0xbcd728cebd589f73U, 0x3c90314cbca3bfccU,
  0x3cf70f45bc4c0328U, 0xbc8b8efabd40489dU, 0xbd474094bb5aab80U, 0xbccac014bd1babdbU,
  0x3d3c2550bd5f3725U, 0xbd5fc09e3ca775d2U, 0xbc475538bc5134deU, 0xbba136723d2d3c22U,
  0x3cb0d0f8bd8240e1U, 0x3d352a2cbd49042fU, 0x3d2aaa3cbcb9b421U, 0xbc18a76bbcf6273cU,
  0xbd4285f73a49c549U, 0xbcfc5e7ebd023164U, 0x3d022e6dbb4375c0U, 0x3d0461193d096979U,
  0x3c348decbc0e12cfU, 0x3c7e865c3c90e267U, 0xbd16e8773d389c3dU, 0xbc0fae083c058570U,
  0xbd76c60abd2fa6d9U, 0xbd847686bca6457dU, 0xbcc05d943d665fc1U, 0xbd627965bca04f51U,
  0xbd1f5ff2bc8df919U, 0xbd413c53bc940dc6U, 0x3c7979bfbb8be255U, 0x3cb68686bcbe80c7U,
  0x3d658e5dbd30ef74U, 0xbd466609bcccdb0fU, 0xbd1b7c103cc3d959U, 0x3d3118e13c47cb24U,
  0xbbca470c3d2d8ba1U, 0x3d260b87bc38e10dU, 0xbd1458343d5c0129U, 0xbd3fb0fd3d197e1fU,
  0xbd09839b3cf774acU, 0xbcaa27debbd1d3dfU, 0x3ca142ed3cf551fbU, 0x3d2dd1c7bd80239dU,
  0xbd45c3aa3c884c8fU, 0x39ec92f7bd70cd32U, 0x3d0c465abd2b55e6U, 0x3c837124bd605ad8U,
  0xbcdbed373d494949U, 0x3d374e7bbc5737f0U, 0x3c530ff83c682c43U, 0xbc970dd5bd32bb46U,
  0x3caccb823c8165c9U, 0x3cecf56abd2c84f5U, 0xbc9df4593d052412U, 0xbd1fb6f2bd13f3b1U,
  0x3d1b9b59bc36caaeU, 0x3c3a4083bced3440U, 0x3c32c613bcdac72bU, 0xbbfe00333beebdfbU,
  0x3ca386d23b2dfdebU, 0x3a9e60dcbd17b5feU, 0x3cc7a040bc2161a0U, 0xbd65facd3d38d33bU,
  0xbd335bd2bcaa5d5dU, 0xbdaf7ce43a9d7dddU, 0xbcb62a45bd416d9fU, 0xbc40d9fb3c344114U,
  0x3c6f0543bd82144fU, 0xbd6a6feebce38597U, 0xbd2a569d3d3eb80bU, 0xbd501934bd57566eU,
  0xbd098ec8bbb84020U, 0x3d132694bb04621bU, 0xbd117e69b923c818U, 0x3cce241cbd504dcaU,
  0x3d0eedf73c49442aU, 0xbcc4bbfabd74e760U, 0xbbb760b0bcfa86d9U, 0xbab3496dbb57915dU,
  0x3c37c5903b6cf91aU, 0x3d46d0dfbd4642c1U, 0xbd662e7bbd1b50faU, 0x3adcc81bbd27af7fU,
  0x3c2acaca3ceb5756U, 0x3aa95eb33b79a75fU, 0xb93046213c50ba78U, 0xbd161c963bbb412cU,
  0xba08bfe0bbf75d5eU, 0x3d2753ea3d042aa4U, 0xbcd6a685bd3d9fb5U, 0x3c8cd17bbcb55aadU,
  0x3cf727c63cf2669bU, 0x3bfa53843cfca4c4U, 0xbdc7c6df3d1ef6c8U, 0x3c5a70d43d0b9de3U,
  0xbd53cabebcfbe8e8U, 0xbcaba4d2bccddc81U, 0xbc95f8a4bd801588U, 0xbd52460ebcb4f0a9U,
  0x3c95e9123c0d431eU, 0xbd1a6690bd4905d3U, 0x3cb13792bc3e46e3U, 0x3c5a6180bcd7fcacU,
  0xbd52b0e73ca1557cU, 0xbd373cd93d3b87edU, 0xbd655493bd64030fU, 0xbcc91bc93c969049U,
  0x3c38ed3abc38c5beU, 0xbcd793d1bcc34d75U, 0xbd7501e1bd2bbca1U, 0x3bcc43913cc015aeU,
  0xbcd60d2c3c70fdf1U, 0x3b52abc0bd1a73e5U, 0x3b94235ebd0af9e3U, 0x3d5485783b239e30U,
  0x3d1bb156bca4a0cfU, 0xbd1373c63c33e162U, 0xbcd4fcdcbc6a54dcU, 0xbd67c111bc438367U,
  0x3d24fefabc8dfce2U, 0x3d3ebae73c936e30U, 0x3d2c0b1fbdaec284U, 0xbd0dec073c81e80dU,
  0xbd28765abced90e6U, 0xbc833c623d54d5d5U, 0xbd97ba753cda72d7U, 0xbd5fd43abd48a316U,
  0x3c9f1ffbbc7b9045U, 0xbd1292753a17bb35U, 0x3d4083f8bd8a6b76U, 0x3c270b14bb92b298U,
  0xbd69ec033d477aa1U, 0x3ba957483d519844U, 0x3d200b3f3c13e506U, 0x3cccc6323d3049acU,
  0xbc8bee2fbc9c47fcU, 0xbd356eda3d442a77U, 0x3d416322bc61afdeU, 0xbcde65943d268bfcU,
  0x3c21b6b1bbaf0fafU, 0xbd2e1e463bf5d9a4U, 0xbcacb9ed3ce16021U, 0xbc1b8cff3c9a880dU,
  0x3d2136f23d741897U, 0xbd51bd013acaa340U, 0x3cad1eef3d48d7a5U, 0xbc749a83bd517766U,
  0xbd1225383ca9aea2U, 0xbd578657bcea85baU, 0xbd276e74bd66ae2dU, 0xbd4d15be3d1bcdb9U,
  0x3c0e8bf8bce9373aU, 0x3d45c90abd50ab97U, 0xbbf356a23cc3d0a0U, 0x3be8fef83a482b48U,
  0x3d11e757bd31107eU, 0x3d1b2a66bd7ad4cbU, 0xbc59ffdbbcab5f97U, 0xbbd87aa0bc4c9a03U,
  0x3c8e42663cadda3bU, 0xbd46bb64bbd3d18eU, 0xbd81aa9ebc81fa11U, 0xbcf314a1b9a91270U,
  0x3d418a9dbd1ceb03U, 0xbd841f20bc95399cU, 0xbd0068573d155c45U, 0xbb2cd133bb84d466U,
  0x3cb374b3bd618a84U, 0x3d3500c63d2e6d21U, 0xbc09ac363d0ea6cfU, 0x3c1c03bbbd054e48U,
  0xbd250d373b0c9897U, 0xbb775fbe3c11f3aeU, 0xbc1334463d4a0bceU, 0xbd438647bd768f19U,
  0x3d27eb4d3c2f98d8U, 0x3d1fe1f3bc6a5e8cU, 0x3d3d8351bd4a9bfcU, 0x3cf1c3c8bca46e50U,
  0xbbddec36bd757fcfU, 0xbd641fd7bc08825bU, 0xbd57f0ecbc031273U, 0xbd16cb243c5d7e5dU,
  0xbd185051bcddea48U, 0xbd20195cbd38532eU, 0xbd058d56bd6f0bbbU, 0xbd6ae01dbd17389cU,
  0x3d4b6a3b3cf5860eU, 0x3d0deef83d444ba0U, 0xbd85f78bbd3ff529U, 0xba9c0b38bd214395U,
  0xbd549737ba2e6596U, 0xbd0e3d0ebd2cc22cU, 0x3cd6337bbd8250b8U, 0xbd3b12903d0259c5U,
  0xbc85064fbd817d74U, 0x3c2984edbbe3e1d6U, 0x3cf635debd5e77edU, 0xbc1bfa0d3d4d3b60U,
  0xbd767fe13b8e812aU, 0x3ab8e2e5bad062cbU, 0x3d1b4c3dbd478a6fU, 0x3ca867ecbccca787U,
  0x3cb0a69e3d39440aU, 0xbcf7b1b9bcb42e1fU, 0x3cf0bfe63d3d5214U, 0xbd6b5a3fbb59fdacU,
  0x3c67a00e3cef6380U, 0x3d65b1d33d32fdddU, 0x3cf304853d26bb54U, 0x3d3ed2253cfc67c1U,
  0xbc9b1b593b95f449U, 0xbd14189bbb96be87U, 0x3cbc7399bc6455f6U, 0xbd6cad88bcf60547U,
  0xbc89958abd1accbdU, 0x3d3ceedbbcd03da2U, 0x3cba11ab3d688b31U, 0x3d3888fc3cfb890aU,
  0xbb89a5d8bcfb90e5U, 0x3d4af8bcbd47b65eU, 0xbd9271013adea18cU, 0x3c9df0733bc5f051U,
  0xbd18cdb13cee8dc9U, 0xbcfe783f3d1a1f60U, 0x3cb5a5603d3ed647U, 0x3ce42a003d252067U,
  0x3c5efda6bd0e6051U, 0x3c86d74ebd08cf46U, 0xbd1f8619bd5f18cbU, 0xbb36dec23d3e588eU,
  0x3b539d103d3c154cU, 0x3d3df286bbf93be8U, 0x3d1500e13d1376dcU, 0xbbeff414bd7fbbb7U,
  0x3b919836bd0310f6U, 0x3cdadee93b074791U, 0xbd0812d3bcf22e48U, 0xbd4d1f55bd783b36U,
  0xbaa4bee8bcfdee05U, 0x3cebc2563c90efbaU, 0xbd37da30bcc21528U, 0x3d3d64313d0ed07eU,
  0x3d4fd0ff3aed223eU, 0x3ca6fe4d3b4f181aU, 0xbd65a0663cac5041U, 0x3d3e7ac43bbbe48fU,
  0x3b71a1c03d290c2fU, 0xbd64fe1c3c8413f4U, 0xbc244ab4bc488a9cU, 0xbc23a5e4bd624750U,
  0xbccc8d963d7657b5U, 0x3b3b110bbd57f108U, 0xbba110a03d0b1824U, 0xbcd681673d4efa22U,
  0xbc23f344bce7660aU, 0x3c4bf85c3c9e0368U, 0xbd1881c83c226a65U, 0x3d4dd6f1bc4ad070U,
  0x3d4e4f9bbcf38aa6U, 0xbc133d163d18124eU, 0x3cc6beb63ce615a6U, 0xbce562363c7650f9U,
  0x3d2fb8c03d3690d5U, 0xbd7839ce3c9059d6U, 0xbc4549b3bd5b5b37U, 0x3c6c3ab23d440c0bU,
  0x3d1812cf3c1d7e13U, 0xbd30e4343d455269U, 0xbd3794c7bd163522U, 0xbc905f1b3d2d50efU,
  0x3ce079b1bcc520faU, 0xbd562581bd6244e8U, 0x3d453ee23d4fd1aaU, 0xbd0964ddbd28cb78U,
  0x3d09f97fbd27971fU, 0xbd3e653dba42e476U, 0xbd45ced5bd12358fU, 0xbba0320b3ca35f86U,
  0xbd0da93d3d1d361dU, 0x3cf94a073c24bf0cU, 0xbd825a4a3d0c74e1U, 0xbc5b345bbd038d68U,
  0xbd4e0dd0bbe544a7U, 0xbaaa73203c60f734U, 0xbd35d85cbcb14b08U, 0x3ac221d1bce8c5f1U,
  0x3d192ee6bd442a6dU, 0x3bf2f288bd236a07U, 0xbaa0919cbd212cd3U, 0xbd62e1e33d44d27dU,
  0xbca2aa7bbd876a67U, 0xbcc3f10cbd1df277U, 0x3d0e263c3beb12e8U, 0xbd1328e73ce9a256U,
  0xbd0938dabcdc10acU, 0x3bc173463c6747c4U, 0xbd0c3182bb598306U, 0xbd29355dbca4327dU,
  0xbd088d333c65fabdU, 0x3c80fdc1bcc7d6f1U, 0x3d2c02bebb1266cfU, 0x3c0984263d3f6f91U,
  0xbd3197223d4b8dd9U, 0xbd296eaebc333c0cU, 0x3d0a69043d179b71U, 0x3d31bd17bd7e1d8eU,
  0x3cfd7127bd83e1ecU, 0xbd09615dbb6cb23dU, 0xbbeda2a13d34b304U, 0xbd641cb73d1ed98cU,
  0xbc251f193d6f308fU, 0xbaafdf593c26d357U, 0xbd8926243c8706eaU, 0xbd4c9232bcd66441U,
  0xbd586edf3d6795f7U, 0xbd4673d9bd3d61e7U, 0xbc21d7aa3cbd8989U, 0x3c9f62fa3d4bd3e3U,
  0x3cdc611abc64223eU, 0x3d3e66e7bd4f60e2U, 0x3d24d84a3d02cb0bU, 0xbd6afcc43d6940edU,
  0xbca0a0423b143305U, 0xbc648d2ebc96c1ddU, 0x3a96e0c8bd2ca2b8U, 0xbcf77dde3d061fd9U,
  0xbcd119a93c97bfa2U, 0x3d39d181bd4fea2fU, 0xbbb7d20bbc14f171U, 0xbce0362fbc0a3c9fU,
  0xbd037ea83c9b92f4U, 0x3c8f3001bcf54d2cU, 0xb9bf23a0bd044873U, 0xbcd47a923c213804U,
  0x3d2d802abb07cf41U, 0xba837b8cbc910fc8U, 0xbd696c763cb62769U, 0x3d218466bd02f83aU,
  0xbd5f187ebd1f36afU, 0xbc5b08ebbb794641U, 0xbca4efab3d3a31ccU, 0xbca52edbbce73c8dU,
  0xbd19721d3d3a1873U, 0x3afda5eabd781d61U, 0xbd536a2b3bbd3ed9U, 0xbc96a7133d154674U,
  0xbd06d6dc3d478432U, 0xbd7400e1bd0e7b4cU, 0xbd5fce7bbd1fe60aU, 0x3d1897043c83e7feU,
  0x3d310e3c3d00b60bU, 0xbd500f303ced9e05U, 0xbd514aa9bce0ccd2U, 0xbd3a2e23bd4793ddU,
  0x3c4ce234bba0a49fU, 0xbca8e31abc6187f2U, 0x3cf1de2e3c70023dU, 0xbd6cde6cbd30fa00U,
  0xbd10b05abd8131ffU, 0x3d0f5eeb3d6b1138U, 0x3ba866cdbcaad5d3U, 0xbd21d469bd076d18U,
  0x3d1948403d3b3e90U, 0x3d1a64503d05b77bU, 0xbb13e7adbd85fcb5U, 0x3c633d83bd99142cU,
  0xbd812c3fbcf1988fU, 0x3ceffbb03c14482bU, 0xbc8e522dbbc91918U, 0xbc6c1a7abb5aed00U,
  0xbcbfdc413c244636U, 0xbcf81b80bd04353aU, 0xbc8a6adebc7f89bbU, 0x3d2c52f0bbc503f5U,
  0x3b4798963c8dce10U, 0xbbef90febd39d403U, 0xbb90bccc3c88c2dbU, 0xbc945eadbd184eb4U,
  0x3c470f04bc9a7d4cU, 0xbc1cfe32bc55e913U, 0xbc900d7f3cf8d366U, 0xbaa33185bb34528bU,
  0x3c9574373c5e40aaU, 0x3a01bc8ebd6edbccU, 0x3c20acd4bd869c71U, 0xbd26391b3d1460baU,
  0x3d240cf63d2330faU, 0xbd838acdbd6fa7ebU, 0x3b8cede1bccca256U, 0xbc821067bd845149U,
  0xbcf46295bd5fd4e2U, 0xbd3de7cf3d0cca59U, 0x3ba07abebd6c39a8U, 0xbc7e0ef0bd9274e6U,
  0x3be59f01bcfbeda2U, 0xbd4cfa40bd441171U, 0x3d1689a43c2a3870U, 0x3ca9f44abce0d711U,
  0xbcfc486dbd14ed87U, 0x397fdce1bc3f9564U, 0xbd827fe23ccc5f31U, 0xbc550dd8bba36900U,
  0xbca56e0b3ccdb03cU, 0xbd56971dbd107f67U, 0xbcfc29a138bb8b64U, 0xbc8bc779bd83a4cfU,
  0xbd7d17f3bad0c76fU, 0x3cea35c63c0fc1c5U, 0x3c8e20f1bd395789U, 0xbd12876e3c4984e1U,
  0x3d0cdbe3baf19ecdU, 0x3d486e5f3b4ab1aeU, 0x3b691de3bd49e914U, 0xbc3bc332bd37dc51U,
  0x3caa5c3abd427eedU, 0xbd5b7094bc6b8701U, 0xbd0016aabc9f7888U, 0xbd7e8964bb237307U,
  0x3c9b10c83ba8cc7fU, 0x3d333a81bd43a844U, 0x3d3097cf3c17d97dU, 0xbd3377e9bd1cc8d7U,
  0x3cc2d139bd46790aU, 0x3a6ed71a3c63b874U, 0x3d3a4d2fbd48534eU, 0x3d29952ebcf6545eU,
  0xbd5c5f4c3cd716deU, 0xbd77b79f3d442d6dU, 0xbcf654a1bcb5974bU, 0x3c7ed814bd92d93bU,
  0xbcbed8f0bcb17f8eU, 0xbbc33d31bd20be39U, 0x3d3ddadebd0c066bU, 0xbcd1df42bd890713U,
  0xbbc25b85bcba7d14U, 0xbc382b57bd87f2e8U, 0xbd5fd1393b50bae9U, 0xbd80131c3cca4ce8U,
  0x3cacfbdbbd17f582U, 0x3c9b1a293c41ad8cU, 0x3cf24664bbca0064U, 0xbca089f23cd42c7eU,
  0xbca5c15abd1b4d6fU, 0xbb59cdb8bd7c387cU, 0x3d066d50bcf98ee1U, 0xbd803e31bc8ee9aeU,
  0x3c1d806d3ccafca2U, 0x3be200753d070cd6U, 0xbc995176bcf242c4U, 0x3b931275bd42ae84U,
  0x3caec0edbceb1a06U, 0x3c9a571b3c40865aU, 0x3b481d80bc3dba0dU, 0x3d391b26bd6010ebU,
  0xbc8574f8bd73b69bU, 0xbd33b5fabca1bd08U, 0xbcd0ea1a3bfc5d71U, 0xbba7f6f2bd045e3aU,
  0xbd236eb53d34a8aeU, 0xbd85b50f3cd80b5bU, 0x3c06cbba3c722d2eU, 0x3d236d8e3a42197eU,
  0x3d27db9e3d048be0U, 0x3c1b388abc949b0fU, 0xbca15cbf3c83196bU, 0x3cc41547bd535906U,
  0xbd2088d9bd32c4e7U, 0xbc4662d7bd3a6da2U, 0xbd44be88bd7af7b1U, 0xbc6c25e7bc5bfca1U,
  0xbd47f835bd50e1e3U, 0xbaf148433aa7a89eU, 0xbd57d772bd21ad24U, 0x3b83021a3d28dee3U,
  0xbbabcf353d1274bbU, 0xbd43d861bcab00b5U, 0x3b9b59d8bc9eef05U, 0xbc74a7be3d03cb0aU,
  0xbd38c861bacf30d8U, 0xbc8855cbbc8caf2dU, 0xbc300fc1bcc287a1U, 0xbc7869713d2de20eU,
  0x3d086e1c3cdbd020U, 0xbd81e4393d03b110U, 0xbd2b4d8abcc9aa44U, 0xbd440b6ebd476be6U,
  0xbb0f6314bcf98232U, 0x3c9cd3c23d2092dfU, 0xbcc719363d126210U, 0xbd4782e5ba75f0efU,
  0x3d0357323caf462dU, 0xbd0cec183bc365eeU, 0xbcf0ea1cbd85d0faU, 0xbd036632bc844831U,
  0xbd03b95d3cc1f120U, 0x3d465560bd0613c1U, 0xbd47a466bd3f5099U, 0xbd320bdebd3b72abU,
  0xbd1cb9d73b8b46a8U, 0x3d0427cd3cbe382cU, 0x3c98f98cbc8815f6U, 0x3c1b07d4bc0f9532U,
  0xbd525ecdbd90c5a7U, 0x3cd783153d3eecbdU, 0xbd2d76e0bc68fb40U, 0xbd71de923cb32cb4U,
  0xbd1ba2d43c08d3efU, 0xbd78bd50bc80809eU, 0x3d2de81abd5ec7cfU, 0x3d028234bc312157U,
  0xbcab8334bd8d91d3U, 0xbc76f84abd6e8483U, 0x3b8732d4bd2d2c6eU, 0x3c47ee4ebcdf7c9fU,
  0xbd37c9f13c70babeU, 0xbcedf00c3ce5ef34U, 0x3c267c64bc8016b4U, 0x3b0723e1bd282b56U,
  0x3c2a8d0abcd1ed7cU, 0xbd3afcfcbce0f0b0U, 0x3a318ec6bd6e8277U, 0x3ca2870b3c95a243U,
  0x3bdeaa233d4159e1U, 0xbd16ba7abcbaa230U, 0x3ca4ecf5bd33e958U, 0xbd0741edbcd3f7e7U,
  0x3d1083153d0fed73U, 0xbd7decb53bd88e41U, 0x3d49efd7bd7989c2U, 0xbd50ad82bc8453b8U,
  0xbd415c82bd760795U, 0xbcd1c2a2bbced549U, 0xbc90f1dbbd757049U, 0xbd7dec52bba1a1e4U,
  0x3c2be948ba654c2bU, 0x3d032edd3c4606f8U, 0xbd08f4ea3c878cffU, 0x3a0633e6bd4cc922U,
  0xbd373599bd2bc0d5U, 0xbc081f4bbc7622f7U, 0xbd79710e3cb25d44U, 0xbd639a20bab4b754U,
  0xbafc63d8bd8bef13U, 0xbc9091863d055bdfU, 0x3d22a3063cc16b8bU, 0x3cd771d2bb5981a3U,
  0x3c0dc57dbd3cb277U, 0x3c14dfdb3c9e975dU, 0xbc8bfa6fbd0007e6U, 0x3cc680bc3b8febddU,
  0x3ce8819fbd11f204U, 0xbd5c2460bd392671U, 0x3af17b65bc37fcb4U, 0x3d0feff3bdbf9a08U,
  0xbd6e414e3d04a737U, 0xbbd8d584bd82983fU, 0xbd6196903d33eee4U, 0x3be95ac7bd86c857U,
  0xbd53470bbc0a1dafU, 0xbccb14123d103899U, 0xbd5605383cf52486U, 0x3bb5f0ccbbb29422U,
  0xbcbb4bf83c086d24U, 0xbba6e89bbda39134U, 0x3d4a75523d0c4f34U, 0xbd381b82bcc7fc66U,
  0x3c8166323bdaff3dU, 0xbd718745bcf5d1a8U, 0xbcc3f6e1bd63c337U, 0xbd9fa84fbd674154U,
  0xbc695614bd77325dU, 0xbce2e976bd6a35c2U, 0xb9f495adbdafeba9U, 0xbc6bf0d0bcce69a3U,
  0x3d5912ddbd7a94feU, 0xbd368b0a3cb2ff4cU, 0x3b7342f43cdc2fa2U, 0x3ca2b4cabcc0cbceU,
  0xbd898356bc07ea9fU, 0xbce8849f3d1823b9U, 0x3caab3c9bd6a46ccU, 0x3d120c8bbd55a880U,
  0x3d12fa56bc5df249U, 0x3d1ea611bd3fa138U, 0x3d123d85bd247191U, 0xbd39d4a5bc406f9cU,
  0xbbba5cf6bd83b3b8U, 0xbb53f5f7bd9dba74U, 0x3d4bbd8dbc21dabcU, 0x3c782a003c7309e9U,
  0x3c37f5db3c55238bU, 0x3d6181693d4203e5U, 0x3d254222bb36ced5U, 0x3d210a82bd106369U,
  0x3cae1a6cbd825b21U, 0x3c80b8d1bced8243U, 0xbd301aaebd5a534dU, 0x3d2c3bc13d0640a8U,
  0xbd0a2c793d2c71e9U, 0xbc4e6380ba12fad3U, 0x3c88dedbbccca995U, 0x3c2692cb3d128c4eU,
  0xbca39ba4bd351092U, 0x3c53efeabcb580efU, 0xbbda507ebd102168U, 0x3d480c473d0024b2U,
  0xbd54b4923cc3ec0eU, 0x3b8b67c8b98375a2U, 0xbc99c2603c664c03U, 0xbd2195b5bd0ee936U,
  0xbcf508723989b70cU, 0xbc9573b3bd4ff64aU, 0xbae7a7473d17c23fU, 0x3ce5fc7fbcdf8d1aU,
  0xbd6dec473d032022U, 0x3d396905bb0fe24dU, 0x3c90cfe0bc872996U, 0xbcf6aa7fbcfd3d86U,
  0xbd811fd93d44cbcdU, 0xbc186eabbc21124eU, 0x3c5e3a94bd8519cbU, 0x3d1555933be78b3fU,
  0xbd3961ed3cca42c5U, 0xbd5a2239bd2d7a51U, 0x3cce7db4bcdb2966U, 0x3b8337013cf1d012U,
  0xbd3940913c00fb09U, 0xbd8bd13fbbfbe1efU, 0x3be38eb6bd431af1U, 0x3ce22ad43ca28b49U,
  0x3c6e80383cb2c803U, 0xbd0aec933c46ddfcU, 0x39c3332abd515434U, 0x3b8a7fe2bd6a2af0U,
  0xbd04f93ebd8317a6U, 0xbd647618bcbe6c53U, 0xbc2d77213c4328ecU, 0x3d2904c63cf25f65U,
  0x3cd88cacbbcf94d4U, 0xbca61d79bd048d24U, 0x3d2977d7bd45dc41U, 0x3d0f40a93d818e76U,
  0x3a4661dcbd792fbaU, 0x3d1cd191bd43b6caU, 0x3d35d6fc3d36e4e9U, 0x3d4639f9bc9cf298U,
  0xbd0cca9cbc56897fU, 0xbd4ecb4dbd26f571U, 0x3cd6ff17bd37b816U, 0xbd03e0823c9b37e0U,
  0xbcdf1963bc817e5dU, 0x3d45546638b2c26dU, 0xbd05627ebc41ba64U, 0xbcd63fd3bd2b6b47U,
  0x3d188360bd7615deU, 0x3cacafec3c529e3aU, 0x3c1b90e1bd09e5afU, 0xbb2122ecbd76c07aU,
  0x3d52f508bba6298aU, 0xbca5fd8fbd82419dU, 0x3d0bd5f9bd52be95U, 0x3c3b8d1fbc437ac5U,
  0x3cc3f4c9bd747b1bU, 0x3cb7ceaebd44d6b8U, 0xbccb153abd48b313U, 0xbcffda9f3bea5fcaU,
  0x3cf80beebd7daa06U, 0xbd4e49b53c8579faU, 0xbd49a4d9bc8bcabeU, 0x3c15df26bd43b638U,
  0x3d81988fbd8e7935U, 0xba8ed0773c7a4d50U, 0x3c8fb8933ab2506bU, 0x3cbf8f4b3d4de9c2U,
  0xbd192d08bd5d5dd8U, 0xbaea66d03ca5b1c8U, 0xbcbafcdebcc424f1U, 0x3d431eebb8eed664U,
  0x3bffeda83b0f60ccU, 0x3d166fcd3d1eb19cU, 0x3c237e46bd692619U, 0x3ce573a1bd2a573eU,
  0x3ce2daa23cb720ddU, 0x3c4add27bd30558fU, 0xbc6d5cf63cb69acbU, 0xbbcba31dbd833d91U,
  0x3ceb17cabbe1c888U, 0xbc739a553be0f0bbU, 0xbd61ecefbd83de6cU, 0xbc93aa29bd8334e8U,
  0xbc8deed5bd669e02U, 0xbcc7e2fdbd852bf6U, 0xbd2276edbbc06d0fU, 0x3d0eb3b3bd217dabU,
  0xbd4f0408bb7982dcU, 0xbd32c233bc60d0b4U, 0xbc6c4710bd1c883bU, 0xbc97316ebd3e440fU,
  0xbd5169afbd348837U, 0xbd2a4bb73c9a9eb3U, 0xbc2182ebbbfed032U, 0xbc3a63aebd161118U,
  0xbd1194c6bd9c7467U, 0xbcf18bec3cfc8a2bU, 0xbd2b344dbd8d4292U, 0x3ba96b613c37c4d6U,
  0x3c5dd5523cc49291U, 0xbc856005bd23e5d5U, 0xbd411ababd08025dU, 0xbd48d8a4bd8326abU,
  0xbb6fb3d4bb644c0bU, 0xbd4b00fe3d17324fU, 0xbd4518c73c287936U, 0xbd43ebcabd487eb0U,
  0x3cc275653cd57a26U, 0xbd1250abbd1c3bf7U, 0xbc733d72bc1e0ff7U, 0x3d130f30bcb647cdU,
  0x3d43e924bd2e45ccU, 0xbc0d943abd248bd6U, 0x3ce5df813d02c00fU, 0xbcc53405bc8ea60cU,
  0xbd3f5c253a1b68f2U, 0x3c3f9b873ce7f3b1U, 0xbc91d41abd5a442cU, 0x3ce8d12cbd8c0eb0U,
  0x3cf85ccd3aeae59dU, 0x3d4b77703cee4c57U, 0xbd3713dcbc490525U, 0xbd9accabbd3b7768U,
  0xbd0bab80bd4636b5U, 0xbd3295cdbd18982bU, 0xbc520aecbc12688dU, 0x3c23943ebc8b8c86U,
  0x3d66adafbb659b01U, 0x3d0ca87abcad4536U, 0xbd5d56d23d05c8beU, 0xbca714aebd239b3eU,
  0xbd528ef1bbb02d8fU, 0xbd715c3abd20a5a9U, 0x3d03522ebc9d806aU, 0x3c9fe716bb378666U,
  0x3d3c3f0abd498fc4U, 0xbbafd9503c73fa66U, 0xbcfdc8b1bd4dbd84U, 0xbcdc6ad43c8ac41eU,
  0x3ca34482bd6ef789U, 0xbd1b68ab3c97e286U, 0x3c83b08e3c88c7efU, 0xbd1ec263bb3d8b3cU,
  0xbcfa4f4f3c4dc529U, 0xbcc8432b3cf72933U, 0xbd0be7bdbd769fbdU, 0x3c4b719dbc7f4d68U,
  0xbb60171ebbe7747bU, 0x3cb77ecc3bad5177U, 0x39c12a603ca8e9cfU, 0x3d16a6f0bcd50b13U,
  0xbc08b53cbd9ce6c6U, 0xbd569d8a3c1fa18cU, 0x3c35e7753ccfbaebU, 0xbdb81952bd655b14U,
  0xbd1201c13c80b33dU, 0xbd389b36b81f243eU, 0xbc3191ea3becb7c9U, 0x3d4035193c8885edU,
  0xbd498d5e3c620339U, 0xbcc3a978bc4df1a5U, 0xb9eaf17fba93f45eU, 0x3d0afca9bd264ed9U,
  0xbcf7867c3b7588b6U, 0xbd61d16dbd1e9356U, 0x3d181e38bd26476dU, 0xbd646e09bd89a641U,
  0xbd0286eebd83430eU, 0x3c8c3e1e3d47dd34U, 0x3d33495bbd2aa194U, 0xbd197bf0bd393266U,
  0x3cec28363c648c2bU, 0x3ca55a6f3d0b446fU, 0x3b913dca3cc2fa6aU, 0xbd103283bcc3825aU,
  0x3c37e5e7bbab4b6cU, 0xbc5c13f6bd540560U, 0x3aa56c6ebca83b1eU, 0xbafea7f63d11723aU,
  0xbd4535243cc5c2f4U, 0xbd9ddee4bd55ca8cU, 0xbd55f3773c74ad9cU, 0xbd5349fabd5b4107U,
  0x3d0d2a95bd4322d1U, 0x3d4c7b51bd209e5fU, 0xbb66175f3c941bebU, 0xbc321b07bd0e34f9U,
  0x3d4f5e1dbd82b56cU, 0xbce5361f3d3b8ffdU, 0xbd403eae3c62b0ddU, 0x3d025cf0bd5685f2U,
  0xbbd946e2bd3c1abaU, 0xbc3473a43d50e406U, 0x3c8f4feabcc3556dU, 0x3c4432d9bd3ed3e3U,
  0x3c50df1bbc7838e6U, 0x3caae1a5bc1461d0U, 0xbd73d0e73bd5c0feU, 0x3b2d04fabd0b5926U,
  0x3d1aa6e0bd5d7f91U, 0xbcaec648bd05711eU, 0xbd8374b1ba9b45fbU, 0x3d26dc43bda41c73U,
  0x3d28f20bbd535bc9U, 0x3cd816cd3be326feU, 0xbc32aa3f3bbd8b3bU, 0xbd5b4e25bcc72ae3U,
  0xba617644bcd60948U, 0xbd57a77b3ad2eaffU, 0xbd80451dbb85ed86U, 0x3d12b570bc234ae7U,
  0xbcb5c620bcebedafU, 0x3c6827edbd46e2a8U, 0xbb5eb6d33d248a24U, 0xbd2f806abd666f60U,
  0x3d464175bdb4fe43U, 0xbd35c4e53bf48f3eU, 0x3bf1cae1bc86a8eaU, 0xbd88b23cbc91d0ccU,
  0x3c4efb1cbd229c1aU, 0xbd7720893ca67a39U, 0xbd528a8bbcb78394U, 0xbd4858293cffe983U,
  0x3d3cf4abbd4ffd9bU, 0xbca8c2f83cf096f3U, 0xbc12449f3d2b345bU, 0x3b60e51abd68d720U,
  0xbd98f02bbd7443aaU, 0xbd06476fbd5b936fU, 0xbcf557053ce33bbfU, 0xbd3900443c7dd7f0U,
  0xbcad99aabced513dU, 0xbca69b8ebc915e5fU, 0xbd1051af3cbe53e2U, 0x3cbd2d35bcff7860U,
  0x3d06adbbbd8600daU, 0xbc4c753fbc897f5eU, 0xbc9acbfebd823abdU, 0xbd39d411bc644be9U,
  0x3c826306bd7ad2e3U, 0x3cead2513d267c49U, 0x3d4bd3393cfd349fU, 0xbd4646d6bd250ee8U,
  0xb5b2299abd315f46U, 0xbd2e3bbebd3c790eU, 0xbcb4d08b3a30d0f4U, 0x3c1d80ee3c8b31c5U,
  0x3bb66453bd909d49U, 0x3d4181c7bb11d19cU, 0xbd133bfd3c191b22U, 0xbd471f413c9319b9U,
  0xbafa3420bd97b770U, 0x3c2b59b7bd8661b5U, 0x3c704a1c3d3aa0ccU, 0xbc85bd7dbd6e0450U,
  0x3cc4b7003ca25504U, 0xbc7a99c43d261cbeU, 0xbc6416d0bd84489cU, 0x3d24fa083d3ee3efU,
  0x3b928a5f3ab4e8d8U, 0xbc9b253dbd09a98bU, 0xbce19f5d3ce7e10aU, 0xbccd396abb328e85U,
  0xbc86ea493d0a2a36U, 0x3c4c6ccabd3489dfU, 0x3b24e542bd0661ffU, 0xbd4a84e13b1ad3c1U,
  0x3bc9a2ac3c58e5c4U, 0xbca8349bbd91e3d8U, 0x3cc298d73c7f1a9fU, 0x3cdbb878bd12f07cU,
  0x3b9872813d1a600bU, 0xbd48eaef3cdba2a8U, 0xbd229bf43d19a14aU, 0xbc3442c4bd21fddaU,
  0x3d3a38833c5fa211U, 0xbd0963f5bd8607fdU, 0x3cd99fc73877b488U, 0xbb976235bccec67bU,
  0x3ce8d8363d122596U, 0x3cf0db47bd86771aU, 0x3cba2926bd8bf806U, 0xbd3942d7bc9f401cU,
  0x3ca0be06bd52c27cU, 0xbd8153ae3cc2fb49U, 0xbd908303bd81eb44U, 0x3c3f0da1bc7c2728U,
  0x3cc3fb4abd125ae4U, 0x3b66a150bafd1e3bU, 0xbcdefe383cdf1ce0U, 0xbd124bc8bc987b4dU,
  0xbd14ae00bd8188dfU, 0xbd0d450f3d0d03aaU, 0xbd749404bd06ab49U, 0xbd7a2e89bb55f234U,
  0xbd2514dd3d147480U, 0x3cef72743d236bc4U, 0xbd02cde93bd34217U, 0x3c415920bdaf28d7U,
  0xbcc500febd076b02U, 0xbc8362d4bca335faU, 0x3c97984bbcf468e5U, 0xbd2c8029bd279ff5U,
  0x3d06f027bd1d4556U, 0xbd48d72c3d430e12U, 0x3d0debc0bcbe2b47U, 0xbcb5ac663cce2adbU,
  0xbd6beff4bdafbdbeU, 0xbcda8a02bda93265U, 0x3cecbaf3bd0f6823U, 0xbc3530b53c37a9d8U,
  0x3c90084e3bd941d0U, 0xbd445cb23d0082ebU, 0x3be853673cb0d6b7U, 0xbcadd35bbd06a245U,
  0x3c7be0f43d1047dcU, 0xbd6f4421bd42a4cfU, 0x3c7581e83d1495b8U, 0xbca0f2313d49657bU,
  0x3c3315373adf48d4U, 0x3d4a63d33c453c5eU, 0xb911fd603bcdfdf2U, 0xbd3d1aab3d7a490eU,
  0xbd023bed3cd8787aU, 0x3b0c4f3c3cd07bbeU, 0xbcb9e7c73d3765b0U, 0x3d19d32e3bde6473U,
  0xbd4a9032bd4f2db5U, 0x3c934bc4bc177454U, 0xbd712042bcac7704U, 0xbce74a20bd0e0f21U,
  0xbd30e577bd84b066U, 0xbcee7518bcfce474U, 0xbd604e003ce6f56aU, 0x3be5c237bc941be5U,
  0xbd086c623d23876aU, 0x3d1c0ff4bd350059U, 0x3d1720c4bb830e64U, 0x3d20fc253d170bb5U,
  0x3ced45683c89f6aaU, 0xbd4e4aadbcfeab01U, 0xbd64b9f33c84d254U, 0x3d0ebe1bbd004f2bU,
  0x3d19d6e5bca0042bU, 0xbd739cdcbc8596f4U, 0x3c955e1ebd22f75eU, 0xbd8b5824bc92d727U,
  0xbcd53fe2bd4febcdU, 0x3d4137e43d053284U, 0x3bfc73aabd003eeeU, 0x3c2159753d402d3dU,
  0x3adaff1b3cf08632U, 0x3cfce7083d2b1ce5U, 0xbd60c6e83d17bc43U, 0x3c10bfe0bd5b35bbU,
  0x3c1316f23d000b12U, 0x3c3e8a2dbd576d71U, 0x3b157db0bd38df79U, 0x3c8835353be63b77U,
  0x3cfe18e7bd443238U, 0x3c58e56a3c6a1abeU, 0xbc2318a3bbcca766U, 0xbd2c5e543c9a884fU,
  0xbd78649dbc48fdaeU, 0x3d41ad97bd09cccaU, 0x3c73144e3d340d5cU, 0xbbb2b665bdac09b8U,
  0xbd4b9d273ca4142cU, 0x3d05e0a4bd016742U, 0x3c1f52403cce49e0U, 0xbc0a6c953c5be09cU,
  0x3bf36d22bd2fbe2bU, 0x3c0d7bebbcfd6b0bU, 0xbd6e27cf3cc79a9aU, 0xbcc2e7c1bd26ec0fU,
  0x3b9d8aa1bd0e8f9fU, 0x3d3fbbb5bd5d48c1U, 0xbcaee4f83d4c8156U, 0xbdc11809baaad775U,
  0xbcae1494bd448a08U, 0xbcb6a971bd72e961U, 0xbd57d1a83c03ffe4U, 0x3be36e11bd3a784dU,
  0xbd235a433d1074bfU, 0xbd6a66633d22b44eU, 0xbd5c1b023c3c2054U, 0x3b3377423cf30600U,
  0x3d1512763d12b805U, 0x3c322ceb38270541U, 0xbd4d6a32bcb36bc1U, 0x3d449df5bcd3fa7fU,
  0xbd4e964b3c91222cU, 0xbd58cc183ce17c9dU, 0x3c58cfd43c8df453U, 0xbc7ee2fcbd988a42U,
  0xbca04e743d3ead47U, 0xbc9e70eebc9e62c2U, 0xbc16e42f3ca9999cU, 0x3c97d71dbd5857e2U,
  0xbd0b0842bb8743dcU, 0x3b8f09763cbff970U, 0x3d488a693cc4a4c5U, 0xbd64b1643ccb5b98U,
  0x3c4bb5243ca3dd36U, 0xbcb8f3073d0116fcU, 0xbcc1433abd4568f0U, 0x3c178850bd0a8e22U,
  0x3c37b4b23a02ffcfU, 0x3c29c976bcd12686U, 0x3d0b09c0bd6c5643U, 0xbccc6f0abd429744U,
  0x3c1c157cbb80026aU, 0xbd84b6b7bc8dad80U, 0x3cf78a7dbd42b496U, 0x3d1b90afbce1062bU,
  0xbd3a9a5d3ca2d5fcU, 0xbd5a746bbd126fd4U, 0x3ca338943c7b21cbU, 0x3cfc2f943cde7610U,
  0x3d34d2bcbd103560U, 0xbb048eaa3d1945e0U, 0xbcb9a2f13cc9b19fU, 0x3c17394fbce56c6dU,
  0x39dde8e73d2813b2U, 0x3cdb9708bd5e2567U, 0xbc2cbab53d09c694U, 0xbcaa153bbd683e7bU,
  0x3d1fae273ce933c3U, 0xbd82c8dbbd5e1ee4U, 0xbc17a1273d068c07U, 0x3ca92222bd78bea8U,
  0x3d2e8891bccd5ed2U, 0xbcf40f9fbc8c181cU, 0xbcd7c856bc206669U, 0xbba618fabbe1f7efU,
  0x3c03dec7bcbff6bdU, 0xbd4998ed3c8992d7U, 0x3c48fa6a3c14e942U, 0xba8d11b3bcb1b54aU,
  0xbd2473053ce18c07U, 0x3bed28cc3b615495U, 0x3cf40b15bd78d5deU, 0xbc17dd20b8ca0558U,
  0xbce5389dbb42286cU, 0x3d171f79bd2aedf9U, 0xbd6945dabc099d36U, 0x3d272ee4bd52d8b4U,
  0xbd490476bd539b5bU, 0x3d445210bd713fa7U, 0xbd008f8abd791c6fU, 0x3c0566ac3d0ea145U,
  0xbd8f6456bd6b8e8dU, 0xbcb12f813bf0d276U, 0x3d2f18363d5e765eU, 0xbd68cc1cbd49c4c0U,
  0xbc57d0253cfa23e9U, 0xbc5036423c69c58bU, 0xbb68b902bcbfeba6U, 0xbcd2cfdfbd0afaacU,
  0xbcc37c8ebd00db8eU, 0x3af65f7fbd136c13U, 0xbcc85c4b3ceddbabU, 0xbca5a165bcd3aca1U,
  0x3c909a6c3c6efd39U, 0x3d0e45db3c8f39dbU, 0xbc8bea5c3ac483b1U, 0x3d0fdf54bd0d177eU,
  0xbbb3fef5bda5c271U, 0xbd73f9d3bd0ebe88U, 0xbce11d3b3d054d3cU, 0xbd85c70abc1b8df7U,
  0xbd6396c43d192c41U, 0xbd484f64bd3cbb81U, 0xbd1c45de3d1b5481U, 0xbd9f5940bd4d2c58U,
  0xbd1dd0c8bd271bc5U, 0x3c9eb5c53cba7b1dU, 0x3c1bec3dbd50faf9U, 0x3c3e51a1bb83318bU,
  0x3d7aea703c85a66cU, 0x3a3114f5bd0b2a84U, 0xbd441989bc876007U, 0xbd352848bd3b8c92U,
  0x3cbd59ad3d28eb90U, 0xbc4a52c33cfa60faU, 0x3c82e0fe3d757aaaU, 0xbcd592593c53ab78U,
  0xbc0721d83cc4ea33U, 0xbd6f4dbd3d5e62f1U, 0xbd651eb9bb468fe5U, 0x3cf90b233c8a403fU,
  0x3d21e3dabd02f6a6U, 0xbd49df163d00c8c3U, 0xbb00664dbc8a7172U, 0xb7b1fdfebd55e03cU,
  0x3c3ef09bbcbedb88U, 0x3d1bec8abcf76cfbU, 0x3d3a15243caeb914U, 0xbd10675ebbfd6232U,
  0xbcf858a73b9d45feU, 0x3cb8ed30bd6c2298U, 0x3baafb69bcbb9a6eU, 0x3d50b3473d32b013U,
  0x3ce28608bd42e159U, 0x3cf16f49bcc8a0c6U, 0x3c735fa5bd0ddb65U, 0xbd8c668fbbd8e5e3U,
  0x3d46886b3b9b4dd2U, 0xbc0e2fd4bd42a81aU, 0xbda069afbd81c6d5U, 0xbcb59d4a3cb7649eU,
  0x3b2e95d3bd16e18fU, 0xbb0556b8bccb6861U, 0x3c2d3560bd47eda0U, 0xbcee6eb63b99ac2bU,
  0x3d3ab7693c55c3e4U, 0xbc5a8266bbd54a8fU, 0xbd31d8bf3d3c9f1bU, 0xbd01b66bbcc5ec09U,
