/**
  ******************************************************************************
  * @file    network_isd10_data_params.c
  * @author  AST Embedded Analytics Research Platform
  * @date    Fri Jan 19 12:20:43 2024
  * @brief   AI Tool Automatic Code Generator for Embedded NN computing
  ******************************************************************************
  * Copyright (c) 2024 STMicroelectronics.
  * All rights reserved.
  *
  * This software is licensed under terms that can be found in the LICENSE file
  * in the root directory of this software component.
  * If no LICENSE file comes with this software, it is provided AS-IS.
  ******************************************************************************
  */

#include "network_isd10_data_params.h"


/**  Activations Section  ****************************************************/
ai_handle g_network_isd10_activations_table[1 + 2] = {
  AI_HANDLE_PTR(AI_MAGIC_MARKER),
  AI_HANDLE_PTR(NULL),
  AI_HANDLE_PTR(AI_MAGIC_MARKER),
};




/**  Weights Section  ********************************************************/
AI_ALIGNED(32)
const ai_u64 s_network_isd10_weights_array_u64[2529] = {
  0x3f18c945bf97e8a4U, 0xbd8a98b5be361c8bU, 0xbe305eb8bf18b49aU, 0x3e1b2e69be27809bU,
  0x3f912f02be899cbbU, 0xbdbf6649be0654b9U, 0xbe177f383e040975U, 0xbba4e825bd6b0ba2U,
  0x3b8920f4bd2a7f0fU, 0x3db3e6a3bd771fb0U, 0x3d632e93bdef8316U, 0xbda11679be36a58aU,
  0xbf3d30913f8050b0U, 0xbe123deb3e9c3b6cU, 0xbf8e6fd33f36cc58U, 0x3db6fdafbe58cc78U,
  0xbf0b3ee73f976674U, 0x3d47b6513db3e3c0U, 0x3f0ec89c3ed14521U, 0x3e78be93bdd40061U,
  0xbeacaa0cbf442381U, 0x3e0defa6bf5eccbdU, 0xbef34e69be136307U, 0x3d2c5479bf2121f1U,
  0xbe16ba1bbd2abfbaU, 0xbe58a448bdfc8adcU, 0xbe653cd1bde76d80U, 0x3dcd08d5be65302eU,
  0xbe5ca3ef3cb5b72eU, 0x3dec4eafbdc8e683U, 0xbe00d58abe03f5f4U, 0x3c5db6acbe1004e4U,
  0x3c5037f8bdfc4ca5U, 0x3c0c072ebe2185f4U, 0x3ce100b8be3435eaU, 0xbcba28d63d26cec8U,
  0xbe73df2fbe4dbdf9U, 0xbce16e94bf00614dU, 0xbe00d523bf040479U, 0x3dc8bc48be9fbdfbU,
  0x3dee119a3b8b5450U, 0xbd95c542be7c5c8eU, 0x3d2ddf993cff4e70U, 0xbeea22a7be3cc805U,
  0xbdeca953bd6ca51fU, 0xbe7b0ea4be5d63b3U, 0xbd93cf973d41bf35U, 0xbed78a0dbd02c9d2U,
  0xbf660e11bf195155U, 0xbd8f8fccbf4198bdU, 0xbf14c8b1be6406b5U, 0xbe280b7bbf63d99bU,
  0xbf7347edbf763069U, 0x3dcb3b6abf8c8d97U, 0x3c3e9756be817ee6U, 0xbdefd360bfbef279U,
  0x3ec0b394bdf2b62aU, 0xbe469546bf9dc35dU, 0xbc90d1e0be85897aU, 0x3d1bc3ccbf9ffa21U,
  0xbd7f9345bcd90955U, 0xbdfecefdbe5185c2U, 0xbd3fbf003c97ab65U, 0x3e2f4067bedd3fa5U,
  0xbe9ac8863d290e49U, 0xbcfef21fbe80944fU, 0xbe3608f0bdfb47d1U, 0x3e356d41be725964U,
  0x3d9f6462be168b19U, 0xbd170150be1035c3U, 0xbd68cc1c3d86ddbeU, 0xbe0a397bbbda6428U,
  0x3d0aa3243c19ea29U, 0x3ca4fd22bcd0d53bU, 0xbdd9ab99bdb80d2cU, 0x3d38a6ebbe684d53U,
  0xbe0b82d4bb7b6317U, 0xbd8a5fa1be1d3824U, 0xbe801bfabdab24e6U, 0x3d8c32ccbe4a6f2cU,
  0xbd89e88a3d972217U, 0x3c5d1965bd8d93aeU, 0xbc9d5bc7bd9f3b78U, 0xbdaacec6be908fd9U,
  0xbbdb6afbbe076065U, 0x3eaaec123e93e519U, 0x3e5e76a33c1abe5fU, 0x3ea630b43d35e291U,
  0xbdf2e5953ceb814dU, 0x3eb2af7c3e80ccdcU, 0xbf1626c6bef30f33U, 0x3eb32752bfa6d5e7U,
  0xbf268c07bed09942U, 0x3e52633cbfb039ffU, 0xbf32e5c3bec19fb2U, 0x3e762deabfbb4f54U,
  0x3e943975bd6720a9U, 0x3c77551fbeed9f60U, 0xbe709bd3be769231U, 0x3da3d97fbec4adb8U,
  0xbe33ab94be18ffceU, 0xbdacff4fbeb20f86U, 0x3fa4c3c73d34720dU, 0xbe1d28e43d89ad15U,
  0xbf0513f8bf154d52U, 0xbc500a533d76b254U, 0x3eb43ef0bf9ff754U, 0x3e1749603e2872afU,
  0xbdb79a993da68062U, 0x3efd35283d81b8eaU, 0xbe19720d3d8555a9U, 0x3ed4c145bd81c9c2U,
  0xbe42da483c1d2030U, 0x3f0056fc3e58224dU, 0xbe1a621dbe751ebdU, 0x3cf5e333bd387877U,
  0xbd877b63bb963ad9U, 0xbdc2f9a1bd934000U, 0xbdc5c6f9be4ca276U, 0x3d8a64e13da5774eU,
  0xbdc7a5763ea2d0eeU, 0xbc528662bec70583U, 0x3d8c40c0bf50da4bU, 0xbdbfea25bef798f4U,
  0xbdbea1ee3e21e06eU, 0x3df00867bee5e986U, 0x3c108cd13e046aeaU, 0x3db6146ebea504bcU,
  0xbd978a9dbe3ca776U, 0xbdb04fc7beb59a45U, 0xbbaaecd2bd53205dU, 0xbb1e9548be8afc51U,
  0xbe24a3b43e38c61aU, 0xbdab4827bddd31dcU, 0xbdbfa0b2be257c03U, 0x3e105448bde0988bU,
  0x3d9e9bebbdeed69fU, 0xbd45b8d6bd26f770U, 0xbf40765abf0052f2U, 0xbdd04023bf216234U,
  0xc0018fa9bfda34dcU, 0xbd7bfc46c013a790U, 0xbf88a8a6bfcdb056U, 0x3d30d3e5c039ed2aU,
  0x3e47fa22bd0ec15dU, 0xbc8380033f28ff0cU, 0xbd0906cabe326033U, 0x3de385743ed3e0c3U,
  0xbc0fcda0bd5d9513U, 0x3d9ef3783f0b613cU, 0xbe5e78fabf123c09U, 0xbd97879dbe23d29aU,
  0xbe812a25beb785f9U, 0xbcd3e4683e2a2805U, 0xbe3c1611bf0255c6U, 0x3dd0abb23d1f8176U,
  0x3e8d10093f53bd85U, 0xbc6dfe4bbef5473dU, 0xbe99b22a3eb036efU, 0x3da32958beb4f2c4U,
  0xbeed4686be8dfa34U, 0x3d0adf76be86ce2dU, 0xbe1bceb0be7d445eU, 0x3e0e086bbd607318U,
  0xbe60a111be738c16U, 0x3cb6d7dbbdf089f6U, 0xbe20a484bc271e65U, 0xbe1ffba2be2dea24U,
  0xbe4b8762be3a3372U, 0xbd9c2082bdb57c8cU, 0xbb071ec0be897a83U, 0x3d492d33be8fd9e7U,
  0xbe385fbdbeb6a761U, 0x3cf9f90cbeab42d0U, 0xbf29945cbf2d0893U, 0x3d447a4ebf399187U,
  0xbf574a53bf826f9bU, 0x3d94473fbf70d404U, 0xbf5bfe3fbf715647U, 0x3dedcfe1bf875e92U,
  0xbd7b3a86be09235dU, 0x3e0e45c5bda42227U, 0xbe38cb173d5011deU, 0xbd9990adbc91ae24U,
  0xbe27451ebc42b01aU, 0xbd7fcfa83d458e29U, 0xbe62bc22be9f4385U, 0xbde720c3be3613acU,
  0xbdf888fcbeb60f4fU, 0x3dc69b2dbdb18a4eU, 0xbdee9995beac5c88U, 0x3c87faeabd1074fcU,
  0xbe92513ebe7c22a5U, 0x3cf12fa3bee71d3cU, 0xbe809f17bedff4a3U, 0xbdb5bf51be9f149dU,
  0xbe590ecdbeccd4fcU, 0x3d60acebbe605db7U, 0x3df1cfd3be2b31efU, 0xbef2dc0bbdd844f0U,
  0x3d5bc9c9bdf52bc9U, 0xbee185abbca9a857U, 0x3e6b9c16bc006f43U, 0xbf0371033e105f29U,
  0xbf0077abbedfe8baU, 0x3dc96d1d3f6c31efU, 0xbe37f45e3e22a9f4U, 0x3e51880b3f4edfeeU,
  0x39f8e0dd3b58a95bU, 0xbbfb9a663f88edacU, 0xbec67859becb7a59U, 0x3e228fd23e355616U,
  0xbec7d2b0bf0b564bU, 0x3dd590b73e038058U, 0xbe928d6fbebb826eU, 0x3c6117013ec81d61U,
  0xbe0000ffbe3b1b25U, 0xbde26072be5d332cU, 0x3c629616bd1b2d74U, 0x3da9c33ebdae5696U,
  0x3d959593be35fa1dU, 0x3d005ec9be80eb97U, 0xbeb6a8b2bdbe7f2dU, 0x3cc2423dbd67c6c9U,
  0xbe27cc9ebe263d5eU, 0xbbe5cd17bdf327ddU, 0xbe4d8e62be939b1fU, 0xbc99b2e8be347a01U,
  0xbfadabb5bfb5e788U, 0xbde9b0eebf7936b7U, 0xbfa93672bfb72748U, 0x3e36de6dbf79deccU,
  0xbf99f3cdbfb698adU, 0x3d96ff64bf81d767U, 0xbe262fd13da02601U, 0x3d865465beba736eU,
  0xbd80df7cbd068ae9U, 0xbe0f312dbd20f864U, 0xbd9ccad4be5e1ccaU, 0x3d9814e9bea0d250U,
  0x3dac91b7be1dcc04U, 0xbad054cbbe3513f9U, 0xbd0b232bbde891f7U, 0x3d672acfbdb2e519U,
  0xbda8e9dc3bbb3eefU, 0xbd4c7bb23c08c437U, 0xbd525f90bd3c6e1dU, 0x3c427c293d82b9b6U,
  0x3d1dffdcbe103ff9U, 0x3d61de56bbedcc7aU, 0xbd8c7ca6bc976f2cU, 0xbd8aa1d53db1469dU,
  0xbf1df772bef48448U, 0xbd6638893e8b59c3U, 0xbdd3b0933e82557dU, 0xbd1826c73f7e0366U,
  0xbf166290bf3b6a3dU, 0xbd8fd7f53e16a764U, 0xbeae0be6bf083d3cU, 0x3ea1d7c9bf2919cfU,
  0xbce08639be863b8eU, 0x3ed9fd64bf04f102U, 0xbd9c2bb8bf3e8e82U, 0x3ea1d121bf1d2680U,
  0x3dccdce3be2b68ceU, 0x3e1c28583dcefbf9U, 0x3dd45d52be08e2b6U, 0xbcd38387bdb3bc85U,
  0xbe38fd4ebde7a46fU, 0xbe0173f2be353e60U, 0xbe507438bebedb0dU, 0xbdfd8617bea9be0dU,
  0xbeeccf06bee6a4c3U, 0x3d3cf4e5beadd997U, 0xbe83901dbeac033fU, 0x3d9b0ffbbed7fc83U,
  0xbe93a632be9a146bU, 0xbd85ed30be1a5dc0U, 0xbd3d29f0be23aab9U, 0xbd00402bbd5fb740U,
  0x3c052ecbbd9cc8a2U, 0x3dce8848be0beaeaU, 0xbd8b64fabdb1959aU, 0x3c7afec53c4df5fbU,
  0xbd1009b6bdc0e334U, 0x3d9d8b6f3cd7d7baU, 0xbd19ff62be2daa9aU, 0xbdb2a8f3be98728dU,
  0xbd619644be28ba4bU, 0xbc08afa2bea157d8U, 0xbd3ffc023d251f79U, 0xbdceac99bebf944cU,
  0x3d1c0ce9bd70ba32U, 0x3de4064dbe370d6dU, 0xbdadebedbe260fa3U, 0x3d50e733bdcc6c57U,
  0xbe8e3a52be46249fU, 0x3bfafe20be3e220dU, 0xbe363e7ebe480ac8U, 0xbd4b8f43bc8fdb4eU,
  0xbdca2b933c93444eU, 0x3e20850dbe22f290U, 0x3d3526efbd84f940U, 0xbdee2ecbbd1f25fdU,
  0x3c361048bd8488ffU, 0xbd24a6663e108b43U, 0x3bffbadcbc99e594U, 0xbdc564bbbe027feeU,
  0xbd9ce1aa3d16f706U, 0xbd8675cd3d0fe349U, 0xbd6b8207be866d30U, 0x3e26faa5bdc76c60U,
  0x3d4ed4713df0ca12U, 0x3d0d9f3abeb6bcfdU, 0xbdba2f9cbc8133d4U, 0xbcc0dba8bf117e38U,
  0xbeb6af30be095d1dU, 0xbc2b5243be9c17dcU, 0x3d80c6a0bdc38e4fU, 0x3d39653ebd439d47U,
  0xbd31bdd6bc3a3b4fU, 0xbc5a8c50bd8a5a13U, 0xbe1076303e0eb655U, 0xbccf9100bea27d50U,
  0xbd0788bfbd9fe3bfU, 0xbc828bc5be2d0167U, 0xbe4f5bd3bdda1c81U, 0xbd92fa2ebd0bcb2eU,
  0xbde16c30be71ed53U, 0x3db8588fbcef0a55U, 0xbe1f4e72bdf232bdU, 0x3dd428dabd5dc5ddU,
  0xbd767a483d52af2bU, 0xbd0b4cd7bd378214U, 0x3abbb525bdadb1c0U, 0xbd8351b7be61c112U,
  0xbdb493b8bd2948a9U, 0xbb0bf1b2be10dfa8U, 0xbec57576bdba60faU, 0xbdb09efbbeb7a90eU,
  0xbe568f70bea7dc25U, 0x3dc82e39be95bcebU, 0xbe6ac0d2bf531598U, 0x3ef1ef2bbe6c5362U,
  0x3d7842b7bf11b242U, 0x3e848b81be48b6a8U, 0xbd081853bf5c2fb7U, 0x3ec657d9be175dc5U,
  0xbdc594a8bdd9cc38U, 0xbc717acfbeafde61U, 0xbcc22d9f3db15f8dU, 0x3d4e0219be80baeaU,
  0xbe2a05d8bbf4d557U, 0xbccbd878be3fe960U, 0xbdf2e60c3c598924U, 0x3db44892be47e9e0U,
  0xbe40ff38bde1fe44U, 0xbda1579c3c350d88U, 0x3ddd1f76be1f184bU, 0xbc44f9173ce296dfU,
  0xbe0d7d73be477d62U, 0xbcabf8f3bc0f9727U, 0x39aaa654bc9a8754U, 0x3e09b9b9be894277U,
  0xbb8b7b5b3c9b5587U, 0xbdd83de7be37c96bU, 0x3f647f09be676e28U, 0xbcb6e1febea21c66U,
  0x3eed9a75befcef3fU, 0xbd757e2bbf084214U, 0x3c8b79b7bf0957fbU, 0x3cc9e8c6bf2e1890U,
  0x3e022d27bf4f8563U, 0x3e32c072bf8ce6b1U, 0x3d9645ecbe0fb2adU, 0x3e20fd36bf50b83fU,
  0x3f434eda3ec3161aU, 0xbe138be8bf533a21U, 0xbe1f30fabd3e6cdfU, 0xbd0398703d5b603eU,
  0xbc7882fe3d337489U, 0x3d55c91abde57158U, 0xbdbecfe03d086bfbU, 0xbca4857e3d8dd545U,
  0xbe5debd53bbaf2b2U, 0x3eff2ff8bf3971a2U, 0xbcfff02ebdfa7924U, 0xbd132fecbf11f4c4U,
  0xc0af93bb3f8b19e1U, 0xbe4f8685bea7380fU, 0xbda9a65dbe608e43U, 0xbf1f1b64bcac8e1eU,
  0xbe82d2a1bf0a2eb3U, 0xbda25170bf1c31adU, 0xbeb95b5fbf877aedU, 0x3fcc156abe458b3fU,
  0xbe823e0c3fbc4f43U, 0xbe201e5dbf9b6cffU, 0x3e769185be21a7deU, 0xbd997bc9bd9a3572U,
  0x3dc98f61bea02ac1U, 0x3f9665dd3f4d1a58U, 0xbdfcb273bdd76e64U, 0xbe409fe83ee14b4dU,
  0xbd431963be0f1be5U, 0xbfaf246d40168a99U, 0xbe13281ebcbaffc6U, 0xbe5706debe4361daU,
  0xbe4563bcbe889078U, 0xbd9b7d68bde0b22eU, 0xbe28cc37bf3cfad2U, 0xbdf3f05bbd869e6cU,
  0xbda3cf4bbe4ad4d4U, 0xbe5c29bfbe6e73c4U, 0xbf5b9e02be8b9b5dU, 0xbca772abbf842ad9U,
  0xbe3575a5be56acbaU, 0x3d24de74be2d188fU, 0x3e245f39bd5ec6fcU, 0xbd2b534ebe707215U,
  0xbdf532ccbe109d73U, 0x3d7668a2be48e0a4U, 0x3e2f4c0a3db830d2U, 0x3e087aeabd735cf5U,
  0xbe5e1f3f3d8990e7U, 0xbe80be833d52c543U, 0x3dec5ec63d785491U, 0xbe8052173ddb2758U,
  0xbe8c0980be1ddb4bU, 0x3e2ab4aabe823a16U, 0xbe127a8e3d4e2a67U, 0x3dca93a1bdfe869cU,
  0x3c7a97ebbe65b3f4U, 0xbcef2d16bdc4efb4U, 0xbea1eedcbd659d05U, 0xbe253b58be2d1c83U,
  0xbd97f0423e395075U, 0xbe759708bdaaf23eU, 0x3dba4694be0dddc5U, 0x3c0fafc4bdccf38cU,
  0x3e07def93e1d43c7U, 0x3e052f52be16784aU, 0xbd3b0759be0ab254U, 0xba8a3267be302ebeU,
  0xbeca3ec73df0a86dU, 0xbd3a87253dd40bb7U, 0xbe236fa3bded009cU, 0xbe50cfb7bec1945bU,
  0x3dfade8d3e93e010U, 0xbe4c1b5a3e52566eU, 0x3dcbf4b8bd3e48d3U, 0x3e954012bdf190ecU,
  0xbed461d5bdecb34aU, 0xbe17cb943d47b0baU, 0xbe1ed7af3d711355U, 0xbea3ed3e3d390104U,
  0x3dd560563d4e69c5U, 0x3c4e6d6cbe8c59f5U, 0xbd9c0f0b3d68c531U, 0x3ea120793c7d948cU,
  0x3eb9ac933c6b87bbU, 0x3e344367be75ea6bU, 0x3f2da80ebdfe7764U, 0x3e14aed1bd474345U,
  0x3ed07bff3e03e52eU, 0x3daa0a8dbe2254faU, 0x3d0654e4be273b0eU, 0x3e3899893f827e85U,
  0xbddc90223d78b817U, 0xbe4fcbe8be1e5e3eU, 0x3e09217bbdaa51f0U, 0x3df43b2bbe511670U,
  0x3e2a6a813d52d95dU, 0xbe4b844b3e4e5610U, 0xbda93fd8be06a20cU, 0xbe03e4c13e1c9377U,
  0x3ecb84f13e4920c0U, 0xbb4d1f8cbd478aa8U, 0x3e6a79543cabc744U, 0x3e03820abe0cf685U,
  0xbe312ad0be8d87c3U, 0x3d323ffebcdca9a8U, 0xbe70adc63e354c66U, 0xbe0cf24ebd5343e9U,
  0xbe138248bdde53d3U, 0x39fa06e9bd973d7fU, 0xbaf700273dfcfa68U, 0xbe064457bdbdac84U,
  0xbd86ccc93e24a929U, 0xbd3ac321be7c75edU, 0xbe24483d3cac42fbU, 0xbe288243bc719b08U,
  0xbe5b188dbcb2e0f3U, 0x3e1310c5be431ff1U, 0x3c9b1b6f3d491476U, 0xbe7e53e93d8f4b05U,
  0xbdf3f4033e313895U, 0xbd3b8c33bd554c77U, 0x3dc95f0fbe2a247eU, 0xbe36f459be23e426U,
  0x3d458adabdd9d1e9U, 0x3d650318be6241e0U, 0xbe4b9b86bca3e260U, 0x3dec34af394b25a1U,
  0xbde4d0663e1ea573U, 0xbd16073cbe12be1dU, 0x3c46d1d3bd272572U, 0xbdb122f33da0a26fU,
  0xbe324f1ebd84e076U, 0xbe1bdf90bcbf3fbdU, 0x3d6a6772be08a786U, 0x3e4f5620bcc37ab3U,
  0x3d293905bf99283eU, 0xbf2bb8eac0215285U, 0xbda6729dbe7f1957U, 0x3ef371c0bea47e39U,
  0x3e128bd2be2587dfU, 0x3e4916ef3c5c2977U, 0xbc5fd2fbbc0aa641U, 0xbf936ee6bd49cd6aU,
  0xbf61ea263e1f49b3U, 0xbd328cb73e2d4a96U, 0x3e6772b6bee95a11U, 0xbf32591a3e431c4cU,
  0xbe3de7ae3eadac49U, 0xbe1eb75bbf430f90U, 0xbc88ade93e23debdU, 0x3e1086303de72ba5U,
  0xbec66e81be184bc1U, 0x3db9009e3d993136U, 0x3c5a5f193e0d4467U, 0xbd38d2173e962af3U,
  0x3db3ae9abd32b6fcU, 0xbe23db1abfc53638U, 0xbd4cbb013c99debaU, 0xbe0745d2bd92e5c4U,
  0x3e5f596b3dd8826cU, 0xbe320348be091ec3U, 0xbe70f9663df1ba0bU, 0xbd106770bd413d2cU,
  0x3d62bccc3d968ed3U, 0xbe3b677b3d8348e8U, 0xc00d9a173d16dc3dU, 0xbbcb670bbf51dd62U,
  0x3d82a463be0e372cU, 0xbe07b101bdbe328dU, 0x3e1440423e337e97U, 0xbc96e7723d9663eaU,
  0x3e0db2a93cbc2b2fU, 0x3e5c80203e15e674U, 0x3d1684d13d85ebe4U, 0x3db52b43be6ba500U,
  0xbe010e79be485cfcU, 0x3e3f5dc6bd466325U, 0x3ddf067abdbea2f3U, 0x3d1f50b0be16e21aU,
  0x3e3059e43e1aabc3U, 0x3d900a323ca77002U, 0x3cd3d0ac3d1ab213U, 0x3d30f53fbd251cd3U,
  0xbd6a61ae3d582543U, 0xbe0d49da3c69abd3U, 0xbe4caa373e2570c6U, 0x3e2b167dbe757201U,
  0xbe4a7608be1c0b39U, 0x3d8b3544bdf7e29cU, 0xbda13e083d5f8ed9U, 0x3deb41b3be265fccU,
  0xb9ebe76d3e141851U, 0x3d7f11393e435c7eU, 0xbe28c13cbe45d2cdU, 0x3dd60b063e76db3fU,
  0x3d7ada16be1b4f30U, 0xbc9bfdc1bd6d6f07U, 0xbe705a5d3e8178f5U, 0xbe2b7695bc53bbb7U,
  0x3e35a93ebee7f8a3U, 0xbd9215f23d1bf669U, 0xbca5a5e53e00e794U, 0xbdbe3a34bd321702U,
  0xbed4a2df3ba4e51fU, 0x3d1a3837bbc070d7U, 0xbe1fd14ebd190deaU, 0xbe755f6dbdee4bafU,
  0xbeeb0da2be0a8aebU, 0xbe5df7acbe0526c5U, 0x3e2036c0bea05dddU, 0xbe1314993ce6364fU,
  0xbe4ef263bd81a321U, 0x3d6c6960be08bd8cU, 0xbe479fb13e03522fU, 0x3e1a0c4e3e00b5bcU,
  0xbcef21513e214ef7U, 0xbe8c6fc6be6b4badU, 0xbe9a1549bdbd1ec2U, 0x3c893a15bf918403U,
  0xbce518fdbdc24e9eU, 0xbb1d9281beb4e3c6U, 0x3d9ddc99be533200U, 0x3e0ade1d3e299144U,
  0xbdfc4bd6be2dafc6U, 0x3e2d742a3e2a6dceU, 0xbc9d8aefbc2c9dc9U, 0x3e19c408be1fb338U,
  0xbe63322bbe70def2U, 0x3da0d60fbe35bb67U, 0xbe572e233de4fbbbU, 0xbcd26bf5beb95f16U,
  0xbe51f816bfabbc76U, 0xbf5bda8ebf662aaeU, 0xbe3adf64be5990c3U, 0xbde5b44c3d8147edU,
  0xbeb3bce3bee60b57U, 0x3e1f4a493e3f910aU, 0x3cd69e58bddbf2e0U, 0xbe97d5eabe531fbaU,
  0xbf89b8953d6e1aa4U, 0xbe1d125bbe0b5fcaU, 0x3e1156febf195036U, 0xbf32e2f1bd93202eU,
  0x3d23dc5a3e00aadcU, 0xbd8fb104bddd33cfU, 0xbebd23bb3de89479U, 0x3dfebda13cf4f365U,
  0xbf80a3f0be1b44eaU, 0xbedbc0efbd4e1718U, 0x3d06ed243d8ea67aU, 0xbd0a8780be8481c9U,
  0xbe9879babdf65cbcU, 0xbecd4c6abef1adf9U, 0xbc257f393e391fb9U, 0x3e4cb9283de5ca5cU,
  0xbe14cd2a3bdc6959U, 0x3cb706c43dcbcf13U, 0x3e4c65f73ba4188fU, 0xbe2269723e0a44e5U,
  0xbeb09b62bd4cae20U, 0xbd0e35c0be8a3c1fU, 0xbf3f852a3e4b5346U, 0x3e62b996bea34c70U,
  0xbcd93059bc2dc79eU, 0xbe109dc4be063ac9U, 0x3dfd7d06bd2d063eU, 0xbe80a6053dffea7cU,
  0xbe1e22aabc871cd1U, 0xbe38535b3e1b88afU, 0x3defe243bd84361bU, 0xbdb0507ebe5a46b4U,
  0xbe764659bdd75d54U, 0x3e12c6733e25e9f3U, 0x3cb14e92bd0a1d10U, 0x3e3b655cbdb3808bU,
  0x3ba6d3f2bcf5c24fU, 0xbda385943d73d36eU, 0xbe6ff50c3e2461ecU, 0xbe6be64bbd86276fU,
  0xbd493ec8bd9e4260U, 0x3d1a6f4cbda13e41U, 0xbddecfac3e3ef97cU, 0xbd2b195cbe4ee8cbU,
  0xbe1ea613bd36664aU, 0xbd779c99be2d82d8U, 0xbe0e79bdbd1f19cfU, 0xbc5dc19e3d9377d4U,
  0xbe2caef33d083213U, 0x3dd30929bc1bc900U, 0x3dc9e3f8be1d0efaU, 0x3db06898bc5894a4U,
  0xbdf1f3ccbe2cd884U, 0xbbf60835be01cb97U, 0xbe4bfb463db400f3U, 0x3d779d18be2d2a79U,
  0xbe019b0ebe75d0abU, 0x3e376f02bf45414cU, 0x3e332e0b3d10e68cU, 0x3e002600bd1dfbe2U,
  0xbf4163fb3d0804b5U, 0xbd9748cabdb03617U, 0x3d268cc5ba95ce58U, 0xbdf3796b3f21f8c3U,
  0xbe87428abeabc592U, 0x3e18507b3e965585U, 0xbdbf88a3bc834fc0U, 0x3edb1c063da49efdU,
  0x3e2dea093e1d53e2U, 0x3e0128a7bee5812aU, 0x3deb99d9be04f441U, 0x3e2cd0423df6417bU,
  0xbdf8aea83e1cc972U, 0x3e71e4b93d2e089bU, 0x3d167d8dbdfe7d66U, 0x3e277418bed00632U,
  0x3c10fefb3e23eb15U, 0x3dbc1b653dbcad2bU, 0x3bcd4f05be36a07cU, 0x3d75f976be64a48dU,
  0x3df2d5d3bcc4c8cfU, 0xbe1b77433e42b2fcU, 0x3dbbe365be7cf103U, 0xbcf2b8393cb3718dU,
  0x3e68b94dbd969e6bU, 0xbce927c33d9361e1U, 0xbe98ef9dbd6f810aU, 0xbc661a5dbf007f26U,
  0xbd5534d6bea3c683U, 0xbea925d8bde6894fU, 0xbe59744dbce6a180U, 0xbd8748f13d13e53cU,
  0x3de06ca43d96b924U, 0xbd0108623d5696f1U, 0x3d493bfebd793ceeU, 0xbe1c7c3abddc2bb4U,
  0xbe9b2ddcbdd735c2U, 0xbe721d4bbe2ae484U, 0xbe45161dbc9c3024U, 0xbe45c8e73d3042e5U,
  0xbe6c63bebeaa6486U, 0xbdeedfdebf034beaU, 0x3e390ae83e5ab14fU, 0xbe39053fbe592b55U,
  0xbd077e18bc5c387dU, 0xbe18eb59be17ab41U, 0xbea281e9be557073U, 0xbe3523c5bece89d1U,
  0xbc9c6b793df6504bU, 0xbb245782be7b0574U, 0xbecae4133dc7e2faU, 0xbe114af7be897cd7U,
  0xbe21b9543d1eb598U, 0xbda6f4adbe974327U, 0x3c9ba0a7bdcd3c15U, 0xbcc2bedfbe045876U,
  0x3c2811bdbdacddd5U, 0x3de54cbb3e013ad5U, 0xbe4d44133ddc4db9U, 0xbe69f3f93d0c22dcU,
  0xbe0cb155bd272e9dU, 0xbe5f81cbbe0eaaeeU, 0xbd21e50c3d029f40U, 0xbe71c308be63d18dU,
  0xbe2d84bebe15c226U, 0x3e35c2653d8242e6U, 0xbe208dbf3e0b7595U, 0x3e14edbdbe404c47U,
  0xbe462cebbe5a67abU, 0xbdab217ebc6eff15U, 0x3da872023cb94e53U, 0xbdc80e3dbd791fd8U,
  0x3c9b9868be36520bU, 0xbe1e4feebe2915f5U, 0xbe049089be16caa2U, 0x3e0aa231bbd7f400U,
  0xbdd04785bdf227d8U, 0x3cf9e7d9be169eaaU, 0xbce442463e172e45U, 0xbe05a91f3e0ace0dU,
  0x3da7cbdbbdc946a5U, 0xbd8454aa3d989e86U, 0xbba08d203db89b5aU, 0x3d0732273e0fa683U,
  0xbe56a757be82e7bdU, 0x3d1556ec3ab9bfb9U, 0xbe6e093abd6c7b20U, 0x3dc1c5eebcc6c0e5U,
  0xbe1de1ef3e2237f5U, 0xbe23e861be196e50U, 0x3de08732bbb31700U, 0xbe694f20bb98904dU,
  0x3ce8a308bfe69a15U, 0xbe2c07fabffc50e2U, 0xbd02a999bc4c5af6U, 0x3e8a3236bf3784f1U,
  0xbebff4d7bee08f1eU, 0xbebb5310bd594efaU, 0x3dba5e813d5e0fceU, 0xbec01844be9d6780U,
  0xbf09ae4e3de01b8aU, 0xbdff62abbe7dd629U, 0xbe3a38b1bd85c3e1U, 0xbf11a8f5bde89cefU,
  0xbe0484b33d951e6aU, 0xbe56116abe1ba87fU, 0xbea6dd63be235d98U, 0x3e06197c3dc76b72U,
  0xbfd4650f3da572d6U, 0xbf75fab6bd334f43U, 0xbe2477723ba9cf34U, 0xbe1342d1bde52c49U,
  0xbb45c7f8be8d6e58U, 0xbdf02abbbe07de6cU, 0xbe70d82bbe4192b5U, 0x3d2296b7be2013adU,
  0xbd6d5f68be89726dU, 0x3e1a7ee1bd804d57U, 0x3daed1cabd021bc1U, 0x3e1045a8bd83a871U,
  0xbe9e7cd4be37cee8U, 0x3d48378cbdd7241eU, 0xbefffa0c3def4533U, 0xbcca989ebf397bd1U,
  0xbe620e7e3e4abc3cU, 0xbe7a1b83be0b7694U, 0x3e2326273e170e81U, 0x3dd3c764bf38bd69U,
  0xbea1e16bbe4e9861U, 0xbdb14f59be76b07cU, 0xbddbac503d96523bU, 0x3dc0d095bd634990U,
  0x3eb834463d3e6f53U, 0x3ce270763e0a00a5U, 0x3bc503f63ce3801dU, 0xbe5d6bd7bd3099e0U,
  0xbe246f81bf68bef8U, 0x3e4fc859bf7f0db0U, 0xbdd29824bd9d9b6bU, 0x3dfb5c24be1a8ad0U,
  0xbfbf359fbe3aa1fbU, 0x3e4a6b3b3ee9c8ceU, 0xbead5f9a3df12bc6U, 0xbe707e893d173cf8U,
  0x3e6256433db9aeb9U, 0xbf6685d7bec43685U, 0xbda6618bbd4bb410U, 0xbdf104e33e5417a6U,
  0xbe2a3fe5be247eb8U, 0xbb3c1de9bcd4dbc0U, 0xbe2a54e63c1f431bU, 0xbdd4424e3e0e36feU,
  0xbf6f2d8fbce16f8bU, 0xbe4a36b2be3589a3U, 0x3f4d76cd3e0eab1dU, 0xbea10e873d858aabU,
  0x3d5221b6be220cb3U, 0xbe09b5aabd52dab2U, 0xbdcb9d563e300980U, 0x3e9b06fcbf005771U,
  0xbea5eba53f25201fU, 0xba5e391a3db2eee9U, 0x3dbbf7b03d4afaebU, 0xbebb6c7d3d0d63feU,
  0x3e24d3c8be8dbc88U, 0xbdca4aa3be1e86cfU, 0xbe88fc78bf6217f9U, 0x3f42e4773e0c8202U,
  0xbef48843bee6d10fU, 0xbcd50b78be9e0b61U, 0x3e3c0a6d3e20b00fU, 0x3dca7778bd7ca0d0U,
  0xbf5c2b78be7c746eU, 0xbf8bf2663f2412efU, 0xbeef188a3e1d8422U, 0x3d6ff6563f0a10abU,
  0xbe515f45bd5c3958U, 0xbedecc3a3f1849deU, 0xbde9a972bdf6c1c2U, 0xbe1a618bbc9e8433U,
  0xbe0f7df13e3687afU, 0x3d1b247f3d25b05cU, 0xbdb86459be043d02U, 0x3dc1597a3d48811aU,
  0xbf5f1afbbedca6e2U, 0xbca9196fbd94bf29U, 0xbea25355bd402bcaU, 0xbd95f659bded559dU,
  0x3e0a050dbebb3817U, 0xbe4d92703d9dd60fU, 0x3e2544f33d1d831dU, 0xbe591e1cbddc1c14U,
  0xbe7c0618be06c3c3U, 0xbc6948ab3e820507U, 0x3e198cc43dfb59dfU, 0xbd614e73bed7e4f8U,
  0xbe8a01a9be18fe99U, 0x3e79db9bbe410324U, 0xbce2a275be2540baU, 0xbde6053d3e534bf8U,
  0x3d14fca3be2e615cU, 0x3daee44bbf35c7bcU, 0xbe46fbd13e14b93eU, 0xbd89c504be138aa3U,
  0xbdcf0a8dbe20bbcdU, 0xbebc20abbc70b388U, 0xbc7e25ab3db6b067U, 0x3e1d66e33da3020eU,
  0xbcf9a5bcbe1cc6c1U, 0xbeef339ebe9c427aU, 0xbe2f5ab33c2d6eedU, 0x3e324b4bbcdc54aeU,
  0xbddc841cbe599d6fU, 0xbe35adc33e2c219fU, 0xbe142cae3e82093bU, 0x3e6dec1f3d68ec2dU,
  0xb9bc872fbddb5bb3U, 0x3df996373e689e45U, 0xbea58bc13ced7b51U, 0x3d88542abf69d541U,
  0x3e0956533c879fe3U, 0xbfa20dbabf2aed09U, 0xbe48cce6bc80fd97U, 0xbf0701bfbe0e6a66U,
  0xbe83b884be9d2528U, 0xbe3e32343e31c3a3U, 0xbd557e903dc4a272U, 0xbe9cec903e97bb26U,
  0xbf1c667b3dc62d58U, 0xbe424c983e2a0048U, 0xbdac687c3de76a04U, 0xbe319aa63df33c3cU,
  0xbe61f8a4bf011713U, 0xbe0a98123d4bdc54U, 0x3dbd11283dbad91eU, 0xbe213e5bbe382165U,
  0xbe56709cbe41e919U, 0xbf0b7c70bf659bc8U, 0xbea3befebca20f77U, 0x3e9781ea3b5a1b23U,
  0xbe276a643e318eb6U, 0xbf5d2732be6e21a9U, 0x3bc710f93e40367fU, 0x3da599ff3d008246U,
  0x3e070608be27f3d3U, 0xbd558e673df22843U, 0x3dc2b9dbbe13a4eaU, 0x3dd7aaf7bdc6da4cU,
  0xbf5aa09f3e2f0e53U, 0x3dfe99c83d89e179U, 0xbf58acdebd5eb9ddU, 0xbde1c950bf95c698U,
  0xbe29bb9cbed5b3bcU, 0x3d1a4484bd3c466eU, 0x3d9c5ae13bc80870U, 0xbd7b691fbd97a029U,
  0xbe042e4abe9a8c69U, 0x3d15666fbd25f8cfU, 0xbe0e9545bd5ff368U, 0xbd9734a0bda23b1cU,
  0xbe26d6b83e0e86bdU, 0xbeedcf7fbe24487dU, 0x3dcfe892be04c225U, 0xbbf0a15b3cbd03d9U,
  0xbed8a001be7463baU, 0x3de9cba9bedb834eU, 0x3e023ce5bd3ffec7U, 0xbde96939be46b92cU,
  0x3b88d8f33c93703eU, 0xbe74e2cfbe047320U, 0x3e11a77c3e28c672U, 0x3e154666be4c6ffeU,
  0xbd3e7580bd3cc2efU, 0x3e3eb5cdbe375449U, 0xbc1ddb8dbb5e6160U, 0xbe04af0e3e3df780U,
  0x3e69e1a2be08a8b2U, 0x3d4cdecf3e286b1dU, 0x3e23d835bd9c8033U, 0xbd87f8933bb096c0U,
  0xbee042373e2977f8U, 0xbdd3ea9e3d625f66U, 0xbe4f21c63da48c2fU, 0x3e1c004fbf1f142dU,
  0xbe3e182b3d985117U, 0xbeb3cccebd7229e2U, 0xbbe88b80bdc262eeU, 0xbdf9025bbcbc87ffU,
  0x3e037872bc1e5080U, 0xbd42fbdcbe057928U, 0x3e156107bde361d5U, 0x3c1346a0bee83870U,
  0xbe82d97dbe6b2383U, 0xbdf2058abdffc439U, 0xbe305b79be9419f6U, 0xbda86884bdbd562bU,
  0xbe106a4f3d7cba92U, 0xbda29312bd3e2330U, 0x3d572194be3f2d7dU, 0xbd478038bc6b71e0U,
  0xbe50cfacbe11b37cU, 0xbcd96386be764291U, 0x3a8d05273d0b6b54U, 0xbdbcac6e3dfb1ceeU,
  0xbcf6b294be55798bU, 0xbcc80300be272002U, 0xbd89291ebd00af8cU, 0xbe0e38bcbd863882U,
  0x3e1e4407be289240U, 0xbd442428be552906U, 0xbe5e6a79bde3f31eU, 0xbe17bd263c81e8e0U,
  0xbca710383dc76e4fU, 0xbde64b70bdcd2923U, 0x3d88dc10bdb23638U, 0xbdb946a3be36c3b1U,
  0x3daae909be214d6bU, 0xbf4665913f3f3ed6U, 0x3d24d2fb3dd0095eU, 0x3d449d22bdf0fe36U,
  0xbe9431bebe8352d0U, 0xbe676dd93c0ca950U, 0x3df9a9733d32d482U, 0xbd11ff5ebe9519f9U,
  0xbe8817883e190a03U, 0x3de72f43bf4a83baU, 0x3e32dc2bbfad0d79U, 0xbd02dd6f3e3a2ed4U,
  0xbc1062e83e013553U, 0xbdbbe568bf6817e2U, 0x3d7b6a893d0e37d6U, 0x3e1131533d3744eaU,
  0xbeb596ba3d237081U, 0xbde21408bfaa1286U, 0xbdec822a3dbeb8eaU, 0xbeca6d0ebae61a01U,
  0xbe3ce79abe322931U, 0xbe2d05fbbee2d325U, 0xbca854673e153021U, 0xbda7e6a8be5a9815U,
  0x3c948b1bbe67a25cU, 0x3e3fff5c3da03ba0U, 0xbda90388be800410U, 0x3d6c4ab63e452d91U,
  0xbe5963293c2094e5U, 0x3e4309c03dea94f7U, 0xbf1a74c93de2859cU, 0x3c11dbcdbf5a3356U,
  0xbd3af7b7bf2abb03U, 0xbc111c85bf51b262U, 0xbe1669cc3d0ea475U, 0xbe6b8242be9a226fU,
  0xbdce49adbf006d85U, 0xbe468cd7bd8cda72U, 0xbcceb42c3cff0516U, 0xbe32309a3d4e1db1U,
  0x3e04a98e3d537bdaU, 0xbdae441c3d260030U, 0xbdf2cfc0bf4d0757U, 0xbf4fbda4bdbb8506U,
  0xbe9363d7c023bf9bU, 0xbe278f8dbd3155feU, 0x3cf96b78bdc44662U, 0x3c4a6d093cadeaceU,
  0xbfc7005cbe668644U, 0xbf1fcde0be16aeb5U, 0xbe76bd00be289ee4U, 0x3e06ed763eb16116U,
  0xbe42abd5be211c94U, 0xbe90a76abfeb23cbU, 0x3d0db9f93d9b7cd6U, 0xbe3df3e2bd8c27a5U,
  0x3d98894c3d6a72acU, 0xbd05a2483db9ab21U, 0xbe291e0e3db7f53aU, 0xbd985e1abe21c974U,
  0xbe61d7ad3dcbed20U, 0x3d259fe4bda7c7adU, 0xbf3483a73dc39177U, 0x3dcefb81bda7c1ddU,
  0xbe4329173e70d1e6U, 0x3cea5e7e3decdc89U, 0xbdd2a986bd90a233U, 0x3e838809bd8bb2a9U,
  0xbdbe3cf9bb97c92aU, 0xbd921de03cf15875U, 0xbd58535dbceb1025U, 0x3ee909313e972ab0U,
  0x3e2531efbdb8cb86U, 0xbe24d8063e57f061U, 0x3b14f11abe3aced2U, 0x3d4b777d3d906f65U,
  0xbebe0288be13d17eU, 0x3c99ef4b3b77b450U, 0x3f9bda0e3d43bcb9U, 0x3e74d87f3d01a6bbU,
  0x3ed8edb0bea5ca67U, 0x3e27eac63eb218c2U, 0xbe197fac3e1dd116U, 0xbe7526713fceb06fU,
  0x3c73345bbdb1d7ffU, 0xbfe9ac7c3cddd0beU, 0x3e843f34be08a7a7U, 0x3e45e2b2bde1a4f6U,
  0x3e3785073e35a3f8U, 0x3e230d98bd3b6e57U, 0x3e5e2d1c3d039ff9U, 0xbd51e582bd9015ddU,
  0xbf084b59be4dba03U, 0xbc876924be3fc740U, 0x3e1d50543e48d0a5U, 0xbd92cc9fbe36dd44U,
  0xbd8070edbf8fa269U, 0xbf2997a5c0167216U, 0x3a0abe2b3c8d1283U, 0xbe989b8fbd02e309U,
  0xbebd6e27bf9f48c9U, 0x3d2bf37f3da31bffU, 0x3d414e42bdac8cfcU, 0xbf287e803d852725U,
  0x3e74377c3cc554ceU, 0x3d467d9a3b8c1589U, 0x3de8b14abeb0d689U, 0xbf4b0c873b073e76U,
  0xbe7e3201be09641dU, 0x3d3b94bbbc8b4007U, 0xbe113f82be124ff0U, 0x3b0f35b5bdeacc12U,
  0xbfe47013be1d5f46U, 0xbeb91476be0b4489U, 0x3d3697e8bdd38343U, 0x3e1ee7283da7b19dU,
  0xbe3b673a3dfd332aU, 0xbdaec7f1bf96c175U, 0x3db9b8de3d955cc5U, 0xbe46b66f3daa70a0U,
  0xbde0b5613d4046ccU, 0xbe0d66fcbd9427baU, 0xbc007fe13da6e1f0U, 0xbe3cd7613cd89453U,
  0x3c7e1a863d36ad4aU, 0x3cedd55ebde134b8U, 0x3e1c01fabd3dd04eU, 0x3e0739c8bdcbcc4fU,
  0x3dedc376be3f69a3U, 0x3d84cddcbc039370U, 0xbe208a47bd99f72cU, 0x3d442e0bbe579dcaU,
  0xbe623f33bdedcf5eU, 0xbd0e8ec03e249fc9U, 0x3e029329bd36332eU, 0x3e2c6475be19116eU,
  0x3dff38243d99a85eU, 0xbe549e89bd959065U, 0x3d6c983cbcb43990U, 0xbd82994abdea1979U,
  0x3d74f551bdb2158fU, 0xbc8a3f38be594303U, 0xbe516daabe106e6dU, 0x3e1fdf813e19f2bfU,
  0xbe59d35abe6700beU, 0xbe395bd43d603b5eU, 0xbe7a0e3b3d6e7c5cU, 0x3ce7f6acbdfed3d3U,
  0xbe36a8dfbd3ca1ccU, 0xbd86e4b6bd5b530fU, 0x3db0cb76be430325U, 0xbd484c70bdfdc670U,
  0xbd9f65cabc81d370U, 0xbe2df67dbe3465c0U, 0xbd1aa1e4bdbfc5e3U, 0xbe07bde4bdf776c9U,
  0x3e322631bdeb1104U, 0xbcc9b7983d31023cU, 0xbe54b1453db253d2U, 0x3e342c58bdb797f7U,
  0x3e066501bea9a7b7U, 0xbe1e9aeb3ef00564U, 0xbd3a51f63dab1fbdU, 0xbe268ee3bbf23efdU,
  0xbec1e5483e120b2fU, 0x3db07fb13e1e6ef5U, 0x3ac2d4a23d31419fU, 0x3df37990bd47c50aU,
  0xbefac80fbe29306eU, 0xbe7c9f7abf1013a9U, 0x3e262d1ebdb9a9e1U, 0x3e5927fbbe1730bdU,
  0xbd445a9d3e3094ffU, 0xbcd1bbeebf24d299U, 0xbc0c5b80bd9ba779U, 0x3da482babd357060U,
  0xbf0545633deabc27U, 0xbecd77e73e43c912U, 0xbd66486abd5c8440U, 0x3de02f43bda86a44U,
  0xbe2ce1e43df44f94U, 0x3d873846bf6e7065U, 0x3d66f9203dda3d71U, 0xbadd1acbbe245355U,
  0x3e044a663dcb8fe2U, 0x3e0a0edebe730a21U, 0xbd5bc535bdce53ffU, 0x3c801099bd4d8c09U,
  0x3d622c1e3d59bf59U, 0xbdb4ec503d91999bU, 0xbe03636c3dda6754U, 0xbe32a5b7beaa52a6U,
  0xbe11e5b5be612781U, 0x3c869eb2be0a98eaU, 0xbd9b17e43d4fda29U, 0xbe0157ccbe7b8c61U,
  0xbe1370dd3d685394U, 0x3df0e92cbe06973aU, 0xbe4e68e9bdb2163aU, 0x3e144f65bd5a9ec0U,
  0x3cb6c4323e4b5ef9U, 0x3d3198443c9752bcU, 0x3d77ac1b3d96e472U, 0xbe019770be07caaeU,
  0x3d0c4210be80c167U, 0x3daef495be41778eU, 0xbdaa5729be11ab13U, 0xbe882d0abda71f8cU,
  0xbe8046a4be19aaf1U, 0xbd8da3053d84d18dU, 0xbe5c6e173d5be48bU, 0xbe29ccdf3d2d245aU,
  0xbd34b0923e04d29eU, 0xbe44fc2ebdda39cbU, 0x3d23dd9e3e2714d5U, 0xbe44b9bb3e12089cU,
  0x3e44e1aebe79b503U, 0x3da48aadbd3ab381U, 0xbe80e674bdda2321U, 0x3ded6a213c861663U,
  0x3d2a3b513d5e8d4aU, 0x3d2499b43dd5a373U, 0xbbb91520bc076f1eU, 0x3b16b0253d3c1812U,
  0xbdafde0dbe2f4fd1U, 0xbe94b5f73bb84e8fU, 0x3cf4a688be5acd0cU, 0xbdfdbea53de46ba5U,
  0xbe20af43be0df1aeU, 0xbdb304fc3ccf042cU, 0xbe0f32e83cbd7090U, 0x3e2bcbe5be1344c7U,
  0xbdf939b1bdf03486U, 0xbe51abf5be36eec9U, 0x3dc14dd9be743a39U, 0x3e1aec83be11f00aU,
  0x3d5d57e4bea7094eU, 0xbe570cbcbe3716d3U, 0x3c530c363d191fbcU, 0xbe4ef9473c5663f0U,
  0xbc5c63abbe215240U, 0xbe9fce32bdbfad44U, 0xbe49ee05be1d880eU, 0x3c7dac503c7ea790U,
  0xbe4914e8bdb64e92U, 0xbe0018b1be1c24f8U, 0xbd6838b0be3ae49dU, 0xbc546762bb47b92dU,
  0xbbca92803df783deU, 0xbd9d5924bdbd12c2U, 0x3e20a860be4c9fa0U, 0xbded1084be2434fcU,
  0xbda4eefcbd2a2b07U, 0xbe2d0191bcfe9f79U, 0x3d9b0cb33de0a426U, 0x3d60910dbdb077bcU,
  0xbe11b0bf3da4207dU, 0x3d9da5333dd8c386U, 0x3da0aa633d76ba09U, 0x3e063306be05ca43U,
  0xbe1b758abe447a6dU, 0x3dd2e44dbcac7c7fU, 0x3e2c5b623da8e900U, 0xbe3fd1c13d06a6caU,
  0x3ea9807c3db22720U, 0xbe3ce74cbe87e082U, 0x3d196e2c3cd91c22U, 0xbdffe03bbdf70f8bU,
  0xbf246cd73de85cf8U, 0xbe020719be7c3fd7U, 0xbfb936a73e09c911U, 0xbe96c0af3d453db1U,
  0x3eb7b1b13e875002U, 0xbdd24f8cbcdce7f7U, 0xbda34eae3e174ad2U, 0x3cec3c4ebfddf04cU,
  0x3e5883efbe27fcb8U, 0x3e0f942dbe7d3737U, 0x3d64bf0abd000937U, 0x3b87d5fb3e597130U,
  0xbe2c734fbe3db191U, 0x3e555b0ebd80e311U, 0x3df6b0e23e17fe77U, 0x3d829edcbe13c37cU,
  0xbfe20995bd879c07U, 0x3d8d76e53d3310b5U, 0xbd3c5b323d3e7466U, 0xbd5edd84be2607d0U,
  0x3e2fa56dbd2cf852U, 0x3d872caebe0e70b7U, 0x3e3a67493d6cfa5bU, 0xbdde13653d62d5f5U,
  0xbe656e3cbe249ad7U, 0xbde09caebd0caf7aU, 0xbd3d54e9bcefc0cbU, 0xbbc75831be18686dU,
  0xbd34f8de3d33058aU, 0x3d87a782be1655d1U, 0xbde685d0bd2959e0U, 0xbde4a55abe6b4036U,
  0xbc0c9c60bd6e7463U, 0xbabe4b80be01899eU, 0xbcad6f48bd13e230U, 0xbe3aaa33bd59d346U,
  0xbda2a08dbd4ec7d9U, 0xbd030b3fbdd877a3U, 0xbe5c868d3e314f6eU, 0xbe82dea83d0ede04U,
  0xbe2901dfbe46ccdaU, 0x3caf19db3d9f6f7eU, 0xbdd834e7bcfe02f0U, 0x3d72726bbe3be191U,
  0xbdbeef2f3e3e82bbU, 0x3d44f822be5adffeU, 0xbcf0a0243d3e427dU, 0xbddb755b3e1e3d99U,
  0xbd038240be45158eU, 0xbc2fa29e3d215c3cU, 0xbd8640713deb6379U, 0xbddce4743d3b358dU,
  0x3d2114c53da19464U, 0xbe2d387dbeb6980dU, 0x3e3d06f8be7c2e48U, 0xbe2c44eabe809849U,
  0x3ddb7cce3dc5f7aeU, 0x3d8e919ebda60da6U, 0x3d6aaf0ebe2d2626U, 0xbe45117dbcb69416U,
  0xbe3a213fbd718e03U, 0xb98a20bbbe61b8cbU, 0xbb5319edbe5a5d4cU, 0x3ddea9cc3e1c2e09U,
  0x3e74864fbe33bc8dU, 0xbe3a8768bdaab76dU, 0x3df6c8323e3affebU, 0x3dee7b7fbd2e4514U,
  0xbea13820be6eaa78U, 0xbe05f82abe33014cU, 0x3d92f5c33e0e908dU, 0xbe1507f93a269079U,
  0x3e22ca733d9c2ed0U, 0xbdbef1d7388cffa4U, 0xbe12f183bd5aa453U, 0x3e1fd6d23d1328eeU,
  0x3c0ee2353e39e4ceU, 0xbdaeb6b43e2a6e88U, 0x3d636a5ebd4a0ac3U, 0xbe4e98a93e24eae6U,
  0xbd22d17a3da0032aU, 0xbd464fad3e5fff14U, 0xbe618142be3d10c2U, 0x3d2b16ecbe1cd7f0U,
  0x3dbbee443db2fc5bU, 0x3f4ca620bece18dcU, 0xbe6c71e7bd8e65aaU, 0xbea61a9b3e57b7b1U,
  0xbe914323bdcda062U, 0xbdbd6d823a5d7090U, 0x3d523152be5ad82dU, 0x3d3e563abf515df2U,
  0x3ea12ee9be095c0aU, 0xbebcb025bf60cc1cU, 0xbded95f2bf7d2260U, 0xbf2c32d03d334163U,
  0xbe4e1fc83e047a27U, 0xbd9a64833e5b8e36U, 0xbeece277be8b99daU, 0xbe5336fd3df1bcc9U,
  0xbed13dafbd291334U, 0x3cb22896bd5cf67aU, 0x3d8c01a93dcb6a28U, 0x3d2fb9d4bf8692a1U,
  0xbdd946a53e13be27U, 0xbd9bf8393b789616U, 0xbd9605133e1c154dU, 0xbd8423323d9dea8bU,
  0xbce724f1bc23886cU, 0x3ccff3d53d89c77bU, 0x3d243e573e0bfb71U, 0x3d775e7f3e0cba28U,
  0xbf5c03993cd08eb2U, 0xbe2a48d73dea3240U, 0xbee5db943d682a0cU, 0xbe011fbebf686e62U,
  0x3d0fdb22bca8dfc6U, 0xbe6dc0c63f027157U, 0x3e428c5e3df5d773U, 0xbf00de2cbd00c1fcU,
  0x3c8c2d43be8a5058U, 0x3c3ef3113e033f4dU, 0x3d6c3c4cbd53b791U, 0xbe454c6a3e302a3fU,
  0x3bc0f68c3d673879U, 0xbc7285003c8b5399U, 0x3e5469c2bf4f8990U, 0xbe9dd4dd3d01bb21U,
  0xbddf15d6bf036849U, 0x3d95d2273ebaafd3U, 0x3d4ded78bdbdae0cU, 0x3d38a131bc109c8dU,
  0xc05a6c3dbe41437eU, 0xbec491d7bf5c9f82U, 0xbe5e9cfa3e28a239U, 0xbe344384be83e83dU,
  0xbe9d6f513e2a1d3fU, 0xbee3f0d0bf3f3ebcU, 0xbeb72fabbbffbc14U, 0x3e1d4080bcc986caU,
  0xbcc9102bbd17d1b5U, 0x3d25ff1dbe019341U, 0xbe4718e03d11185eU, 0xbe800f6f3d93f8a7U,
  0xbf79cbcc3d027c05U, 0xbe683c91bdb17638U, 0xbea5f7c0be32e2caU, 0x3e0faf32bc646453U,
  0xbd73e666bf088f91U, 0x3f838862bdfba04eU, 0xbd0fcbbcbdfbd61dU, 0xbdfc6d0ebcad49e6U,
  0xbf870e323ef7849fU, 0xbe28a37a3e14a216U, 0xbd0d3e4cbc61ef51U, 0xbf08ed953cf4318dU,
  0xbe4a5f0ebeea8d2cU, 0x3e315bf03e088837U, 0x3e3dbc22bf4b679bU, 0x3f29e2d4be34374dU,
  0xbe336f93bd8630f0U, 0xbe18f133bf4b6dd0U, 0xbf5689e6bd5ec179U, 0x3e0f6bfb3d91628fU,
  0xbf1fa4963e53babfU, 0xbd4c1a30bcf67670U, 0xbe88ca4ebdf6141cU, 0x3deba9e9beeb8e96U,
  0xbdb4fe7a3e0c0b72U, 0xbfa0ddd93ee0aae0U, 0x3e73df25bb992bb8U, 0x3d935db63db20584U,
  0xbe2fac7c3e150a76U, 0x3d0600433d417712U, 0xbde47fbcbe2810e9U, 0xbd3724813e2b2d04U,
  0xbf56a0bebd8c6a8aU, 0xbe6d47443e239c74U, 0xbf91b71dbe6dd5adU, 0xbd51c1d0bf69799eU,
  0x3e3d40c8bdde0b1fU, 0xbe829c63beb344dfU, 0xbe1135a6be2b5acaU, 0xbd4afdabbdb0e8dcU,
  0xbd56014a3e7e53d0U, 0x3e1ad4ba3c8ec7efU, 0xbe6b07683dd1ff0eU, 0x3c819882be282136U,
  0x3cfe97bbbe640f3aU, 0xbc4d15afbd8d864cU, 0xbe0e9c25be8fed58U, 0x3ea575433db854a2U,
  0xbe0f7f4cbd763355U, 0xbdc4f6de3d8a037fU, 0xbe6ed5433e24288aU, 0x3c9d8dc33d9050f0U,
  0xbd4eb273bd8fc8fdU, 0xbf003c04bd145327U, 0x3d11b47e3dc9cc1eU, 0xbdd7a154bdac963fU,
  0xbe22dc823cc91257U, 0xbc75db97be159353U, 0xbe249020bd42839eU, 0x3e013a3f3e1905aeU,
  0xbde30627be33b834U, 0x3e4c61b23d87e21fU, 0x3de011453af7a6ffU, 0xbe0fcdb13c8e11dbU,
  0xbea8aaf5bb0a6f5aU, 0xbe540efb3c0c46a5U, 0xbed0afc5bd454882U, 0x3e3f617ebe213ad3U,
  0x3e27ff82bf6dc03aU, 0x3d8ea1873e68dba6U, 0xbe2d2f243e507194U, 0xbf99a915be0b3350U,
  0x3e69473d3e25fc63U, 0xbd32ad313b7c5501U, 0x3de45de03de01452U, 0xbe92cc1a3e434952U,
  0x3dd516f3be8a39a9U, 0xbe802d93bed29393U, 0xbd82c9d2beb16556U, 0x3e9430e6bddb5a2cU,
  0xbd964b7abf773b8cU, 0xbd3e41a4be09f6f6U, 0xbdc9bc03be52392cU, 0xbe42ad723e058da3U,
  0xbdc7d8fcbe2cbcf7U, 0xbed12a26be6ad13bU, 0xbdcc9029bdcd96f9U, 0x3e016c1bbe684241U,
  0xbe491de43bd95f8fU, 0xbddcd69cbc4c3d54U, 0xbe4e1fabbcd64e80U, 0xbdaf2577bddce6a8U,
  0xbe2288a63d358490U, 0xbde75639bd814144U, 0xbe842c11bc0bb990U, 0xbc62db723d2a3ceaU,
  0xbd85a1b8bc8382d8U, 0xbdb84895bd555d43U, 0xbd1f97493dc41fdfU, 0xbe0d70ea3db80ce0U,
  0x3decf7f5be813515U, 0x3eab7366c0496942U, 0xbdb635f8be3b578bU, 0x3ed2a527be2a9bb3U,
  0xbf14a8bf3d4380bbU, 0x3d9af23abd45e1d4U, 0xbd45ebd73d7207a0U, 0xbea790693e77354eU,
  0xbe5a4181bda98310U, 0xbcb33f0f3d0c44a0U, 0x3d0eedc1be8bbbedU, 0xbd094f183e1e76a0U,
  0x3e3ee36abf112c53U, 0x3e2cabf7be3c5d74U, 0xbee9edfc3c0f7d58U, 0xbe3ea6463dd28cd0U,
  0xbfa7904abe16b6fcU, 0x3d0294debd066573U, 0x3de23f963cacf53eU, 0x3d2d3fc63e3196fcU,
  0xbe87c3f9bc40eb76U, 0xbe478533bf21e63cU, 0xbdd230473d65ba6cU, 0xbbd7a7413d923c55U,
  0xbe5aa88dbe3546a3U, 0x3d80dfb53d12db1dU, 0xbd20546abe74ae5dU, 0x3e0d33fabd6208c9U,
  0xbd5d7c0bbdee52e5U, 0xbd589e37bdb30317U, 0x3e1454cd3c1a0c41U, 0x3d934d303e596db7U,
  0xbc50bb2d3f4574c3U, 0x3f4bc14dc01052b7U, 0x3d5161c5bcac0ae6U, 0xbdc88566bead2475U,
  0xbe989598bf842977U, 0x3e17c163be31e5a7U, 0x3d9f7e12bdd0f421U, 0xbe1b9c44be60605eU,
  0x3ec4821f3e26c08dU, 0xbeea114dbe107982U, 0xbd9c3521bfaa3e49U, 0xc00da744bdec928aU,
  0xbf0073343f130b45U, 0x398efdcdbf59646dU, 0xbed78b62bd3cbb42U, 0x3c58ee5f3df56375U,
  0xbd8424f23e0f11ccU, 0x3ef2eaedbe93b1ebU, 0xbdf62176bcf3f8e5U, 0x3d7d1d68bf208cb5U,
  0xbe968685bd69ccefU, 0xbe4d1ed5be6ba5ccU, 0xbe6702f8bd4376eaU, 0xbe3c5378bc8b9d18U,
  0xbe3035e33e30af21U, 0xbe0c951d3e1caef1U, 0xbd1ca87abe2f99e7U, 0xbe02d831bd5d7938U,
  0xc03935f23e0a4baaU, 0xbe087ee43ce33b14U, 0xbd018e76be32aa0fU, 0x3d637461bfc0ddf3U,
  0xbe02232dbd5eb028U, 0xbb87e59ebe6cd9d0U, 0x3dba026bbc20f779U, 0x3cfe11643d432cf4U,
  0xbe3397d0bd50fe74U, 0xbdc7ef7b3d70f0ffU, 0xbe52e30ebe85a00aU, 0xbe4b7c5a3d67a670U,
  0x3c061214be1f2765U, 0xbe58e4edbe085e58U, 0x3e2cbfd93e0d5862U, 0xbdda48d03dc7d8c4U,
  0x3da34676bdce74a8U, 0xbe40bd86be5ca5bcU, 0xbe1eb9693db3ed37U, 0xbe7e4611bccfc1b7U,
  0xbe86eb18be44d551U, 0xbbc1a3aabdc65205U, 0x3cd6d0bf3d5241ecU, 0x3e2e56953dbeb62cU,
  0xbe296ee63dd285e5U, 0x3dfe85a73d9e7f99U, 0x3e06e9563d1950cbU, 0x3d4389233e686343U,
  0xbc32259ebd8d0265U, 0x3ce8f359be6a7db7U, 0xbe5a98e3bd9baa42U, 0xbca15d47bdb8469eU,
  0xbdbfdc3e3dd29a74U, 0x3d8fce7fbe4ead33U, 0x3d646473be32fea2U, 0x3d3badc9bdc8ce22U,
  0xbe08b2f43d93d711U, 0xbe38a7fcbd9faefcU, 0xbd4913aabd9779c7U, 0xbd6bdf033d92f1caU,
  0x3dc6bef13cbffdc1U, 0xbe02083d3e4e8aa1U, 0xbe6353853d1e34c1U, 0xbe3206e6bdfcf75aU,
  0x3d35d2e1bdbbf11cU, 0xbe23acdabe00ec6eU, 0x3e286f50be539304U, 0xbdae30b9bd9f8d09U,
  0x3dfb4e10bdff6a89U, 0xbe1882453c100a31U, 0xbc66ce3fbd85acc7U, 0x3e01c1af3d9c6c26U,
  0xbe17ce2b3d37678aU, 0xbe4ea7c83e368bdeU, 0xbda425783dc84bacU, 0x3dfb8bcdbdc7b067U,
  0xbdbbd9593a4cf985U, 0xbda1bbd7bce9d1e8U, 0x3e408a6e3d92b032U, 0xbd2893a43e3d3132U,
  0xbe2d4b9fbd4f58aaU, 0xbc9094963e12e38aU, 0x3af128773e2a10d1U, 0xbe6085613e53f499U,
  0xbdb118e7bd553171U, 0xbe0ae964bce41281U, 0xbd997d173e0d52b1U, 0xbde70950bd3e3cc1U,
  0x3e392a36be5bf226U, 0xbe3b66823d9b5785U, 0x3e2179793e0ac747U, 0xbeddfe7e3caa51a9U,
  0xbed6e1f0bd661d15U, 0x3dcfcb4fbdb3623fU, 0x3dfda7f2bcb30c90U, 0xbe1669dabeaba2eaU,
  0x3df77b0f3ccec5ddU, 0x3e44d964be20c6d0U, 0x3c1a61c93d83964aU, 0xbe1b81a03e392d43U,
  0x3dfe6c8c3dd5648eU, 0xbdb69f88bd8d80dbU, 0xbdc6b5babe201a37U, 0xbdf45042ba13c343U,
  0xbe4f9f2ebcb07305U, 0xbe75b0a0be190167U, 0x3d49853ebd771ed4U, 0x3d8f1f2f3de83616U,
  0x3d2872ebbd7947c4U, 0xbe78872cbe8eb74bU, 0x3d6545113e190c06U, 0x3ce260fc3cca4d63U,
  0x3e66446e3cc69236U, 0xbb558213bddd49e1U, 0x3e52ce1c3e10ddf2U, 0x3d1834f63cbaccc5U,
  0x3de824c63dad9897U, 0x3e2695f33c62c9cfU, 0x3db8ab3a3dcb8da2U, 0x3da1a695be8b83dfU,
  0x3c8174a2be9dbfdbU, 0xbe57758d3e3f6e65U, 0xbe0b02d03e225485U, 0xbe0589fbbdfd59d0U,
  0xbf032b563f3c52aaU, 0x3d6034873dcf7a5dU, 0xbd1352cbbe4649f0U, 0x3ce51b46bf88fcd6U,
  0xbe8fb219be3a9ce6U, 0x3e3723eebfac6c4dU, 0xbe277709be23b567U, 0x3f2b7dcf3d9f8a39U,
  0xbed254b9be223c0bU, 0x3e57edabbeb9716dU, 0x3f04c954be39b28bU, 0x3c9473e73ddeab3aU,
  0xbea8d9d6be935652U, 0x3dee97003e9bc0e2U, 0xbe28fc9abe477802U, 0x3d82fad93f88d6bcU,
  0xbe22e73c3e49c1b5U, 0xbe1ae67a3da5988fU, 0xba9fa97a3e281f99U, 0x3ca9f0f6be7da80dU,
  0x3e070aa63dfd115fU, 0x3e1456e2bd95ef80U, 0x3da4391c3cf7d7e1U, 0xbc879c11bd13ba10U,
  0xbf648c7bbe1c83e7U, 0x3c856953be2cc0e1U, 0xbe5e1c303de2bb0cU, 0x3e2db586bea1c3f3U,
  0xbdc2d4663e09b465U, 0x3d9457d4bd44e3afU, 0x3e716dadbe143050U, 0xbd13c48f3df397e8U,
  0x3bba6051bddeb27eU, 0xbe496639be04598eU, 0xbe0675f63daaab24U, 0xbe7b7996be542beeU,
  0x3d126275bdb9d4f0U, 0xbd878ab63d105fd0U, 0xbe50f86ebe81e2aeU, 0xbe259c78be3f5ca9U,
  0x3d85ef8bbe6c7b0aU, 0xbdb4f8763c1d2001U, 0x3e33c9edbe73e1a9U, 0xbe01de63be306a1aU,
  0xbd143fbf3e18960fU, 0xbea8d08e3e2c473fU, 0x3cf1dc4ebe14aaeaU, 0xbe014d41be8d6850U,
  0xbe34ff74bdb0f28dU, 0xbc51f6c53d266894U, 0xbe7054d23e30799dU, 0xbdc4302d3e175979U,
  0xbe34fabe3e49fb39U, 0xbdb6237c3d8a78c4U, 0xbc8697a6be066bfbU, 0x3da00cdc3dc0b3c6U,
  0xbd7a01dd3c96c469U, 0x3d81cf3ebdcf83e7U, 0xbd61669cbd5b5ef3U, 0x3db7103fbe34077dU,
  0x3e0eb36dbf330c67U, 0xbdbfbb083f3879f9U, 0xbdbbf97cbe25c8b9U, 0xbf50cc5cbe04369dU,
  0xbe858499be943782U, 0xbe313db73dae2be7U, 0xbc8e6facbe981083U, 0xbe8d5bd83d74a6feU,
  0x3d80611a3d7b4844U, 0xbcf09c773d1c3bceU, 0xbe26bd4dbf13f4f8U, 0xbefec0a6be0cdf77U,
  0xbf0c69e9bf224a4dU, 0x3e1ecfe83d1bce8aU, 0x3d9a5aae3d380810U, 0xbe81f9693dcb6c36U,
  0xbf8f1f66be099c05U, 0x3dbf46453d3b37b1U, 0xbeac7f61bcaeff4bU, 0x3d3ad59fbf03f94fU,
  0xbe62cd0a3d5ef7e8U, 0xbf71c2eebe3221cfU, 0xbe5acfa03e03a406U, 0x3d1efe2fbe359e8fU,
  0xbd989f7abe690b07U, 0x3e794d2dbe2078cbU, 0x3e3468093e342707U, 0x3e00b51c3e399f48U,
  0xbf539f84bd123e7fU, 0x3cc67a633e17e49fU, 0xbf0320143d92b15bU, 0x3d71f638bf532a65U,
  0x3e097d623d85104dU, 0xbd9dc2ed3e9cbc91U, 0xbddd1865be41c6ebU, 0x3eba6b2fbe001be9U,
  0xbe9060fb3e03f1c5U, 0xbd32e7113dddb5c9U, 0x3dae0102bddd6b4cU, 0xbf3854593db5c651U,
  0x3d48b667be007948U, 0xbe598a98bf111eb4U, 0xbe3120c43e267a6cU, 0xbd7115a9be183e7cU,
  0x3e08268f3e750cb7U, 0x3c0f025ebdd05e98U, 0xbe6a0674bdbc91b3U, 0x3cdd9d73be0c0adaU,
  0x3f00651dbebff488U, 0x3e2da8e33e0f773fU, 0x3d4fd362be00bcdcU, 0x3d606198bc184237U,
  0x3d2fcb1fbb6df21cU, 0xbe0e6b383d947001U, 0x3d7fd848be1d8232U, 0xbe270261be44aa2fU,
  0xbe00af413c6c370cU, 0xbd9e5f60bd31c541U, 0xbd7c0998bd84c2a5U, 0xbdb5ec7dbd1d2471U,
  0x3ecd5a1c3c850d3eU, 0xbdc503b53e18def7U, 0x3d49e30dbe0ff8a8U, 0x3d7bd968bd96b624U,
  0x3d67fb25be809f9cU, 0x3d08d2f33d4b4bb2U, 0x3e2d28ed3da3dc59U, 0x3c3e575f3b965a5eU,
  0xbea308ecbe4403b5U, 0x3d8921423e431d96U, 0xbd8b56fbbe5858bcU, 0xbd146e56be619cd5U,
  0x3d3ed26abc9d1c80U, 0xbe104143bd78f8a9U, 0xbd5f406a3da96792U, 0xbdad5ec63dd91efdU,
  0x3b3fba0e3cf428c9U, 0x3c2c8586bd891eeeU, 0xbe2506223db8e834U, 0x3e8bf7413dec4595U,
  0xbe9604efbe02bcccU, 0x3cef0e0abd19ece1U, 0xbe11a210be52fe3cU, 0x3e064f83be100707U,
  0x3dad06483d22b99aU, 0xbea69066bde8c33bU, 0x3da8b6bb3e72d9c1U, 0xbe24df0abdd10af7U,
  0xbdc57f6b3e50a8d2U, 0xbe049ffb3d0629a1U, 0xbd1c1ff23e0629e3U, 0xbc7842e7bde37268U,
  0x3e2154583ce3304eU, 0xbc915485bd32f398U, 0xbe8154613e414209U, 0x3e10b643be473a3eU,
  0xbd9a5422be449a5eU, 0xbec06eccbeb6764cU, 0x3e42c337be4b7680U, 0x3d708235be88fa2aU,
  0x3d48cedabe70d68aU, 0xbe2be399bc3c23cfU, 0xbd9021e6bc7e715fU, 0xbe31a8acbd565857U,
  0xbe54766d3c9cd1a0U, 0x3de104e9be25c33eU, 0x3af0ade7be868af6U, 0xbdd66480bdb1d2eeU,
  0x3de53006bd1e77d3U, 0x3e004d173d30b97aU, 0xbe272f513c93276cU, 0xbe27924abe0868d0U,
  0xbdc7a203bda6e4dfU, 0xbeb63d603e026f9aU, 0xbe33f0393c8c678dU, 0x3e6b33fdbe44704aU,
  0xbe34d661bbba7fb5U, 0x3d9b9d5abcd9011dU, 0x3d992f55bd5b33f5U, 0xbe2629e23e0011a6U,
  0x3e52eb3a3df7591eU, 0x3bba9e8dbc53d6ffU, 0x3baccf9a3dd2d870U, 0x3e20d7453b30265cU,
  0xbdb8658ebe50bba4U, 0x3dbabcf93da42b13U, 0xbe1ceb1c3e64ae85U, 0xbdcf83acbe8bc6bdU,
  0x3dfbf38cbe377316U, 0x3f699aa0bec9bebbU, 0xbd9e900abd2f69ddU, 0xbe59cc6ebed5c5fdU,
  0xbf1cee6b3e37dd96U, 0x3e256bfd3d98d34aU, 0x3e0d3e0d3d9672e2U, 0x3e025c543e35b261U,
  0xbe67a382be1cf526U, 0xbe81c158beec9843U, 0x3d6522f4bf0ae430U, 0xbf17d7773dfe0126U,
  0xbd7289ec3e782ca9U, 0xbd944b333e2341fdU, 0xbe24460d3d950e46U, 0xbe2e5f3f3e24bd0bU,
  0xbe07cc0dbe3be872U, 0xbe83f9f1bdec6ba9U, 0x3dc385e3bd9b5112U, 0xbd910992be5b32b2U,
  0xbb062f003d8ae8e1U, 0xbe9edd60bfba4cceU, 0xbd3d406bbdee2d1aU, 0x3dc82efd3e2cbe5dU,
  0xbdee2cda3b7cca58U, 0x3e3f3bf03da5cf23U, 0x3ce43e813d2c0c04U, 0xbdbef2aebd562c74U,
  0xbfa7a0633cb274c5U, 0xbc33382cbd5c0396U, 0xbf0c8badbd46f4b4U, 0xbe0d84cabee31122U,
  0xbddc6ee2be8aaabaU, 0xbe51d44bbe417c25U, 0x3dcf6562bd7be399U, 0xbec5df10bdd8f0b0U,
  0xbe17f6f33d886d5fU, 0x3e374fa63de11be7U, 0xbe6191393c6d7b23U, 0xbe2db7b6be15706bU,
  0x3dbb7d1dbe043102U, 0xbe31399b3ce23f2bU, 0xbe657ed03b854ef0U, 0xbe40948cbe41bb37U,
  0x3e253ccebe016997U, 0x3dd99f72bacad8e5U, 0xbc1c843c3d5034d5U, 0xbd75fa1a3d48f3dcU,
  0xbe30eb353e0edde4U, 0x3cae41c9bd9e6424U, 0xbe0807443d64e50eU, 0x3e32c6d43de94027U,
  0x3df4ac61bd53734bU, 0xbd90a197be05fd68U, 0x3d053d483a790e37U, 0xbda86361be252665U,
  0x3d7aef4b3e2f40abU, 0xbd43a18dbe3665fcU, 0x3e05fa3dbe824c5aU, 0xbc4c5b7ebdf38ecdU,
  0xbd98c68ebe286ba1U, 0xbcfcce11bdec34e4U, 0xbcd8819b3d9881d3U, 0xbda57cb6bda6e7a1U,
  0x3ded3ae8be7baa49U, 0x3d55e308be4de4bfU, 0x3da973e0bc974e8bU, 0x3ddc1b33be1c669fU,
  0x3d5be893be5431a1U, 0xbdd8ab5f3e145bd2U, 0x3ce32ae0bdf43fa0U, 0xbdd5ad38bdb1d973U,
  0x3e0a71ecbe378564U, 0x3d0b19113d12d564U, 0xbe3f6cf5be0b0bceU, 0x3e1df7a33e082eb0U,
  0x3e0bf49abe0c338bU, 0xbd33d1c4bdefed63U, 0xbddc9e3abcb4abfeU, 0xbe31ae14be1606ffU,
  0xbe04918c3e027f99U, 0x3d0505d3bdefd7b2U, 0x3d0221163db0be41U, 0x3decbe47bdf636c9U,
  0xbced392fbcb3f909U, 0xbe43d469be70d35fU, 0xbdee87523de17aefU, 0xbd1bde043e1d49e4U,
  0xbdbd6426bd839753U, 0xbe54de57bbc593a8U, 0x3da5d135bc4832d3U, 0xbd6d68d6be09ad30U,
  0xbdce13b33b71e190U, 0xbc1a90c83dbd6fc1U, 0xbd5b767e3d110564U, 0x3e64ab213c54a23dU,
  0x3d0939f7bc5d98baU, 0xbe42e5b7baac327dU, 0x3e27f3a8be1f9008U, 0xbe7ae8f3be0cad78U,
  0xbdf8264c3e4e5f11U, 0xbc50300d3e3f0026U, 0xbdf660453e167123U, 0x3e11ffd7bd87d8eeU,
  0x3d66b130bc7d57a1U, 0xbe3ea589bdec1b53U, 0xbc715cf23e03d437U, 0xbdea2668bdffddfeU,
  0x3dc33f1dbe20d8d7U, 0xbd3de3f5bdc31af7U, 0x3cb1a4113d9385d0U, 0x3ca28c2abc95b2deU,
  0xbde891813c96f3ccU, 0x3d058675bc7cc0e7U, 0x3d3ab0ae3d83f6efU, 0xbe3a8e9fbe59d9a8U,
  0x3deca47bbdb1bf9cU, 0xbdc41d14be49a95cU, 0xbdbeb075be1c96a0U, 0x3e06f9bdbe0bbd01U,
  0x3d72d84ebd97b99cU, 0xbb6ea65d3d6dbe90U, 0xbd14d1d53d3be8efU, 0x3e643a993ce06c94U,
  0x3d8a3f11be4b41e7U, 0x3e416056be3486e4U, 0xbe614eddbe2decdfU, 0xbe452803be02ab3cU,
  0x3e1bc5d53d7da2feU, 0x3d09522ebcb9f50cU, 0x3bf25d203de7ba49U, 0xbe9de5e43e20f73cU,
  0x3dc4d0e13dca55c2U, 0xbb980902be5b756fU, 0x3e4c6742bbc30faaU, 0xbe32164fbdbc39a4U,
  0x3da5cf683de040e8U, 0x3e08a313bdf1da3dU, 0xbe543d29bae30a20U, 0xbe2e4d44bd001f10U,
  0x3e65665fbe688e24U, 0xbe513a96bf0a0604U, 0x3dc17709bd9a86b0U, 0x3e39027fbe43fb17U,
  0xbe8f6651bdaa688bU, 0xbede037d3ea05bd6U, 0xbcb78b6dbdbeaff7U, 0xbd54a5fe3d376b79U,
  0xbe0a7a46bd4ec077U, 0xbe043605be4baf81U, 0xbe0122c63cb91150U, 0xbd957090be2eb4cfU,
  0x3d2fa273bdec2ccaU, 0xbd898620bc92eb03U, 0xbe72071cbe321444U, 0xbe4ee4aa3d859262U,
  0x3c534596bbf87d2bU, 0xbe4310a73e48609bU, 0xbde19c96be5f727fU, 0x3e4b3468bd92d662U,
  0x3db5fc393bfcea8aU, 0xbdde86c6bc9e63d7U, 0xbcc239eebd88d67fU, 0xbea74f37be5b54beU,
  0xbe3f1e70be7e9007U, 0xbcad6fccbe051169U, 0xbe56380a3e1b52f1U, 0x3def92debea1f460U,
  0x3d559d593e4382b9U, 0xbe40603bbe96f901U, 0xbe289a0abedec730U, 0xbc90d77bbd4e0674U,
  0xbf3d2dcbbea68379U, 0xbe0d0c91be9749c9U, 0xbeaa676dbda67cb0U, 0x3e1bc97e3de5b57fU,
  0xbc33c8cdbe5808a3U, 0xbdc8f971bf3633b0U, 0xbe18e4cdbe44ed1dU, 0x3d3504e8bf8daaf9U,
  0x3b925a173d06ac5fU, 0xbc0db023be5ed4b1U, 0xbd982ec63d94c46eU, 0xbdb2b9cdbe5f293fU,
  0x3e0d2b0d3cf5ce9bU, 0xbe4d325ebe46217cU, 0xbe28c6873e6e5e68U, 0x3e5dea45bd1d67aaU,
  0xbebae669bdb1acfeU, 0x3e345800be7e7232U, 0xbd6a1c30be128f94U, 0xbe2b4277be880e37U,
  0x3d977f3c3c888ab2U, 0xbf23950fbf2c0b7fU, 0xbdde52b63d9ad41bU, 0x3cb46a24bb384619U,
  0xbe054437beb96827U, 0x3dc4ce3a3d0e61f5U, 0x3dcfa881be4c49abU, 0xbd8f3931bde80474U,
  0xbf009b6a3df7e6a7U, 0x3db388f9bc4cc3b2U, 0xbdd1e38abe4b017dU, 0xbe5694f2bdef91d8U,
  0x3e1dcd98bcdf55e4U, 0xbe2dc447be9b6b29U, 0xbcb5398b3d193bb4U, 0xbe15dc1d3dcc6ed2U,
  0xbe040cc9be38649bU, 0xbd996f473d43ed5aU, 0xbec1ac903e4b0289U, 0xbe2ffa6fbe58015aU,
  0x3dc9c853bbfc25a3U, 0xbda2a975bed4e5e3U, 0xbea0352fbe543aa0U, 0x3e3f51153e101b1cU,
  0x3d4c041d3d24de1dU, 0xbcab3043be2d9f6aU, 0xbe7a279d3dc918edU, 0x3dc886dabdb729c7U,
  0x3d380839bdf9b61fU, 0xbe6517e53e2fc8f1U, 0xbcbee3c0bd98b2eaU, 0x3e297499bec153edU,
  0x3ce1f41cbc774d05U, 0x3dff2437bca3039dU, 0x3d7f91bb3d3f7ca9U, 0xbd416ed3be4386ceU,
  0xbd6ec2b3bd2717caU, 0x3dc072233cf5c360U, 0x3dfdeed2be7cb42cU, 0x3e1d9185beb3d72bU,
  0xbea722a2bde865c0U, 0xbde389163dc67b01U, 0x3e0b5608bd8e3cb2U, 0x3cec7fff3e0adcb7U,
  0xbbb44a1cbe8728a0U, 0xbd1044ab3d43cdc6U, 0xbe553cd5bdd0b386U, 0xbdeb18e73d0d8c5bU,
  0xbd8fdcb33e4c706cU, 0xbe2faba53e07b0b8U, 0xbdd6fd2abd0ebf08U, 0xbe5430d2bd5331beU,
  0xbca7a9f03d26862bU, 0xbe8226373da56ca8U, 0xbc0514143dbe76d2U, 0x3d499b253d9ddbe3U,
  0xbe56bdd23c823365U, 0x3d263e9bbdb9b764U, 0xbdb51c35be9ad156U, 0x3c1f28c7bd3aa934U,
  0xbd95eb2d3d82f2a4U, 0xbdba516e3d6a9ab1U, 0xbe05f4d23cdf43f3U, 0xbe1f7259bede1196U,
  0x3d551aff3e7b6dc7U, 0x3f7871663ea71d83U, 0x3dcd8ab23c827b41U, 0xbeb19131be566181U,
  0x3f07b704be88d38eU, 0xbce6f382be6c8fddU, 0xbe00600fbe4c834bU, 0xbe1e8824bdb39504U,
  0x3d73f797bdcda237U, 0xbdce9c33bf9a3bcdU, 0x3db30b493e2ff76cU, 0xbf44c6b83d95e672U,
  0xbe91afa4bebce71dU, 0xbe5cd2b63f1a8e78U, 0xbed225913da56d3fU, 0xbe5325963d00482cU,
  0xbd0f52dbbe1d6f83U, 0xbf0523b0bf961eddU, 0xbd99ec0bbe1f45c9U, 0xbe745777bef45276U,
  0xbe5475fe3e513031U, 0xbf0288d3bfdee455U, 0xbc006c373d284238U, 0x3d82b6913d8002daU,
  0xbe56375abe63199fU, 0xbe7170eabde09ef4U, 0xbe9d92a43e95ee71U, 0xbe60159abd931a41U,
  0xbf2578373d561491U, 0xbe0b5d7cbc860222U, 0xbde89cdbbe1feb68U, 0x3e34b1be3ecb6272U,
  0x3c8dfadf3d82c519U, 0xbe120afdbe80b823U, 0x3e24edb7bbf8865fU, 0xbdc570073c4ca678U,
  0xbdd2e7c3be10a7beU, 0xbd2cb805bd80defbU, 0xbe1833003be5aaf2U, 0xbdc0a28b3c6a0fa1U,
  0xbe25d3f63d50caadU, 0xbdc39b3fbc7d0101U, 0xbd5b09e03d86b41fU, 0x3d2474fcbdbc3e29U,
  0xbd48441fbe20c03fU, 0x3cc653c6bdb42f0cU, 0xbd6f0676be0ffdf6U, 0xbe0a5efabd837023U,
  0xbd144f403dfddf50U, 0xbe3a17c3bd64c253U, 0xbe177b6a3ab23924U, 0x3cfb26083db88526U,
  0xbe590652be37badaU, 0x3ba01ee73ce15329U, 0x3d10c6a83e073d93U, 0x3d161798be4480a4U,
  0xbc744f623e0cf961U, 0x3dbe45aa3e19928fU, 0xbd9fe7a1be58cdcbU, 0x3e1436b0bd470bdaU,
  0xbe6cb4d7bd882bfbU, 0x3e202447be4db8e6U, 0xbc5d3bc6bdff594eU, 0xbbeb019abd87f124U,
  0xbe37a4a2bc8f8e57U, 0x3c867aaebd8613efU, 0xbe2302c2be005140U, 0xbeac54273d8c067eU,
  0xbe40293c3e860f37U, 0x3e5343c3bdf5a607U, 0x3dee00f23e2ddb05U, 0xbe318f2fbddf7cefU,
  0xbe4a86b0bdc8ae9aU, 0x3e4cad9bbe3efb1fU, 0x3e12ce2fbda3b50dU, 0xbd2bcc79be506ce8U,
  0xbdc011ebbd44cef6U, 0x3e0e3939be08a03eU, 0x3e9bc0963e26a751U, 0xbe227a5cbd4d8d38U,
  0xbda0f21abde611afU, 0xbe2a7bc9be12cd8cU, 0x3ddd5022bd18540cU, 0xbdc0e1c3bb887f60U,
  0xbe2a3e56bda32172U, 0xbdb377683d2ab877U, 0xbdbc4875bdac321aU, 0x3e5ae2b3bdc4a4c9U,
  0xbe1aaa2e3e44e42bU, 0xbe172e113cab6790U, 0xbd7b6878be1265a8U, 0xbe431a4c3dbb0f92U,
  0xbbf515c03bf46ea0U, 0xbd8d78b8bdc27bbfU, 0xbe3a729d3cbb33c8U, 0x3e20a00d3c3a92e3U,
  0xbb5c0fd3bae45ed0U, 0x3d4486b33debd0d5U, 0xbda151f7be1d120cU, 0xbe93619ebc139ab0U,
  0x3e86c7593d85c57bU, 0x3dd8ccb13da44bc1U, 0x3c43eb073e16898dU, 0xbd96f2563e81d00eU,
  0x3de9d9a13e115347U, 0x3da501f53d0491e7U, 0xbe4af0dc3e895d6cU, 0xbf516e7d3dbc17aeU,
  0xbe09a92fbd8c1746U, 0xbdf95e6dbf205326U, 0x3e85c4f0bce68a0cU, 0xbe2c0e2abe2b8da9U,
  0x3e1f98d6be45482aU, 0x3df6351b3adde0a7U, 0x3e0a2609be150868U, 0x3e74790e3ec9d323U,
  0x3d0e7522bd90b994U, 0xbe99c1f9c0068b05U, 0xbe5fa34d3d8c187dU, 0x3e34499e3e00006eU,
  0x3e6a4c513d40879dU, 0xbd2b34873e0969b3U, 0xbd92a6b43e3ac444U, 0xbe62ccb23d9186bfU,
  0xbda89d3dbe29df63U, 0xbdd75f48be7b5fd9U, 0x3f32d2ef3d0fec94U, 0xbcc12e6ebf1b64b8U,
  0xbe3b24d93ee37da1U, 0xbe93b4ee3d9a2e35U, 0xbd23496ebdd16ce7U, 0x3e5ee8c2bde4d21cU,
  0xbf8d5ff43f614c8cU, 0x3ce32db63e0c7aebU, 0xbe21784a3cf6707aU, 0xbef09038bf2617f7U,
  0xbf27ab173d8e9770U, 0x3d83e7fabedf47c2U, 0xbc700386beee158fU, 0x3f159dc6bcf269deU,
  0xbed42bd43c20ea60U, 0x3e2e6a76be7e6992U, 0xbe6b5c663dd43cdeU, 0xbd7c167f3e26a210U,
  0xbe689f64be6f83aaU, 0x3e3084173e782c48U, 0xbbe9d4cfbdc35230U, 0xbe297d3d3e587b3bU,
  0x3df084ff3de55f63U, 0xbee6ca203e504241U, 0xbc5418533ddb5db3U, 0xbe3bdbc5be52927bU,
  0xbe4ca34b3d354ae0U, 0x3cf9be7fbe03e25bU, 0x3d5ca056bc2ff3aeU, 0x3db76dc4bdcb7666U,
  0xbf53b94a3d538760U, 0xbe3c3f13bddac622U, 0xbf005ea5be0ed12bU, 0xbdd365293e075aa9U,
  0xbd69c225be061016U, 0xbe8d52793d0b5bf8U, 0x3e3fee943e3cfe5bU, 0xbd2dc98e3daeeb1fU,
  0xbe057a25be468cffU, 0xbdcccdeebde22902U, 0xbe2bdd84bdf41259U, 0x3c8e8c943cd50222U,
  0xbcc2b4063d86c4d6U, 0x3dcf0507be789773U, 0xbc760c64bdfea288U, 0xbe47a8443e41358fU,
  0xbe60e933beabe99eU, 0xbd37a199bebff16dU, 0x3e8dcbc63e312cc8U, 0xbe1e8b4cbe06ff1cU,
  0xbd439652be3d64fbU, 0xbeaef6e3be0445b3U, 0xbd2dd877bd7bb19dU, 0xbe51d9bfbeb7994eU,
  0xbdbe54ed3e149079U, 0x3d72649a3e025b1cU, 0xbe68bfafbdecc15bU, 0x3cee81c1bb971e9eU,
  0xbd05b6853de9ba80U, 0x3d86db503e2fb94fU, 0x3e1e78373d510d77U, 0x3e699fb3bdd93b82U,
  0xbe17d9103e36a20bU, 0x3e361d1d3e40dd06U, 0xbd6b8fa6be5a18bfU, 0xbdea18b2be125180U,
  0x3d9c1cffbde56b78U, 0xbe6087923e43ccdaU, 0xbd6adf07be3499baU, 0xbeb1be31be852649U,
  0xbdba14503e4fee01U, 0x3e57647ebe050450U, 0xbe17add8bcad4c9aU, 0x3dc3450cbe0b00d2U,
  0xbda37447be767eb4U, 0xbe5d7041bf0dcc17U, 0x3ce54b50bc62b84fU, 0xbd33aafb3dcab2fdU,
  0xbe4d6ff13cbbede7U, 0x3d730089be016c12U, 0x3d5f247ebdc61b4bU, 0xbe9b8a3c3d15a1e6U,
  0x3d88ad80bcb326f6U, 0xbdc17f8a3e270a8fU, 0x3e240feebdb40c1eU, 0x3dc2c74dbe4610e4U,
  0xbc345d503e0aba14U, 0x3af74ce7be3c2138U, 0x3ddae9a13d5a36a5U, 0xbdf4b2713d48dbacU,
  0xbdead90dbe4cd1caU, 0xbcf67a803d71ab2eU, 0xbdd5f543bd0fe096U, 0xbe0bf2693e30c2a9U,
  0xbd6d9f583cf56851U, 0xba8aba58bd766a7eU, 0xbe9123633d4be82aU, 0x3de4b77ebe20951fU,
  0x3d640e6cbc049e51U, 0xbdc434d6be0b807dU, 0x3e21e600bc6f78d4U, 0x3dd2e6e6bc8a2ec5U,
  0xbcc49d55be249a83U, 0x3e334743bd82fd7bU, 0xbe3c4f5f3e234406U, 0x3e1219eebe8160a7U,
  0xbe43d5983c5befc4U, 0x3e4043f6be019663U, 0x3cd44879be2a3838U, 0xbd13282f3d82f0bfU,
  0x3d982b9dbd31ea20U, 0x3db4433dbe8011d0U, 0x3db354d43e560446U, 0xbe47ac5b3e6999efU,
  0xbe0ba9423e387b3cU, 0xbdaa9a7f3df416faU, 0xbe683854be0b0d57U, 0xbe97e192beac8741U,
  0x3d5f028fba192800U, 0xbe847ac53cb16490U, 0x3dc0ab8ebdebe016U, 0x3ddf4dbbbe5ac521U,
  0xbdbdbe8cbdb50e69U, 0xbe3e42a1bddabb0dU, 0xbe987378bdc06e17U, 0x3bea8c51bd604970U,
  0x3e1d38493d842841U, 0xbe2bf80f3b423d2fU, 0x3df4877fbdc5b4e8U, 0x3cd6bd7abf36f9a6U,
  0x3dc0fe1a3fb1226cU, 0x3ee371f53fbf6722U, 0x3d93301cbe459d1dU, 0xbe56df333ebf78e1U,
  0xbf3d07c6bfa2817bU, 0x3dd99d15bde47e6fU, 0x3dabec85bcf31242U, 0xbd3452073ebcf93dU,
  0x3f535becbd08e6feU, 0xbe0788523e8cd3c9U, 0xbd86046b3e6c0f05U, 0xbfbeb0b6bccb5cd7U,
  0x3d4812fdbe620717U, 0x3e4acf7bbdac30efU, 0x3eb48d9c3d9756edU, 0x3d8a45aebd6a240eU,
  0x3ccb5dd03d7adf63U, 0x3eb65b6abecd2da9U, 0xbe81dc7d3d920582U, 0x3d397b503ec807dbU,
  0x3c35f3623d8331f0U, 0x3eacb639bdb862ecU, 0xbcaf6a31bdcba553U, 0xbd2862133da3adb5U,
  0xbd6268753b64f702U, 0x3e0d7801bd3f0d3eU, 0x3e38895e3d964abcU, 0x3daafa5a3d648c6aU,
  0x3f1366463e39f7f9U, 0xbd47bb2bbd14f112U, 0x3f1d24dd3da3871fU, 0xbdcaf035bd57a625U,
  0xbe69d23b3cdc4253U, 0x3e8f43a0bec61f9fU, 0x3ce1e430bdbdbe37U, 0xbe8d8f82bdc959e7U,
  0xbdeb551dbc75a0afU, 0x3de80cadbda0d7feU, 0xbd5e4a7e3dc65b63U, 0x3e5137bfbdfb2f12U,
  0x3e4477713e25c8a8U, 0xbe363b103df77c01U, 0x3d8b9575babe3888U, 0x3e31ff4e3e22bea5U,
  0xbe3184d7bc82bf8dU, 0x3e38d9c3be615cadU, 0x3d8667a7be5d9a52U, 0x3df0951fbdb78c8dU,
  0xbe407c75bcfb678bU, 0x3dd98741be02ba44U, 0x3e2c45a53e283aa4U, 0xbdee4801bdaf5c56U,
  0xbe1d4783bc9583fcU, 0xbdc65ca7bb9949f7U, 0xbdd1c53ebdf92757U, 0x3dd3e734bd750bacU,
  0xbc34f885be347dfdU, 0x39e86f2a3daf1045U, 0x3cbb7c17be47a697U, 0x3e0fd4763cf1bf62U,
  0xbd1531973cee1241U, 0x3e3d24cbbe3ce1d5U, 0x3cd5c47bbd8739a7U, 0xbe4f1afe3d6bd7f0U,
  0x3c65a7d73d0182e1U, 0xbdb29122bccc8618U, 0x3e09e1ad3d0dfd74U, 0xbe052a3cbe3f96afU,
  0xbdac73de3df3f3c6U, 0xbc79df45bdd68b1eU, 0x3d7df0ee3e498f1cU, 0x3e0a693cbe4ea413U,
  0x3dd9dd64be176145U, 0xbd4001e73c86cdc2U, 0x3c532092be39f084U, 0xbd146bccbd2d9a34U,
  0xbe23485abe0ee246U, 0x3e51510abde9b40cU, 0xbdb2a48e3df0d2b6U, 0x3bdcfbb43dbe902aU,
  0xbe4ffd56bdb80cdfU, 0x3e1c3c6dbe20c003U, 0xbdca3464be0f4dc3U, 0x3d8634b2be441611U,
  0x3d4b852cbda567b4U, 0x3d92e3493b82fc20U, 0xbe129c6e3d814370U, 0xbdbf9bbebdf1f1d3U,
  0xbe219e52be278c69U, 0xbdc011c8be8a9242U, 0x3c1def0bbd49c394U, 0xbe562e81bdba5c5fU,
  0xbe77541d3dd0e35dU, 0xbdd9fa5f3d3ab549U, 0x3cdbb2803db95e6aU, 0xbe80df233c8401d6U,
  0x3f17e7dfbe0f32c2U, 0x3f1ceedabdb531aeU, 0xbe3c29ebbecb9b1fU, 0xbe4ec8b6be023fa9U,
  0xbe91f9e3408007d8U, 0xbd550879bdeb4846U, 0x3e4540de3f86d4e8U, 0xbf9e788cbe4e9cb9U,
  0xbdd40a15bd2452fcU, 0x3f4388c63ec9e511U, 0x3ed2433c3eedb849U, 0x3dabbc40bdee7392U,
  0xbe62541cbe1fb6d2U, 0xbdceabe93efa0e36U, 0x3e4f917abdac0a3cU, 0x3f137a1e3f26c716U,
  0x3ee1f9cbbeb797ddU, 0x3f48447a3de61d8dU, 0xbe933c5ebdfd7876U, 0xbe7909a2bed8ac78U,
  0x3f48b05cbe4e33fcU, 0xbda70f843f1f29d1U, 0x3f700440be855c4aU, 0xbe90d5ebbf01c4f1U,
  0xbe8a5bd2be04022aU, 0xbd369ac03c4d9f99U, 0x403e4b52bee4b7edU, 0xbca47677be4d1ed0U,
  0xbe7fd0a9c0531a09U, 0xbda8289dbe836f46U, 0xbf3527aebe051b5bU, 0xbe16cd41bdce9b77U,
  0xbe8f5574bceaabd5U, 0x3e86e90d3cebc231U, 0x3ca2842f3d007047U, 0xbd47f459bb5ee6a4U,
  0x3bda50373ec95f12U, 0x3c258b6f3bc6de65U, 0x3e15981b3e77836fU, 0xbf0900f33c818319U,
  0xbce72ddcbcb15d11U, 0xbdeefd03be1d8f2cU, 0x3dc0e5e4be6ee25aU, 0xbe8a86643c4394a8U,
  0x3cee1644bc806d6bU, 0x3c1eba18be3df5d5U, 0xbebefeb23b74d0e2U, 0x3dfc611b3e7505c7U,
  0xbee997f4bd078b4fU, 0xbdeb0dcb3dcb1c98U, 0xbc8af798bcbcbd87U, 0x3f0acf9d3ccd4ba0U,
  0x3dd7d8b53daf78c1U, 0xbc641ce7bea93bc5U, 0xbdec38fa3c81a92dU, 0xbccd065f3c0bf04cU,
  0xbc31030c3d05eefcU, 0x3c64ede5bca0226aU, 0xbe15f4b23c6b364cU, 0x3e10ef6d3a52d630U,
  0x3d213c893d816d65U, 0xbcf51d39bc9d15ffU, 0x3e29d2af3bfd1510U, 0xbe2f571cb89ac594U,
  0xbf3f0397U,
};


ai_handle g_network_isd10_weights_table[1 + 2] = {
  AI_HANDLE_PTR(AI_MAGIC_MARKER),
  AI_HANDLE_PTR(s_network_isd10_weights_array_u64),
  AI_HANDLE_PTR(AI_MAGIC_MARKER),
};

