/**
  ******************************************************************************
  * @file    network_isd70_data_params.c
  * @author  AST Embedded Analytics Research Platform
  * @date    Fri Jan 19 12:21:02 2024
  * @brief   AI Tool Automatic Code Generator for Embedded NN computing
  ******************************************************************************
  * Copyright (c) 2024 STMicroelectronics.
  * All rights reserved.
  *
  * This software is licensed under terms that can be found in the LICENSE file
  * in the root directory of this software component.
  * If no LICENSE file comes with this software, it is provided AS-IS.
  ******************************************************************************
  */

#include "network_isd70_data_params.h"


/**  Activations Section  ****************************************************/
ai_handle g_network_isd70_activations_table[1 + 2] = {
  AI_HANDLE_PTR(AI_MAGIC_MARKER),
  AI_HANDLE_PTR(NULL),
  AI_HANDLE_PTR(AI_MAGIC_MARKER),
};




/**  Weights Section  ********************************************************/
AI_ALIGNED(32)
const ai_u64 s_network_isd70_weights_array_u64[33249] = {
  0xbe0e6d7d3d8575b8U, 0xbdfec099bea98caeU, 0xbb95c4abbb98259dU, 0x3dea43adbe942d5dU,
  0x3cd8dfa3bb100c0bU, 0x3cb4c057beaf8908U, 0xbec14bb2be85179bU, 0xbc922128be2e5b93U,
  0xbe80b477bea5269dU, 0xbd661850bdc7192aU, 0xbe9cc59ebe0b7b87U, 0x3d997856bd867981U,
  0x3c886a0cbd18abe3U, 0xbda641073dab0af1U, 0xbde2e621be4460e1U, 0x3e3646673c636c0cU,
  0x3d0de540bbfc704eU, 0xbdc593693cdad635U, 0x3d8387f73d16f8f3U, 0xbcfe2ddabe9d660aU,
  0x3d811244bc977432U, 0x3d697437be1ea6f6U, 0xbe675d5dbe55fb65U, 0xbc4f7da1be33ac6eU,
  0xbe802d58be8e2d26U, 0x3c95864b3f36b0c8U, 0xbdafb3c0be87da37U, 0xbd1cb9383f23a75cU,
  0xbf0c4b6dbec10de9U, 0x3cd806c73ec96ed4U, 0xbd2f46543d1a0091U, 0xbcdffbd4bdba5287U,
  0xbe296ed0be2f92d9U, 0xbd89cf45be426d3dU, 0xbe42a4a3be429e30U, 0x3dbf7c5d3d1967fbU,
  0xbdfac05bbe298614U, 0x3c40f067bde4d123U, 0xbd28203abd5c1eb4U, 0x3d392c23bdece39aU,
  0xbda12e18bbd337c7U, 0xbd6208dd3d4c9ec1U, 0xbd798607be5aa350U, 0xbd434d2cbe360bd7U,
  0xbde8f6fbbe62754bU, 0x3d9763863d2c0947U, 0x3c5d9dc5be38e5d2U, 0xbccc10fd3cc927edU,
  0xbb772976be7a9facU, 0x3c1afb4cbe24fbf8U, 0xbd04e9f4bd4c098fU, 0x3c66d7f2be5d0d61U,
  0xbdbd0ebcbe11ee57U, 0xbcc6d0c83b8f3dffU, 0xbe34fd793c9c9127U, 0x3dbfe30a3d306e19U,
  0xbde551533d84283fU, 0xbe1daf203d01bf2aU, 0xbd27f28abe5b8652U, 0x3d79ff3cbd8b69f3U,
  0xbdb82d74bde5adefU, 0x3b7894be3e132323U, 0xbe06a777be4f0361U, 0x3da30e863d6ddfeaU,
  0xbd9eb16d3d1efde0U, 0xbdaa094a3dbf95dfU, 0xbed31bc03ed5733aU, 0x3eca4853bf195aacU,
  0xbf0135233e81ab99U, 0x3ef2979fbf35f11cU, 0xbeca82463d4c47a5U, 0x3ecd57d7bf0db888U,
  0xbe2f231fbe3a625dU, 0x3c99b6f3be742ccbU, 0xbdd68b0ebdc907a7U, 0x3c9a30febe1bf60aU,
  0xbd6ed6f7be248848U, 0xbd08d338bdb99454U, 0x3da392d8be81f527U, 0xbc45919fbe53bf1fU,
  0xbdb319d4be493681U, 0x3e0c84e53dcfbaacU, 0x3da45f7dbbb95e66U, 0xbdec9490be3dc399U,
  0xbb3e83b6bcd0e338U, 0x3dd403293dc928b8U, 0xbdfd417e3e0a5a18U, 0xbd9dc07b3cbc12efU,
  0xbd36252abdfea449U, 0xbcd80a633c106f0bU, 0xbf1f8411bd8090d7U, 0xbdc3ad5f3ee5863aU,
  0xbc2251d93e210d9cU, 0xbd883bd73f16ee02U, 0xbf1e8b48bf1d2417U, 0xbe043e263dbd1799U,
  0xbe34b4683e110c13U, 0x3d944e3cbe5ecb51U, 0xbcd26c4d3dcd85ceU, 0xbe2a2a7fbe3b0bc8U,
  0xbdc97352bd2da3d8U, 0x3de21a90bebd3d7fU, 0xbf5eaf74be3aa4ccU, 0x3ddeb88840191fafU,
  0xc004244ec01fd857U, 0xbe326702bf706c0dU, 0x3f7d5d363fbbe181U, 0x3d805ac4bfcc0837U,
  0xbe2be723be45c963U, 0xbd9b2831bdc14e14U, 0xbd8c7b45be31a6f6U, 0x3e1245bebe108476U,
  0xbcb3da34bdcbf195U, 0xbd83aa82bdc01ca9U, 0x3c54c973bd6a310aU, 0xbd6eaa6abd4a3ed9U,
  0xbe1437653c8c7823U, 0x3da1f1683deed797U, 0xbe1559113dd67abcU, 0xbc83cf303dca4732U,
  0xbe310c83be217f53U, 0x3d12ff333dad8683U, 0xbd9288f6be30825cU, 0xbcf6f5623d0e3327U,
  0xbc63759d3d7ac164U, 0xbb80acf9bd0abb62U, 0x3c367093bdc49c4cU, 0xbd28c69abe4d9c9bU,
  0x3d81bcc23d1dade3U, 0x3d15b340bdd2dbfbU, 0xbb261e3cbdaae585U, 0x3bc2164a3c5e5287U,
  0xbdb1fa6dbc5571ceU, 0xbddd9fc3bf09ac99U, 0xbde939f2be0e037eU, 0x3d9bbce7bf03450cU,
  0xbe3898b0bd2bd712U, 0x3d6bba29bf256f1cU, 0xbea10be1bf50681fU, 0x3e85cc513f463dc0U,
  0xbdc8e1b8bf5fb6f7U, 0x3e58d9cf3f9ed996U, 0xbe540a6abf626786U, 0x3e542f573f801a14U,
  0xbd26b536be410d2bU, 0xbdcfedcfbdb69358U, 0xbe3056f13def5bfcU, 0x3da3335b3d935721U,
  0xbe098632bd777025U, 0x3ccb291dbe177eaaU, 0xbf17f4f5bf9a6e09U, 0x3d2665e34093f3c6U,
  0xbf386524bf513536U, 0x3e073f654021db7fU, 0xc057c30dc08076baU, 0xbe0a5a29c0aeadb1U,
  0xbdecd753be9293d5U, 0xbd3bcd2cbc99e5a5U, 0xbe75a5d3bdf70605U, 0x3dfa3951be5c4518U,
  0xbe1e47c73a843af6U, 0xbd9a0519be1a7c2cU, 0xbdeab0163f064810U, 0xbc86972d3fd8df16U,
  0x3d84ca283e389c17U, 0x3e0c09b83f8fc3d3U, 0x3c10be51bf581ac3U, 0x3ce7d4a73fb37bf1U,
  0xbdaf3fc33d89b58cU, 0x3d3fbe6f3d190de1U, 0x3d4dbff3bdb34e0dU, 0xbcee8a283d86cc79U,
  0xbdd47ce63d460134U, 0xbc627a4ebb8ef0bbU, 0x3d6722a1be66ac44U, 0x38f44c253d97a9a8U,
  0xbd3fc4a7bd6644e7U, 0xbd5858843dca1859U, 0xbd1d41c6be39837cU, 0x3d618f4cbd9a66d8U,
  0xbe6aa99abe5b7402U, 0x3da4847fbcd1d78eU, 0xbca82b18bdc0e4aaU, 0x3c7590f1bb1aa5edU,
  0xbe577d58bd2fad61U, 0xbdbfca0bbe6494d9U, 0x3dbc8f743e1dd4a1U, 0xbe9908293f6b47cfU,
  0x3dbd2d72bd42eddeU, 0xbe810db93eb88b58U, 0xbecbdbf63e684d7eU, 0xbe9d31b53f4a1dabU,
  0xbde1ea61bd4d0908U, 0x3ddf540cbe2224c8U, 0x3dd1d3f13d93dacfU, 0xbe10575abd1b919aU,
  0xbd4c822dbd83af34U, 0x3d19aa8cbd5677c1U, 0xbdab94c73db1a975U, 0xbde37734be6a8550U,
  0xbe3c31d73db6f01dU, 0xbc915b3d3ced3b28U, 0xbd7c3e7dbc80ecbeU, 0x3e06b5e6be68954bU,
  0x3c70b9073cab65efU, 0xbe05ab043dba6bc4U, 0xbe3bfb68bda690d7U, 0x3e36b592bde2f77fU,
  0xbe2b0e3b3d510552U, 0xbd416577be4f2189U, 0xbcff5f263c8981dfU, 0xbbbd7dbfbd0cafceU,
  0xbb6cc257bd06f160U, 0x3aee19a53c8e72b3U, 0xbd04f5ecbe931c54U, 0x3c20c6513ca4f05fU,
  0x3dce5e40be35bd2bU, 0xbde8303b3b536a24U, 0x3d9f4e96be0a6603U, 0xbc905f5cbe9905ecU,
  0x3d60e62bbdc907d0U, 0x3e0b083ebe453c59U, 0xbf248d1c3e5d035aU, 0x3c1135853faf4ce5U,
  0xbed817ddbe6bd458U, 0xbdc853823fabe403U, 0xbe32d63ebefed5c7U, 0x3d63e6d63fa4a05eU,
  0xbdf7dedf3d2939f0U, 0x3d2d4631bed70c0bU, 0xbe18f5fabbff350eU, 0x3e02f01fbe5cca7fU,
  0x3d857a0c3c93fe3cU, 0xbe29dbc3be096a26U, 0xbd9829203d859f96U, 0xbd34278bbdccd502U,
  0xbdba7ad6be78c81eU, 0x3e19dc1bbe2c63cdU, 0xbc962ec83d9eace3U, 0xbdbfca29bebdc97eU,
  0xbc9192473caa9cdeU, 0xbddff3073bf9103dU, 0xbe2934a7be20a4b0U, 0x3e307301be69e83cU,
  0xbe5e39d6bdf85c16U, 0xbd8013ccbe55ca0eU, 0xbd022679be5547a8U, 0xbd60bffdbe92fdedU,
  0xbe12a6ddbc15464fU, 0x3ae68a23be33309cU, 0xbd21b8c23c705dc6U, 0x3d6de568bd09344cU,
  0x3d3660b5bd838c16U, 0x3e09ad88bec2dac2U, 0xbd9b0b38be6317faU, 0x3ca7bc55be8db4e1U,
  0x3d6ab6ecbcb152bdU, 0xbe18e13dbeaa99c3U, 0xbc72214ebe0c73ddU, 0x3d408d1dbe2f3fe4U,
  0x3e0bc08e3c844a22U, 0x3c7706fd3cace3c9U, 0xbdae9f10bd46ff3eU, 0xbd7de4413dc0f9b7U,
  0x3e0f0fdebdbee985U, 0x3d9651dcbeb86fbfU, 0xbd5cd8f53ccbabc9U, 0xbde80b4abdbf3c72U,
  0xbde3a194be246740U, 0x3d4082b2bdeafa76U, 0xbe45b7d4be11518aU, 0x3b4050893bc13c7eU,
  0x3dac3331bccb237fU, 0x3c215cb1bdde1d52U, 0x3d919784be1e7316U, 0xbc0088d2bdc3e2e4U,
  0x3c839cb7be654870U, 0xbd8d17f2be7d6ffeU, 0xbe81fdc2be09353cU, 0xbd0294aebd0080a2U,
  0xbe48c385be44d719U, 0x3dcb8975bd8563c2U, 0xbf18be5cbf6d1d8fU, 0x3ec2c7d03fa20ecbU,
  0xbe35bdb8bf4d282dU, 0x3ee44da03fb6b456U, 0xbec37221bf7b0b56U, 0x3ebe7a7e3f63b626U,
  0x3e8e84983f2a8cceU, 0xbe3577febd9b5485U, 0xbea136a03eafae76U, 0x3e16c6bcbeac5bf1U,
  0xbf81fcb23edab5b3U, 0x3e107598be5bf5daU, 0x3f802719bf43c010U, 0xbc2798783f306cd6U,
  0x3ef06321bea8ad4dU, 0xbd41d4ae3e885f80U, 0xbf274032bec95f28U, 0x3d70935a3e982a78U,
  0xbe8bc043be9f16ffU, 0x3c6fbce4bca039b2U, 0xbdd6390fbde49e5eU, 0x3d3792313d5d6a18U,
  0xbe81afe8beb83e33U, 0xbd7a317abe8775abU, 0xbe32f00a3d096f12U, 0xbdc6e3173c25f2d7U,
  0x3ca336aabd8e8c2fU, 0x3e18389bbd7d02c7U, 0x3dc9b2d6bd95d8acU, 0xbd5147e6bd6e9e07U,
  0x3df9236fbdacfb77U, 0xbd608fb2bed01f52U, 0xbdf89b193dd35b7aU, 0x3d7e9e03bebd13bbU,
  0xbdadeaa0be42f788U, 0x3c0f8decbe93d1b8U, 0xbe8a7965bca33cb3U, 0xbe0c2aecbe57b637U,
  0xbdfe4236be0f5574U, 0x3d136f02be352841U, 0x3bbb8974bc939c0dU, 0x3dc94f15bd740fe3U,
  0xbe80f27f3c852a9eU, 0xbc6ad4353d504ce7U, 0xbda470c8be6336f3U, 0xbd23abbabe2826a2U,
  0xbdb28bf43d627e9dU, 0x3d5f1841bd9078ffU, 0xbe5909a03d489745U, 0xbd7b9fb0be31cd4eU,
  0x3c99aa22be4289d5U, 0x3da87cbebda88fafU, 0xbe5f52dc3d6a73a7U, 0xbca5a180be037f8aU,
  0xbf267f5dbf5cc980U, 0x3eee6826c00c317eU, 0xbf321f91bf5085ddU, 0x3e9ba17ebff4eb15U,
  0xbf4e15ecbf4a2c0cU, 0x3ef5d98abfe3f87aU, 0xbcfb4a04be63b7a9U, 0x3e17ea37befa480fU,
  0x3d6cc0d03ad26d3fU, 0x3bb311cdbeb7a6c2U, 0xba929bd03ca43214U, 0xbe0adea1bee93712U,
  0xbe3c33db3d401a65U, 0xbe121fbfbdab1613U, 0xbcb202ea3b2643cfU, 0x3bb33ba4bccaa47cU,
  0xbe37218fbda8785cU, 0x3e0e4070bde40587U, 0xbe6cf9d3be156dafU, 0xbe2a1cf2be749327U,
  0xbd8059363d77feecU, 0x3dab424b3d1262d8U, 0xbe1d640dbe40655fU, 0x3dafb2bfbe19c2b5U,
  0xbe0d0d86be230dbfU, 0xbd2fb232beba7565U, 0xbe8c0947bea35432U, 0xbda20964be3a1753U,
  0xbe325210be9b46e9U, 0x3e078ca8bea096abU, 0xbb714c99be5ffa88U, 0xbcd3d5cbbe51be95U,
  0x3dae3374bdcd4ff0U, 0xbdf24dc6bdfe458eU, 0xbe2599e2be20e99bU, 0x3e178c83be3589d7U,
  0xbe10c28ebdd492f2U, 0x39e1b565bc61d64fU, 0xbd9693f4bd4e0faaU, 0x3d0c23b03cad08a2U,
  0xbdfe0315be5d2a56U, 0xbd0718c8bdba0d91U, 0xbd63232d3d883f5bU, 0xbb9d91d0bd81021aU,
  0xbe4c7417bd43a952U, 0x3dd6fe033d655a06U, 0xbe0854723d0b458cU, 0xbdce374fbc25a2e2U,
  0xbd9384babe8fd30aU, 0xbea75189bd810961U, 0xbd7ad768be6208d8U, 0xbd24e700be0a38edU,
  0xbc741f63be614e7aU, 0xbdac793ebc050658U, 0xbe3ffc83bdbaac06U, 0x3fb1a683bd82bde9U,
  0x3f42b379beaa6406U, 0xbe06ee3ebdf302d4U, 0xbdd518abbd6f11c1U, 0x3f7c514dbf0140c9U,
  0x3ffa7d5bbd4aee5aU, 0x4030fcc1be14e85bU, 0xbdc3796fbd9d04a2U, 0x3f082198bd8edd83U,
  0xbe00b913be5ac94dU, 0xbe062d76bdac57f5U, 0x3f8c6628be06e2cfU, 0xbe7e3f0cbe8bb757U,
  0xbe1e4b16be0537a9U, 0xbd7910afbe8abb9eU, 0xbdcfdfd8be4b9e54U, 0x3f5504cfbe380755U,
  0x3f10e277bcfd84a9U, 0xbd887e48be0a28f2U, 0xbe8cafc4beaaab2fU, 0xbd86acaebd6f67d2U,
  0xbed1d5ddbf8b0c46U, 0xbd7400dbbca30324U, 0xbdc4c126be94c806U, 0xbcd6e91ebdd75ec6U,
  0x3c2b3bb0bdac3c50U, 0xbd7aa3c83d2d209dU, 0xbcdc154fbd32ab56U, 0x3d2f688ebd9b02eeU,
  0x3d06e6e2bd9b37eeU, 0x3c5e87d6bbd7a9b7U, 0x3c5e1557bcc2aa98U, 0x3d95f7a03d0afdabU,
  0x3d1b2cf9bd5b51bfU, 0xbd2a69513d48bf5aU, 0x3d644c663bd87120U, 0x3bf1d491bd410f4eU,
  0xbd7a155ebd80e630U, 0xbd0a8ee1bc3bb0f6U, 0xbb938a43b927f2eaU, 0xbddf471cbbfe63feU,
  0xbd35985ebcc7cbf9U, 0xbd24b736bbd566a0U, 0xbcaa1d653cacfebfU, 0xbd0fe5d6bcca2c9bU,
  0xbb751f29bcf44e12U, 0x3d5dfca0bc661f4dU, 0xbd283f823d6ec2dcU, 0x3ce695303d5f51d1U,
  0xbd6d78a4bd9b4d0cU, 0xba5d43bc3b5a2c0fU, 0x3ae77362bbd04bedU, 0xbc890d8c3b7ca164U,
  0xbc2fc149bd833469U, 0x3d3ccd12bd40b74aU, 0x3cee303b3d85c0d0U, 0x3bbe324e3d02ee96U,
  0xbd31c5c5bca13e85U, 0xbd430ee7bd8518f1U, 0xbd8cb4513c38b5a7U, 0xbd2de079bd936fafU,
  0xbc422b52bd215d11U, 0xbcf2cd84bd90d248U, 0x3d5321893d7991fcU, 0x3d7d9f0c3b1408bcU,
  0x3d835083bd8e8146U, 0xbd92e9c9bcd97ffcU, 0x3d73d94cbd227196U, 0x3d23175fbd8e0b4eU,
  0x3d8a45343d422749U, 0xbd9901a33d0338ceU, 0x3bcbf26d3cf49c74U, 0xbd0057b2bcd32675U,
  0xbd97f6ce3b343d2dU, 0xbd9636cd3d650d10U, 0x3d0392503cddfbc4U, 0xbd7b6cc3bd15251fU,
  0x3ca4d5303d008e33U, 0x3d4ce7cbbd430614U, 0x3d52e0443d1eb316U, 0x3d5dbb90bd1e3a31U,
  0xbddad2323bc74809U, 0xbd2b9f443d7273b2U, 0xbd71508a3d872697U, 0xbc1d87b13d003d66U,
  0x3d027c01bb4fc1c0U, 0xbd1060f63d7e61c2U, 0x3d521535bd9709f4U, 0xbd252d62bd75c4e0U,
  0xbd2b3e723d4f2e0eU, 0x3d0053a4bc434bbbU, 0xbc9a37d43d6c3b6cU, 0xbd828f62b9850913U,
  0x3d5fd6c43ad75bb2U, 0xbd8f906ebc598c4aU, 0x3d865642bccce61bU, 0xbcc8e434bd468571U,
  0xbd2365ac3d6039f8U, 0xbd3e0834bd0cc76bU, 0x3d4f5a82bd8c11abU, 0xb9876d74bd8795c3U,
  0xbc5654283c221a58U, 0xbc20ce7bbb91089cU, 0xbd59fc8cbbe75e58U, 0xbdcd0b0c3d4d4305U,
  0x3d866912bc3b0e1cU, 0xbbf99b77bd61d7d4U, 0x3ce68dcb3d7bc3e5U, 0xbc9a99f4bd92db99U,
  0xbd224bbf3d324c92U, 0x3cfdd1543ccc14c5U, 0x3c82940a3cae8815U, 0x3ba97a1d3cd1b348U,
  0xbbfc059ebd9a8fccU, 0x3d2d0add3d520f19U, 0xbc1ac8753cf26428U, 0x3d62a50dbd4c9054U,
  0xbd2277de3d0c4494U, 0xbd83cb0d3cdd228fU, 0x3ac0fa803d2476a8U, 0xbda038933bcb64a0U,
  0x3d48dd80bd7f9cdaU, 0x3d66a009bdb950f4U, 0xbd56dc12bd89414eU, 0xbd23fb633af73737U,
  0x3d5974f5bcd192fdU, 0xbd9e829e3d8844e5U, 0xb9347a933c1b8f07U, 0x3d442e0ebd6e634aU,
  0x3d265786bdace3ccU, 0xbdb8068b3d343916U, 0xbd16019cbbd46d80U, 0x3ce216bebcf352f3U,
  0x3c59e700bd4b16b6U, 0x3cbad47dbc77c15eU, 0xbd01eb2bbd797478U, 0xbd886874bd872dd1U,
  0xbc074fdfbd6c536bU, 0xbc7adb283ce006dcU, 0xbdd2aa1c3d8306b0U, 0x3d174c6fbce477aaU,
  0x3bfa4548bd872995U, 0x3d31f9edbd01498cU, 0x3d5c4eefbc62053aU, 0x3d7ad195bd9bd60dU,
  0xbd7e7b43bdd53cb3U, 0x3bd6b3a63ca2c549U, 0x3d405eee3d83a7b3U, 0xbd305303bcdbb093U,
  0xbcf0055cbda1bcf0U, 0xbc3452dfbcc0a224U, 0x3b719080bcfc2dc7U, 0x3cbbfa083d12f8d6U,
  0xbd4fd4333d008dbfU, 0xbcb758253d585b4bU, 0xbcc28ddebdcc3090U, 0xbcf5c5213d234e14U,
  0xbd34456abd086069U, 0xbd8d33fe3d8b9512U, 0xbb6f33a03d7de82bU, 0x39e8b5003cd28feaU,
  0xbd5857353d16ac19U, 0xbdc66b3b3d28fcb2U, 0xbd83fbf73caa4fe8U, 0x3d2d6832bcc00ffaU,
  0x3cfd3880bd5e384eU, 0x3ca189d13d1d35cdU, 0xbca5e689bd73bac2U, 0xbd0e774cbc9c2d9cU,
  0x3d449e47bcc98ef0U, 0xbcb2fef6bd09ec30U, 0xbdba432fbcbe804fU, 0xbd2464573d58df54U,
  0x3be4809bbb96908bU, 0x3d2ef18c3c862a17U, 0x3cb0145e3d391a3dU, 0xbc31798c3d6943b5U,
  0x3bcf54cb3cbac15cU, 0x3cca9e11bb716634U, 0xbd3027c5bd9ed9b8U, 0xbd7d32ec3cd13f0fU,
  0xbd4707db3bdac99bU, 0x3a70207ebd8e39c2U, 0x3bfe7e40bd953b01U, 0xbbc57e133d6dba50U,
  0xbbd42842bcf94314U, 0x3d0ad3303ce66d8fU, 0x3c946a53bb868050U, 0xbdab4793bc9b7501U,
  0x3d1f0db9bca60d37U, 0xbdaf8eb83d737ce8U, 0xbd0760cd3d468b40U, 0xbc152c60bcc2738cU,
  0xbcaba2f5bd9d82b6U, 0xbd4627b2bb6d0660U, 0x3c832a963c2701e6U, 0x3d292fb7bd079e89U,
  0xbd37b476bc108740U, 0xbdafa12e3cd3eb82U, 0xbd4712e4bba931c4U, 0x3d83a642bc777dddU,
  0x3d7391d43d81e2a8U, 0xbd94e42ebbfeddf0U, 0xbddfcdbb3d51a1acU, 0x3ced7ec2bd84d49eU,
  0xbd1016ecbd724b8dU, 0x3d248a513d831d8eU, 0xbd28f651bd83e0ffU, 0xbd1511fdbd6df04eU,
  0xbccf32b9bd4f223aU, 0x3d303e2d3d498a95U, 0x3d815a7a3d4943bcU, 0xbd89a877bd3c2f3fU,
  0xbd492bafbd9d2c5eU, 0x3d6f5e5c3cf7147aU, 0xbd7b5bf2bcd6e1c8U, 0xbce6f1413d3c51e0U,
  0xbcd6b10e3d3d86ffU, 0xbd4281c8bd60682aU, 0xbd9832dbbd1ac5bdU, 0xbd1d7e7bbd7ac723U,
  0xbd4786ea3d15da43U, 0xbd365e19bc20987fU, 0xbd0de2fa3c479e77U, 0xbcb292f8bc90fb48U,
  0xbd913765bb8a5523U, 0xbdb6deb83d240f26U, 0xbd87e8723be7eb8bU, 0xbca1d63abd067ac8U,
  0xbcbcf31abd31e5d2U, 0x3c3056313d888223U, 0x3d03288a3d42879bU, 0xbd4885a03d8757fdU,
  0xbd8758293b44c139U, 0xbb867dedbd4b9e8aU, 0xbd8a7640bd1584d5U, 0x3c82760c3ce14d12U,
  0xbd0d75573d108b74U, 0x3ca6f146ba311e42U, 0x3cfb783a3d235a1aU, 0x3c74ec88bd31c14dU,
  0xbd83872a3d378decU, 0xbce9eb6c3c4a1e00U, 0x3d868cc03d663a06U, 0xbda114aa3cd93c04U,
  0xbd94fd33bd06087fU, 0xbc893659bd8d5f8dU, 0xbda24136bd2a430cU, 0xbda1148f3d8ba0daU,
  0xbc4639d3bda5844fU, 0x3c8a27de3d574568U, 0xbcb171b73d76b53eU, 0xbd84ff0c3c0427ebU,
  0x3d64bda83cbb6618U, 0xbda0d3133d1963e7U, 0xbcb3d9c83d27c9c0U, 0xbcc28e16bd8e88e6U,
  0xbc6f3d7d3d01f280U, 0xbd95aaa43d5094c4U, 0xbca1496abc881a22U, 0x3c3fb03fbbd1b058U,
  0x3d28b4a8bd8ed245U, 0xbcd4bccfbc6e6cdaU, 0x3d81ff95bd9ee733U, 0xbd8db7f1bd41469fU,
  0xbd05c78a3d106630U, 0xbd0d7749bce07824U, 0xbd712ca8bd715792U, 0xbd31e6a7bbe810e7U,
  0xbd1394b7bcfa809dU, 0x3d76dee13d89ba3fU, 0xbd99f3dfbbdc5d5bU, 0x3cc4d138bd808202U,
  0xbcb88d94bd831e74U, 0x3d2264b93cb4f7b1U, 0xbc95ba0c3d2fc073U, 0x3b7555ea3d0faec3U,
  0xbd9da1403d46363aU, 0xbd92df973cc36c62U, 0xbd5dc4fb3d1945f4U, 0xbcc7d3ebbd8f6055U,
  0xbb9ba581bd338482U, 0x3d1e95e6bdade6b0U, 0x3c85342abcd33199U, 0x3cb7eed3baa77f1eU,
  0xbc948395bd028baeU, 0xbdb775083c2c0e90U, 0xbdb5afbc3d24c003U, 0xbd46a1e6bc0cc19fU,
  0xbc64dab53d1a5da8U, 0xbd171b443d180f9eU, 0xbd808c6c3b295c00U, 0xbd58f17c3c584489U,
  0xbd33e0d83bb60f66U, 0xbddf4dd5bb47ca6aU, 0xbb4947d03b4ad5f6U, 0xbd85a2b33d18c582U,
  0x3cd5ca33bd185742U, 0xbbd97ca23d791bd4U, 0xbd46dd9abd4c97a2U, 0xbd50fba8bd6dd370U,
  0xbd8a1e3f3d6f82aaU, 0x3bad69cf3cf29e23U, 0x3d13921ebd03c9b4U, 0xbd74fc6f3b4c72f4U,
  0x3cd1f5c83d208f53U, 0x3cefb5553d64bfc0U, 0x3d132f343d8e0a4aU, 0xbd4ac571bd89c802U,
  0x3d4ce9eebb6ed1c3U, 0x3d116949bbb5d2e9U, 0x3cb2601f3c8f83e6U, 0x3d4169f63c673970U,
  0x3c807934bd0f8d4bU, 0xbd4d3449bc969c3dU, 0xbd35ffcb3d3283e7U, 0x3c29b824bd5d7560U,
  0x3d2872c03c93f345U, 0xbc25ddb0baf23535U, 0xbd6d68e13d7f21e7U, 0x3d14a4003d70fd34U,
  0xbb7f43653d4d9d53U, 0xbd4adb38bc940db2U, 0xbca87c49bd935118U, 0x3d7c5d91bcaff2c3U,
  0x3d77ec943c64a5a7U, 0xbdb4d593bc24e4acU, 0xbba6942cbd9d013bU, 0xbc334ca5bce3ee33U,
  0xbd8d71673b2e4984U, 0x3d686eac3ca42ae8U, 0xbce286ae3d0551fbU, 0x3c73109fbc4f5e57U,
  0xbc94f50fbd90569fU, 0x3d2f1a8d3cdc28f7U, 0x3c0edca0bd55775aU, 0xbcfb9547bd152e3eU,
  0x3c00fe163d43c5c3U, 0xbcd5fab93c19cc92U, 0xbd40a346bd254965U, 0x3c8945803d05cb2aU,
  0x3abc6294bb2172f9U, 0x3d760ce73d265d9cU, 0x3c8079f03da16b1dU, 0xbc5e375dbd29a9c7U,
  0x3b1a56bfbd55043bU, 0x3d3bc0593cbc604eU, 0x3d02dc99bd20a768U, 0x3d220ade3cc8b382U,
  0x3c407a58bc90fdb7U, 0x3bd4f4b13cda32c8U, 0xbc88d9adbd18f957U, 0x3d95a764ba4992c1U,
  0xbd8484a6bd7dc3b1U, 0xbc816b4cba0a1580U, 0x3d6436e83d5b8848U, 0x3d187ddf3d18611eU,
  0xbc63d6f4bd6d1e3dU, 0xbda3ef273d5b3907U, 0xbb144249bc7c62ccU, 0xbd26348b3c2dd7e0U,
  0xbd0eabd23d5b723cU, 0x3cb711883d97225eU, 0x3cd4c5d4bd420c7cU, 0x3d136b68bcd86008U,
  0xbdab3dad3ce00c27U, 0xbd3713e2bd060db0U, 0x3d3d70023d835c1eU, 0xbb9a43103d88b84bU,
  0xbcd60535babe48a3U, 0xbd3dc6b2bd8d821fU, 0xbd02591abd3040bdU, 0xbc022788bd7d8515U,
  0x3d25b92c3c47eb79U, 0x3cda0b02bd8e7a82U, 0xbca0fd703c15a19eU, 0xbd0da5abbd90ec8bU,
  0xbd8e4f87bd416090U, 0x3d52e438bc6c61f8U, 0xbb4aa984bd259fc3U, 0xbd2781c23bdf6386U,
  0x3d73a3d9bb5e54feU, 0x3d22e3f9bd9b19f2U, 0xbd7b36803d718f58U, 0xbd1f2d5f3c3f1d9bU,
  0x3cbebf0b3c7c4ae1U, 0xbd5e883dbd0564eaU, 0xbc97be92bca869d7U, 0x3b55707abc4ec561U,
  0xbd629c363d1b5b69U, 0xbd5de71b3d8785f4U, 0x3cb4859cbd255680U, 0xbdb5614fbb33302dU,
  0xbc8c942c3c233b83U, 0xbcd452f5bd91e6fdU, 0x3c68616abd94de6fU, 0xbd7a93433d7ff24cU,
  0xbd67eb07bda43eb8U, 0x3cd547163d3a969fU, 0xbd21793c3d40d224U, 0xbd13c38fbd483e71U,
  0xbdcc4156bc5079beU, 0x3d1108ddbd6424d8U, 0xbd4ef62ebd9d107bU, 0x3cfef427bcad8891U,
  0x3c188176bd87ce11U, 0xbd06e019bbf96fd6U, 0x3d469806bd702c88U, 0x3d03ba5b3bcd6590U,
  0xbd1a79d3bc803eb7U, 0xbd567b2a3cc20a08U, 0x3d7f2e85bc90ed1fU, 0xbcfd7ae3bc8859a3U,
  0xbd99ec133d746720U, 0xbd3533253cc9b8aaU, 0xbd48d9b03c99153dU, 0xbd500da2bda0eb56U,
  0x3c867eee3d1748c3U, 0xbd620ab9bbc7b070U, 0xbd9898ae3d2b0b83U, 0xbd7aed44bc5693a3U,
  0xbc703db0bd84d8a9U, 0xbd1d05213cfa427eU, 0x3d02aa013c88b308U, 0xbdc104ccbb4eb8d6U,
  0xbd7183e63d235c99U, 0x3cd24f29bc86c91cU, 0xbc13e0acbda227f3U, 0xbc2cac683d869d2bU,
  0x3cb066f7bd0fd76cU, 0x3cd123d2bcb2b904U, 0x3cec5b0bbcecd3e3U, 0xbc922762bda293adU,
  0x3c60902ebd9f4f12U, 0xbbad38103c8750f7U, 0x3cdb20953d825b92U, 0xbc9546b53cb7fc52U,
  0xbc947e87bd074858U, 0xbc99f0f53be5397fU, 0x3ce53553bda30d94U, 0xbd0e8435bcb79704U,
  0xbd74b83fbd7c931aU, 0xbd4447dfbc4fadbcU, 0xbc77c9eebd3711dcU, 0x3c0bb4a8bcded8e9U,
  0x3d515ff1bda61851U, 0xbd05731cbd824fbeU, 0xbc97d2ff3bfc152aU, 0xbd713f8ebd5b52d8U,
  0x3d425af93cf9e95cU, 0xbd0f1c04bd3c360cU, 0xbc7b022b3c03e4a8U, 0x3cbada9f3c370504U,
  0xbd82d0b0bd74b5dcU, 0xbdcf062abd2e7354U, 0xbd3198fa3cf67996U, 0xbc232e0bbcbd426cU,
  0x3d0ce95bbcbd9cc3U, 0xbbf1e1a2bd4430d7U, 0x3ad69d5ebd43e10fU, 0x3d8458f4bd04d72bU,
  0x3c600138bd14dc95U, 0x3d8bf9c5bd118399U, 0xbc6aa29ebc7dc0c7U, 0x3d0566c1bc1ed372U,
  0x3c9e43b23a226a7fU, 0x3d20d2013c8da20cU, 0x3cf3d6fcbd8983aaU, 0xbd59a44cbd8ad693U,
  0x3d3d15d33d88a504U, 0x3cdcc55abcfe2d67U, 0xbd9239783d3ee123U, 0x3d734052bd7e3f14U,
  0x3ceb48f4bd09d849U, 0xbc490addbc04541cU, 0xbc48afd3bd02a299U, 0x3cc55739bcacece1U,
  0xbce9b775bd0c80b3U, 0x3bce3ee13d278a24U, 0xbd50b825bc9ea9f6U, 0xbc620ce83d449596U,
  0x3d191e0ebd9bb02eU, 0xbdc6a4353d55c410U, 0x3d379ea1bc97a8baU, 0x3c46ff29bce08146U,
  0x3d89c292bd8de6ddU, 0xbd3fbd753d68125cU, 0xbd9d3593bd848f63U, 0xbcefe4073d8295e7U,
  0x3c94bfec3d66f44bU, 0x3cda847e3d2e8b12U, 0x3ba351873d7b2793U, 0x3d02c9dbbd81c661U,
  0x3cda27993d560cecU, 0xbd5b76183cd26e34U, 0xbd06a53d3cfa0eb8U, 0xba6e5e763d4f3264U,
  0xbd76a8343c3dd42cU, 0xbcac980e3c6c3d4eU, 0xbd5e7adbbd34ce02U, 0xbd90d43bbcc32cd2U,
  0x3d549e8e3d7898f0U, 0x3d5f4fd5bcc8f4e0U, 0xbd2d4e7abd85ac01U, 0xbc97c43e3d474a48U,
  0x388d8a613d531b9bU, 0xbd749edd3c82f79cU, 0x3d74ff933ca7eae2U, 0x3cd08730bd80a38cU,
  0x3d4064513c076c21U, 0xbd6f3fcabd08c17cU, 0xbd26a112bd58f0ebU, 0xba065c80bd71529aU,
  0x3d8791583c9a6876U, 0xbdbfaa603c2cd9c8U, 0xbd55e9febc58746cU, 0x3c709cf2bc832eaaU,
  0xbd6b84143d353a96U, 0xbd02c154bb3c8b91U, 0x3d54f0983d4dad14U, 0xbdb3c0d53d13bfffU,
  0xbcc845f43ce29e48U, 0xbd3598f53d2ed79eU, 0xbb3f8acebd3e44e8U, 0x3d4ae072ba9bbcceU,
  0x3d6ef1883d2996a5U, 0x3d3db9693d834a38U, 0x3d6ac0273d1f9658U, 0x3be92bf33d23e536U,
  0xbc985524bd7b9bf8U, 0xbc4e6377bd0fdc83U, 0x3caa110e3d1c42e2U, 0x3ad75684bc35c9e3U,
  0x3d6d9391bce50c9cU, 0x3c3601c93d0134e2U, 0xbc5b8d043d7553b4U, 0x3ba5118c3c6b3bf0U,
  0x3c831e57bd5c97e3U, 0xbd4e679bbc945f3eU, 0x3d132826be107f76U, 0xbc8b57703c84db17U,
  0xbd48f928bbb51c84U, 0xbd8e96f43b606ecaU, 0xbdd8dd21bd86b878U, 0x3ab8a3e03c3e6435U,
  0x3d79bbb3bbf13f41U, 0xbd0cbad13c410099U, 0xbcff07303d80a56eU, 0xbcc47be8bd510b36U,
  0x3d8bcaa6bd0bcdb2U, 0xbe05192abd0e2995U, 0xbd9bbf0dbd2199c0U, 0xbcfb2684bd5e8b33U,
  0xba98cba03b3f9c21U, 0xbd8dbf02bd8d7ca9U, 0x3cd85ae1bd889f94U, 0xbd747fcbbbcc4781U,
  0x3d06e59abd895248U, 0xbb9066623d5f4332U, 0x3d5cb392bcbb172bU, 0x3bdf61debd34b017U,
  0x3cd006eabd6e9fcaU, 0xbd9917223d8818b0U, 0xbd7a0809bd89ff02U, 0x3c8349ec3b94cfe5U,
  0xbb0e68963c8e4e50U, 0xbd39a71c3d70134cU, 0x3cdfc0b8bd5f12c5U, 0x3d82871c3d5dafa1U,
  0xbc80b0e23d53254bU, 0xbde60dd3bdcced67U, 0xbd8b8758bdc23286U, 0x3d5a01b6bdd472d2U,
  0x3d405b3a3c86aa29U, 0xbc9c9fad3ccfdfecU, 0x3ca32cb5bd16c6fbU, 0xbbb56a18bcff0852U,
  0x3d2809803d749033U, 0xbdd608ef3d06ff7bU, 0xbd702dcdbcb03693U, 0xbd13c655bd372c46U,
  0x3a488500bd96d6d9U, 0xbe14846f3d6b8718U, 0xbc24db15bc2066a5U, 0xbd980d68bd51a7d1U,
  0xbbe1f7a33c5cb25cU, 0xbcf81e69bd8f23b3U, 0x3d30112dbc7356a6U, 0xbd78cca33d77838fU,
  0xbda6a7b63ceb8ed2U, 0xba54a1c63c923665U, 0xbceec0f93d32d711U, 0xbd46ca373b93377dU,
  0xbd5144d5bd845aecU, 0xbcccbfadbd54ab66U, 0xbd05d8ab3d5a5546U, 0xbd8048b0bc8b717aU,
  0x3c63cbf3bd2c5698U, 0xbca1e452bd46eb44U, 0xbcc05d14bc800742U, 0x3cb0e2403cda7256U,
  0x3ba580303d961f7dU, 0xbcf8fb71bd6de315U, 0x3ce14a68bb76981bU, 0xbce675c8bcfedbfbU,
  0x3cbb8754bd1ab8ecU, 0xbd8e6c12bd18db2aU, 0x3c78c52cbd298b33U, 0xbc44ef96bc36afb0U,
  0xbd2bb16fbbe9f7faU, 0xbd8869d03a81c061U, 0xbd5702803a3b4783U, 0x3d88494abb31ff6aU,
  0x3d68ad083cae5ef4U, 0xbe01397fbd37d124U, 0x3c4472e5bd6a4e8aU, 0xbdcccc393d436df6U,
  0x3d5ffb1e3caa2b31U, 0x3ca6c351bc5e9b64U, 0x3c12f929bd6d3a36U, 0xbd2f35ef3d43a2c9U,
  0xbd4257193d7451d0U, 0x3d7bad6f3dcfbabaU, 0xbd140bbdbd633b05U, 0xbccfe36cbdb7473eU,
  0xbd687b9c3d619bfcU, 0x3d270a213d66e7d1U, 0x3d34e05abd080074U, 0xbd6c3eb8bc2fb880U,
  0xbd33757fbba9b6c0U, 0xbd563dff3d97fe28U, 0xbd07c7e13b963813U, 0xb9cce1003bbba909U,
  0x3d6214b4bd27c660U, 0xbc5d2f693c91653bU, 0xbcdc58dc3c0fd1d1U, 0xbc138d20bbd24d17U,
  0x3d16ef2abcf555dfU, 0x3d20b68cbd95b456U, 0xbdae91ddbd82a4a2U, 0x3bdb8c3ebc805c55U,
  0xbc065c50bc153fd9U, 0xbc89562a3d9c69feU, 0xbcebd370bd88aee1U, 0x3d4a11203d3d583cU,
  0x3c8d77e8bcda7c24U, 0xbdcae896bba7dff0U, 0xbdb867c8bd060c8bU, 0xbdaf20173d1e1aecU,
  0xbca4462f3d2cfd39U, 0x3d244b61bd020829U, 0xbccd94013d10e5b7U, 0x3d22c8223caa8833U,
  0x3c97c2a83c8e7deeU, 0x3d10b06a3d93ce52U, 0xbc68864d3cbf0ce2U, 0xbd818a41bcf53e43U,
  0x3ceb24bb3d7eca99U, 0x3d0f84c9bd89cc33U, 0x3d691813bcfca8e5U, 0x3cec80503d26f3cbU,
  0x3cf4461f3d818ba4U, 0x3d6cce743d34e5e8U, 0xbd7cf6a93d768309U, 0x3cbeb254bd848160U,
  0x3d0e34fc3d24e6ccU, 0x3d414aecbc18dfc5U, 0xbd1df2c93bf72252U, 0x39e45300bdfe5ab6U,
  0x3bee0780bdbccef6U, 0xbb9e1565bd8945fbU, 0xbd968c1cbc3eb1f8U, 0xbd4c00433c2c49d3U,
  0x3d63d2a4bda093d1U, 0x3c8b2ef1bd80522bU, 0xbd5ced9b3c7ab704U, 0xbca9b61a3c75da54U,
  0x3dcb1cab3d3b991eU, 0xbd3ec269bc013338U, 0x3c07e30d3b5b5edfU, 0xbce2829b3d8223b0U,
  0x3c4bfeca3d66b621U, 0xbb95eb3d3cf3955fU, 0x3cf709a13ca6aee2U, 0xbd9d50f23d899f4fU,
  0xbd2fbf3abcc5d54fU, 0xbd9940a2bd89fa99U, 0x3d5c9558bd75fa7fU, 0x3ccae330bcb40973U,
  0xbd1ef46cbd7e27f4U, 0x3aa65c58bd61cdd7U, 0xbd44636ebd3301bbU, 0x3b02f500bd14cfccU,
  0xbc9d97d0bd113c91U, 0xbd9325bc3d7c8500U, 0xbd2e40963be40a5fU, 0xbd48d5c2bc34f258U,
  0xbd391520bd213843U, 0x3c3aa883bcecd8d8U, 0xbd2d66153ce570a9U, 0x3c0dcc70bdc0982fU,
  0x3d877185bd958d3fU, 0xbd8884a4bd942775U, 0xbdd34fff3d29e65cU, 0x3ca36adfbb635066U,
  0xbd2cacbd3cf7f300U, 0x3b9253e8bc594ac9U, 0xbd65b3483d032370U, 0xbd4af735bda2d0a7U,
  0xbdb241e93d31d008U, 0xbbabbce83bf249d0U, 0xbd67aad3bda6b8d1U, 0xbdbecd8dbcdf1a7cU,
  0x3daf6638bd57a600U, 0x3d3903953cef2067U, 0x3b53172d3cbf5781U, 0x3d24e1c93b3a6bfbU,
  0xbc02802dbd87338aU, 0xbd8c8f363c971fcbU, 0xbd516882bc53a8ccU, 0x3c3d80d0bdb15690U,
  0x3cdde77bbcd498a7U, 0xbd794e153d837b35U, 0xbd26ba513a3c49f5U, 0x3ca44c40bd315615U,
  0xbd3bb0903cce6f0bU, 0x3d8941f4bd354cb4U, 0xbc8d4a56bd831f27U, 0xbd0e1907bd54deccU,
  0x3b85dee13d835dd7U, 0x3d002531bd91aedeU, 0x3c22b5fcbccb1a9aU, 0xbc77114bbdd0d27bU,
  0xbd5d3a00bdb84216U, 0x3cd5157ebd122eceU, 0x3cbb60e2bd95f74fU, 0xbd8f2149bd88315eU,
  0x3d16613fbd97e5a8U, 0xbd4ac496bcfc6242U, 0x3cdf17c4bc3bc707U, 0xbcae90053d54f94fU,
  0xbd7fc1023d3371a4U, 0xbd6a628f3d12981cU, 0xbdbbc603bd88ca8dU, 0xbda7f7e7bc9f81c0U,
  0xbd33a9e4bcf5736cU, 0x3c44c770bd4b4eb7U, 0xbd286b0a3d862c63U, 0xbd114647bc7bb3ffU,
  0x3d255016bc8dca3bU, 0xbd62771fbd697aa8U, 0x3d07f8f93d86bda2U, 0x3c309887bd1bd5dbU,
  0xbc6237cebc64b8abU, 0xbcdd15b5bc4ecb04U, 0xbd1bd21cbc28400eU, 0xbd3015cabd54cd25U,
  0xbd7ea3773d5fef4eU, 0xbd804045bd9223ddU, 0x3d963ae23d36b701U, 0x3c5ece983d48e051U,
  0x3d78e284bc9bc494U, 0xbb73eb1dbdb805adU, 0xbd884f71bd2fe656U, 0x3d65dfa43c70c834U,
  0x3b9c4793bd0e65b5U, 0x3cb5182e3d6ce485U, 0xbc131cf33d477231U, 0xbd29d7683d6fb621U,
  0xbcddf9873cfa539fU, 0xbd98388dbd7fbbf6U, 0xbdac983c3d38e5b1U, 0x3d011e95bdabf403U,
  0xbd4e9992bd28c73aU, 0xbc9a5b113d3f6736U, 0xbd3621b5bca52896U, 0xbdaad5303d10920aU,
  0x3d82a8eb38afe54fU, 0xbc06eea23c0f5d84U, 0xbb493fdc3d7d64f8U, 0xbc02e05a3c3180f7U,
  0xbd492ce63d299d90U, 0xbc322ff93ce3d245U, 0x3d6fae01bcbaba9dU, 0xbd453a27bd879148U,
  0xbb2fab653c1345dbU, 0xbcfa87b63d74ba32U, 0x3bdcf424bda7e1b2U, 0xbc2a2926bcc38596U,
  0xbcd2fc9cbb1c5212U, 0xbd0837543c84f598U, 0xbd183fca3d1ae424U, 0xbd15c55c3c40970fU,
  0x3a67336d3d5a0cdfU, 0xbdea1640bd34b256U, 0x3cd804d0bcf8831aU, 0xbd9d638e3c7a6dceU,
  0x3d3ffcddbdabbad5U, 0x3c965fc43d1f9fd3U, 0xbd7f80063c87e4eaU, 0xbdd30dca3d3e4bfaU,
  0xbd249ed0bc4dabceU, 0x3c746d413d503489U, 0xbd73a4b8bbab65ecU, 0x3d0d6fc83d845a77U,
  0xbd219aae3cb64c1cU, 0xbcfa11e1bd8bab6cU, 0x3c7b418b3d9daa1eU, 0x3cde53513c4ab8e7U,
  0xbd0fedfd3c9a10daU, 0xbd7442e8bd12a24bU, 0x3bd54055bd4fe413U, 0x3bf213293d9e1d34U,
  0xbd7df648bd96b2e3U, 0x3c389fc6bc8a24eeU, 0x3b229c4bbc793fccU, 0x3ccea553bdbe8c29U,
  0xbdea15ffbc8a664eU, 0xbdcb7ed7bc33e15dU, 0xbd7b2e74bda28a6aU, 0x3b89d31fbd34c038U,
  0x3b9e893b3be085f0U, 0x3a54f04cbd808728U, 0xbd235dc63cccb944U, 0xbc8ee384bd2812a9U,
  0xbd180b7ebce5ad5aU, 0x3cde38dfbdb4b4b0U, 0xbd3271f5bd9222d8U, 0x3cf877fabdfe10cbU,
  0x3d119473bd618b49U, 0xbbef2fee3d6f25ceU, 0xbdb9b1b5bbd4fde5U, 0xbcb28675bc322903U,
  0xbd123c6f3d57833eU, 0xbdeb4c56bc8dad97U, 0xbd22828ebd94bf7bU, 0x3cb79afcbd4ae2abU,
  0x3cf2086c3d207c2cU, 0xbd3b9733bd722585U, 0xbd1744c0bcd9c728U, 0xbd2840b0bc387d28U,
  0xbd31109d3c8b9dadU, 0x3c909e873d26761cU, 0xbd7515553d6c69ffU, 0x3d59396ebd1ccc97U,
  0x3d8227b83cc88992U, 0xbd5ef3ffbd660c42U, 0x3bd181cf3d1744edU, 0x3b8f4f2dbdeb2306U,
  0x3acb81ffbd9ba888U, 0xbd9b49253c278924U, 0xbd93a0663c1b4084U, 0x3d0e60a2bda56c32U,
  0xbce757773c4e8fb0U, 0xbd86ee4a3d612cdcU, 0xbc5de0f43d480ca4U, 0x3d838688bc8cad42U,
  0xbc82a4963cd5880aU, 0xbd6cb1f3bd271827U, 0xbda10fc3bc865a96U, 0xbd1a2368bdbe358bU,
  0xbcda5f44bd4272bfU, 0x3cf1b096bd163a7dU, 0xbdd057e4bd9c5199U, 0xbcff7d243d02b1acU,
  0xbd82712cbd3bb067U, 0xbd9dbe3bbc026f10U, 0x3d5c88b53d73019eU, 0x3d3ba3383d15c05aU,
  0xbd9738953d957b5eU, 0xbe1bee4dbcc77120U, 0x3bcfdb03bbd859feU, 0x39233e17bd4b386eU,
  0xbd1ad1433d5feae3U, 0xbcfee157bd971894U, 0xb9b34d71bcd7c9a7U, 0xbd34bacdbb09b431U,
  0xbd5649453d57a76fU, 0x3d642d583d9f1483U, 0x3a70cf92bcb46a53U, 0xbd2500aebd9342e2U,
  0xbda9a9c9bd3972a8U, 0x3d406c40bd1c1130U, 0xbda5ff67ba012d48U, 0x3a9acf00bcc60675U,
  0x3d4346233d45f60eU, 0x3d4bf34abd85b200U, 0x3be97f903c986269U, 0x3cf773a83d1fa3f7U,
  0xbc5cfa603cd978f8U, 0x3dc677b73cc6ddd8U, 0xbd06f08bbd43a928U, 0x3cb0aa54bdd32639U,
  0x3d53c3c43b885eacU, 0xbd4db3663d54df44U, 0xbcfd069bbbf77a80U, 0xbd236b1abd133276U,
  0xbd83aae13d632d28U, 0xbc438ed83b142bf1U, 0x3d2400643d7fa3caU, 0xbd0339d03cc9dc9eU,
  0x3cb3e9743d8f2d66U, 0xbd9d37e6bd53eb9cU, 0xbd3634b53c36cf27U, 0x3c5e38133cffcd7cU,
  0x3c0889c8bda45ed8U, 0xbd3d4d4dbd982d07U, 0x3be46f76bdaf25baU, 0x3d08103f3d3e46daU,
  0x3d1140bb3d84e88eU, 0xbb71f980bc4c279eU, 0xbd3c7730bcb0a67bU, 0x3cac8410bd80bf32U,
  0xbd86b2ba3d212340U, 0x3d175f2c3d0fe0bcU, 0xbda0d682bcddbf95U, 0xbc67486cbdd4d27bU,
  0x3d259faabd5d02f8U, 0x3d9527963d34c510U, 0x3d52f7d4bd8e1940U, 0xbd2746de3d05f0cdU,
  0xbbe86d603d705df3U, 0x3d778ad03ccabc29U, 0xbd83a1a2bc0d96cdU, 0x3c1f277e3cf9c5c3U,
  0xbd93d0703d2d2427U, 0x3b134532bd396206U, 0xbdf1aa86bd0bca30U, 0xbc247aedbd8aa275U,
  0x3b8538e2bcb412ecU, 0x3ce4fe67bd776285U, 0xbd703603bd2dddd0U, 0xbd527d2b3db6f67cU,
  0xbd6ac2123d8978c4U, 0xbca73a0e3d8256b6U, 0xbd27ea6f3d88f1b2U, 0xbd8abd7f3d64b410U,
  0xbcbd3e33bda81f02U, 0xbd37c30c3afc61e3U, 0x3cc137edbda8736aU, 0xbd928a18bdd9e5e5U,
  0xba9e2131bda29366U, 0xbcd934f3bca72538U, 0xbc25c722bd1d588fU, 0xbd600e8cbc8c0cd1U,
  0x3d005c5a3d6be234U, 0xbd13d75c3d6205b2U, 0xbda39a18bcd9abd0U, 0xbd0a35dfbd730f08U,
  0x3d305d46bd7080e8U, 0xbd24ebc2bcc4780eU, 0x3d61a2f43d2f8bf8U, 0xbd320ee0bcd42758U,
  0xbd5cf2653d2d933fU, 0x3c6360abbddcbb40U, 0xbad1f131bcc045fbU, 0xba54d89fbc88754fU,
  0x3d800d7bbd8dacb5U, 0x3d283d45bd88785dU, 0xbd9a700d3b493240U, 0xbc2771cf3d522fc9U,
  0xbc773681bc5e0627U, 0xbd8c51cb3cb1f556U, 0xbb4a47923d801e01U, 0x3d71188cbd1910f3U,
  0x3d0fea503d0753b2U, 0xbe073293bcf1fa52U, 0x3d02229fbc1185feU, 0xbde1e0bd3cf8bb1cU,
  0x3b2d6f36bbbda7f8U, 0x3d478e173d70e038U, 0xbcda1e57bc104023U, 0xbd72aee83d9eff6cU,
  0xbd0eef4cbd410cf3U, 0xbd48f6913d6a247bU, 0xbce45f3b3d3b0be2U, 0x3c098815bdaf69a6U,
  0xbdeaa6afbc152f9aU, 0xbdb5c31cba971944U, 0x3cf2e86abd62e8caU, 0x3d961c6a3c6ca760U,
  0xbd514d973d842fd4U, 0xbd3411e43d28688aU, 0xbc6ccdd4bd015f72U, 0x3d926364bd8e9eb1U,
  0xbced1dffbdaf9040U, 0xbca29d03bde64521U, 0xbca003d43c9bff0aU, 0x3cca79d8bdb3ab7bU,
  0x3cf13bedbc016499U, 0xbbb787b53c4089ffU, 0xbd2522e0bd2196aaU, 0x3d7a77413d485d5eU,
  0xbd232f473ce71d40U, 0xbd464de23d697923U, 0x3bfcf336bb45038fU, 0x3d415ef43c2b31c6U,
  0xbd799649bb3f31c0U, 0xbd40667e3d782f00U, 0xbd9e9183bd4eba8dU, 0xbd8720753d1eca7eU,
  0xbd81247c3b4b788cU, 0x3d4d34623d413c93U, 0xbd349f4e3d486a5eU, 0xbd8358e2bca82c14U,
  0x3d06f0dfbd92dbdcU, 0xbcad1b933cf2691fU, 0xbd2b8136bd6391b8U, 0xbd543649bda1213bU,
  0x3cf82fcfbdc262b8U, 0x3b6fc3e2bd56e2efU, 0x3be1bfda3d3f287eU, 0x3d345486bd8671f0U,
  0xbd8c8ff93d27e640U, 0xbc22b6e0bd6400d0U, 0xbd91f4a0bcbda086U, 0x3d3db70abd89b61fU,
  0xbd2cd8aabb214afbU, 0xbc8824a9bdd8549aU, 0x3c5fdcabbc3213e4U, 0x3c79a360bd8a5a05U,
  0xbd05df49bd8cdbc0U, 0x3c395fed3cc41a30U, 0x3b05439cbd5e89caU, 0x3d454f223cefeb31U,
  0x3d29c0b9bca2f542U, 0xbbd33fc9bd50559bU, 0xbd047d463bf3a174U, 0xbd9b2a28bb4e1978U,
  0xbcf855ff3d42c906U, 0xbde8a4d3bd819b58U, 0xbda07523bc85db57U, 0xbd7f95ec3d035756U,
  0xbd73a4543d6af509U, 0xbdc93fdb3d532e68U, 0xbc0da35dbd4c2d46U, 0xbc33c2c5bd588078U,
  0xbd8f5267bd78ec74U, 0x3c1ec2ab3c0f1ccdU, 0xbd63e66abda72d70U, 0x3d5717ccbceade32U,
  0x3d070f1a3d32dae7U, 0xbdab93d8bd12f38cU, 0xbc76fec2bd3b3b5cU, 0xbd05357bbc97e0e7U,
  0xbd8342c63d1fef6eU, 0xbd7b2862bd0be458U, 0xbd131052bb0b68efU, 0x3d2b24e63d86c77fU,
  0xbcc9f858bcf14813U, 0x3c52763bbdc2cda7U, 0xbc174c283da9bf11U, 0x3da119903daff747U,
  0x3d51218abd673209U, 0xbd0ae7b83da8502cU, 0xbce860f5bb1461f9U, 0xbdcf15a83d606467U,
  0x3db5e3ee3bcd7c39U, 0xbc8591863da84420U, 0x3cca24a83d8f50adU, 0x3d0b4992bdceb336U,
  0x3df3c473bd87286aU, 0xbd7ae0943d318034U, 0x3ce25964b9e7b573U, 0xbd6aa0273d470d42U,
  0xbd979f36bd936467U, 0xbc70008f3cb7178cU, 0x3be2d722bd3a6493U, 0x3cc75b7fbd2c0f0bU,
  0xbddbedabbc5a0145U, 0xbc869e2e3df78684U, 0xbdba52603df83c2eU, 0x3d5226bd3cbc7ea8U,
  0xbdb1c764bdfb6aceU, 0xbcf081e7bd8d1883U, 0x3b4257c73daa70b7U, 0xbd48611a3ca581c2U,
  0x3d64980dbd656e18U, 0x3d9727f43d81641aU, 0x3db3b8f73c272022U, 0xbcd917a63d9c66beU,
  0x3e00be6e3b928781U, 0x3d060a4bbccb8f06U, 0x3da74dc83d2fe92eU, 0x3db1273abcccce33U,
  0xbd82ffab3c0c9deaU, 0xbda609253c52011cU, 0xbb7be905bb9b36d9U, 0xbd2c182c3d84afb3U,
  0x3da56d01bbc27285U, 0xbc5efbe83dff08b1U, 0xbd34e8503e0f1afaU, 0x3d9e1d0ebd2745c6U,
  0x3d9fdc38bac55e07U, 0xbd4f94613d73112fU, 0xbc90d38f3d0e3763U, 0xbdd7485ebc13fb7cU,
  0x3c8a48edbd256325U, 0x3d15472d3d64fc30U, 0xbca3a0d2bd36fbacU, 0xbd3be3d2bc94903eU,
  0xbd243065bdba1e8fU, 0xbc50d681bce8c57bU, 0xbc1b7c703db4bb90U, 0x3e037faf3bbd0f7fU,
  0xbdce59afbdb66f8bU, 0xbcb6c806bc144a84U, 0xbd2aac37bdac0533U, 0xbb44ec90bda37d17U,
  0x3d2a3eaf3d1dc477U, 0xbca2cb463d214c7bU, 0x3dc0c93bbe316c07U, 0xbaa5314abd1fffcaU,
  0xbd46404a3d6b91c5U, 0x3ca703b33d4f6e10U, 0xbd1b9422bbfbc637U, 0x3d0053d0bc0fe0cbU,
  0x3d52818abd9ce8baU, 0xbd20e3473d834db9U, 0xbd34b54ebd4c8588U, 0xbd3adf4c3d13f1f3U,
  0x3d486c9e3c6cce3bU, 0x3d4d8a3b3e016dcaU, 0xbcb547903dfb39b9U, 0xbd1cfa7dbde9bc6cU,
  0x3d096d2cbd629089U, 0xbd986ce2bd8c9e38U, 0xbd4e82da3d0bdba1U, 0xbd1fc2863b045294U,
  0xbd1994313d326dacU, 0x3c89b69bbd3d828eU, 0xbd1aef813ca1e4f7U, 0xbd4cef4b3d1f2a54U,
  0xbae8359dbcc43270U, 0xbc6068ebbca318d8U, 0x3c0c37fd3db5dd31U, 0x3b18a364bdccb6a9U,
  0xbbf1f968bdc6bca8U, 0xbbf3f7353d07da48U, 0x3d2a4f54bcd45432U, 0xbb20ce5cbda7189eU,
  0xbd8ca72dbe513973U, 0xbd6644ffbd69981dU, 0x3ddc259fbe083314U, 0xbc3822ff3cd1bb3bU,
  0xbd9be2f13b403114U, 0x3d2c6a963dde7cd0U, 0x3d94203438bbb00cU, 0x3d8d50db3b8c5425U,
  0xbb6ecc13bd808bdfU, 0xbe05a3c3bd80c144U, 0x3cc49b963a8f0ae7U, 0xbd68f7a33cf3e774U,
  0xbdea31503dbd3f90U, 0xbc58acafbcd8fc03U, 0xbc9359463dbec5dbU, 0xbd470158be371a64U,
  0x3be2110cbd393714U, 0xbd80c3b2bd3a3268U, 0x3c146f973dd0c8a6U, 0xbca14908bd445f7dU,
  0xba6f92023dabd391U, 0xbd06073f3cd2b484U, 0xbda409c93cae78ebU, 0xbdd86c1dbd110f1aU,
  0xbafeabd0bd5e1352U, 0x3d87af7dbd4bc8a4U, 0x3daafa88bc23b980U, 0xbcae70b63c05883cU,
  0xbd5479d8bd7a9215U, 0xbc90bf54bcae493aU, 0xbd794813bddab390U, 0x3c8a8184bd203a60U,
  0xbbc76593bc993d97U, 0x3da19b213d762f16U, 0x3df0459b3da3c954U, 0xbcc310983e546dc6U,
  0xbcd3017bbd03908fU, 0x3c969a85bd370fbfU, 0x3d67be35bc3adfbbU, 0xbd3ac3633d5c8fdcU,
  0x3d3f26fabd90c873U, 0xbd8dd64cbbf1d0a4U, 0xbc8023ce3d021ffaU, 0xbd03bafdbd8a0864U,
  0xbe0a4d20bc835541U, 0x3ca214f83c719ecfU, 0xbd8e14b13dccc9d2U, 0xbda05b61be57f19eU,
  0x3d760fbe3da0bcc5U, 0xbb8bd8a23cf8ce38U, 0x3ca8046fbd1d27ecU, 0xbdf2c6573cc3878bU,
  0x3d0f23d9bd66bb16U, 0xbca01e4fbd9b7af2U, 0xbca17d4fbd4172b3U, 0xbd9f7e3d3d93d01eU,
  0xbd9370d1bda2dac7U, 0x3c29f9163d1f0ef6U, 0xbc76e1573d74fdbfU, 0xbd5ed86cbd6f910bU,
  0xbcf9b4c7bc161dcdU, 0x3ce654d0bdc1f7a9U, 0xbe1851af3d2224c3U, 0xbd0ccc7cbde0cb4bU,
  0x3d49b4a4bded2806U, 0xbd3f55bc3d9da9a2U, 0xbbd5bba1bd294bb6U, 0x3da726cd3cb2ce4aU,
  0xbd1494713bcac2e3U, 0xbd46b4693dc69a75U, 0xbcc60f293c239ff2U, 0x3c99c6903c90940dU,
  0xbd82e3d6bc52f211U, 0xbd99a5f33d0cadf2U, 0x3d07f4a7ba2713fdU, 0x3d242380bd1aa713U,
  0xbdd5841bbdc40916U, 0xbc8bb83d3d8f6980U, 0x3d866cff3de28090U, 0xbc71f94abe211464U,
  0xbbccefa3bd843c3eU, 0x3cc3faf13be210c9U, 0xbcf998bdbda0503bU, 0xbdb98a08bc073e1eU,
  0xbc5a73623c2f5385U, 0xbda905eabc151ac3U, 0xbd71b9f03c25d296U, 0xbdcdffdbbd7729a9U,
  0xbd8507e0bdf3d504U, 0xbcef78eb3da384d1U, 0x3d57ea9b3ddf7a0aU, 0x3cf79c66bd129d03U,
  0xbd267b85be07f641U, 0x3d28f72ebdda80f3U, 0xbb54e577bc3b8bd2U, 0xbd718effbdd82a1eU,
  0xbd4ee17ebdad9340U, 0xbd3d27963cb9a3f3U, 0x3d08a4ecbc88bf7dU, 0x3ca76d8ebc782bb5U,
  0xbdca9525bdc9ffdaU, 0xbd91e0823d25237cU, 0xbd516ee73d2fc6fbU, 0x3d07ef25bb8db041U,
  0xbd5855c3bcb5a78aU, 0xbb2923533d8afadbU, 0xbcc7b4f03d657ef3U, 0xbcd299edbcc583d9U,
  0x3d442c2bbdc26743U, 0xba7422133cfe0b71U, 0xbd1648a03bd2dd07U, 0xbde07cbabd9f712bU,
  0x3e5fefa7bc53cec2U, 0xbd7bca853d2c05f4U, 0x3d5f4854bd195ce7U, 0xbd8b6e11bd951906U,
  0xbd31e0afbd04f98dU, 0xbce7c76dbd6fb68cU, 0xbb450e773c067505U, 0x3d0884cabbe336acU,
  0x3ca54ab4bc1f5af7U, 0xbd4c5bcbbc69d73cU, 0x3d246c34be097a26U, 0xbd2f003f3d1d856dU,
  0xbd4329e4bdea1deaU, 0x3e1c2251bdb95872U, 0x3d06ab43bde0a68fU, 0xbd1498a93d14107fU,
  0x3d13e1e5bdd796bcU, 0xbb0f3f633c050ecfU, 0xbd40c99f3d9ab239U, 0xbc88af45bd466440U,
  0xbe783008bd8b99ebU, 0xbc0bce93bd026691U, 0x3d6d38bbbd3d5eebU, 0xbd6c7476babf7134U,
  0xbd43e0b8bd0964ccU, 0xbd456641bd6f924aU, 0x3c451e9a3d02a723U, 0xbc42b4973d1e82b2U,
  0x3db9f13abd71495dU, 0xbcc606943d9890e4U, 0xbd6dd1d5be2f3453U, 0xbce7d39abc5bce9eU,
  0x3e83c2b8bd87dea2U, 0xbd8a7349bccf9e38U, 0xbd5391443c9c8caaU, 0x3caec5e63d4f3537U,
  0xbd47a1d5bd08fa92U, 0x3c96b722bd8c90f9U, 0xbcfa5010bc12f8b3U, 0x3d4c6351bd31c128U,
  0xbd9e74403c5965dbU, 0xbc52bc2a3ca56801U, 0xbdc732dcbe21dd36U, 0xbda15129bd88ebbaU,
  0x3cd36aefbdad35acU, 0x3de75d8dbe2e2a57U, 0xbd33b4ddbd0a5e16U, 0x3c8d537cbc46a46fU,
  0xbda29706bdf355c9U, 0x3ad339b03d3cfb8bU, 0xbde05b763d2d7adeU, 0xbc05f07bbdccbb84U,
  0xbdbaaf8b3d37774aU, 0x3d27ece73dc1ce60U, 0x3c0164223d14231fU, 0x3d3d40c4bd9a27d3U,
  0xbcd32cee3c30b6faU, 0xbd924fc33d00cc8dU, 0x3da57e30bd93b677U, 0xb9bc17153c5b84bbU,
  0x3dd6f0fd3ca32170U, 0x3dd1cca13d06ebf0U, 0xbcad102bbd6619bdU, 0x3c8f85da3a34c87fU,
  0x3e7a7e1e3cb35b5cU, 0xbd1a522c3d16fdfaU, 0xbd910eac3ca18648U, 0xbd6771ccbd8e9f0cU,
  0xbbed66cabbcacf3fU, 0xbce9067dbc8de9b4U, 0xbdcf740b3c0cf53fU, 0x3d5d9926bd1242f8U,
  0x3c03effe3d0fd808U, 0xbd9d34d33c9ccbd8U, 0xbd546297bdbc50c0U, 0x3c3fbf3ebd3792a8U,
  0x3d602abfbdd190e4U, 0x3c080307bda5a0dbU, 0xbde70461be5bf7b6U, 0x3d3fe044bde3fcc2U,
  0xbcc0f57d3d0a6f18U, 0xbbeb97333d5da6e9U, 0xbdb412133d6b0aa4U, 0xbcc0d28bbd434e4fU,
  0xbe2cfb6d3ce3e282U, 0xbd118c44bc7cb13fU, 0x3c1bb7773d089038U, 0x3d215ebd3c8c7b85U,
  0x3d8c1096be047ec4U, 0xbd79ee523cdb1aabU, 0x3dc73bfebd933f78U, 0xbbe65312bd3d15c8U,
  0x3ddc6f0abdae1b1fU, 0x3ce7afdc3d2fad7bU, 0x3d12c9e6bd82c178U, 0xbc92b9b43ced597fU,
  0x3e122e1ebc2ed0e5U, 0xbdd080b4bd6991e3U, 0xbd06cb56bc135448U, 0xbbbf22a43d8d4c7dU,
  0xbd2fe11fbcea7e30U, 0x3d7adfcc3d28c5adU, 0xbd13cbe13d65fc4bU, 0x3dcb1a82bc548150U,
  0xbdc16b283cc9eff2U, 0xbd0d03ce3bfd1c38U, 0xbd2caac23d196dd0U, 0x3d9d94c9bda7553dU,
  0xbd65ad7abc4389a7U, 0x3d6bec10bdda867eU, 0x3c036833bcdbc012U, 0xbd2e28aebdd0f8c9U,
  0x3ca78a5f3b860136U, 0xbc1ace703d1a9304U, 0xbdef1e093cecf4a2U, 0x3cad0227bde38c08U,
  0x3d4ffad0bbfb2f0aU, 0xbd938126bdcbfe45U, 0xbd9be16d3d85fd4eU, 0x3c4a4cc83d29d85fU,
  0x3d265ef3bd27e5c2U, 0x3cc25285bd442778U, 0xbd35d708bd9b5d6aU, 0xbb82880d3cf58e37U,
  0x3dae68afbd8a1a2aU, 0x3c22d6f8bd8e5473U, 0x3cfa6e9e3bd791f7U, 0xbd022431bde452b9U,
  0x3e7a18c43d88e97cU, 0xbca9f10a3c848a07U, 0xbd954e293d05541bU, 0xbbbe4eb53bf0590fU,
  0x3d85ef5a3c9da498U, 0x3d2526dfbdbf866fU, 0xbdd062babcacdf27U, 0xbba9d0413d11e41eU,
  0xbda4490abd079acaU, 0xbc2eb2503d4d5c36U, 0xbcdc17dfbda615dcU, 0xbcb4bff3bd090b19U,
  0x3b979fc7bda89328U, 0x3d42efeabdedf8afU, 0x3d7960abbcf368d3U, 0x3d1726e3bcb4086fU,
  0x3d13617ebe112a44U, 0x3d8be68b3d8abfb5U, 0xba2cacb13cd0c41dU, 0x3c63b19c3ce73768U,
  0x3cfc065abd68bc49U, 0xbd51519b3d2714acU, 0xbabbda2e3d2943a3U, 0x3d69bcad3c4f8ddaU,
  0xbd263c71bdf255eaU, 0xbcf04968bd846374U, 0x3dc921453d35fe9cU, 0xbd3800453d0ec0b1U,
  0x3e08accbbce97569U, 0x3b6540533c004917U, 0xbd58185ebd10d712U, 0x3ce71e2fbe780fffU,
  0x3e49f40d3cd9fa01U, 0xbac8a88bbd08cc91U, 0xbbe5a4893d018740U, 0xbdbc9a513d5eddb8U,
  0x3da8a5953d3553bdU, 0xbd20c386bd337d80U, 0xbd81fb55bd4ec8b6U, 0x3cf1ba1e3c821951U,
  0x3b9994783d9b3f85U, 0x3d1540a7bb2145daU, 0x3d5a73a93bfda7a5U, 0x3d9bad06bddc0960U,
  0x3c9264c1bd94ddb4U, 0x3d9b49a5bd26edc5U, 0xbded2d213c36e0b0U, 0x3d043ca0bd42cee4U,
  0x3dafbaf7bd7c517bU, 0xbcbf0edebc532091U, 0xbcb5cbabbe13fcdeU, 0x3d82e16abb89252dU,
  0xbda5421c3cd8204aU, 0x3d2980bf3e02c251U, 0xbd92a77d3da3606dU, 0x3d6ca417bcad2d5eU,
  0x3d864d59bd168640U, 0x3da6d84f3d5a9fd3U, 0xbbb04cd1bc02ae25U, 0xbd85e389bd9d5b76U,
  0x3ca984aa3d354e3bU, 0xbd9529abbd8cf8dbU, 0x3c8dca213b6b332fU, 0xbd909853bdd16f80U,
  0x3e991ac6bd3a219eU, 0xbcaddde03d426ca4U, 0x3dee211e3d80ebd0U, 0xbca83c00bd798d8cU,
  0x3d25ca8fbbfef0f1U, 0x3d71fbf7bd9510f4U, 0xbd76607bbc06d121U, 0xbcb9d762bdbeea67U,
  0xbcee94ebbdcb77e0U, 0xbbe389a73c71c46bU, 0xbd4d1bc3bcfafa83U, 0xbcc18ac7bd2de80dU,
  0xbd0a8355bd5cfcb5U, 0x3be10147bd83c6cfU, 0xbd276705be0701c3U, 0x3d303a16bd636f98U,
  0x3d1f7367be1e2ba6U, 0x3baf4bcfbd2ae170U, 0x3d540f88bc501333U, 0x3c38123cbdac98dcU,
  0xbd4be889bd442e08U, 0x3c94cbee3db9ac6bU, 0xbb9f5d1b3d1582f1U, 0xbd81f7c9bd1f842fU,
  0xbcdfdf233c1b025bU, 0xbc84a7503d5396a4U, 0xbd0d43c73d5c0ad4U, 0xbc42fb64bd9ccbceU,
  0xbd708f913cd12d25U, 0xbb27d616bd01ef3dU, 0xbd2c94173c781fa5U, 0x3ca62030bdb01b23U,
  0x3e1b28623d6471eaU, 0xbc1aeee7bd2064d7U, 0x3c4da8193d37d8e6U, 0xbcdc050bbc32ab1aU,
  0xbbf3700fbd467e4eU, 0xbd3ae47cbd9b11ffU, 0x3ca2e94abd23acecU, 0x3d829cb0bdc6999eU,
  0xbdbf87b23d3fe174U, 0xbd29a241bccffb6bU, 0xbe088b7e3c8c8de9U, 0x3d80e467bc5aa3b8U,
  0xbb85420e3c435efaU, 0xbd5aaec539968982U, 0xbc3d5ec9bd9528c2U, 0xbca91942be4e1e36U,
  0xbda5dee0be199872U, 0x3ce3951f3c9eac3aU, 0xbdc00eb23bb5b2adU, 0xbd8bf3a7bd0c4666U,
  0xbd161fa53d9d348fU, 0xbce20cb63dcc6a38U, 0x3d32dd613c676c45U, 0xbb94a5f3bce04489U,
  0x3d0c5dd9bd8b62b9U, 0x3d0a54633d4d3c3cU, 0x3dafcb7bbd714a3cU, 0xbd90860cbbb58a15U,
  0xbda0a77abd83c027U, 0xbcc30a1cbde28d5bU, 0x3c3111bf3db47b6dU, 0x3be05070bd527b28U,
  0xbd636fc8bce7cbfaU, 0xbce3146f3d37dcbdU, 0x3c5e168b3c9129d1U, 0xbdb566443cd1d427U,
  0xbbd9b983bd0015e2U, 0x3c2dfe16bc9e227fU, 0xbc3aebd93d2c756cU, 0x3c2902823cb2994bU,
  0xbc59f1913d01bf6aU, 0x3cdff8b2bc8765f4U, 0xbc7a89acbd404c24U, 0x3caada08bd7fca4bU,
  0xbd856e29bcc51fe9U, 0xbcde86dd3e533a7aU, 0xbd6c86eabe16b861U, 0xbd6f3871be31ff15U,
  0xbd428f9abdc90be6U, 0xbd8a31b83c2ca1bbU, 0x3b8720edbddeee8aU, 0x3b5ecef9bdb70391U,
  0xbd38e168bc66ad2bU, 0xbcec94f73dd4b2ffU, 0x3ccaa25fbd451b69U, 0x3d55dde83d5753f9U,
  0xbca305cdbdac441aU, 0xbda9c635bb3373cfU, 0x3da5aa643d8d81a8U, 0xbca801a3bd71f6e3U,
  0x3d86b745bd24f154U, 0xbcaa8b59bd977a57U, 0xbc0e8c20be10ec37U, 0x3e03e957bde4cf0cU,
  0x3d9a49d5bd83820bU, 0x3d00afbabd8d6cdcU, 0x3d08273bbc38f9eaU, 0xbd912e5c3c16368eU,
  0x3dd6b2f83d0d2b36U, 0xbd5438c6bd105292U, 0xbd21e7863d0c3c19U, 0x3dcc63753a3c6ba7U,
  0xbcba30c1bb1de3caU, 0xbd7ed92e3d4a24ceU, 0xbd751c1ebde55a19U, 0x3da3144a3cd2be56U,
  0x3cd661aabdc87318U, 0x3dafa0da3d911df4U, 0xbd59ba6cbe2e9e72U, 0x3c808fb9bcf91931U,
  0xbbbc35b1bdd18b34U, 0xbd6c7d04bd75bf62U, 0xbd78c6bbbdbcd300U, 0x3d65267b3d574d39U,
  0xbd1e60dbbd2ef7bcU, 0xbd739decbd84e869U, 0xbce1cc12bd54b10dU, 0x3d9712ec3d86729bU,
  0xbd7c7cb43cd79b65U, 0xbd98920c3d03b030U, 0xbd6326deba8e6a80U, 0x3d18987a3d88eca8U,
  0xbd8a4b9dbd86dafdU, 0xbc3a03623d5fdb18U, 0xbd1c2f293c6a372dU, 0xbc210cc4bd9608cfU,
  0xbd849e1abaf33480U, 0xbd921090baf30340U, 0xbd9465dc3cbde8b0U, 0xbdd79c953d1f239aU,
  0xbc08cd04bd90cf24U, 0x3c11762c3d60a99fU, 0xbd4f50733d0bdd6eU, 0xbd9e1828bd751a83U,
  0xbdc8aae9bd46b6b3U, 0xbd0f6d62bd542e81U, 0xbc136728bc81c3a4U, 0x3b5469c3bc9b50a2U,
  0x3cf5b6f2bdd15270U, 0xbd840fb8bd313081U, 0xbd1f8ded3c847a83U, 0xba76ab00bd7cec23U,
  0xbd56c82e3cb99370U, 0x3bcae0b03a163780U, 0x3d0976e43b45c13aU, 0x3d0efcb63d6c2cd0U,
  0x3d61b0c4bd0ecddaU, 0xbd392e8dbd734d98U, 0xbd4b18e23cfe0aa3U, 0xbcb9ea1a3d0834a6U,
  0x3cead9fcbd6fc590U, 0x3b99f600bdcfec85U, 0xbd399a323c793cc0U, 0x3c7374203c799398U,
  0xbd7578af3c9344acU, 0xbd12a6bd3d48cd46U, 0x3c9dcce5bd376370U, 0xbd80ccaabb270d06U,
  0x3d4e7232bd3ba3aeU, 0xbd80365fbd0ea0fbU, 0xbd8b58e2bd257658U, 0x3c774d9b3d07721cU,
  0x3cf10d25baa487a7U, 0xbdaf52f13d89bf28U, 0x3b7c5ec2bce4ded8U, 0xbdb8be8ebd47eb2eU,
  0xbca227d03d1e2c4dU, 0xbd51ebe1bc70da01U, 0xbd065723bd863b93U, 0xbd8672babd352804U,
  0xbc5863dfbce18246U, 0x3d760c34bd055b51U, 0xbc1d558d3d0d71afU, 0x3c92dbd0bc100359U,
  0xbccdda8bbd08c2a9U, 0xbd65180dbd694652U, 0xbd6ff0b1bd3ba915U, 0x3d7560c03c61e930U,
  0xbc902ca43d18b360U, 0xbdcc3372bd03f6bbU, 0xbcda821e3ca203b0U, 0x3d475ac4bd52aa03U,
  0xbc7749ec3ccfd356U, 0x3b8c2263bd3774f1U, 0x3d1ce5c73d6ca604U, 0xbd9494633d6ab437U,
  0xbd723d10bd6bb680U, 0x3d312f7a3cd7fd34U, 0xbd5c1de63c884124U, 0xbd0ade593cf6ed6eU,
  0x3d510e60ba58f680U, 0xbb9a04353c9dc25cU, 0xbd5ff09b3d05c73fU, 0xbc88f263bd6394b4U,
  0x3c34081bbd5dbd53U, 0xbcd7c62ebbc597e8U, 0x3cb1b437bdc83bfeU, 0x3a2e30793d315378U,
  0x3cf074763d787e03U, 0xbd621bffbdec172fU, 0xbd344cd23c187165U, 0x3bf483f13bd16385U,
  0xbd9515aabd36225cU, 0xbd2d68003c37ef77U, 0x3af0a3a1bdb50e00U, 0xbd6bc26c3cf48103U,
  0xbd1976a93d6e706cU, 0x3cd9738c3c775710U, 0xbd8d5f693d0961a4U, 0x3c5baf083d6633c4U,
  0x3a1d5500bcb58fb7U, 0x3d5d38e6bd80cbbcU, 0x3cc82978bc891752U, 0xbd25451dbd91a5e2U,
  0xbd86ddc3bd16b875U, 0xba8b6d9ebdc7e653U, 0xbb988ec03d3bf68aU, 0xbccea4eabbcb7172U,
  0xbd61ff76bcbc53ceU, 0x3d295f033c5c00d8U, 0xbdbb05dfbad0bcd2U, 0xbda46d3cbd63d432U,
  0xbad95280bc6a1afcU, 0xbd0a16f7bbc295e0U, 0xbd584ef43d0ad52dU, 0xbcbc4256bd7038c3U,
  0xbcafa0103cadf9d2U, 0xbd86cd003ca4bdcfU, 0xbc8eb0a9bde453cfU, 0xbd3e9ef4ba84fd65U,
  0xbdc0e40ebaf0b59cU, 0x3d353b52bd6a791aU, 0x3cead50a3d297af9U, 0xbd9fb0533d6d1c0cU,
  0xbdeec11cbd1dbe72U, 0xbd1762363c63a771U, 0xbcf9a7bfbc453014U, 0xbd8749e1bdbd59e9U,
  0x3c809240bd7b6acbU, 0x3d8e1842bbccb820U, 0x3cdb58803d00087cU, 0x3b108c403d916392U,
  0x3d8c8ac43d13f13dU, 0xbcd25ce03d177a3eU, 0x3d4ce934bd2d5d75U, 0x3d8ab3003d6a7735U,
  0x3d797888bd4ee4f3U, 0xbcce42b03b70e4d9U, 0x3d2b609c3b8affd0U, 0xbc8f6e733b6a3fc1U,
  0xbd6183cc3ca8664cU, 0xbd006d10bd6151baU, 0xbda0c2a6bd5205ffU, 0xbd6fc96a3d15c739U,
  0x3d19f7403d07d90eU, 0xbd41b3193c9bac94U, 0x3d10ebd43b76ec43U, 0xbdce72523d0fc466U,
  0xbcbb940ebd980d50U, 0x3d2518143c880adfU, 0xbdf032babd90af7aU, 0xbdc1dae0bd34af38U,
  0xbdb84f99bd80b621U, 0xbd4e95b8bdb8c746U, 0xbcc04f9a3c1881a6U, 0xbc296bdd3cd90857U,
  0x3b142602bd35ea70U, 0x3d0fe5b63c9ba87aU, 0xbd9ca8f2bd9e6fbaU, 0x3d561bd0bdb5bd89U,
  0xbdb8ee7cbd46675cU, 0x3d7781903d795dc0U, 0x3cf18e043cbe4c3bU, 0xbd458b3bbc872a9eU,
  0x3d1260cebdac70d1U, 0xbd71e7d0bcaa27f6U, 0x3b664cc03d484d84U, 0xbd20b644bda247a2U,
  0xbd19a52cbd220916U, 0x3d2fc441bda30409U, 0xbbe0166ebd134eaaU, 0x3d5c94d9bd01cffbU,
  0x3c94101cbcfc30aeU, 0x3d49bc97bcaef90eU, 0xbc6c2bf4bccbf83cU, 0x3d0c8ab2bd852c61U,
  0x397a26003c582948U, 0xbda419a93cae6128U, 0x3d0871bbbb29b4deU, 0xbbc128003c2ed3f8U,
  0x3d00c60bbd5ebd6dU, 0xbd7780d63beba66aU, 0xbdb80ce0bdb4b7c2U, 0xbd21baa43d1e2360U,
  0xbb872b2d3c404f64U, 0x3d7b9bcdbd56d025U, 0xbd9d7475bda29905U, 0x3d2c3b59bbf36698U,
  0xbd9f0728bc30552fU, 0x3c6ad8f43c3402a8U, 0x3c94d8f3bdafde23U, 0x3bae98b0bd42c6b7U,
  0xbd915750bd11a09eU, 0xbd2b6c813cbafb94U, 0x3d7978543cf734e0U, 0x3c2142c8bd6ed08aU,
  0xbd01b70bbd8f0e27U, 0xbcae7fb5bd2a0ecbU, 0x3c875c98bd0f6aabU, 0x3b26eb003d6e8a8bU,
  0x3d0c93063cae5f3eU, 0xbd517954bd1ee967U, 0x3d2bce0abcac4f14U, 0x3c3d1040bcc0d46cU,
  0xbd551dce3d704e10U, 0xbd612b893d4dbb90U, 0xbd14395ebd9a1cceU, 0xbd615cf4bd1663d4U,
  0xbd895e1b3a801e80U, 0x3d484a5a3cb0d2ccU, 0x3af8ee2c3d3074e4U, 0x3c7a74033c8fb7dcU,
  0x3c93e429bce72990U, 0x3cdf5d91bd80227bU, 0x3ba006363d010613U, 0x39c996713cacbcb2U,
  0xbd599589bc64bd73U, 0xbd605eafbd314e1bU, 0xbc6159593bfe5d02U, 0xbd94911e3d4d1f06U,
  0xbcde60d8bd212847U, 0x3c53b03e3cdfc2c2U, 0xbd19da5abd812b9eU, 0x3ce3a9a4bd717cc7U,
  0xbd558b18bd817844U, 0xbd69eb20bc0cb3d0U, 0xbd8a5ad83d39142eU, 0xbd50f78abd4e159cU,
  0xbd838c543ca0848aU, 0xbda004c43888cb06U, 0xbd751fbcbd8be69dU, 0xbd243baf3c69e08cU,
  0x3c696f283d0a6556U, 0xbc3f5d5ab9909800U, 0xbd3daa2d3d93fdceU, 0x3b98eec03d85f2e2U,
  0x3d18c4a03d1edf48U, 0x3c88f27f3d3709d8U, 0xbd90bc92bc990084U, 0xbda4b28fbdd22e94U,
  0xbc0af228bc2c7020U, 0x3b8acccb3d652dccU, 0xbd5ef122bd670f9cU, 0x3c5e2326bc074348U,
  0xbbc5bbe63d3f6300U, 0xbbba8e1dbd0524e1U, 0xbd845a32bd32b198U, 0xbda0a7f4bdcf0388U,
  0xbd540dda3bd78872U, 0xbcb4a8adbd5f3515U, 0xbba3b960bdd5f43aU, 0xbdc4cd2cbd32c4cfU,
  0xbd0a8a31bd881e07U, 0xbd4eedb4bd731107U, 0x3cf2d9b0bd691900U, 0x3d8b8db6bba774b7U,
  0xbdba35bb3cf8c020U, 0xbd25e3ca3c923e50U, 0xbcff9c5e3d7a8addU, 0x3c8ad5583d6009f0U,
  0x3d950662bc824271U, 0xbd25a9893d5fd2f3U, 0xbd163d9cbd9a1435U, 0xbc449d1cbd897460U,
  0xbd7376a1bd619985U, 0xbdc55a963b821180U, 0xbd282f14bd60788eU, 0xbd87599a3d301d63U,
  0xbd8289febd15154fU, 0xbd16c81c3d7bb060U, 0xbd7a3a663d5cd30aU, 0xbd721bf33cc682ebU,
  0xbd53d186bcdedc5eU, 0xbc5da39cba679a00U, 0xbcc6eb2bbd023ae0U, 0xbd64444c3cc4f530U,
  0xbd83ae33bd26eff3U, 0xbd997e29bd75540eU, 0xbd2ad9683cddb0acU, 0xba788745bd1ac40aU,
  0x3bbfcc76bd59ac29U, 0xbd57bc91bda0f8d8U, 0xbc9b0a46bdc1e1a5U, 0x3cd153e5bd74df02U,
  0x3cfec1993bf8b0deU, 0x3d885062bc101f9aU, 0x3d0278563d88592aU, 0xbd2081773bd701fbU,
  0xbd8db450bb228a00U, 0x3d425ae23d7bd124U, 0x3d14ae7a3d80078dU, 0x3cf2c4a4bceea01eU,
  0xbcb450fabd309218U, 0x3cefbab0bbe08b00U, 0xbd97e84e3d0f1845U, 0xbd394c52bda23b6fU,
  0x3d944724bd9c2e12U, 0xbd5ca7a13d49301aU, 0x3c1953293d87011cU, 0xbd384a8a3d6fa409U,
  0x3d2ec29ebda327a4U, 0xbd54d87fbd8944e0U, 0x3c9049f8bd63e166U, 0xbd8bf830bda56c0eU,
  0x3d2f7b1e3d980706U, 0xbdabed453d86c84eU, 0xbd90c07bbc66e7a5U, 0xbd48c4a53d28540cU,
  0xbd2163b6bdd7e0f5U, 0x3d0e63d23983eafcU, 0xbe099893bd979109U, 0xbc37a1f7bd6a7691U,
  0xbdb028fdbd45e87aU, 0x3c987f56bc12cdebU, 0x3d026766bd0bab04U, 0xbbf71a6e3d884958U,
  0xbca278f9bd28b195U, 0x3cd02a0abc6ce87aU, 0x3d2e36f83b31eee0U, 0xbd8a14803cfa3c0aU,
  0xbdd69006bd47d543U, 0xbd6fd9343cab467cU, 0xbd93f7d9ba84baf7U, 0x3c792c683c274170U,
  0xbca0333cbb247b18U, 0xbdb867f4bc6a6285U, 0xbcb96ec2bd48da2fU, 0x3c056908bc29ca41U,
  0x3c99f3fc3d2acbbeU, 0xbdbc3a89bc9aa0d4U, 0x3c93a563bd267326U, 0xbd8f9c18bce55062U,
  0x3cd32e18bd4e05b2U, 0xbd2c4184bd7fe31eU, 0xbd558eaa3ce74980U, 0xbdb9824b3d0ed52fU,
  0xbcf8dde83c2b3f20U, 0x3c88d837bc4ee454U, 0xbd05349a3cb0e0b4U, 0xbd5b02193d85cb68U,
  0xbcd9c5b0bdecc978U, 0x39a252bcbcae54acU, 0xbd1b43473bb746f9U, 0xbd990581bc00cd2dU,
  0x3cc7b853bcc77dcbU, 0xbd9faaa53d0ee8e2U, 0x3d13ca73bcba1f9cU, 0xbd23235d3d1cc9e5U,
  0xbd106248bd913b6aU, 0xbc850c4fbd0cfaa1U, 0xbd567610bd3dc0c4U, 0x3cb94ff8bbb80676U,
  0x3ca69b1f3c74ce08U, 0xbca086723c75f6a0U, 0xbd932bb73cc6ff7fU, 0x3cae73ac3a94f080U,
  0xbd5dad28bce47d34U, 0xbd67938d3cccf7d4U, 0xbd6bad2fbd77e936U, 0x3d31f1e43c6191c0U,
  0xbd1cc32abd6390daU, 0xbc5cc4163d7db680U, 0x3d60da67bcf4eb54U, 0xbc740644bcd6b272U,
  0x3c1589a8bd4a3801U, 0xbd234104bc5ea658U, 0x3d8356ca3d45255eU, 0x3cb2d9333d2fa2a1U,
  0x3d03dd483d385b32U, 0xbd827d7b3d138dc8U, 0x3d0b59fabd5c1e00U, 0xbdeec31f3cfb2f40U,
  0xbd2ea1bfbdd26657U, 0xbce877e0bd4bf92cU, 0xbd7a0de6bcdd6326U, 0xbd4dfd55bd646614U,
  0x3caef14ebd2cfc14U, 0xbd6371013d029c1cU, 0x3bd90690bd1daf6aU, 0xbd2fc5413d1e3000U,
  0xbdbfe711bcf7bcffU, 0x3c412687bd01ef5cU, 0xbc923bf83d55f39cU, 0xbc7814e43cc80d70U,
  0xbd111c8e3caa84f4U, 0xbd05827d3ce27abcU, 0x3ced0c40bd2be25fU, 0xbc4fa568bd4c092dU,
  0xbd1c05ccbcb96788U, 0xbd993a12b9d61469U, 0x3c4ff9903d27f9c3U, 0xbd564f643c4fe78fU,
  0xbbba51c0bd99f196U, 0x3c0a3821bc1763b5U, 0xbd1899cfbd14df99U, 0xbd74b01fbd83256bU,
  0x3cbfe56039e6c900U, 0x3d782fb9bd88998eU, 0xbd75ef4c3d406d58U, 0xbdac9673bc388403U,
  0x3cefd8b83d761788U, 0xbc915621bd8136fbU, 0xbcde2a203d26adb4U, 0xbd89c0183d229f46U,
  0xbd2e99cebd082bedU, 0x3d58fff2bccb3e7aU, 0xbdd305f63ca4ba2aU, 0xbdbfa1f33d2f35fcU,
  0xbd9a2a72bc99b32dU, 0xbced7508bd824b09U, 0x3d5af654bdaad23dU, 0x3cab362dbda6a8bdU,
  0x3ba14acdbc0c8ac8U, 0x3c0b4b0fbd08f90eU, 0xbd0f8088ba8fb200U, 0xbd6142d73d45be9fU,
  0x3cfc72743d7f8d80U, 0xbd901b443cc1b68cU, 0xbd3e04533d5db6eaU, 0x3d01c4223d81ac84U,
  0xbd03fae93cd99909U, 0x3bc3a6d13bee8c4cU, 0x3d8657cebcfb8a34U, 0xbd50d5363d880d48U,
  0x3c33c4403cee88b8U, 0xbd5697b6bc9ba1e5U, 0xbc51096d3d9298b8U, 0xbb87da10bca9c1edU,
  0xbc9aaf583ccf9e80U, 0x3d140e383c3a6210U, 0x3d92c9223cc3ca03U, 0xbcd2875abd6ec4beU,
  0x3d95a8d2bcc0733eU, 0x3cf67653bd308fabU, 0xbd5c6bd63caba0cbU, 0xbd9f0f02bcb4198aU,
  0x3d57c14d3d0e7dfdU, 0xbdb5e1213d3f9318U, 0xbda888733bb1370bU, 0xbdc1b1ddbcdc5fd3U,
  0xbd1f4cadbd4ea2a4U, 0x3d34c8a9bd60a4a7U, 0x3d4834723d04ba34U, 0xbd4852a23d42be67U,
  0xbdc79da63d7d7507U, 0x3d2886c9bd4d8ee1U, 0xbc90535abd91a43aU, 0x3cbbac64bb7975aeU,
  0xbd936da2bc004d10U, 0x3d30a7563ce9b340U, 0xbd96d31bbc924718U, 0xbc4308183cf2f518U,
  0x3c80a5f0bb527d6aU, 0xbd6f42963cc72cd3U, 0x3ca45b78bdbb6cc6U, 0xbcfc328abd2d7453U,
  0x3d060eaebd5239adU, 0x3c956b373cf7b6b1U, 0xbdab291dbb82cb90U, 0xbd4f4e30bd221da0U,
  0xbd66d69e3d1dfeb8U, 0x3b85db2c3d83711eU, 0x3d2fb3b43c87af9dU, 0xbd7afc893bc496b5U,
  0x3bb33e60bd7889c5U, 0xbda5cd663cb62614U, 0xbda210a4bd75f24aU, 0xbdd71de53d6787a8U,
  0x3b6e7ae7bda28ba6U, 0x3d1adf1b3d529b73U, 0xbd7dfd87bca4e54dU, 0xbd223f7e3d526797U,
  0xbd921c663d8638b3U, 0xbd685c45bd661936U, 0x3d32b4d43c81005eU, 0xbd5a85c3bd1f0a86U,
  0xbd93e969bce161dcU, 0xbba9a336bdc0c5aeU, 0xbd69c9bbbc4b40ccU, 0x3bec70b0bd898790U,
  0x3d3718c8baa4b600U, 0xbcc8fa68bcf67c72U, 0x3d8bef40bcd3594aU, 0xbd83b8d63c5c7640U,
  0x398d20003ca3b4f8U, 0x3ce0a649bc78c521U, 0x3b4036003c459c98U, 0x3d725db43d2264baU,
  0xbd7035e23d32e6dcU, 0xbcf8b6143a3d9bb1U, 0xbd8b3fd83c93008cU, 0xbd1619553cd9ae3fU,
  0x3cf1e760bd1eaedeU, 0xbcf11fd7bd2c7d23U, 0x3b826050bd2eb332U, 0xbd92b1cebc8676c7U,
  0x3d0d47b4bd7563beU, 0xbd268c683d8e80beU, 0xbd02d305bd40fc96U, 0xbde6473b3d582610U,
  0xbd0a622ebda0beecU, 0x3cadbcd8bd78c60bU, 0xbb9cfd903d01957dU, 0xbd940468bbce2ad9U,
  0x3be83d29bd76fbdaU, 0x3d3ef629bd90b34fU, 0xbda154363cf9b7caU, 0xbdb52446bd8492b8U,
  0x3d07a24d3d8fa716U, 0xbd6c9d74bdab6170U, 0xbd818f6ebd88236fU, 0x3cbdffd0bdc06ec8U,
  0x3d043f31bd295c40U, 0x3d82463abcff409eU, 0x3b088800bd424aedU, 0xbbf8bf503d3db990U,
  0x3d925c823d2d4809U, 0x3d8957a4bb4b74c6U, 0xbd1c4f04bd7ecec5U, 0x3cb63188bd13e33bU,
  0x3ca4bbe23c2b3406U, 0x3d18b8543d3e350aU, 0xbd66d2a4bd834277U, 0xbd4a4169bd8e42e9U,
  0xbc9775543d0eb924U, 0xbd0348e3bd82ba45U, 0x3c927d70bc7850b4U, 0xbd663167bd0a0a80U,
  0x3c5d2cb1bc15ab1fU, 0xbd7f3cec3d74f3f0U, 0x3a4259f3baf53ed4U, 0xbd8947bdbd264155U,
  0x3b9f5476bd00920aU, 0x3d4173d33c88d65eU, 0x3bb6c1873d7cf18dU, 0x3c8ea713bd8ec217U,
  0x3c9835f63d7ec9d9U, 0xbd091998bd8fd0d4U, 0xbcda22a8bc4ca15bU, 0xbc8cba3cbd990eedU,
  0xbd818573bd3c8c77U, 0x3c222caabd203e00U, 0xbd61b0db3cec23bfU, 0xbd549373bd6d530eU,
  0x3c11d2efbd018a33U, 0xbd8d184c3c7ef139U, 0x3d356e51bd338564U, 0xbda2b9a73d7fa5d1U,
  0xbcba265fbced890fU, 0x3cd18f5cbd4ed7feU, 0x3bbd8fd73b7fcaccU, 0xbd5a7b6d3c12f9a3U,
  0xbd23da28bd077ad9U, 0x3c118d9b3d226b78U, 0xbce187a93c9a5753U, 0xbd9f63033d4f6ce6U,
  0x3c8f76cd3d7aa6e8U, 0xbc515844bd7967c1U, 0xbc6db5f73d2c9024U, 0x3c2412e0bdc2ac02U,
  0x3d10c5363d1fd3a1U, 0xbdbb7f91bd9335ebU, 0x3c7525e5ba4d5421U, 0xbcf8618fbc1697ecU,
  0x3b8d1d1a3cede4c9U, 0x3c4d8a99bd531690U, 0xbce4086bbd20202cU, 0xbd2c2664bd64109eU,
  0x3cb0debf3c2aa300U, 0x3cd63af13d321c60U, 0xba8fe55fbc968b4cU, 0xbcbc1bbc3d77a01dU,
  0x3d8b23033d393c55U, 0xbcd3e362bd5b5dfeU, 0xbd80e6a4bd8587b9U, 0x3d6af914bd6df5d9U,
  0x3d518a8b3d1ad6d7U, 0xbcd6f8923d638912U, 0xbd5c24783d7a03e5U, 0x3ca4769c3d4724eaU,
  0x3d154fc9bd77f231U, 0x3c926ddd3d0f3ff4U, 0x3d00eef23ce5dc05U, 0x3b46c0803c219a14U,
  0xbc0ad6db3c436f69U, 0xbcc8ef51bcba7a67U, 0x3d833c583ce171fbU, 0xbd123c7a3d198896U,
  0x3cc50471bd8ba12aU, 0xbd739a7a3c3d9ad0U, 0x3c847c3ebd544e6bU, 0xbd36e894bc8d7e3dU,
  0xbb88ba7e3d9b0cf3U, 0xbac2784fbc8774f0U, 0xbc0b397abcfe7bc8U, 0xbdaafff63d1e6315U,
  0xbd98c75bbccc0c04U, 0x3d50bc4c3d17e2bbU, 0x3d1879f7bd9a054aU, 0xbc10a65ebaf2907bU,
  0xbd05a1fc3d54a22bU, 0xbcfe6b0dbd83d3d7U, 0x3cd02ff3bce93962U, 0xbd2c5004bc299a2aU,
  0xbce815753c18d8ddU, 0xbd0b01cd3d91efb3U, 0x3c9922f73d6ff50aU, 0x3d14d0e8bd87b781U,
  0xbcea7834bb10be32U, 0xbcbd67893d8700daU, 0xbcacfbdb3c6896f6U, 0x3c8b9f4abcb6f98cU,
  0x3d83e6dd3d7f770cU, 0xbd9133953d6a2bbcU, 0xbd35f35abd748785U, 0x3d1bc4c1bd254fb6U,
  0xbcc313e8bd8464b6U, 0x3d43e2883d504b66U, 0x3d560889bd4335dcU, 0x3c0cda87bd2e699bU,
  0xbc778c31bc89289eU, 0xbd9c123fbd0d48e9U, 0x3d8242783be3135fU, 0x3d2b00e6bcf2ac47U,
  0x3d76a1b0bc339787U, 0xbdd489adbd85c833U, 0xbd996b9d3d6b2105U, 0x3d03c0f23bdc3dffU,
  0xbd0b3c68bd54d7edU, 0xbd9c0aa43bba7439U, 0x3d5fcac4bd352c55U, 0x3d5dd684bd02cb4fU,
  0xbd5c74a63d43daadU, 0x3ca4e8e53c95f046U, 0x3ca631edbd8ee006U, 0x3d41c67bbd85af9dU,
  0xbd02e363bd29b12cU, 0xbcbac73c3cbe57d4U, 0xbcc4cfe03d639350U, 0xbd0250d13d3b2674U,
  0x3d2e61f1bc5c0c55U, 0x3d94872fbd32454eU, 0x3d2df656bd18e849U, 0x3d2636f2bd3b50eaU,
  0x3c601b2d3afcfd0cU, 0xbbeede8ebd001106U, 0x3d941c3c3d15d758U, 0xbd156c473d824e8fU,
  0xbd11ae05bdb25814U, 0x3d1ac91dbd714a73U, 0x3c49c7823d3bb01cU, 0xbd79a72fbd0d9d36U,
  0x3d8515b7bd22aee7U, 0xbd1d46633ce36998U, 0xbd0cbb4fbd7b6607U, 0xbc580dae3d3af755U,
  0xbc28b5f0bd3820ccU, 0xbd67a8f93d87af68U, 0x3cffc482bbc09d10U, 0xbce3ed4cbd0c61ebU,
  0xbc7a6e243c4af713U, 0x3d6ae0073d7ae995U, 0x3cc31a2fbd8537caU, 0xbcae24903d46faefU,
  0x3c0dc4b4bc72e20eU, 0xbafd341dbccdd1aeU, 0xbc5ccbb8bcc4ad9aU, 0x3ba533d0bc7d1948U,
  0x3d1b3b3f3d2c0bcbU, 0x3d494e543c0b065aU, 0x3cf321c9bd85ba6cU, 0x3d0d0d87bc5a62d3U,
  0x3d8136c83c8c0fcbU, 0xbd745a9dbca0fa96U, 0xbc8bbe91bd9b631cU, 0x3a956eba3d85a34eU,
  0x3d882c9bbd4bbc1dU, 0x3d1fc87e3d7a1852U, 0xbce3d10ebda982b2U, 0x3d954802bbb21673U,
  0xbd32459abdc4afbfU, 0x3be9d8203ce6d654U, 0x3d0f5524bd1010daU, 0x3c0a000fbd8be9f9U,
  0x3d18a53abdaefb9bU, 0xbd57d08c3c024c70U, 0xbc7f24cabda175eaU, 0xbd7bd092bd3582fbU,
  0xbd147c59bca76346U, 0x3c61d16b3d6bd47cU, 0x3d0040a8bd8c88a5U, 0xbc0738243d02669eU,
  0xbbc65ab33d394e13U, 0x3cb2722ebd07752bU, 0x3d15f51cbd9f58c7U, 0xbd81e08fbd9df31cU,
  0x3d711ac13d57cebbU, 0x3cac6cd63cca05eeU, 0x3d3272d5bb1d5ad4U, 0xbcbce32abd389dadU,
  0x3ce245a4bd965ac1U, 0xbd8c4397bd2460bdU, 0xbd8584bb3d02e806U, 0xbcaec318bdba2a92U,
  0xbd99f047bd8f5bf8U, 0x3d25d10abc203afbU, 0xbd4452d73d14338cU, 0xba0e0106bd888e39U,
  0x3960fb13bd80c066U, 0x3c82b7423cdc9344U, 0x3c278636bdb7c3efU, 0x3d6aa5c3bd2007a1U,
  0x3d28e9be3c392729U, 0x3c53414a3cb73009U, 0xbd8c5997bd3ac721U, 0x3c91fd8c3bd351f0U,
  0xbbf40608bce79eacU, 0x398dbd3d3c3584abU, 0x3d4122033cc2bf34U, 0xbd218c7fbd71991eU,
  0x3c28d394bd529bc1U, 0xbd900f6abd92fde0U, 0xbda21b483cf61e37U, 0xbd5234b83d918daeU,
  0x3d812703bd61ac4dU, 0xbc4a5725bd72677bU, 0xbdb76019bd8070adU, 0xbbb6eb4dbd834ce4U,
  0xbd734c0bbd80bcb8U, 0xbd8ce374bcb9b84bU, 0xbd1bd439bd10db60U, 0xbd75a13f3bf35396U,
  0x3ccdfa44bccc8767U, 0xbd95c3443c26017aU, 0x3c2a6dea3cf9fb48U, 0x3cefc630bdb24308U,
  0x3c4da899bd21f384U, 0x3d62dce13d8b9f4bU, 0x3b0efa76398bf464U, 0x3d3571f7bd4d7706U,
  0x3c2754ee3d03bbc3U, 0x3d915a6dbd7f020aU, 0xbb488e093d21a5b0U, 0x3d6c106dbceb1956U,
  0x3d69d546bd4cb17eU, 0x3cabf2febd8a89beU, 0x3d5415123d2cc208U, 0xbd2c286dbb2d9e8cU,
  0xbd5d0b39bd40f6ddU, 0xbd9f4556bceb35a7U, 0xbd6f8f9ebd848d36U, 0x3d890eeebc29e1f5U,
  0xbd2d1a543d1683e0U, 0xbdf08dc13ca58a9bU, 0xbd125f64bc2663d7U, 0xbb20bc533a79c19aU,
  0xbccb9829bd9c70fcU, 0xbcc4e4303d262666U, 0xbc5088db3d40f066U, 0x3b827d87bc906011U,
  0x3d28ec543c238eeaU, 0x3d66fc94bda1c310U, 0x3bb44f9ebcaa4145U, 0xbcadc133bccd7bf2U,
  0x3b60de3e3c988cc0U, 0x3d237581bb698638U, 0x3cd48468bc8346c3U, 0x3d9846d4bd87f355U,
  0x3c1f00583c24682dU, 0xbd63f0e5bc131c87U, 0xbd85d5aa3cf26147U, 0xbd90786ebd2d440cU,
  0xbcd428083cb03ed0U, 0x3c759762bd71ea2bU, 0xbc25f94c3d1aac38U, 0x3d88bc0b3cb7fdc1U,
  0xbd62b8cabd567275U, 0x3add89e63c47a078U, 0xbd34dc41bb11ef38U, 0xbda05a1abd8faa53U,
  0xbcbce10b3d6b33f2U, 0x3d5e5145bd375157U, 0xbd05f1f2bc8ceda7U, 0x3cbb8cc2bc481810U,
  0x3d6ba734bcdcf530U, 0xbd1f3cbdbcdb984aU, 0xbca9a4703d292b4dU, 0x3d1e2631bcd40ec5U,
  0x3d8692663d3205acU, 0xbd747a633bb583b9U, 0xbd8cf3b6bcd06ec5U, 0x3c79c3d43cd1f5bfU,
  0xbc3fc903bd85259dU, 0x3d34b459bd9baed5U, 0x3d0c5b16bda9fe9bU, 0x3d3d7401bd9a11b7U,
  0x3d2f9d853daec349U, 0x3d6efb703d3063cfU, 0xbcda68e03d066749U, 0xbd94e14bbd0357a1U,
  0x3ba6635d3d7d4d4cU, 0x3b98d988bd673aa3U, 0xbb34a2583b065771U, 0x3cc727763d3d0e84U,
  0x3d84d1a4bd998030U, 0x3d1f5de93ca589a3U, 0xbb7ac667bdaf7743U, 0x3d547e973d19f78fU,
  0x3cd91ef6bc1b4868U, 0x3d33dbdfbd266b8eU, 0x3d7ccdf0bd60f5a8U, 0xbda38d96bce93ddaU,
  0xbd830f30bd14cb34U, 0x3c5f5469bd6455b1U, 0x3d68be0239127352U, 0x3d5f0a203d6baa40U,
  0x3d787440bd3bd2fbU, 0xbc45251dbd05ec07U, 0x3ce6f881bd62a847U, 0xbd2cc7243a1cbcadU,
  0xbd3066a8bad05857U, 0xbd3e7d11bba233b9U, 0xbdc67dbd3d670bafU, 0xbbd3ad423cd42fe2U,
  0x3d17a7b2bd7bd6a1U, 0x3d39832dbd0fe782U, 0x3c866cfd3d155cf0U, 0xbc19dc98bd89c812U,
  0xbd81a81abd3802eaU, 0x3c1521883d912c66U, 0x3d1ef870bd8ca0b0U, 0xbd29f354bda89f0cU,
  0x3d7c5d94bc156344U, 0x3d54f985bc8edd30U, 0xb982a1703af5b6d1U, 0x3d60da7d3cf326f4U,
  0xbd75b6b13c3a981cU, 0x3ca7deccbd34fb0bU, 0xbd4d74edbcd0867aU, 0x3bcdfd29bc0615a9U,
  0x3d465d7d3ba15d29U, 0x3b4eda183d96b28bU, 0x3d7efdd6bd4b0a77U, 0xbcaf2fd23d2737cbU,
  0xbcab186fbd6e8122U, 0xbd25ed65bd62089eU, 0x3d923f4ebd9f1685U, 0xbd65ad61bd198d7fU,
  0xbc8ba9c63d58ece8U, 0xbdceed85bd09da41U, 0xbd1efaf43c40001bU, 0x3cde93993d218e43U,
  0xbbd4da29bda4c981U, 0xbc6a401cbd0144b3U, 0x3d09d8fcbd1bc2c8U, 0xbd292c063d267befU,
  0x3c0170c8bd391c62U, 0x3d6ce5cebd808e87U, 0xbd5e5d6bbd92f23cU, 0x3ce3b1693d7166aeU,
  0x3cd67cd5bc90b149U, 0x3c1df927bd4e9f2bU, 0xb98fe931bcb718ddU, 0xbc774c1d3ab8bf54U,
  0x3d3563883d6f2d3eU, 0x3cb516ddbd6cb272U, 0x3d67a7debd82d500U, 0xbda124a83d859ce7U,
  0xbd1a2297bc43313aU, 0xbd273ecabc7f5f2cU, 0xbd45c33bbbd5d2f2U, 0xba71147e3c8985f5U,
  0x3d8e508fbc51d3e1U, 0xbd963a36bd785533U, 0x3cb6dfe6bd0d22f0U, 0x3cb8f0bcbd870affU,
  0xbd7ff540bc83fe66U, 0xbccdf1edbc2a715aU, 0xbcb96c76bd6b2a10U, 0x3d3748a8bcbe53d8U,
  0xbc5ce8403c7b2de5U, 0x3cb8e7bc3bc2d58eU, 0xbc678355bd255078U, 0xbbe570a0bd0e85fcU,
  0x3d075a5c3d70e696U, 0x3d3863813cdeea9dU, 0xbd4461dcbd0f27f3U, 0x3c72ffe9bd6920bbU,
  0xbd8da93ebcae376cU, 0x3d69ae5cbd769d6aU, 0x3d63c8c33d13c7aaU, 0xbcee4efd3d44caeeU,
  0xbd9ecd573cd59c1cU, 0x3d3a2144bd93e95cU, 0xbd86c131bcda1f17U, 0x3c2e3f71bd88b49dU,
  0xbda04f5ebd75355dU, 0xbb97b5f13ba30c51U, 0x3d876734bd2754ceU, 0x3cb543ac3d00adf4U,
  0xbd59ee6fbda5c215U, 0xbd2522df3c8acbb4U, 0xbd6a9141bd14e03fU, 0x3c9bf716bd85230bU,
  0x3d62c323bd6e2493U, 0x3c8ec80fbd251cd8U, 0x3cb53ce43ca14780U, 0x3cd528733bfbd7a9U,
  0xbd3ec4fd3c7ea8d9U, 0x3c8d450dbcaa774cU, 0xbc6b14c13d8b00eeU, 0xbc14f0703d1c4840U,
  0x3d4dfc103c12c1fdU, 0x3c4e271e3d3aa56bU, 0xbd926a12bd343291U, 0xbd6a5e403b0247f8U,
  0x3c36f4a6bd9e2afeU, 0xbd242f8d3d4f61c7U, 0xbd59b4823d5c8a38U, 0xbd7931febb75efb3U,
  0xbd273a2bbaa5cf68U, 0x3d3d45efbc03c64dU, 0xbd654e95bcf3f099U, 0xbcfc0fafbd85870cU,
  0xbd98fcd43d024614U, 0x3c40ba953c820656U, 0xbd09cd1abd8cdd2bU, 0xbbacbad83d69c5cfU,
  0xbd9de8c83c923556U, 0x3d623c36bcdd4a03U, 0x3c74455b3d048094U, 0xbcbd45953d804743U,
  0xbccf8fddb76320c5U, 0x3c9c090bbd9842b9U, 0x3d7ae26ebd148cf3U, 0x3d4d87923d3d6c6aU,
  0xbd41e26cbca6686dU, 0x3c87fbdf3d944777U, 0x3d2eaedebd1bfb3dU, 0xbc95147038ab6365U,
  0x3d900009bd645176U, 0x3c72591cbc0b1084U, 0x3d3b3d36bcb24083U, 0x3cf3bf1a3d2b1891U,
  0x3d2380eabd32d29cU, 0x3a8cbedebcd7e245U, 0x3ceb229c3d8670b9U, 0xbdacdad43d4ebeb0U,
  0xbcf6a4b13bea5d69U, 0xbd88a269bd005fb8U, 0xbc54bece3c3fe002U, 0xbc687a27bcaf8b1bU,
  0x3d85bd553c5dd3d5U, 0x3b4627123d07df00U, 0x3d3d82933d0a166fU, 0x3d2078093d81d31bU,
  0x3d42a40a3ca8bb21U, 0xbccc4e273d538a4dU, 0xbb3587d6bd4e8ad5U, 0x3b0da0a0bca70f8eU,
  0x3c660d9f3bc2322bU, 0xbd0ed55c3d36ae7aU, 0xbd1a7fa53ca691c6U, 0xbc8a5139bd8df0c8U,
  0x3d9535c4bc81d0ebU, 0x3d3ebc303d505db5U, 0x3b5e64b73d39d015U, 0x3b81566c3ca26bbeU,
  0x3c1695623d16978dU, 0xbca824c23c2f91c9U, 0x3b5c854cbd7d4078U, 0x3d2d0c0d3cc0dd1fU,
  0xbd786c84bd85059bU, 0x3c146cb53a7ae900U, 0x3d5faaacbd0c404eU, 0x3d43f22b3bee266aU,
  0x3d933bdebcf95046U, 0xbd8ba241bd8099f7U, 0x3d0223fdbd234264U, 0xbbcfb5ff3cd12bf4U,
  0xbc99e491bc3db28aU, 0xbcd663b73c98bd03U, 0xbdae494cbc64448fU, 0xbd4841e9bd9ce073U,
  0xbd51165bbcd7701cU, 0xbd7186c0bd884fbeU, 0x3d9134343d7e7974U, 0xbd47f0bdbd9033adU,
  0x3d2fa459bd94e512U, 0xbd8b11d53d6bd9dfU, 0x3d2679f73c1f78cfU, 0x3cac6d873d33923eU,
  0x3ba37125bd70c4abU, 0x3d604de4bce6532eU, 0xbcdd49ebbcc88d26U, 0x3d73bb623cbfa7eaU,
  0xbd055fc2bc5a32ffU, 0xbd21c9633c6f1290U, 0x3b33bc65bd101ffeU, 0x3d231acd3d79cf48U,
  0x3d7717aabd8cf837U, 0xbdc790f93d8a8d6bU, 0x3d3849213a99b5c2U, 0xbce9e6c83c4b5d4dU,
  0xbc0062043d808b1cU, 0xbd1e00b93c45bee0U, 0x3cfa7255bd729cb5U, 0x3b8dcc9dbd685f07U,
  0x3bb3b7e0bd869fdeU, 0xbd88c0fc3c23f8c0U, 0xbda252473d53864aU, 0xbd38396dbb840aedU,
  0xbd6aa951bb639e05U, 0xbd9a0ea13d5c9bf1U, 0xbd9cd3493d05d0bfU, 0x3b56e1a6bd2fe582U,
  0x3d83eb153d05eb6aU, 0xbd8bcbe13d862737U, 0xbd85d788bda81aecU, 0x3cb362a13cd38cacU,
  0xbcb3fb94bd89ee91U, 0xbc6e18293c94b264U, 0xbd193608bcfcda2aU, 0xbd497e5c3ca5e2cdU,
  0x3cac337b3d8c5767U, 0x3d74928ebd7c6337U, 0xbc64ad63bd7bbb60U, 0x3cb790b8bd30add1U,
  0x3c273d703d07c4a5U, 0xbd06d77dbd6c771aU, 0xbd9d6950bcdbb18cU, 0x3d3f44ee3c429306U,
  0xbd00de3dbd2963e2U, 0xbbfad413bc7b9370U, 0xbc8da3f33c2112e0U, 0x3d4ebd0b3d562dc0U,
  0x3d44103dbd952d01U, 0xbd6513173d06c884U, 0x3d29628c3d2cd72dU, 0x3b141d20bd95535bU,
  0x3d440e62bd3ce04aU, 0xbd960f753cdd6c24U, 0xbd802a363ca8b85dU, 0xbdb2bebb3c619808U,
  0xbd8bc48f3d88cb3cU, 0xbd0806ff3cb538ceU, 0xbe025acf3d1d2f4fU, 0xbc0f9657bd020a01U,
  0xbd937b68bd71c008U, 0xbd1e26c0bd1db5a4U, 0x3d332743bcc2c500U, 0xbcd153f03b24b41fU,
  0xbcdae961bcca1113U, 0xbd4f8a683c260e1cU, 0xbd5e8ec53d958056U, 0xbccfb7aebd75b78cU,
  0xbbdc9d963cc8cd88U, 0xbd081937bcc6308aU, 0xbbc19b00bd8ca0d0U, 0x3cfdb407bcdd10ddU,
  0xbd6e5e88bd630395U, 0x3ca51dd1bd1f142fU, 0xbd53073dbb9457a0U, 0x3d0e1a5c3d3585d7U,
  0xbd9783d2bcd6f720U, 0x3acf0a943d113e12U, 0x3c7e5b5cb9638400U, 0x3d1d7116bcdf53b5U,
  0x3d758398bd85fa30U, 0xbd0c4428bbe419b0U, 0xbcb0a9423d663b7dU, 0xbac4bbc0bd7ff2b3U,
  0xbcdb03083d8b8a4eU, 0xbda85568bd16fd7bU, 0x3d276536bbd241dbU, 0xbc6770363b2d5ea0U,
  0x3d5d8a7cbab147cfU, 0xbcc68e613ccfbcd2U, 0xbd16068bbc15b126U, 0x3d5a52d93b6d4ed4U,
  0xbd1a44bdbd519035U, 0xbd71c55bbc6547e1U, 0xbd740504bd895b38U, 0xbd5dd8cebd9a7466U,
  0xbdf5e36fbcc2f752U, 0x3d1a80fa3bb465e8U, 0xbb001aa5bd3ef77dU, 0xbce1483abbd162c1U,
  0xbc57b7d3bd9342d8U, 0xbc92571cbd5425f1U, 0x3d7f4068ba10700eU, 0x3d2391dabd87ac3bU,
  0xbd643ddf3cf5ed01U, 0x3ca65033bd000ae6U, 0x3c8a72643d2d1dbaU, 0x3d882002bd7da6c0U,
  0x3d8752d43cf6b3dfU, 0xbd9704a63c8e7fb4U, 0x3c9df5e43b61dd80U, 0x3d7ba2173b2a8e3aU,
  0x3d403294bda3a669U, 0x3d086abc3b8e5410U, 0x3d82bccd3d1b795eU, 0xbae658c03c7555e6U,
  0xbd9368e7bd07614aU, 0xbd3fc3933d2f9002U, 0x3d89e088bd0b7444U, 0xbd9ef4a5bca103f2U,
  0xbd7b50e53d0c452bU, 0xbbd9e4e6bd9a1376U, 0xbd8120efbd02d6d8U, 0xbc9cd91d3bb11db8U,
  0x3d724d56bc1db6edU, 0x3d14b5293c5c47b6U, 0x3d8f62e6bd4a305cU, 0xbc6475343d26e5f7U,
  0xbda29ab0bd54e98fU, 0x3d1b5c89bd0ad331U, 0xbd5bc73b3cac05f2U, 0xbd7ed9f83d741d56U,
  0x3d550544bd28db5aU, 0xbd9592d83d583f0cU, 0xbd93eb433d85dda4U, 0xbd206590bcbd5029U,
  0xbd3a355abd52dd9bU, 0xbd1ede0bbce031caU, 0xbd3c4e723d4f22c4U, 0xbb4b70203d8abfb9U,
  0x3d9441383d0535c5U, 0x3d86b8593d535990U, 0x3bab8f613cd2c8ecU, 0xbd93f420bc8638cbU,
  0x3ceae518bc894e17U, 0xbcd510403d972e1cU, 0x3cef6d28bd5733cfU, 0x3d2e80c4bd8dd77fU,
  0xbd6ffe7c3ca936e4U, 0x3c065a0e3c76ee48U, 0xbda3743ebda452a2U, 0xbd7a26563d20f056U,
  0x3d81dc3dbd19ae08U, 0x3c04cdefbbce1d8bU, 0xbd7b723e3acd2ac8U, 0x3d1d549fbd718576U,
  0xbc0d68dd3c935fc0U, 0x3d016a4a3d16afcdU, 0xbc061f0a3d22b582U, 0x3d9769383b940796U,
  0x3c65053bbb8f3da1U, 0xbd908e693b4c3167U, 0xbc82fca03c3c487cU, 0xbd0bc24c3d9236e4U,
  0x3cd79c9abd7ba1b6U, 0xbd913a31bbf06ab0U, 0x3d37441abc114439U, 0xbcc49bec3d32399eU,
  0xbce4f2ec3cdc5c34U, 0x3d5188d4bd02875aU, 0xbd97c9bfbd65ffe5U, 0xbd5ebf043c741f27U,
  0xbc8b9190bca416c0U, 0x3d6877c33cc409a0U, 0xbd71d456bb98f650U, 0xbd8a73473d481f7dU,
  0xbcd35c2cba71b3ecU, 0xbd1041ce3d29e9f6U, 0x3d883dd7bd654466U, 0x3d712998bd7a407cU,
  0x3d27b89e3cb6dad8U, 0xbd462ef1bc75bff8U, 0x3c735b953d725143U, 0xbd41bd8a3d3a911eU,
  0xbce14f80bc9fe74aU, 0x3c8037e8bd8629e3U, 0xbc9abcfa3cb1816dU, 0xbcbf4a6f3d824455U,
  0xbd81db47bd8748fcU, 0xbc67ae173d62ca2dU, 0xbd862e813bfc0dc9U, 0xbd8086f93c7a317eU,
  0xbd5115ebbb9343c0U, 0xbbb7ef18bc2637c1U, 0xbcc64131bd80a5c4U, 0xbd146d973d11e218U,
  0x3d88fb71ba87d700U, 0xbc657b44bbd8af40U, 0xbbf448e03d018dd3U, 0x3d6236583d581aeeU,
  0x3d192890bcfb723cU, 0xbd922aa8bd7006cfU, 0xbd858cfb3d66131cU, 0xbbc870c0390578f2U,
  0xbd053895bd219b1cU, 0xbc625e58bd37f834U, 0x3d0027f2bd69c704U, 0x3d890006bba2a752U,
  0xbd624658bbaf231eU, 0xbcd70ca03c66c57fU, 0xbd338d97bc814d86U, 0xbd7bc26c3bb93126U,
  0x3d417faebd1a2eccU, 0xbd2fa41f3c8a5090U, 0xbd4265f4bd18efa6U, 0xbd6d57c6bcb8a608U,
  0x3d20b2b73d514172U, 0x3d0d26753d1cfb9aU, 0xbce2982d3c90856fU, 0x3b47154d3b6a8c4fU,
  0xbcdae86e3d12a3edU, 0x3d7e4516bd321ba6U, 0xbd126adc3d4ea1d2U, 0xbd7c50c3bd2b9b8cU,
  0xbddb26aabd907979U, 0x3d1915e93d97e517U, 0x3d23d513bb5bc1ccU, 0x3b8f91c03d810469U,
  0xbd629125bcc5b820U, 0x3d45e826bd608a2cU, 0x3cb28dfcbd9055feU, 0x3d6e72f4bd1865a3U,
  0x3d928c603c8e7ab1U, 0x3cc547363c93d94eU, 0x3cd8ac6c3d971ad2U, 0xbd82899f3d0e85a0U,
  0xbc2305b03c662432U, 0xbd04789abd4cd728U, 0x3cfb7dd6bd69f63aU, 0x3cbe1f4b3d04b2c8U,
  0x3d295804bbc44d6bU, 0xbd005962bd8f445fU, 0xbd274ee83bf7bc2dU, 0x3d86e7dcbd27aa2bU,
  0x3b804f70bc8bf32eU, 0x3befa0d6bcadd00cU, 0xbd111b813d10934fU, 0xbc4f5d4b3d7b78e4U,
  0xbd9011bdbb046b61U, 0x3cf101e9bd9b6567U, 0x3c4a51573c16f484U, 0x3d8907ee3c9fbfd7U,
  0xbd90b3a4bcb1389dU, 0xbcd02fd0bb899214U, 0x3bdf65b4bce6891bU, 0xbd83024b3d5a3498U,
  0xbd222297bdbcc051U, 0x3d358bf9bcae01a7U, 0x3c0c5f5dbd53f595U, 0xbd1b5c353beb28daU,
  0xbd8baf5ebb7d2580U, 0x3ca714143d3ae9baU, 0xbce4a4343d6951a4U, 0x3c802964bcf95ccaU,
  0x3b9824e0baa251a4U, 0xbd3d17c03d8a2085U, 0x3cfb9f0cbd93fc02U, 0x3829b000bd98127aU,
  0x3c4e33883c8b414dU, 0x3cfb3a4b3d09938aU, 0x3d5377d3bcaf6176U, 0xbd368d313d306511U,
  0x3d721dacbc7913cbU, 0xbbd203643d8728d2U, 0x3b8abd64bd0dacfbU, 0x3d4a14523c7bb4acU,
  0xbd21a29f3d1a4a7aU, 0xbdce20f9bd50e9b0U, 0x3d27bd21bd279376U, 0x3c19f1513ca7f230U,
  0x3cd80b833d7c3e69U, 0x3d12761e3ca7509cU, 0xbbc0ad80bc8256dfU, 0x3d02aef23d5db4b1U,
  0x3c8cf48d3d7ed9a0U, 0xbd23702e3d7046a9U, 0xbd701fb63c877225U, 0xbb146380bc5aa0b3U,
  0xbdb10804bdd98a62U, 0xbd1f2eddbd68164cU, 0x3d3078d63aa937d9U, 0xbd901ed43c0e8f16U,
  0xbd347c94bcf96724U, 0x3d3d3a803cfaddccU, 0x3d2d82c2bd451072U, 0x3c95ed9cbc50c9e8U,
  0x3c5e71e8bc8af63dU, 0xbd84a5293d1085beU, 0xbd8a6046bcd3b55cU, 0x3cc9c0503d0e94cbU,
  0xbbc59e603cee4821U, 0xbca7a3e33c8126bcU, 0x3d4304d63ca428dcU, 0x3cb6da01bd98b1c7U,
  0xbd95b99ebcdebffbU, 0xbae7c8aa3c6c3b88U, 0x3c82105ebd4edffaU, 0xbd0d1e99bd8456e5U,
  0x3d2acaa23c2ab8e0U, 0x3d0d1d08bd8b5e84U, 0x3cb41eb5bd3ca97aU, 0xbd593e663b884fc0U,
  0xbd935a033ca11e0bU, 0xbd948198bd334d37U, 0x3d17f81ebd926345U, 0xbda1b66fba39676dU,
  0xbd3598e33cfb286dU, 0xbd1af8abbda441a4U, 0xbcbd630cbd6692c8U, 0xbd8f5a22bc9d8010U,
  0xbb483185bcdbd726U, 0x3d866224bb0cb8ebU, 0xbce3c3613d846ff2U, 0x3b236dc0bcc0902cU,
  0xbda31bd5bcd9e16aU, 0x3c9a6b48bd70d4e0U, 0xbcbc2624bd2b2716U, 0x3d83e2603c86670cU,
  0xbd57d48ebd63bd2dU, 0x3d0cd026bccdbf41U, 0xbd21f67d3cd93ba0U, 0x3d92baa83c8f8775U,
  0xbd76625dbca30b17U, 0xbd0dc65f3c43e8d0U, 0xbd63b51c3d2ca2feU, 0xbc5063193d1d821bU,
  0xbd5fdc40bdc3b438U, 0x3d3ef4eb3bf8d9a0U, 0xbd53c0ac3c3d1364U, 0xbd15b5f43c8b855dU,
  0x3cc38f243d3248aaU, 0xbd8243dc3a81ef80U, 0x3d5bf5563c536d9cU, 0xbcf6707dbc265fc8U,
  0x3ccbee953cd3e9f1U, 0xbd04342abccb1a4aU, 0xbdb7aa213d77de9fU, 0xbc6d8eb6bbd4d2e3U,
  0x3da4fe2bbd9e0cfeU, 0xbd95245dbc54be66U, 0x3cfaed08bd8816ddU, 0x3d76ea603d78143aU,
  0xbdb25d0b3baa5e51U, 0xbb930f553bd90245U, 0xbce381013c8e765dU, 0x3cd68478bd77475aU,
  0xbd8815b1bcff0db6U, 0xbd0058b83d861f02U, 0xbd49a011bd7cc644U, 0xbd127ce03ce01259U,
  0x3d26eb243b372943U, 0x3c69624abd5c5347U, 0x3d52b2cfbd0f643bU, 0xbd2baab33d0d3035U,
  0xbc9c3bf0bd008d33U, 0xbd8a5e24bd02b4e8U, 0x3d2c14583d385cfaU, 0x3bd0c4debcf695efU,
  0xbbb48b10bd27999fU, 0x3c812cbd3d5ebb58U, 0xbd689f03bcdcb819U, 0x3c94ce1c3c87bfbfU,
  0xbd3cdc7c3b8ba270U, 0xbd923f3fbd097f44U, 0x3d4c4b53bd9c7d60U, 0xbd983c23b9b63d00U,
  0x3d190d26bc404ea6U, 0xbcb6ddc63d804372U, 0xbdbf5142bd5d4c53U, 0x3d46e084bc93a87bU,
  0xbd08b5803b7f1cb8U, 0x3c3e04e9bd3cb3d9U, 0x3d9d7c723cb40007U, 0xbd8c91db3c9c5e6cU,
  0xbd02f49fbdbb8e93U, 0xbd59a14abd6b9332U, 0xbd945574bd86834eU, 0x3d5d955c3cc3ab51U,
  0x3d84f6d93cf470ccU, 0xbd9118babd08d4a1U, 0xbd0b190e3c3d787fU, 0x3cc4cb4cba3130f9U,
  0x3d47988ebd96af5aU, 0xbd75b471bc50a1a2U, 0x3ce42595bd6a8c4aU, 0xbd5ce788bd820fe5U,
  0x3cbd6ec8bcfe74dcU, 0x3b3e02863d8e87b8U, 0x3c9d338fbd86b82bU, 0x3d093d34bd0911eaU,
  0x3d263ccabd424620U, 0xb975ae443d60b328U, 0xbd5f1fb33d662ffcU, 0x3d71fb6cbd751c14U,
  0x3bb25c00bd429fb4U, 0x3d09cc08bd93cad6U, 0x3cd7d26fbc22ec31U, 0xbdbcd699bd932ed3U,
  0x3d49397f3d202385U, 0xbd6527ba3c7307b9U, 0xbd2326d0bd2b96c3U, 0xbd9ff69c3ba14de3U,
  0x3ceafb52bd7ca45fU, 0x3d52294f3d80b6e4U, 0xbcae374bbd17671dU, 0xbd74e122bd15fc2eU,
  0xbdd96c07bcb31ce3U, 0xbd8ef0d3bd84d56eU, 0x3ac2805fbceded8eU, 0x3d21baf03d244339U,
  0xb9ba916ebd3770d3U, 0x3c6ec9b83ccf008cU, 0xbd876d303d7b23bfU, 0x3cae2248bd02a45dU,
  0x3d810f3a3d38e5abU, 0x3d431db6bd2bd63cU, 0x3d907328bd288c69U, 0xbbd168003c86f99dU,
  0x3d546184bd2c023cU, 0xbd895ea43ce973e4U, 0xbd48d5083d385e7aU, 0xbd9d2d45bd784c41U,
  0x3d65bba4bd28e7f9U, 0xbd7f414bbc1cc200U, 0x3cddb6983cc61addU, 0xbd86bd813d89c945U,
  0xbc1a11183d543114U, 0xbd992e8bbcf3d7beU, 0xbce14a9abd929c8eU, 0xbda37fa03c20f2e0U,
  0xbd11768fbd9dcb34U, 0x3d24e0c03d03a814U, 0xbd4ffe943d307d9fU, 0x3d3d1ffabd615f06U,
  0xbd367aeabd35e80cU, 0x3d00328cbbcef3a6U, 0xbb9959523b3a3893U, 0xbc4f3bbc3d309f67U,
  0xbd831b78bd0e84d3U, 0x3ced80c63d1155b6U, 0xbd6938603bfe1275U, 0xbd5a2dc2bd33f89bU,
  0xbd4ca72abd966058U, 0xbcd206cc3d896eb4U, 0x3d6530dc3d0acca5U, 0x3d4dcd8abd5eab99U,
  0x3d8e87f63d095f9bU, 0xbd1949a53d51d8efU, 0xbcfd586c3d0e57e8U, 0x3d7cba003c2881e9U,
  0xbd599eacbd28d668U, 0xbd369b74bce40fe8U, 0xbc906ca5bd3699dcU, 0xbb900aed3cf97518U,
  0x3d208c083d27b5e1U, 0x3d390c4c3d65d9e8U, 0xbd8bf6c1bd596ba0U, 0x3d0ccb3439e4bde7U,
  0xbc3cfc20bbf03db0U, 0xbcc8a6e33d3f18beU, 0x3d28cf2ebc3dc200U, 0xbda6e4dbbc1a7cb0U,
  0xbd3fa5b7bd28fe02U, 0x3d2516613d4cc4bdU, 0xbdcc0ea4bc701246U, 0x3d75cceebcd439b0U,
  0x3d6117b4bda08dabU, 0xbd5117ba3d439d63U, 0xbd74a3a03d6d6946U, 0x3c3ba6283b4e53adU,
  0xbd991e77bd206584U, 0x3aa3cca03c23246aU, 0xbd31da95bd2a637dU, 0xbbe0a5903d8f412aU,
  0xbd19a9f53d8a275aU, 0x3cc5bfd0bccb6992U, 0x3d4dcc0ebcaaa5dcU, 0x3d1a82103d384df4U,
  0xbd54e04dbd8a0330U, 0x3d90b85c3ce51d6bU, 0x3cc4735fbd945180U, 0x3cf7d2c0bc4595ffU,
  0xbc4b8e403d205911U, 0x3c8b4be93cc8c390U, 0x3d4425c0bd062d2eU, 0xbd8e6341bd265a2aU,
  0xbd05bf59bd29454eU, 0x3cb61f5c3d11a41eU, 0xbcefca4bbcdd3f56U, 0xbc1e94d0bbb1dafeU,
  0xbc95f5683d7a9d58U, 0xbd75262d3cc3a560U, 0x3d80fabbbabe853bU, 0x3c35580bbd4de93cU,
  0xbccaa4b03d5a6a1eU, 0x3c64e5f7bd6add90U, 0xbd7d3201bc8692a0U, 0xbd4e0d323c10be32U,
  0x3d4629c73d34b126U, 0x3d6c47a3bc9e3441U, 0xbc94b7f4bd70c0b6U, 0x3d4f63e4bd3a2cc8U,
  0x3d02b444bcdeaa8bU, 0xbd96f6de3d2872faU, 0xbd0b9cfcbd6de548U, 0x3d96fc2ebd3157cdU,
  0x3cbfd4093bff1210U, 0x3bd4e4603bbefc20U, 0xbb83ab40baa8f08cU, 0xbd7cbb7ebd8f4af6U,
  0x3d4e090ebd1c1eedU, 0x3d922232bcf25001U, 0xbd4d2f9f3c4b82c0U, 0x3b89b810bd8febb0U,
  0xbb985fb0bd7c251cU, 0xbcab88e1bd5922c4U, 0xbb88f0d9bc3a6d98U, 0xbd5ccb583d846f43U,
  0xbd3edee4bd80feaeU, 0xbce35c5d3d1c384eU, 0xbc4ca8893ce5dba8U, 0xbd4d399c3d80af32U,
  0xbcbc1752bd247aa4U, 0xbcff441dbca3c7c4U, 0xbd8bdb78bb180ce4U, 0xbdc3a957bce4cadcU,
  0x3c3813e0bd53a4b4U, 0x3d6559763c11f17aU, 0xbd10a42a3d80ad4cU, 0x3d3de7adbcc49defU,
  0x3d5cbf07bd800d38U, 0xbc3da98cbd0f6b07U, 0xbd8a9633bd41fff7U, 0x3c8f07f0bd699b8fU,
  0xbc574224bd4dcecdU, 0x3d13c32dbc6083f6U, 0xbc16f4f33b62799fU, 0xbd4572f23cacd138U,
  0xbcc2151bbcc1486aU, 0x3d2e95babd4725d7U, 0xbd1daf51bd752e4bU, 0xbd119b32bcbd3618U,
  0xbd72aa053d081d9aU, 0x3c254b4ebd15eeaaU, 0x3d281741bde3063dU, 0xbd5102003d896df0U,
  0xbd48ab8bbda36a55U, 0xbcb48ed3bcae50d6U, 0x3d130b68bd7a756eU, 0x3d40e8243d3e0177U,
  0xbd917836bd3309e0U, 0x3cb6865cbd98f783U, 0xbd99607c3d817175U, 0xbc9627423d452fbfU,
  0xbca6a772bddebbd5U, 0xbd81f0e7bd8e4b2fU, 0x3d3857d23ca9418aU, 0x3cba28743d5eaeeeU,
  0x3d8885393d2a720dU, 0x3d006c003cd1010cU, 0xbddc5a463d6a0ab3U, 0x3d076e2f3d534bc7U,
  0xbd7739d1bd926906U, 0x3c1d0b6bbd5c24aaU, 0xbd9e0587bd8f6da4U, 0xbd901a64bd98d1d6U,
  0xbd01129dbd5f9b9aU, 0xbc9f564d3d2c0805U, 0xb98c9b21bcb6f737U, 0xbde18ea63ca12f5dU,
  0xbc0bef2ebd5f5075U, 0x3d0c306fbca17d10U, 0xbb7cd9253d8f3feaU, 0xbcc47369bd7aae4fU,
  0xbcb2e54abd8af8a1U, 0x3ca9fa2f3d10ef5eU, 0x3c99e97a3d149879U, 0x3cd72613bc8df0f5U,
  0x3c223658bdb0d23dU, 0x3cd6b7263d9b15a4U, 0x3c9c97d5bb011163U, 0xbcca4924bd6fc769U,
  0x3c68d14b3c8c0b6bU, 0xb97cff853d6d6b64U, 0xbc8d19753d11aab4U, 0xbc976e593d4fc72eU,
  0xbc883d84bc863c40U, 0x3da9121cbd5e22b5U, 0x3d39266ebcb7452cU, 0xbdacc0a73d9ab9f9U,
  0x3cdb73a53d848446U, 0x3c7994e3bca5765cU, 0x3ba7e8f53cfdf115U, 0xbcd7af493d06909dU,
  0xbc186cdc3c14f897U, 0xbd0c3af4bda40642U, 0xbd245970bcc6da64U, 0xbd26beb13d4fef0cU,
  0xbd10b743bd3e2e29U, 0x3d62b665bcf1befeU, 0x3d28af2e3d5864a6U, 0xbd1988573cbbab20U,
  0x3d2e273cbad81917U, 0xbbab01b3bd6d7ed6U, 0x3c86e18abd941ca2U, 0x3c17b98f3cd39f7cU,
  0xbcad90e43d8352b2U, 0xbccc268a3c950ad2U, 0xbd526b5abc9b4e2eU, 0xbda725d53bdf5829U,
  0xbcc3ba18bd1b27c5U, 0xbcc6de773d6f6975U, 0x3d7bd7463c33c844U, 0x3d012aec3d4dbfd9U,
  0xbce95001bd8a54a9U, 0xbd9175b5bd49c892U, 0x3b26c73d3d90239eU, 0xbde61d3e3d7fb274U,
  0xbd766232bd530f55U, 0xbcec17a23e01c462U, 0xbce6470fbc458fb6U, 0xbd928aba3d1b48afU,
  0xbd16e6bfbd7db532U, 0xbda03975bd27f9b8U, 0x3bdff2dcbd6a8162U, 0xbd6baa33bcc9fa6cU,
  0xbc5f8635bc3269f1U, 0x3ce6cd70bd960c62U, 0xbd69db873d39cdb0U, 0xbd8eb7afbd96b86eU,
  0xbd14ca6bbce590c8U, 0xbd47bcb43c99d1dbU, 0x3d8d393ebcc506afU, 0x3c639fcc3bf2373eU,
  0x3d2b02c9bcf6855eU, 0xbdb6bc36bcf1157cU, 0xbd3507fa3d468326U, 0xbc9d44783d05f18aU,
  0x3c4a4d323d32b209U, 0xbd6f62a9bd949d68U, 0xbd7746103d02dfd5U, 0xbd89da29bcc15730U,
  0x3d8c00523c524908U, 0xbc0b817c3d42e840U, 0xbcb87f79bd67e958U, 0xbd2e6e773cd99099U,
  0x3d4ef546bd689d9eU, 0xbd8a20c8bc440b46U, 0xbd7a631f3d112219U, 0xbdaa93fbbc549c2cU,
  0xbd87c81dbaf232bbU, 0xbd595d07bd63e7b4U, 0xbd867a74bd5fc6eeU, 0x3cc880203cb6e61bU,
  0x3d5fea3dbd82d62eU, 0x3d513a3e3d319c38U, 0xbcd53e57bd6b7e3eU, 0x3d46418ebd8f3ab3U,
  0x3d260d70bcac96ddU, 0xbd86d4573d3e7fc9U, 0xbda0c588bce375c7U, 0xbd7666eebcb14079U,
  0xbb94b1a7bcfe0164U, 0x3d81b505bc517bb4U, 0xbd7c2c69bd61b26cU, 0x3d19b5213c80cc73U,
  0xbcbde3c5bcdc59cfU, 0xbd3cdf32bcf5d0e8U, 0x3c8c23e83cef74e8U, 0xbd7e49f13d9b01f2U,
  0xbd1040323d0b3846U, 0x3ba417fbbcdd0dc5U, 0x3d9412e83cc28477U, 0xbcb425b1bcb2f5ddU,
  0xbd399530bd6393eaU, 0xbd99647abdc5b765U, 0xbd963873bd1c1c0bU, 0x3c47d5a9bcc3e77aU,
  0xbc78f4cfbcdc31a7U, 0x3d4413a2bd9c0576U, 0xba93850dbd6aa036U, 0xbda90b7d3cda8e0aU,
  0xbdf779923c966ad0U, 0xbce42a67bdc9a72aU, 0x3d124f7fbc794ddbU, 0xbc572c0d3b66060fU,
  0x3d8165e83d04b9b5U, 0xbca37bff3ca09ba4U, 0xbda22ddbbcebfb36U, 0xbd62e239bce708c5U,
  0xbd09d1fcbd5a1464U, 0x3c736c433d60f075U, 0x3c87144a3d875dd0U, 0xbddccff4bc956484U,
  0xbc48d9e2bc4f828fU, 0x3ca416d3bd73feceU, 0x3d61e2ae3d46ac89U, 0xbc5a0c24bd7211e5U,
  0x3d662b7838aac77eU, 0xbdbf252e3af58c00U, 0x3ca0c78fbd964661U, 0x3bafe603bd844a33U,
  0xbde5a896bd81215bU, 0xbda7014e3d40db56U, 0x3d8607d73d197b51U, 0xbce25ccb3cac2425U,
  0x3d732d4dbc825eabU, 0xbd86376abd8bef8aU, 0xbcc5ac7ebda22530U, 0x3bd53d61bd024761U,
  0xbd8475d8bd14ff98U, 0xbd8ea18fbd83bcabU, 0x3d7460c43ce492d0U, 0xbe04b645bd17564aU,
  0xbe0f1363bd8eeedeU, 0xbd7f88c2bca3421fU, 0xbbb1505cbd61ae26U, 0xbb3d85e63d2cb13bU,
  0xbd992a94bd88820cU, 0xbcf085cfbd7cb9b9U, 0x3c7a7f17bd957fb7U, 0xbce198623d53f9f4U,
  0xbd5ba4cabb0e81ccU, 0xbd1c3eb33d00cb9cU, 0xbc41c0763d8964f1U, 0xbe0d644abd8c7fccU,
  0xbdcc95cfbcb5ee78U, 0x3d3d17bcbdac44afU, 0x3af9518e3d340f1dU, 0x3caf9237bbaeb870U,
  0x3d298586bcc63534U, 0xbd438bbabbcee580U, 0xbdc586ccbd674232U, 0x3cc897fbbd6602c5U,
  0xbd8972d73c943773U, 0xbd8a83073b2c94d8U, 0x3d86e4ecbbc77f90U, 0xbc7960ab3b8151e3U,
  0xbd52af4abbd7a545U, 0xbd388bc0bd72b6ceU, 0x3c9e6f553c84cb03U, 0x3db24a97bce679efU,
  0xbd6f722dbd95f39cU, 0x3c9a04fabb51c00cU, 0xbd1b73853ba56006U, 0xbd7b9022bd23812cU,
  0xbce901a5bd25b322U, 0xbdb1696abca05941U, 0xbb43db623d2728c6U, 0x3be6fb743d19ace6U,
  0x390e5a09bcf032a6U, 0x3c2a29ef3d1470b0U, 0xbd3026d53d58b0e9U, 0xbd7eb2acbd972736U,
  0xbc643e6a3d20fbdaU, 0x3c7c1325bd514981U, 0xbd8278df3d61a20cU, 0xbd6cb127bd947038U,
  0x3bbb2267bca67febU, 0x3d0974f1bdb7b6ecU, 0xbd7f1acfbd23406eU, 0x3db86634bd241fe4U,
  0xbc981adb3d4b32d6U, 0x3d647b893d931468U, 0xbdfd6da2bcb8465bU, 0x3d9184443c7df8aeU,
  0x3b0b642abd774a38U, 0x3c93c491bd4b6faaU, 0x3d22d523bd198ad9U, 0xbd72fe453d00145eU,
  0xbc5386b63d6c5db6U, 0x3d38955ebd683fffU, 0xbd68f52ebd1d5cc3U, 0x3d80a778bce99d93U,
  0x3d400745bcb29934U, 0x3d3257de3d2b7a24U, 0xbd5140743cc01549U, 0x3b34fd533d048eeeU,
  0xbdbb5086bdf6f238U, 0xbcac07b93d7f7fb2U, 0xbc5133e43d6321acU, 0xbd355dd7bb52f6e3U,
  0x3d024e65bcdb5b14U, 0xbd7f9dae3d48f908U, 0xbd5daf283bf77d35U, 0xbd7e6f22bda31d2eU,
  0xbd8b668cbd91be1fU, 0xbd8ea5e3bd73d554U, 0xbc9ba526bcde38edU, 0xbd670c84bbfc6820U,
  0x3cb58fb33d5fa39eU, 0xbd5777013bc0830eU, 0x3cb6a623bcf53070U, 0x3b95b8d6bcc79277U,
  0xbd4e00bbbd2608a5U, 0x3d5c38723d8f8474U, 0xbbd94ef23d11ecd1U, 0xbd5a2bb23d243b82U,
  0xbd3050463d705993U, 0xbd80f9853b6bacd1U, 0x3d3b2cb1bc8dbb35U, 0xbca8e187bd26881cU,
  0xbd54b0233cfe36acU, 0x3d63cbf9bd8e2c4eU, 0x3d5ccee8bde76819U, 0x3b688f183d5026aaU,
  0x3ce89c303b813b42U, 0x3d7586283d2ab1c9U, 0xbd38d995bb3a0249U, 0xbd55d896bd9a7cf4U,
  0x3d367c7cbd476435U, 0xbe5689eebcf88904U, 0x3cc4210bbd9d3516U, 0xbd2f9a5c3d95cdf8U,
  0x3d0960b33bdc2dc0U, 0x3cb76921bd56777bU, 0xbd988564bcee4e7dU, 0x3bf4d263bcc9ab6fU,
  0xbd17fe623cd493baU, 0xbd3cddc7bd98a498U, 0xbc8cc09abd0323f7U, 0x3c888e843d679f77U,
  0xbd0ec5fcbd789487U, 0xbd961746bdd3b92aU, 0xbd4f1bfbbb6458c5U, 0x3cb8f636bcc2128cU,
  0xbd01cc0e3c6d3a75U, 0xbd102d333d81e4d8U, 0xbde021f4bd95b412U, 0xbcfe87bfbd04d4ffU,
  0xbdffaf45bd023975U, 0xbd8859efbce63f9aU, 0xbb493cea3d2f52adU, 0xbd0456cabd338805U,
  0x3d4d3478bd9a2a04U, 0xbd8300f2bbf67592U, 0xbcf0c3babe13f39eU, 0xbbadc4903adbb9f4U,
  0xbc166434bd55560dU, 0x3c2769e9bce128dcU, 0xbc2ad145bc4acc1eU, 0xbdc33925bcbbef03U,
  0x3c8c67c1bc057babU, 0xbc52afa0bd73ebfbU, 0x3d05fbee3d439c44U, 0x3c8466ab3cbcba51U,
  0x3d21b60cbc9e73a5U, 0xbc3d5a5d3d106645U, 0xbd8371fbbd85a759U, 0x3aa47fbf3d53f5d7U,
  0xbdcc6fe4bca74946U, 0xbd60b98bbd3681c5U, 0x3bbb7aa2bd83283fU, 0xbdac92043bda9677U,
  0x3cc659e33c32f515U, 0x3d81fb81bda0d111U, 0xbcc5ce443d293ea6U, 0x3d9946ed3ceb15cbU,
  0x392dd330bc69477cU, 0xbc9ad3c9bd64a03bU, 0x3c1105a2bd065678U, 0x3c916967bd482a96U,
  0xbe355fb3bd5379f8U, 0x3c58efe93d441503U, 0xbd80c5733b58fd42U, 0xbe0ad5c7bd98f434U,
  0xbaf87443bd8d77baU, 0xbcabb1133c487a64U, 0x3d30155dbe28cd51U, 0x3d9aef2e3cf246ebU,
  0x3c9563633c90184eU, 0xbd22c9533cdfeea8U, 0xbda2e0033ac70976U, 0xbc800d59bcb6b80eU,
  0xbd860925bd770ef8U, 0x3d6e5dc1bc21db8bU, 0x3a3330fe3d1d982bU, 0x3cb3883cbd1c8078U,
  0xbb4e519bbcecdb85U, 0xbd850e4d3cf51210U, 0x3ca8e6bcbc8c89d8U, 0xbb976522bc5a5e60U,
  0xbdd0140fbd3d9151U, 0x39d806b83ba3e1b2U, 0xbd811985bd4f7c43U, 0xbdf504ecbd50627bU,
  0xbb302da9bd7b3701U, 0xbc3f9659bcb03550U, 0xbd867ef6bbc0f8beU, 0xbd4694af3ba02c56U,
  0x3c4cc7a4bd28dabcU, 0xbd3716673cf26508U, 0xbd01479bbd388ce1U, 0x3dc0b2783d165dd9U,
  0x3d31bd2f3d70e661U, 0xbcc0d30d3cc7b013U, 0x3ce1bf563d6d42a6U, 0xbb344d7cbd1ad7d8U,
  0x3d29cd143d4cc444U, 0x3d5b786fbdbd90b2U, 0x3b7040d9bd5cbe9eU, 0x3dee3da1bd1911c2U,
  0xbdb1b520bce5d597U, 0x3c7df299bd43a287U, 0x3d083bf53b8e20ddU, 0xbd0ff6e33d72e4cfU,
  0x3c724087bdd0382aU, 0x3cf65a933c9423cbU, 0x3cfa18963c11a7aeU, 0xbcf4d3df3d90e9c4U,
  0xbd55bab13bd4285fU, 0xbb816d62bbd938c6U, 0xbd3f863abc104e3eU, 0x3d625e903c5d9820U,
  0xbd1d734c3c161700U, 0x3d88a1b7bd8c38c9U, 0xbd13a7adbc6b4d8aU, 0x3c1e56a6bc451504U,
  0x3d1401e2bca2742dU, 0xbd2a6888bdafabebU, 0x3c55b8a2bbbeaea2U, 0xbd00b0773c748ecbU,
  0x3d4d845c3cff8c1aU, 0x3c077eb63d6a4448U, 0x3b993f993be41802U, 0x3c9ee44a3d8f80faU,
  0x3daf243bbd3ca79cU, 0xbd6b0e5b3d169eb7U, 0xbd95fc153d3f6a39U, 0x3d9fde403d86409dU,
  0xbc5cdb7dbc8f6ac4U, 0xbcde91353a8febabU, 0x3d0c582a3d37b63dU, 0x3de8a3b6bcbde7f4U,
  0xbd0047273ca1db80U, 0xbd0f0682bd865d73U, 0xbd0d49debc404921U, 0x3d35f788bd4fe5f3U,
  0xbd91ccd7bda49c7aU, 0x3b6f09f73d8886b4U, 0xbc43861f3c71b8f5U, 0xbcee97813c2e5924U,
  0x3c0b414c3b2cddb5U, 0xbda859613d85103cU, 0xbd1b60e83be34f72U, 0xbd8835adbccfe706U,
  0x3d4297903d701ed8U, 0xbc2fb2743d8043ecU, 0xbd753e01bd28b88bU, 0x3d811411bd3562dcU,
  0xbd8e6d07bd9bc462U, 0x3d88994b3b3b8391U, 0x3ccae400bddc62daU, 0x3d35d672bca531cfU,
  0x3ca1409c3da731d4U, 0x3d6942143d1350baU, 0x3d1ac9103c36b234U, 0x3d4c2269bd35f37cU,
  0x3cc1ea1c3d78c90cU, 0xbd412ed63c17addfU, 0x3cedc3d53d377cf7U, 0x3b446c513caecdeeU,
  0x3d36f8f53d58d282U, 0xbd7c11b73c879150U, 0x3c10f4393ccacc04U, 0x3d996b4a3d4704d5U,
  0xbd2d5af43d23c1b6U, 0xbce60864bd3ebb42U, 0xbd9b8639bbc3fe1fU, 0xbcf501c4bcf126aaU,
  0xbd91dc34bdbdef35U, 0x3d24363fbc0fdfb1U, 0xbcff923cbd24cd5bU, 0x3c9a65bdbd86615cU,
  0xbd6ed959ba931da7U, 0x3ce9f1e63d6c84ccU, 0xbbadb469bd0ad43cU, 0xbd9d2bf6bd343ee9U,
  0xbd3e2f323a48a1a2U, 0xbb494203bd3553c7U, 0xbd2c1868bc383a74U, 0x3c406b3a3d01d5daU,
  0xbdb3840ebd9b433bU, 0xbb94379abdbce1dcU, 0x3d4132383d7f2285U, 0x3cda78543cd035a6U,
  0xbcb49a8cbc830069U, 0x3d20b463bd927818U, 0x3d2af3183c83874fU, 0x3d1165ca3d2d2947U,
  0xbd4a01afbb27c0c7U, 0xbc85c8c1bd8c6d3dU, 0xbd6e8559bd1dc187U, 0xbcb9858dbd16260aU,
  0xbd9d6fd6bdd3dca6U, 0xbc0733cabd9ef738U, 0xbd86e35dba4cf173U, 0xbc91c5783d1e2b6fU,
  0xbd31a149bc96a37fU, 0xbd152a69bd95a06bU, 0xbd7a2ecc3d6010fbU, 0x3c83000dbd508353U,
  0xbd8b33dabd2c20d4U, 0xbde7e3ecbd82e835U, 0xbd94449dbce3b4ebU, 0xbc118d26bc1cb994U,
  0xbd865d3d3d76d2f7U, 0xbd60044fbd2da22aU, 0xbde3f96e3ca4abd9U, 0x3d2f4154bd91c33dU,
  0xbd016f173c663bdeU, 0x3cfbb645bd785b1fU, 0xbd095495bd85391cU, 0x3d01f5113cb30c86U,
  0xbdb3be313d157722U, 0x3d3708ddbcd9d300U, 0xbd7de2b93c229703U, 0x3c8f10ffbd9a1e4cU,
  0x3d0411173caab868U, 0x3d8607eebd953484U, 0xbbde72823d523031U, 0x3d17dd1b3d37284fU,
  0xbdf5d814bd4ae82bU, 0xbd26f76b3cfd6e4eU, 0xbd98cfd63d86284aU, 0x3c958c7e3d6fd8b9U,
  0x3cc9e2bdbe07f155U, 0xbc524e743cfa9328U, 0xbc9af7e63bda27a4U, 0x3c00132c3d866aceU,
  0x3cb30f3cbd8f94d8U, 0xbd511a74bcbdc447U, 0x3cc31628bced92c2U, 0x3bf6fc6ebdc3019cU,
  0xbc841df5bd39e9e3U, 0x3bca6e6dbc58e54dU, 0x3c74cfd53d82ec26U, 0xbdd8e5f93a22e27bU,
  0xbc7a193ebd823fb7U, 0xbd991dc83d061ba7U, 0xbdfb1dd7bd7c9cc7U, 0xbd1e58bc3d2f0060U,
  0xbd8d88d9bd8a8c30U, 0xbd53bb3b3d592cb3U, 0x3b4a9c27bd3b1b64U, 0xbd60e5c7bc449110U,
  0xbcd055efbce0298dU, 0x3c2e3a45bd825722U, 0x3cb2ccf0bc7b00f0U, 0xbd11ba993d1a4c92U,
  0xbcb0b915bdaadfe9U, 0xbbb99d563cddeb64U, 0x3cc58281bd7e39c7U, 0x3d17090cbbf819acU,
  0x3cf4d6f0bd670a8aU, 0xbda502f63cc2ef95U, 0xbc0a72e0bc71cd5cU, 0x3d932f42bd041d01U,
  0xbd3a177fbd59c727U, 0xbd2867f93d15065cU, 0xbd2b00a0bd9472dcU, 0xbc9e7f7b3bce6a6fU,
  0xbd44ab85bd4389c1U, 0xbc015510bc4d7975U, 0xbd973afebb81df2aU, 0x3d0bece23d472e4bU,
  0xbd24cdaebd6cdf32U, 0xbdb6dcb3bc14fba8U, 0x3cb3ff6d3d527abeU, 0xbd036377bd8dce3aU,
  0x3c6e6fa53b5a6938U, 0xbd888c7cbda88160U, 0x3d2da1693b88e876U, 0xbda2ed5dbd85b385U,
  0x3cd5e3ccbd49adb6U, 0x3c1376a8bd884b2bU, 0x3d277a32bbc8c204U, 0xbd30a9023d2a400dU,
  0x3d09cbe5bc819c83U, 0x3cbe9d663d39633fU, 0xbbfd846b3d112126U, 0x3d264562bd7cc301U,
  0x3bcc86ec3d846976U, 0x3bfe6ca0bd117d79U, 0x3d225d0ebc8cb13aU, 0x3d3744243d724a44U,
  0xbd19e389bd47ae8bU, 0x3d289da9bd24fd65U, 0xbcba3a7cbc813236U, 0x3c38a498bce8d76dU,
  0x3d59db24bcec1571U, 0xbd2a53633ceb8d5cU, 0x3d0e4ccabb5a0940U, 0xbcc660ddbb82ce76U,
  0xbc404758bc9b6e9aU, 0x3c2b08a33c76e9e3U, 0xbc5463703d7ffbf4U, 0xbcf6e93e3c08aa52U,
  0xbc2dcad8bba939b0U, 0x3ce7ae683d1ab56aU, 0x3d0473783cae126eU, 0x3d0e6a5bbd956de9U,
  0x3cf36d9ebd4fb781U, 0xbc451a06bd5c0e53U, 0xbd23f9ddbd893af1U, 0xbc54cc78bd694bcdU,
  0x3d261577bcc8fbbaU, 0x3bf640583d071e1dU, 0x3cae8c98bd6a9dbbU, 0x3cb9f7a8bd0315e2U,
  0xbb9f6263bc808d8dU, 0xbc8d60c4bc1e8f0fU, 0xbc647e87bd61c5c8U, 0xbd1b37d1bd97de2bU,
  0xbd93a364ba891140U, 0xbd3eb487bd43783aU, 0xbcb3943e3d11d998U, 0x3ce7b3cabd9826ecU,
  0xbcf5baf6bcef9711U, 0x3d1ce5d8bcf65f56U, 0xbd4d45663c9542b4U, 0xbd36bc68bda69e35U,
  0x3cc4225cbd9207fdU, 0xbd17b1e5bca63ddeU, 0x3d13b9623b580300U, 0x3d5c99c1bdab00d9U,
  0xbd541b78bd2188f4U, 0xbd9fb076bd58a18dU, 0x3cf418c1bbee3bd5U, 0x3c067dd0bd99c0bbU,
  0x3d3fae66bcf30e46U, 0xbc43ec85bd8d5827U, 0x3d72727cbd900500U, 0x3cae32ca3d3c5f8aU,
  0x3cef29953ccd8d78U, 0x3d4b5f673cec2095U, 0xbd6f77a8baea04c7U, 0xbc99ba173bf70ee8U,
  0xbd0aab283a6e0977U, 0xba35c88bbc1e41a9U, 0xbd8190d8bd9c56eaU, 0xbd5cb9d83d4ce860U,
  0xbc22ed87bd90f10bU, 0xbbf43b933c3a0edfU, 0xbccb1deebd03e0dcU, 0xbccbead23d509394U,
  0xbc1931373d498160U, 0xbd93be6dbbd524f0U, 0x3d6091dcbd92af45U, 0x3cff58fbbda333f7U,
  0x3c067d203d026780U, 0xbc9ecc3cbd952b73U, 0xbd7250d53d92a340U, 0x3cf566003d50f1c9U,
  0x3d455d1ebd274f75U, 0xbd9981933d26a42aU, 0xbd2a506a3d753330U, 0xbd89c735bce98f41U,
  0x3a2faf00bcab3888U, 0x3cca26f6bd2466b4U, 0x3b5001913d1ad851U, 0x3c03b1a03ce232b5U,
  0x3d8136f63d0a315cU, 0xbd7fb4cdbd7b7289U, 0xbbf3a94abcf9f7c4U, 0x3b9af4c6bd829cd8U,
  0x3c7a28073ce2b2f1U, 0xbd180b863c5065bdU, 0xbbd8706fbcf4b6cfU, 0x3d7f8523bd4bca23U,
  0xbd36802cb898ea00U, 0xbda5390bbd5e0d18U, 0x3d2646f43d6082cbU, 0x3d2cd20e3d6421d2U,
  0xbcfa017abd2356b9U, 0x3d2cf99ebd1b1e64U, 0x3cfcd94abbbdb4e2U, 0xbd37c9aebd62ebbeU,
  0xbd9b0e42bc112298U, 0x3d8a7e36bd72f9e4U, 0x3cc2c8b8bd8dbb13U, 0xbcd856c23bbeec92U,
  0x3b1596a03d4e18a9U, 0x3c2dd665bc074569U, 0xbd84f3e9bc1981b0U, 0x3d1cc86c3c0e50a4U,
  0x3d3325763cf9c00fU, 0x3d0a2b2d3d1323ecU, 0xbca0bac7bc965cf8U, 0xbd921aeebd154d0aU,
  0xbd44ee14bd86b5acU, 0xbd16944f3bb987d1U, 0xbd0adf8b3d7c4099U, 0xbd9281ac3d5d36bdU,
  0x3bf88080bd6b9143U, 0x3cef8b3c3c43ca00U, 0x3d373870bc9f7ca1U, 0xbcd37effbd0d7815U,
  0x3c898c69bcdca228U, 0x3cdd84ae3c1ee411U, 0xbd83031bbd79906aU, 0xbd4d0298bd7ff681U,
  0xbaa97a74bda4dca7U, 0x3d204f1dbd26cbd6U, 0xbd4061043d6991a2U, 0x3c06a6d03c8323fbU,
  0xbd04a64ebde3f5d8U, 0x3aac1724bd812720U, 0x3c575b10bd6abc21U, 0x3d13620cbd493f3eU,
  0x3d55d7a73c188310U, 0x3d2d943ebd843948U, 0xbca91d6cbd908bc4U, 0xbd17b5503b31c491U,
  0xbb8461f0bdab1d6aU, 0xbd165e023cebcb25U, 0x3d85d974bd4794d2U, 0xbd4b7204bd271933U,
  0x3d09b3903c8d57ffU, 0x3d6fafe2bd70eebdU, 0x3d1dd2e2bce5498cU, 0xbda2705bbccd71a3U,
  0x3d0d526ebd18f7f4U, 0xbd76f8f3bd04c3e4U, 0xbda6e8eb3d451175U, 0xbcb95666bd67b021U,
  0xbd315b59bd93d1b4U, 0x3ccdf970bc87ceb2U, 0xbc874968bd7d6f15U, 0xbccb9a0b3d4e6a5cU,
  0xbd8bed0bbd15245bU, 0x3d463fc03c92bd30U, 0x3c3ece89bd6a1f82U, 0xbd8d6c533d11bd1cU,
  0xbd67adef3d5f70e0U, 0xbd152b7e3bfb0b61U, 0x3d7eb6363d63c646U, 0xbd8d6532bca8d729U,
  0xbcca37e33ccba299U, 0x3cf6e5cb3caa4a81U, 0xbd8d94cdbd6783f4U, 0xbd953edebd82f7e0U,
  0x3d6eeff83cc12d74U, 0x3cc3a268bd68a8c6U, 0xbcd91e543d4726b9U, 0xbb9a54103d1015e1U,
  0xbd81889d3cc35843U, 0x3d272ddd3d073a24U, 0xbcc734e63d50c960U, 0x3d084b74bd6be7cbU,
  0xbbf631d03d3a2667U, 0x3d18edea3d8ac076U, 0xbd716d123d1d5990U, 0x3d32e7063d44e796U,
  0xbd8e1d5f3d20f975U, 0xbd0aff0f3bb9d861U, 0xbd4da107bd96a4a9U, 0xbce1fe2abd49516bU,
  0x3c0ff410bcb5d696U, 0xbcd0f2523cd8c3c4U, 0xbd938e72bb118bdaU, 0xbd1d3aebbd555d94U,
  0x3b803cedbda67061U, 0x3bebe8c0bd8fd250U, 0xbccd94913ca5bce2U, 0xbda0693bbd6a45b3U,
  0xbc86b92b3d458b41U, 0x3c822b0fbca463c2U, 0xba8dea2c3d009279U, 0x3d34ddb8bd5ce515U,
  0xbc4f355e3c989b07U, 0xbc5735253d880521U, 0x3d604bffbbacc159U, 0x3d4f446c3d037127U,
  0xbda7d7bdbd51a098U, 0x3d39ad903cdd06d0U, 0xbd6a80473c3882e1U, 0xbd172c823d6d5471U,
  0x3d79b1d0bd8086c6U, 0xbd38078b3d5932feU, 0xbd93e10d3d8d4fc0U, 0x3ce85c743d2c4d4cU,
  0x3c805f603d720870U, 0x3d3ba5d2bd626777U, 0xbd93169a3ce45e94U, 0xbd7fb001bd047f0bU,
  0x3d5e043cbd799ac1U, 0x3d0a7e94bc38764eU, 0xbd9a85993bc4e43fU, 0x3d86b3debc89a9e3U,
  0xbd7ca9303cc16470U, 0xbdb905aabd3160c5U, 0x3d1b4f70bcef319aU, 0xbd033ce0bc8f7c32U,
  0x3c8091f7bd3cb213U, 0xbcbdcdb53bc6d8bcU, 0xbd8a1608bcd534abU, 0x3d1f4d663d4cb608U,
  0xbc65b1cfbd6e3c12U, 0x3d3437d33b0b0138U, 0x3cdd0286bd94f9c8U, 0xbb20e0e03d58be9bU,
  0x3d1e9362bca4dbb6U, 0x3cbe60ab3c792442U, 0x3cea28013d892918U, 0xbd8536ddbb0a36afU,
  0x3c6b412b3cb343b4U, 0x3d0c7212bd4081e9U, 0x3d38c978bcdeba02U, 0xbd46dcbabd9cabe5U,
  0x3d526f8c3cff38f6U, 0x3d7d4a75bd51a246U, 0x3c9a69e0bd964296U, 0x3d254b643d07b671U,
  0x3d18b650bd3e0ed7U, 0xbd49f31bbcec0cf2U, 0xbcba2984bd1cf265U, 0x3d43f4edbd414b21U,
  0x3d8ee7de3d5dfe44U, 0x3d23da2abc060fa2U, 0x3d76230dbd10fe28U, 0x3bb808203ce0c36eU,
  0x3d3103ae3cceb464U, 0xbdc8a8d6bd964939U, 0x3d491d4fbc4d4524U, 0x3bbe0f003d5f8e9cU,
  0x3d7ca73ebd326c16U, 0xbb2737563ae5c5afU, 0xbd2f7721bc1ba6b9U, 0xbd8f645dbd541204U,
  0x3d2578b7bd17f9a4U, 0x3c010a683d168c16U, 0x3c4e30f3bc886f40U, 0x3d1b9ef83d3430b0U,
  0xbce380273c76d6daU, 0xbd1484c5bce5607cU, 0x3ccd9e68bca17259U, 0xbba6b750bcfe2f80U,
  0xbc815cb8bd35b73cU, 0x3d89719c3d75eb2cU, 0xbc6107cc3c6f5d87U, 0x3c4c5e90bd70015aU,
  0xbd3f1decbd4d818dU, 0xbc641d5a3c57fcdcU, 0x3cf04d63bc513254U, 0x3d26ba80bb8c61e7U,
  0x3d377154bd573009U, 0xbd27c92d3b98e350U, 0x3ca1e1873d6f9824U, 0x3bfd33afbd73facaU,
  0x3d4e2ad83d77748dU, 0xbc10bbc2bd483559U, 0x3cc27cc43c168421U, 0x3bfe9f90bda7f9bdU,
  0x3d25b4a23ce735f8U, 0xbc3139ec3cb5c38cU, 0x3d3209613d3b80f1U, 0x3c18f4e5bd973abdU,
  0x3bcc6aae3d808109U, 0xbd352185bcb3080cU, 0xbda6147c3d788e60U, 0xbd8c8495bd3bdaf5U,
  0x3cbb3c0cbd6145d9U, 0x39f8a551bd985cfcU, 0xbd19b5403c8c3e51U, 0xbd962593bd37d440U,
  0xbbbe04aabd0941e5U, 0x3d36ba01bc4b2399U, 0xbd94e198bd963031U, 0x3cf6b8603bd61d89U,
  0xbcd3ad643d81bec2U, 0x3d8737d2bb849c00U, 0xbd3b0ccdbd3b333fU, 0xbd5e019cbcb240bfU,
  0xbc5a46c83d59a7d0U, 0x3c4020e03d01d44eU, 0xbd6610bcbc29a910U, 0x3d1ab3a63c9e89ceU,
  0x3d2cbee4bd9ba4b3U, 0x3d6706dabd299753U, 0xbd911bd1bc3deae0U, 0x3d19555a3cbc1fa7U,
  0xbc368170bd908166U, 0x3bc9c8403d221e38U, 0xbd0a0df1bc958336U, 0x3c4c05f8bd501354U,
  0xbd831497bd972b7cU, 0xbcbcdf8a3a9d7900U, 0xbd0f577bbcedc0c6U, 0xbd987b4dbd319da5U,
  0xbcf33e1ebce11a14U, 0x3d63be533c919499U, 0x3cabc7573cdd755dU, 0x3d58acb3bc9f8369U,
  0xbc1a2865bca8d6b9U, 0xbcae38343d6ff2c3U, 0xbbb4da80bc5c3f03U, 0x3bf900603d169937U,
  0xbc9aaa48bcc16985U, 0x3d000c393d22381dU, 0x3d165b293d1876ddU, 0x3d45ace0bd13a4eaU,
  0xbd5ca356bba8be20U, 0xbc5579183ce069c8U, 0xbbb27f80bda94e3eU, 0xbd5a5572bc74c7eeU,
  0xbcafde263bd25953U, 0x3c0d9cafbd82a417U, 0xbd40f3663cc74bc4U, 0xbcb73aac3caecca0U,
  0xbd65ac683d1229d6U, 0x3cf9d956bbd18c20U, 0x3d0a48b2bd85b236U, 0xbd104974bcf5378bU,
  0xbd6d46d4bd83fce6U, 0xbcba604abd2b95beU, 0xbb00b461bd78db88U, 0xbd30ba72bcc50238U,
  0xbc2d0cf8bd872109U, 0x3ba6e83fbcf52e58U, 0x3cf80b053c63ab94U, 0x3cb628843d8ebc24U,
  0xbd664cabbd4c29c7U, 0x3d1d1352ba0f65f8U, 0xbd88768bbd4cb751U, 0x3d84c3f93cfa89a7U,
  0xbd8a2954bcea1147U, 0x3d6bdc6dbcf41871U, 0xbc150627bc872614U, 0x3d03ed10bce99b20U,
  0x3c3b6044bd48afa5U, 0x3d1fcd23bd091c50U, 0x3ce21401ba81d3dfU, 0xbc1f90303cc3560bU,
  0x3c133e27bd22b39fU, 0x3cd2f970bc44c7bcU, 0x3ce36f883ce39dd8U, 0x3d05f5dabcbad240U,
  0xbcb701acbd36b488U, 0xbd10b713bd886b1fU, 0xbd59ce7abd712f16U, 0xbc2693283d53acb8U,
  0xbc179548bd9783c7U, 0x3d165d4e3d1a2becU, 0xbd6bbe98bce5b37aU, 0xbdac86803c7bcbbbU,
  0x3d2cdbdc3cd69625U, 0x3d5436c93d0b3954U, 0xbd682a293d24481eU, 0x3c133248bd82c747U,
  0x3c8a10bc3d88ef92U, 0xbd6c4010bc8f456eU, 0x3d126cfbbcd7fdfbU, 0xbd41920bbce41566U,
  0x3d0b94b4bd4f341dU, 0x3d771a9e3d21e8e5U, 0x3cbd3e533c75f085U, 0xbc7aa99c3b1b3b89U,
  0xbd8998173d1dcd0fU, 0xbd9db284bcb76f8aU, 0x3d3ba225bc9d4972U, 0x3d01f5b8bc22105fU,
  0xbdacd5c8bd80b967U, 0xbca78854bc56d4f6U, 0x3c1b92223ccfe573U, 0x3c6693d0bcbe386fU,
  0xbd156009bce67d2cU, 0x3d1eee22bd4ab0cfU, 0x3cde71f4bda87177U, 0x3bea4670bd5e5a6cU,
  0x3b14a280bcab0ffeU, 0xbd2b5dadbd4e0677U, 0xbd630e62bc221a58U, 0x3b0abd40bc3219a5U,
  0x3b0a0f80bd87bea1U, 0xbc24f5b4bd186f0aU, 0xbda219ce3c6ada58U, 0x3b61f6edbd9d36eeU,
  0x3d5b73c43d170087U, 0xbd1bc631bd889261U, 0xbc8779393c461830U, 0xbc683c983cef1535U,
  0x3c80ca34bd5b7e8cU, 0xbd994b48bcce08a2U, 0x3d03b7aabc9ab2f5U, 0x3cbff2593b7e0ec0U,
  0xbd2db924bd68961eU, 0xbd00c6353d297f3cU, 0xbdb3fc68bc28ac48U, 0x3d177e183d25aa51U,
  0xbc76fd5cbcdb87eeU, 0x3cb29629bd1e56aaU, 0x3d192a40bcee3881U, 0x3d5480dc3d1faea3U,
  0xbd9d8a3bbd6b93f4U, 0xbd5e304fbd2192e2U, 0xba933ae03c4750c1U, 0xbd20d596bd3bfbcaU,
  0x3bc82cf9bc4a4cb4U, 0xbd82f532bd6ebf5eU, 0xbd8ca171bd4f7d81U, 0x3c03f520bd0ff775U,
  0xbc154578bc9663beU, 0xbd45cbf53a19ce24U, 0x3d88fd33bd680b23U, 0xbb2e4b00b9c2a77eU,
  0x3d97dec23bf4539eU, 0xbd50ecb1bcdfee94U, 0x3d4fd1a9bbf4efd0U, 0x3cddd7a03d4e7328U,
  0x3d935bd03cf7acc1U, 0x3d3386703d487f6fU, 0x3d558f9a3d256d68U, 0x3d25f6f2bd45c91cU,
  0xbd902fdd3d1a1424U, 0xbdaff758bd49a76bU, 0x3d4827c2bcf10a13U, 0xbc918dd93d62e7a8U,
  0xbb7e00573d29bc28U, 0x3cb2d305bbed5327U, 0xbd97032c3d825028U, 0xbd5a23a13c1a412fU,
  0x3c73ec953c36e3ccU, 0xbd8e4c583c9b746aU, 0x3ca13928baaf87a9U, 0x3cd3bfe0bd0d886aU,
  0x3cfc5b7c3a23d142U, 0x3d125048bb6667c0U, 0xbd424053bd6a05d0U, 0x3ce6d5bc3d8bf89eU,
  0xbcd68514bd0ac524U, 0xbbf19fc0bc236828U, 0xbcb74178bca3a97dU, 0x3ce04334bd984214U,
  0xbd97838dbd417f4eU, 0xbd8c99dfbd8052d4U, 0xbd94ff96bc884248U, 0x3d974360bd9a4fe0U,
  0xbd69fac23c4776caU, 0x3c9b585dbc70239cU, 0xbca320b63d00b40eU, 0xbd62e473bd7ba59cU,
  0x3d0769023d468ec3U, 0xbb2706ecbd4c43edU, 0x3c0d1a523c98e82bU, 0xbc9cd30ebd96488fU,
  0xbc7614b4bd4d9150U, 0x3d2a414d3d2fb134U, 0x3b4309ca3d2f5182U, 0xbdbd46533d694798U,
  0x3d60d3a7bd176c3dU, 0xbc1c0a223d08ac9eU, 0xbd2a25cebd9c3662U, 0xbd21744d3cb4d32bU,
  0x3d27ee983d2ed5b0U, 0xbd5f08463cfc77f0U, 0x3ce76266bd01864eU, 0x3d504204bd24036eU,
  0xbd4a80613d382b43U, 0xbd72298d3aa872f2U, 0x3c39b8b8bb2834f3U, 0x3d191ec2bd9ed5fdU,
  0xbd73177a3d4613c8U, 0x3d8402fc3d58c6f0U, 0xbc20b230bb9a0b1fU, 0x3d15adfc3d0685bfU,
  0x3d86da29bc31991eU, 0xbd986e6ab9f27874U, 0x3cc2972a3d085985U, 0x3cbb183d3c33a232U,
  0xbcb6b6edbd0857e0U, 0x3d6826d93a6f6ac0U, 0x3bb3150e3d053305U, 0xbd14d4fb3abc435dU,
  0x3d40c7efbcf81ae7U, 0x3c395f5b3d191104U, 0x3c49124dbd9b7750U, 0xbd85441ebbdbb381U,
  0x3d4e4d4d3cc96d8cU, 0xbd3527d4bd82b460U, 0xbcdab90fbd27c81bU, 0x3d3b74f4ba1681b5U,
  0xbcef4e25bc84ad88U, 0x3c144b24bc094ddcU, 0xbca9c43d3cded35dU, 0xbcfb3150bd64e10aU,
  0xbbdd47efbb952108U, 0xbd5e9cb0bd3421faU, 0xbdb2b5fabcc91f89U, 0x3d71a38c3d34f98eU,
  0xbb3a6ea4bd980d78U, 0x3ca05f953cf53842U, 0xbd1fc426bd32a04eU, 0x3d1a92ee3ce0aac6U,
